00000003
00000002
00000003
00000002
fffffffe
00000005
ffffffff
00000000
00000004
fffffffd
00000000
00000000
00000000
00000007
00000003
00000000
00000000
fffffffe
00000000
00000005
fffffffe
00000001
00000000
00000000
00000004
00000002
00000001
00000000
ffffffff
00000000
fffffffd
00000000
fffffffe
fffffffe
ffffffff
00000000
00000001
00000003
00000004
00000002
00000000
00000004
fffffffc
00000000
fffffffe
00000003
fffffff9
fffffffd
00000000
fffffff9
fffffffb
ffffffff
00000002
ffffffff
00000001
fffffff9
fffffff9
00000000
ffffffff
fffffffb
fffffffd
fffffffe
ffffffff
fffffff5
fffffff3
fffffff5
fffffffb
fffffffa
fffffffe
fffffff8
00000000
00000005
fffffffd
fffffffb
ffffffff
fffffffb
00000001
ffffffff
fffffff8
00000003
fffffffe
fffffffb
00000000
00000004
fffffffd
00000001
00000000
00000000
ffffffff
00000000
fffffffd
fffffffe
00000001
00000000
ffffffff
fffffffe
00000000
00000000
fffffffc
00000000
00000000
00000000
00000000
fffffffc
ffffffff
00000000
ffffffff
fffffff9
00000009
0000000a
00000000
00000007
00000003
00000000
00000000
fffffffa
fffffffa
fffffffb
fffffffd
00000000
fffffffe
00000000
fffffffc
ffffffff
00000005
00000003
fffffffc
fffffffa
fffffff7
00000000
00000000
fffffffd
00000002
ffffffff
fffffffd
00000001
00000006
00000003
00000000
00000007
00000002
00000000
00000007
00000003
ffffffff
00000004
00000003
00000002
fffffffb
00000000
00000005
00000003
00000003
00000001
fffffffe
00000001
fffffffe
fffffff9
fffffff7
fffffffe
fffffffa
fffffffc
ffffffff
fffffff9
fffffffa
00000000
ffffffff
fffffffe
fffffffd
fffffffe
fffffffe
fffffff9
00000001
00000000
fffffffc
fffffffd
00000000
fffffffe
00000001
00000003
00000002
ffffffff
00000002
00000004
00000000
fffffffe
00000001
fffffffb
fffffffe
fffffffe
00000000
ffffffff
fffffffc
00000000
00000001
fffffffb
00000003
00000000
00000008
00000005
00000000
00000002
ffffffff
fffffffd
00000001
00000001
ffffffff
00000004
00000006
00000004
00000003
fffffffe
fffffffd
00000000
fffffff6
fffffffe
fffffffc
fffffffe
fffffffa
00000000
fffffffc
00000000
00000001
ffffffff
00000006
ffffffff
fffffffe
fffffff5
00000001
00000005
00000000
00000005
00000007
00000002
ffffffff
ffffffff
00000002
00000001
00000005
00000002
00000000
00000001
00000002
fffffffd
fffffffd
00000001
fffffffd
fffffffc
fffffffe
fffffffc
00000000
00000001
00000005
00000003
fffffffc
00000005
00000003
ffffffff
fffffffe
00000002
00000003
fffffff9
00000000
00000000
00000000
00000003
00000003
00000005
00000002
00000000
fffffffd
00000006
00000001
00000001
00000009
00000000
00000000
00000004
00000000
00000000
00000001
00000000
00000000
00000002
00000002
fffffffe
fffffffe
00000000
ffffffff
fffffffa
fffffffd
00000001
fffffff9
00000001
00000000
fffffffe
ffffffff
00000000
fffffffd
ffffffff
00000000
00000000
00000001
00000000
00000000
00000001
00000003
00000006
00000001
ffffffff
fffffffa
fffffffd
fffffffe
fffffff9
fffffff9
fffffffe
00000002
00000006
fffffffe
00000000
00000001
fffffffd
00000000
00000000
fffffffb
fffffffe
00000000
fffffff9
fffffffc
00000001
fffffffd
fffffffc
00000000
fffffffb
ffffffff
00000001
ffffffff
ffffffff
ffffffff
fffffffe
00000002
fffffffc
00000005
fffffffe
ffffffff
00000002
fffffffa
00000000
00000001
00000001
00000003
00000003
fffffffe
00000001
fffffffb
fffffff8
fffffffe
fffffffd
fffffffe
fffffffe
00000000
00000001
fffffffc
00000002
00000005
00000000
00000006
ffffffff
00000004
fffffffc
fffffffd
fffffffc
fffffffe
00000004
00000002
ffffffff
00000006
00000001
fffffff9
fffffffe
00000001
00000000
00000007
00000006
00000003
0000000a
00000007
00000000
fffffffe
fffffffc
00000000
fffffffb
00000004
fffffffb
ffffffff
00000004
00000002
00000002
00000002
00000003
00000004
ffffffff
fffffffe
fffffffe
00000001
00000003
0000000c
fffffffd
00000007
00000005
fffffff9
00000000
fffffffb
fffffff8
fffffffe
00000002
00000003
fffffffe
00000001
00000000
ffffffff
ffffffff
00000004
ffffffff
ffffffff
fffffff7
00000000
00000004
fffffffe
fffffffd
ffffffff
00000004
fffffff9
00000003
fffffffe
00000000
00000002
fffffffe
00000003
00000003
00000000
00000004
00000003
ffffffff
00000004
fffffffb
fffffffd
00000005
00000000
fffffffd
00000001
ffffffff
fffffffa
00000003
00000002
00000001
00000003
00000003
00000002
00000002
fffffffd
fffffffb
00000001
fffffff4
00000000
fffffffe
fffffffc
00000000
00000000
00000005
00000007
fffffffc
00000004
00000001
fffffffd
fffffff9
fffffffc
ffffffff
00000000
fffffffe
ffffffff
fffffffe
00000000
fffffffc
00000000
00000000
00000000
fffffffc
ffffffff
00000000
fffffffe
00000003
00000000
00000003
00000007
fffffffb
00000000
00000000
00000000
00000003
00000003
fffffffe
00000003
00000001
00000009
00000001
00000000
00000009
fffffffa
fffffff9
00000003
fffffff9
00000000
00000000
00000004
fffffffe
00000002
fffffff9
fffffffc
fffffff8
fffffff5
fffffff9
00000000
fffffffa
ffffffff
00000001
00000003
00000003
00000002
00000008
00000007
fffffffe
00000004
00000000
00000000
00000000
00000003
00000000
00000003
00000007
fffffffe
00000000
00000000
00000000
ffffffff
00000003
00000001
fffffffe
00000001
00000000
00000002
fffffffc
00000004
00000004
00000000
00000005
00000000
00000002
fffffff7
00000002
00000008
00000000
00000002
00000003
fffffffe
fffffffe
00000000
00000004
00000004
00000003
00000005
0000000a
00000005
00000003
0000000a
00000001
00000000
00000004
00000001
00000002
ffffffff
00000002
00000002
00000000
fffffffe
fffffff8
fffffffc
fffffffc
fffffffd
00000003
00000007
00000000
00000005
00000004
00000000
ffffffff
00000000
00000000
00000000
00000001
00000001
fffffffb
fffffffd
0000000a
00000000
fffffffd
00000005
fffffffd
00000000
00000001
fffffffb
00000001
00000004
00000000
00000000
00000000
00000000
00000002
fffffffc
ffffffff
fffffffe
00000004
ffffffff
00000000
00000000
00000000
00000001
00000000
00000003
00000001
00000002
00000003
fffffffc
00000001
00000004
00000000
00000001
00000000
fffffffb
fffffffe
00000002
00000003
00000003
00000002
00000001
00000002
00000002
fffffffc
00000004
00000003
00000005
00000000
ffffffff
00000000
00000000
00000004
00000003
fffffffe
fffffffa
fffffffd
00000000
00000000
00000002
00000000
00000000
ffffffff
00000005
fffffffa
fffffff9
00000004
fffffffb
fffffffd
00000000
00000002
00000000
fffffffc
00000001
00000002
00000005
00000007
00000000
00000004
00000003
00000000
00000009
00000007
00000002
ffffffff
fffffffe
fffffffe
ffffffff
00000000
00000001
00000000
fffffffa
fffffff3
ffffffff
fffffffa
fffffffe
ffffffff
fffffffc
00000001
00000000
ffffffff
00000000
fffffffd
ffffffff
fffffffc
fffffffb
ffffffff
fffffffb
00000000
00000001
00000005
fffffffc
00000001
00000004
fffffffa
00000002
00000002
fffffffe
fffffffd
00000000
fffffffc
fffffff5
00000000
fffffffa
fffffff9
fffffffc
00000000
fffffffb
ffffffff
ffffffff
00000000
00000001
00000000
ffffffff
00000002
ffffffff
00000002
00000001
ffffffff
00000000
00000001
fffffffe
00000000
fffffffe
00000001
0000000b
00000001
fffffffc
fffffffb
fffffffd
fffffffe
fffffffc
fffffffe
fffffffc
fffffffc
00000002
00000000
00000005
00000004
00000001
ffffffff
00000000
00000005
00000001
00000000
00000005
00000000
00000000
00000001
ffffffff
00000002
00000003
ffffffff
fffffffb
fffffffd
00000000
ffffffff
00000000
ffffffff
ffffffff
fffffffe
00000005
fffffffb
00000000
00000002
00000000
fffffffd
fffffffa
00000005
00000001
ffffffff
fffffff7
00000004
00000000
fffffff9
fffffffb
00000000
fffffffe
00000002
00000000
fffffffd
00000000
00000003
00000001
00000000
00000003
00000002
00000000
00000003
00000001
00000000
fffffffc
fffffffd
00000000
00000000
fffffffb
ffffffff
00000000
00000000
00000002
00000000
ffffffff
00000000
00000000
fffffffe
00000004
fffffffe
fffffffe
fffffffe
fffffffb
00000000
ffffffff
00000001
ffffffff
fffffffb
fffffffc
00000001
fffffffd
00000000
00000000
fffffffd
ffffffff
00000002
00000000
fffffffc
fffffff8
ffffffff
00000000
fffffffd
00000000
fffffffe
00000002
00000001
00000005
00000006
00000002
00000008
00000004
00000002
00000008
00000004
fffffffe
00000000
00000004
fffffffa
00000002
00000003
fffffffc
ffffffff
00000000
fffffffb
00000000
00000002
fffffffe
00000000
00000000
fffffffb
fffffffb
fffffffe
fffffffc
fffffffb
00000001
fffffff7
ffffffff
00000002
ffffffff
fffffffe
00000000
00000001
fffffff8
fffffffc
00000003
fffffffd
fffffffc
00000000
fffffffe
ffffffff
00000000
00000000
00000003
00000000
00000002
00000000
fffffffe
fffffffa
fffffffd
0000000b
0000000e
ffffffff
0000000c
00000008
fffffffb
0000000f
00000005
ffffffff
00000005
fffffffc
ffffffff
00000001
00000001
fffffffe
fffffffe
00000003
ffffffff
00000000
ffffffff
fffffffd
fffffffb
00000000
fffffffd
fffffffe
ffffffff
fffffffc
fffffffc
ffffffff
00000001
fffffffb
fffffffb
00000000
fffffffd
fffffffe
fffffffb
fffffff7
fffffff8
fffffffd
fffffffb
ffffffff
00000000
ffffffff
00000000
00000004
fffffff8
fffffff9
ffffffff
ffffffff
00000006
00000006
00000000
0000000a
00000005
fffffff5
ffffffff
0000000b
fffffffd
00000000
0000000d
fffffffe
00000001
00000007
ffffffff
fffffff8
fffffffb
00000000
fffffffa
fffffffd
00000001
fffffffd
00000001
00000005
00000005
00000004
00000004
ffffffff
00000001
00000000
ffffffff
00000001
ffffffff
00000004
00000002
00000000
ffffffff
00000000
fffffffd
fffffffd
00000004
00000006
00000000
00000002
00000002
00000003
00000000
00000000
00000000
ffffffff
00000002
00000002
00000000
ffffffff
fffffffa
fffffffc
fffffff9
fffffffe
ffffffff
00000002
00000000
00000001
00000002
00000002
00000000
00000001
00000000
00000000
00000000
00000002
00000000
ffffffff
00000007
00000001
fffffffc
fffffffd
00000000
fffffffc
fffffffc
00000001
fffffffe
00000000
00000004
00000000
00000000
00000000
00000006
00000000
00000004
00000002
ffffffff
00000003
ffffffff
00000000
fffffffe
00000003
00000005
fffffffd
00000000
00000000
fffffffb
00000000
fffffffa
fffffffb
00000000
ffffffff
00000000
fffffffe
00000000
00000005
00000001
00000000
00000000
00000002
0000000c
00000008
00000004
00000007
00000002
00000003
ffffffff
00000001
ffffffff
fffffffe
00000001
fffffffd
00000000
fffffffd
fffffffe
ffffffff
fffffffe
00000006
00000004
00000003
00000006
00000000
fffffffc
00000004
fffffffe
fffffffd
00000000
00000007
0000000b
00000002
00000006
00000003
fffffffd
00000000
fffffffb
00000005
00000000
fffffffb
00000000
00000000
fffffffc
00000002
00000000
00000000
00000000
00000003
fffffffe
00000002
00000000
fffffffe
00000000
00000002
00000000
00000004
00000008
00000003
00000000
00000000
ffffffff
00000001
fffffffb
fffffffd
fffffffa
fffffffd
00000004
00000001
fffffffd
00000001
00000000
00000003
00000001
00000003
fffffffc
fffffffe
00000000
ffffffff
ffffffff
00000001
fffffffd
fffffffc
00000000
fffffffe
ffffffff
00000002
ffffffff
00000000
00000000
00000002
00000003
00000000
fffffffc
00000000
ffffffff
00000000
00000000
00000000
fffffffe
00000000
00000000
ffffffff
00000000
00000001
00000001
00000000
00000000
00000000
00000000
ffffffff
00000000
ffffffff
00000000
00000001
00000000
00000002
00000003
00000000
00000000
fffffffe
00000001
00000001
00000007
00000006
00000000
fffffffe
00000002
fffffffc
fffffffb
00000000
fffffff8
fffffffc
ffffffff
fffffffc
fffffffe
00000000
00000003
ffffffff
00000000
0000000b
00000000
fffffff6
0000000c
00000002
fffffff9
00000003
00000000
00000000
00000000
ffffffff
00000000
fffffffe
ffffffff
ffffffff
00000000
fffffffd
00000000
ffffffff
00000000
ffffffff
fffffffd
fffffffc
00000000
00000000
fffffffe
00000000
00000001
00000003
00000001
00000004
00000000
fffffffe
ffffffff
00000002
00000001
fffffffd
00000000
00000000
fffffffc
00000000
00000000
ffffffff
00000000
00000000
00000000
ffffffff
00000003
fffffffe
ffffffff
00000002
00000001
00000002
00000000
00000001
00000000
00000001
00000001
00000006
00000000
ffffffff
ffffffff
00000003
00000000
00000000
00000000
00000000
00000003
fffffffd
fffffff8
00000003
00000001
fffffffa
00000000
00000005
fffffff9
fffffffd
00000000
00000000
fffffffe
00000000
00000001
00000000
00000001
fffffffb
fffffff7
ffffffff
00000000
00000000
00000003
00000000
00000000
00000003
00000000
00000002
00000001
00000003
00000000
00000000
00000002
00000002
00000004
00000000
00000000
00000005
fffffffe
00000004
00000000
fffffff5
00000000
00000000
fffffffc
00000000
00000002
00000001
00000004
00000000
00000000
ffffffff
00000001
00000001
00000003
00000000
00000001
00000000
00000000
00000003
00000002
ffffffff
00000000
00000003
ffffffff
00000000
00000000
ffffffff
00000000
00000002
00000000
ffffffff
fffffffe
00000000
fffffffc
fffffffb
fffffffe
fffffffc
fffffff9
00000000
fffffffe
00000001
00000002
00000001
00000002
00000000
00000001
00000000
00000002
00000001
00000004
00000007
00000000
00000000
00000000
00000001
ffffffff
00000000
fffffffc
fffffffb
fffffffe
ffffffff
ffffffff
fffffffd
00000002
00000002
fffffffb
fffffff9
fffffff4
fffffffa
ffffffff
00000001
ffffffff
fffffffd
00000002
00000002
00000000
fffffffe
00000000
fffffffa
00000000
00000000
fffffffb
00000002
00000002
00000002
00000005
00000001
fffffffb
00000003
00000000
fffffff9
00000001
fffffffe
00000000
00000003
00000002
fffffffb
fffffffd
00000002
fffffff8
00000002
00000002
ffffffff
ffffffff
00000001
00000000
fffffffb
ffffffff
00000005
fffffffa
fffffffc
00000000
00000000
00000000
00000000
00000000
00000002
00000000
ffffffff
00000002
00000000
ffffffff
00000002
00000000
00000000
00000001
ffffffff
fffffffd
00000006
fffffffc
fffffffa
ffffffff
00000004
00000002
00000001
00000002
00000000
00000000
00000005
00000001
00000000
00000004
00000001
00000000
00000004
fffffffd
00000000
00000001
00000000
ffffffff
00000001
fffffffc
00000000
00000002
fffffffe
00000002
00000001
00000000
00000000
00000000
00000001
00000000
fffffff9
fffffffa
00000005
fffffffa
fffffff4
00000001
00000001
fffffffe
fffffffe
00000000
00000000
00000000
00000001
ffffffff
00000000
00000000
00000000
00000003
fffffffd
00000000
00000005
00000001
00000001
00000006
00000001
fffffff9
fffffffe
fffffffe
fffffffc
ffffffff
fffffffd
00000000
00000001
00000000
ffffffff
fffffffd
00000001
00000000
00000000
00000000
ffffffff
00000001
00000000
00000000
00000000
ffffffff
fffffffb
00000000
fffffffb
ffffffff
00000000
ffffffff
fffffffc
fffffffd
ffffffff
00000000
00000000
00000000
00000000
00000000
00000000
00000002
00000002
00000002
00000003
00000004
00000002
00000003
00000004
00000000
ffffffff
fffffffe
ffffffff
fffffffe
00000000
00000000
00000002
fffffffd
00000005
00000003
00000000
00000001
00000000
fffffffa
ffffffff
00000007
fffffffb
00000001
00000001
fffffffd
00000000
fffffffc
ffffffff
00000002
ffffffff
00000001
00000000
fffffffc
ffffffff
fffffffc
00000000
ffffffff
fffffffe
fffffffe
ffffffff
00000000
00000002
00000000
00000000
00000004
00000000
fffffffb
00000002
00000000
00000000
00000001
00000000
ffffffff
00000000
ffffffff
00000000
00000000
fffffffd
00000000
fffffffe
ffffffff
00000000
00000004
00000001
ffffffff
00000002
ffffffff
00000001
00000000
fffffffe
00000002
00000002
00000000
00000001
00000000
00000000
00000005
fffffffe
ffffffff
00000000
00000000
00000000
00000001
00000000
00000000
ffffffff
00000003
00000002
00000001
00000001
fffffffc
00000000
ffffffff
fffffffe
00000003
00000000
ffffffff
00000003
00000005
00000001
00000000
00000000
ffffffff
fffffffc
ffffffff
00000007
00000000
00000002
00000007
ffffffff
00000002
00000002
00000001
00000003
00000000
fffffffc
ffffffff
00000003
00000000
00000003
00000000
00000001
00000004
00000000
fffffffd
00000002
ffffffff
00000003
00000004
fffffffd
00000000
00000000
00000001
00000000
fffffffe
00000000
00000000
fffffffd
00000001
00000000
fffffffd
fffffffe
fffffffd
00000003
00000008
fffffffd
00000003
00000003
00000001
00000001
ffffffff
00000000
00000003
00000004
ffffffff
00000001
00000005
fffffff3
00000000
00000002
ffffffec
00000001
00000004
fffffff7
ffffffff
fffffffe
00000001
fffffffb
00000000
00000005
ffffffff
00000001
00000001
fffffffc
ffffffff
ffffffff
ffffffff
00000000
fffffffe
ffffffff
fffffffe
fffffffe
00000000
fffffffd
00000000
00000003
fffffffe
00000001
fffffffd
00000000
00000001
00000000
ffffffff
00000001
fffffffc
ffffffff
ffffffff
fffffffc
00000001
ffffffff
fffffffe
00000000
ffffffff
fffffffe
00000000
00000000
00000001
00000000
ffffffff
00000001
ffffffff
00000000
00000000
00000000
00000001
00000004
00000000
00000005
00000000
00000000
00000001
00000001
00000000
fffffffc
00000000
00000001
00000000
00000000
00000001
00000003
00000000
00000000
00000007
00000000
ffffffff
00000005
00000000
00000000
fffffffa
00000005
fffffffe
fffffffb
00000006
00000006
fffffff4
fffffffb
00000003
00000001
fffffffc
ffffffff
00000005
fffffffd
00000000
00000001
fffffffe
ffffffff
00000003
00000002
00000000
00000002
00000000
fffffffe
00000003
00000002
00000000
00000001
00000000
fffffffc
00000001
00000003
fffffffe
ffffffff
00000000
fffffffa
fffffff8
00000002
00000001
fffffff1
00000003
00000000
fffffff8
00000000
fffffffe
00000002
ffffffff
00000001
00000003
00000000
00000000
fffffffb
fffffffd
ffffffff
00000002
00000001
00000000
fffffffe
fffffffe
fffffffd
ffffffff
fffffffe
ffffffff
00000001
ffffffff
00000002
fffffffa
00000001
00000001
00000000
00000005
00000000
00000003
ffffffff
fffffffe
00000003
00000000
fffffffc
00000003
00000006
fffffffc
fffffff8
00000000
00000001
fffffff3
00000002
00000001
fffffffc
ffffffff
00000004
00000000
00000000
00000005
fffffffa
fffffffe
00000003
fffffff9
fffffffc
00000005
00000000
fffffffc
fffffffe
00000001
00000000
00000001
00000003
fffffffd
00000003
00000002
00000001
00000003
00000001
00000002
00000004
00000000
00000002
00000003
00000008
00000005
00000000
00000005
00000002
fffffffc
0000000b
00000003
00000001
00000002
00000002
00000000
00000003
00000002
00000000
00000002
00000002
fffffffc
00000002
ffffffff
00000000
00000005
00000001
fffffffe
00000002
fffffffd
00000000
fffffff9
00000000
fffffffd
fffffffa
00000000
00000001
fffffff9
fffffffb
fffffffb
00000000
00000000
fffffffd
00000002
00000000
fffffffe
00000001
fffffffc
fffffffc
fffffffb
00000000
ffffffff
fffffff1
fffffffd
00000000
fffffffa
fffffffd
00000001
00000000
00000003
ffffffff
fffffffc
00000004
fffffffe
fffffffa
00000001
ffffffff
00000000
00000001
00000000
ffffffff
ffffffff
ffffffff
ffffffff
00000000
fffffffe
00000000
fffffffd
00000000
00000009
00000000
00000002
00000005
00000000
00000002
fffffffe
00000000
00000000
fffffffd
00000005
00000002
00000000
00000006
00000000
00000003
00000008
00000004
00000000
ffffffff
00000001
00000007
00000008
ffffffff
fffffffe
00000001
fffffffe
00000000
00000008
fffffffe
00000000
ffffffff
fffffff8
fffffffa
fffffffd
00000005
fffffff8
fffffffd
00000005
fffffffd
fffffffd
fffffffe
00000000
00000000
00000000
00000006
ffffffff
00000000
00000004
00000003
00000002
00000000
fffffffe
fffffffe
00000008
00000000
fffffffb
00000005
fffffffd
ffffffff
00000000
00000000
fffffffc
00000001
00000000
fffffffd
00000000
00000001
fffffffc
ffffffff
00000000
fffffffe
00000001
00000002
fffffffe
00000005
00000003
00000000
fffffffb
00000003
00000005
fffffffa
fffffffa
00000001
ffffffff
fffffffe
00000002
fffffffa
fffffffc
00000004
ffffffec
fffffff9
00000001
fffffffe
00000000
00000000
00000002
00000000
ffffffff
00000001
00000000
00000000
00000000
00000002
fffffffe
00000000
ffffffff
00000000
ffffffff
fffffffd
ffffffff
fffffffe
00000000
ffffffff
00000003
00000000
00000002
ffffffff
00000000
fffffffe
00000000
ffffffff
00000000
00000002
00000001
fffffffc
00000009
00000000
fffffff8
00000003
fffffffb
fffffffd
00000000
ffffffff
00000002
00000004
00000000
00000001
fffffffb
fffffffb
00000000
00000002
00000002
00000000
00000008
fffffffe
ffffffff
00000006
fffffffc
00000001
00000000
00000000
00000001
00000001
fffffffd
00000000
fffffffd
fffffffc
00000000
fffffffb
fffffffe
00000002
00000000
fffffffd
00000000
00000002
fffffffd
fffffffb
00000001
ffffffff
fffffffe
00000000
00000000
fffffffe
00000002
00000000
fffffffe
00000000
00000002
00000001
00000004
00000000
00000001
00000003
fffffffd
ffffffff
00000000
00000003
00000002
fffffffe
00000000
00000001
00000002
00000000
ffffffff
fffffff9
fffffffe
fffffffe
fffffff8
fffffffe
00000000
fffffffc
00000000
ffffffff
00000000
00000000
00000002
00000002
fffffffe
00000004
00000000
fffffffe
00000005
00000005
fffffffc
fffffffe
00000007
00000000
fffffffd
00000000
fffffffe
ffffffff
00000000
00000001
fffffffe
00000001
00000001
00000000
00000000
00000002
00000000
00000002
00000000
ffffffff
00000000
00000000
ffffffff
00000001
00000003
00000000
00000002
00000001
ffffffff
00000005
00000001
00000004
00000000
00000004
00000004
ffffffff
00000000
00000000
fffffffc
00000000
00000000
fffffffa
00000000
00000001
00000000
fffffffe
ffffffff
fffffffd
ffffffff
00000003
00000003
00000004
00000000
fffffffa
ffffffff
fffffffe
00000000
00000003
fffffffd
fffffffe
00000003
fffffffb
00000000
ffffffff
00000003
00000003
fffffff8
00000000
00000004
fffffffc
00000000
fffffffc
fffffffc
fffffffb
fffffffc
00000006
ffffffff
fffffffb
00000006
fffffffc
ffffffff
00000000
fffffffc
00000000
ffffffff
00000000
00000004
00000004
00000001
00000004
fffffffc
fffffffc
00000001
fffffffc
fffffffe
00000004
00000000
fffffffc
00000007
00000008
ffffffff
00000004
00000005
fffffff9
fffffffe
00000000
fffffffe
00000003
00000001
00000000
00000003
ffffffff
fffffffb
00000007
fffffffe
00000000
00000001
fffffffe
fffffffe
ffffffff
fffffffc
fffffffd
fffffffe
fffffffb
fffffffe
fffffffd
fffffffe
fffffffe
00000000
00000000
fffffffd
ffffffff
fffffffe
ffffffff
ffffffff
fffffffd
ffffffff
ffffffff
00000000
00000002
ffffffff
ffffffff
00000000
00000000
00000000
fffffffa
00000002
ffffffff
fffffffa
00000004
00000000
fffffffd
00000000
00000000
fffffffd
00000000
00000002
fffffffb
00000000
fffffffe
fffffffb
00000000
00000000
fffffffe
fffffffe
fffffff8
fffffffe
fffffffe
fffffff9
fffffffd
00000003
00000004
00000000
00000005
0000000f
00000006
00000004
0000000e
00000000
00000004
00000004
00000005
00000003
00000001
00000001
ffffffff
00000005
00000002
00000003
00000005
00000000
00000003
00000007
00000000
00000005
00000000
fffffffe
00000001
00000002
00000000
00000001
00000000
fffffffd
ffffffff
fffffffd
ffffffff
ffffffff
fffffff9
fffffffe
00000001
fffffffe
00000003
fffffffe
fffffffd
fffffffc
00000003
00000001
00000005
00000002
00000001
00000005
fffffffe
ffffffff
00000005
00000002
00000000
00000004
fffffffa
00000004
00000000
fffffffc
00000000
00000002
00000002
00000002
00000000
00000001
ffffffff
00000001
00000001
fffffffe
ffffffff
fffffffd
fffffffb
00000003
fffffffa
fffffff9
00000001
fffffffb
fffffff5
fffffffa
00000000
fffffffb
ffffffff
fffffffb
fffffffd
fffffffd
fffffffe
00000001
fffffffe
00000001
00000004
00000000
fffffffe
00000002
00000000
fffffffd
00000006
00000003
fffffffe
00000000
ffffffff
fffffffd
00000000
00000000
00000000
00000000
00000002
fffffffa
fffffffd
00000003
00000000
00000000
00000004
fffffff9
00000000
00000006
fffffffe
fffffffe
ffffffff
fffffffd
fffffffc
ffffffff
fffffffd
00000000
00000002
00000000
fffffffc
00000002
ffffffff
fffffffa
00000000
00000009
00000002
00000005
00000000
fffffff5
fffffffc
fffffffd
fffffff5
fffffff9
00000003
fffffffa
fffffffd
00000000
ffffffff
00000002
fffffffe
00000002
00000002
ffffffff
00000006
00000004
00000001
fffffffe
fffffffd
fffffffe
fffffffe
fffffffe
fffffffd
ffffffff
00000002
00000000
00000001
00000004
00000000
00000004
00000001
00000000
00000001
00000001
00000006
fffffffd
00000003
00000002
fffffffa
00000000
fffffffd
fffffff2
fffffffb
00000003
fffffffa
00000000
00000000
fffffff8
00000001
00000002
00000000
00000005
00000000
ffffffff
00000000
fffffffe
00000002
00000000
00000000
00000001
00000002
00000001
00000004
00000003
00000004
00000000
00000000
00000000
00000000
ffffffff
00000002
00000000
00000000
ffffffff
fffffffd
00000001
00000000
fffffffe
00000000
00000003
00000003
00000002
fffffffe
00000003
ffffffff
ffffffff
fffffffe
ffffffff
00000002
ffffffff
00000000
fffffffc
fffffff9
fffffffd
00000000
fffffffc
00000000
00000000
00000002
00000004
00000000
00000006
00000005
00000002
00000000
fffffffd
fffffffb
fffffffd
fffffffc
fffffffc
fffffffc
fffffffd
00000002
ffffffff
00000000
fffffffe
fffffffa
fffffffd
fffffffc
fffffff8
fffffffa
00000000
00000001
00000000
fffffffd
fffffffc
fffffffd
00000001
00000002
00000000
00000001
00000007
00000000
ffffffff
fffffffe
00000000
00000000
00000000
00000002
00000005
00000005
fffffffd
ffffffff
00000004
ffffffff
fffffffe
00000000
00000000
00000001
00000002
00000001
00000001
00000003
00000002
00000004
00000006
00000002
00000005
00000007
00000003
00000001
fffffff4
00000000
00000000
fffffff3
00000000
ffffffff
fffffff5
ffffffff
ffffffff
fffffff6
00000000
00000001
fffffffa
fffffffd
ffffffff
fffffff9
fffffffc
ffffffff
fffffff7
00000001
00000000
fffffff5
00000001
00000000
fffffffb
00000001
00000001
00000000
00000000
00000004
00000004
00000000
00000000
00000000
fffffffe
00000001
00000001
00000000
00000000
fffffffa
00000001
00000000
fffffffe
00000003
00000001
00000000
00000002
00000001
fffffffc
00000001
fffffffd
00000000
fffffffd
00000000
fffffffd
fffffffd
fffffffe
fffffffa
00000002
00000000
00000003
00000005
ffffffff
00000001
00000000
fffffffe
00000005
00000000
00000002
00000003
00000003
00000003
00000007
00000002
00000004
0000000b
00000003
00000000
00000006
fffffffd
00000000
00000004
00000002
00000000
00000002
00000002
00000006
00000005
00000002
00000000
00000006
00000000
00000002
00000004
fffffffe
00000000
00000001
ffffffff
00000000
fffffffa
00000000
00000000
ffffffff
00000000
00000000
00000000
00000002
00000000
fffffffa
00000000
00000000
0000000a
00000001
00000001
00000004
fffffffe
00000001
fffffffe
fffffffe
ffffffff
00000000
00000000
fffffffe
00000004
00000000
fffffffe
00000000
00000000
fffffffd
fffffff5
00000000
00000000
fffffffc
00000003
00000000
00000000
00000001
00000004
ffffffff
fffffffd
00000003
fffffffd
00000000
00000002
fffffffa
fffffffb
00000000
00000000
00000002
ffffffff
00000000
00000006
fffffffd
00000000
fffffffe
00000002
00000005
00000000
00000004
0000000a
00000002
ffffffff
fffffff9
00000003
00000000
fffffffe
00000002
00000000
00000002
00000003
0000000a
00000008
00000006
00000009
00000011
00000005
00000005
0000000d
00000001
fffffffd
fffffffc
00000001
00000000
fffffffe
00000004
fffffffd
fffffffd
00000002
00000002
00000005
00000001
fffffffe
fffffffd
fffffffe
fffffffd
fffffff8
fffffffc
00000001
00000001
00000002
00000004
00000001
00000000
00000007
00000002
00000002
00000002
00000007
fffffffc
00000002
00000009
ffffffff
fffffffd
ffffffff
fffffffa
00000001
ffffffff
fffffffc
00000001
fffffffd
00000000
00000005
00000002
00000000
00000002
00000005
00000002
00000003
00000003
00000006
00000000
00000006
00000002
00000003
00000000
fffffffd
00000003
00000003
ffffffff
00000000
fffffffd
00000000
ffffffff
ffffffff
00000000
fffffffe
00000000
00000002
00000000
00000000
00000004
00000000
00000001
00000000
00000003
00000003
fffffffe
00000002
00000003
ffffffff
fffffffb
fffffffc
fffffffe
fffffffb
fffffffa
ffffffff
fffffffc
fffffff6
00000000
ffffffff
ffffffff
00000000
00000003
00000005
00000001
ffffffff
00000002
00000000
00000006
00000002
ffffffff
00000002
00000000
fffffffc
fffffffc
fffffff8
fffffffe
ffffffff
fffffffa
fffffff4
00000005
fffffffe
fffffffb
00000002
00000004
fffffffd
ffffffff
fffffffe
00000000
fffffffb
fffffff3
fffffffe
fffffffb
fffffff7
00000000
00000008
00000004
00000001
00000000
00000007
00000002
ffffffff
00000003
00000002
ffffffff
fffffff7
00000000
00000003
ffffffff
00000000
00000000
fffffff9
ffffffff
00000004
00000006
fffffffe
00000001
00000000
fffffffc
fffffffb
fffffff4
fffffffe
00000003
00000003
00000006
00000003
00000002
00000004
ffffffff
00000000
ffffffff
00000000
00000003
0000000b
00000001
00000003
00000006
00000000
00000000
00000003
ffffffff
00000000
00000001
fffffffd
fffffffd
00000000
00000003
00000003
00000003
fffffffc
00000000
00000001
fffffffe
00000000
00000004
00000001
00000001
fffffffe
fffffffe
00000003
00000002
ffffffff
00000002
00000001
00000000
00000002
00000000
00000005
00000003
00000005
00000000
fffffffe
00000000
00000000
fffffffb
fffffffd
00000004
00000000
00000004
00000000
00000000
ffffffff
00000000
fffffffe
00000000
ffffffff
00000004
ffffffff
00000000
00000004
fffffffd
00000001
00000000
00000001
00000000
fffffffc
00000002
00000002
00000000
00000003
00000001
00000000
00000007
00000000
00000000
00000001
00000001
fffffffe
fffffffd
ffffffff
00000001
00000000
fffffffc
00000000
00000001
00000001
00000000
00000005
ffffffff
fffffffb
00000003
00000002
00000005
ffffffff
00000007
00000007
ffffffff
00000006
00000006
00000004
fffffffe
00000002
00000003
00000005
00000002
00000004
00000002
00000004
00000006
00000001
00000000
00000000
00000001
fffffffe
ffffffff
fffffffd
00000000
0000000c
00000000
00000000
00000002
00000000
fffffffa
00000003
fffffffe
fffffffc
ffffffff
00000001
00000008
00000001
00000000
00000003
00000000
00000003
fffffffc
fffffffc
00000001
00000002
fffffffe
00000000
00000000
fffffffd
00000003
00000000
fffffffd
fffffffc
fffffffa
ffffffff
00000003
ffffffff
ffffffff
00000004
00000006
00000000
ffffffff
fffffffd
00000001
00000004
00000005
00000001
00000001
00000002
00000002
00000002
fffffffc
fffffffe
00000000
fffffff6
fffffffb
00000001
fffffff8
fffffff8
00000000
fffffffc
00000000
fffffffa
fffffff6
00000000
fffffffd
fffffff4
fffffffd
00000001
00000004
fffffffc
ffffffff
fffffffd
00000000
fffffffb
00000005
00000001
00000000
00000000
fffffffe
00000000
ffffffff
00000000
ffffffff
fffffff9
ffffffff
fffffffa
fffffff1
ffffffff
ffffffff
00000000
00000000
fffffffe
00000000
00000001
00000004
00000006
00000009
fffffffc
00000003
00000003
fffffffc
fffffff8
fffffff9
00000001
00000001
ffffffff
00000000
00000001
00000001
ffffffff
00000000
00000009
fffffffa
fffffff9
00000000
fffffffc
fffffffc
fffffffd
00000002
00000009
00000000
00000000
fffffff9
ffffffff
fffffffb
fffffff4
fffffffb
fffffffe
fffffff8
00000000
fffffffe
fffffffc
ffffffff
fffffffb
fffffffb
fffffffd
fffffffe
fffffffc
fffffffd
00000005
0000000f
00000001
00000002
00000006
00000000
00000000
00000001
00000000
00000003
00000001
00000001
00000000
00000008
00000002
00000003
00000001
fffffffe
fffffffb
00000003
00000005
fffffffb
fffffff6
fffffffd
00000000
00000000
00000000
fffffffe
00000004
00000000
fffffffc
fffffff4
fffffffc
fffffffd
fffffff5
fffffffa
00000002
fffffffe
fffffffe
00000002
fffffff9
fffffffb
00000001
00000001
00000000
fffffffc
00000007
00000001
fffffffc
00000000
00000000
00000000
fffffffc
00000000
00000000
00000000
00000004
00000000
fffffffd
00000000
00000000
ffffffff
00000000
00000000
00000005
00000000
fffffffe
fffffff9
fffffffd
fffffffe
fffffffb
fffffffe
00000000
00000002
00000004
fffffffe
fffffffb
00000000
00000003
00000003
00000002
00000000
fffffff5
fffffffe
fffffffc
fffffff8
fffffffe
00000002
fffffffb
fffffffd
00000000
fffffffa
fffffffd
fffffffc
fffffffa
fffffffb
00000000
fffffff9
00000000
00000000
fffffffd
00000000
ffffffff
fffffffa
00000000
fffffffd
fffffffc
fffffffd
fffffffe
fffffffe
00000000
fffffffc
00000003
00000001
fffffffe
00000003
00000003
fffffffa
00000003
fffffffe
fffffffa
fffffff6
fffffffb
ffffffff
fffffff9
fffffffd
fffffffa
fffffffe
fffffffd
fffffff9
fffffff8
fffffffb
fffffffa
fffffff2
fffffffc
fffffffd
00000000
ffffffff
fffffffc
fffffff9
fffffffb
fffffffb
fffffffc
00000000
00000002
0000000e
00000001
00000009
00000015
00000006
00000006
00000013
00000006
fffffffe
fffffffc
fffffffe
fffffffc
fffffff7
ffffffff
00000003
00000001
00000001
00000001
00000000
fffffffb
00000000
fffffffd
00000001
fffffffb
ffffffff
00000000
00000000
00000005
fffffffe
fffffffd
ffffffff
00000002
00000001
fffffffc
00000003
fffffffd
fffffffb
fffffff7
00000005
fffffffa
fffffffa
00000001
00000000
fffffffb
ffffffff
00000001
00000003
ffffffff
fffffffa
00000000
00000000
00000000
00000000
fffffffd
fffffffa
fffffff7
fffffffc
fffffffd
fffffffa
ffffffff
fffffffb
fffffffc
ffffffff
fffffff4
00000002
ffffffff
fffffffa
00000001
00000003
fffffffe
00000000
fffffffc
fffffffc
00000000
00000001
fffffffd
00000003
00000003
00000001
00000001
00000003
00000001
00000003
00000000
fffffffc
00000000
00000001
00000001
ffffffff
ffffffff
fffffffc
00000000
00000000
fffffffe
00000002
00000000
fffffffc
00000002
00000002
00000000
fffffffe
ffffffff
00000001
00000000
fffffff9
00000005
00000003
00000003
00000003
fffffffe
ffffffff
fffffffe
00000001
00000004
00000001
00000000
fffffffc
00000000
00000001
00000000
fffffffd
00000007
00000003
fffffff5
fffffffc
fffffff8
00000004
00000001
fffffffb
00000004
00000001
fffffffb
00000000
00000000
00000000
00000000
00000000
00000005
fffffffa
ffffffff
00000004
fffffffe
fffffffd
ffffffff
ffffffff
fffffffc
00000000
00000002
fffffffe
fffffffe
fffffffe
00000002
00000002
00000004
ffffffff
00000000
fffffff6
00000000
00000000
fffffff9
ffffffff
00000002
fffffffe
00000003
00000001
00000005
fffffffe
00000000
fffffffe
00000002
00000000
00000007
00000001
00000004
00000004
00000003
00000000
00000005
ffffffff
ffffffff
fffffffe
ffffffff
00000000
00000002
fffffffc
ffffffff
00000005
00000002
00000000
00000006
00000000
00000000
00000002
00000004
00000000
fffffff8
fffffffb
00000005
ffffffff
00000002
00000000
00000000
00000000
ffffffff
00000000
00000001
fffffffe
00000000
00000000
fffffffa
00000004
00000005
fffffffd
00000000
00000009
00000001
fffffffc
00000002
ffffffff
fffffffb
fffffffe
fffffffe
ffffffff
fffffffd
fffffffb
00000000
fffffffd
ffffffff
00000000
00000007
00000008
fffffffa
0000000e
fffffffd
fffffffa
fffffffb
00000000
00000003
fffffffe
ffffffff
00000005
00000002
ffffffff
00000000
fffffffa
fffffffc
00000002
ffffffff
fffffffd
00000003
00000003
00000000
ffffffff
00000001
fffffffe
00000000
00000000
00000003
00000000
fffffffd
00000003
00000001
ffffffff
00000000
00000002
fffffffd
ffffffff
00000001
00000002
fffffffb
fffffff9
00000001
00000001
00000002
fffffffb
ffffffff
00000009
00000005
00000000
fffffffb
ffffffff
00000000
00000004
00000004
00000005
00000000
00000002
fffffffd
00000000
00000005
00000000
fffffffa
00000000
ffffffff
00000000
fffffff7
00000003
ffffffff
fffffffb
00000001
fffffffd
ffffffff
fffffffd
00000000
fffffffd
fffffffd
00000005
fffffffe
ffffffff
ffffffff
ffffffff
ffffffff
fffffffe
fffffffe
00000003
00000002
00000002
00000001
ffffffff
00000000
fffffffe
fffffffc
00000000
00000003
00000002
00000001
00000000
00000000
fffffffe
00000001
00000000
fffffffc
00000000
fffffff7
00000003
00000000
fffffff9
00000000
00000005
fffffffc
00000001
ffffffff
00000000
00000003
00000005
00000000
00000000
00000004
00000002
00000001
00000001
00000000
fffffffb
00000002
00000005
00000002
00000004
fffffffd
00000004
00000002
00000002
ffffffff
00000000
00000005
00000000
fffffff9
00000003
00000000
00000003
fffffffd
00000001
fffffffb
00000002
00000000
ffffffff
00000002
00000005
00000000
fffffffd
ffffffff
fffffffd
fffffffe
fffffffd
fffffffd
fffffffd
ffffffff
fffffffe
fffffffa
fffffffe
ffffffff
00000004
ffffffff
00000002
fffffffe
00000004
ffffffff
fffffff8
00000001
ffffffff
fffffff9
fffffffe
fffffffb
fffffffe
fffffffe
00000000
fffffffb
fffffff9
00000001
fffffffc
fffffffc
00000000
ffffffff
00000003
00000000
00000005
00000004
ffffffff
fffffffe
00000001
00000003
00000000
fffffffe
00000002
00000002
00000004
00000002
fffffffd
fffffffd
00000001
fffffffc
fffffffc
00000003
00000006
00000008
00000008
fffffffc
00000004
00000000
fffffff8
00000000
00000002
00000004
ffffffff
00000001
00000002
00000005
00000000
00000000
00000000
00000000
00000003
fffffffe
00000001
ffffffff
00000000
00000003
00000000
00000002
fffffffd
00000000
00000001
00000001
00000005
00000003
00000002
00000000
00000006
fffffffe
fffffffc
00000002
00000000
fffffffd
fffffffb
fffffff8
00000002
fffffff7
00000001
fffffffb
00000001
00000000
00000003
00000000
ffffffff
00000008
00000006
00000000
fffffff7
00000002
00000001
00000000
00000000
fffffffd
00000002
ffffffff
00000005
fffffffc
00000000
00000003
fffffffc
fffffffc
ffffffff
fffffffe
ffffffff
ffffffff
00000000
00000002
00000002
fffffffd
00000000
00000001
fffffffd
00000000
00000001
00000000
00000004
00000001
fffffffa
00000000
00000006
fffffff9
fffffffd
00000000
fffffffe
fffffffe
00000000
fffffffe
00000000
00000003
00000006
fffffffd
00000002
fffffffb
00000000
00000000
fffffffc
00000004
00000000
00000000
ffffffff
00000002
fffffff9
00000003
00000008
fffffff9
fffffffc
00000005
ffffffff
fffffffc
00000000
00000002
fffffffe
ffffffff
00000002
00000000
00000002
00000000
00000001
00000001
fffffff7
fffffffc
00000000
fffffff9
fffffffd
00000000
00000003
fffffffe
ffffffff
fffffffe
fffffffd
fffffffb
ffffffff
00000001
00000003
00000000
00000007
00000000
00000000
00000000
ffffffff
ffffffff
00000000
00000000
fffffff9
00000001
00000000
00000003
fffffffe
00000001
00000004
00000000
00000004
ffffffff
ffffffff
00000000
00000001
fffffffc
00000000
ffffffff
00000000
00000002
fffffffc
00000001
00000000
00000001
00000001
00000000
00000004
00000002
fffffffb
fffffffe
00000001
fffffffb
00000001
fffffffc
ffffffff
fffffffc
ffffffff
00000001
fffffffa
00000002
00000000
fffffffb
00000003
00000002
ffffffff
00000000
00000002
00000001
fffffffc
ffffffff
00000001
00000004
00000003
00000000
00000001
fffffffe
fffffffe
00000002
00000001
fffffffd
00000005
00000002
00000001
00000000
00000000
00000000
00000000
fffffffd
fffffffe
00000003
00000001
fffffffe
fffffffe
00000002
fffffffb
fffffffc
00000000
fffffff9
00000001
00000001
fffffffa
fffffffd
00000001
fffffffd
fffffffd
ffffffff
fffffffb
fffffffe
00000001
fffffffd
00000000
00000006
fffffffa
ffffffff
fffffffe
fffffffb
00000003
00000000
00000001
00000005
00000002
00000000
00000000
fffffffd
00000003
00000000
fffffffa
ffffffff
00000006
00000001
00000001
00000000
00000003
ffffffff
00000002
00000000
00000003
ffffffff
00000000
00000009
00000001
fffffffe
fffffffe
ffffffff
ffffffff
fffffffb
00000001
ffffffff
00000003
fffffffe
fffffffd
00000000
00000003
fffffffe
00000002
00000005
fffffffc
ffffffff
00000000
fffffff9
fffffffe
00000004
00000000
ffffffff
00000000
00000000
ffffffff
fffffffe
ffffffff
00000002
00000000
00000000
fffffffe
00000000
00000001
fffffffc
00000001
00000000
00000000
00000004
00000005
fffffffb
ffffffff
00000001
fffffffe
fffffffd
00000000
00000002
00000000
fffffffb
00000002
fffffffe
00000000
00000000
fffffffe
fffffffe
00000004
00000002
fffffffd
00000006
00000004
fffffffe
ffffffff
00000000
fffffffe
fffffff9
fffffffc
fffffffd
fffffffe
ffffffff
fffffffe
fffffffa
fffffffb
00000001
ffffffff
fffffffd
fffffffd
fffffffe
fffffffe
fffffff9
fffffff9
00000000
fffffffd
00000006
fffffffe
fffffffe
0000000e
00000003
fffffffd
00000007
00000007
00000003
fffffffe
fffffffb
00000001
ffffffff
00000000
fffffffc
00000001
00000001
00000003
00000000
00000002
00000003
00000000
00000001
00000001
00000001
00000002
00000001
fffffffc
00000002
00000005
00000005
fffffffc
ffffffff
00000004
00000000
00000000
00000000
fffffffd
00000000
00000003
fffffffc
fffffffd
00000003
00000002
00000000
fffffffe
00000002
fffffffc
00000000
00000005
fffffffb
ffffffff
00000000
fffffffc
fffffffe
ffffffff
fffffffe
00000003
00000000
ffffffff
00000007
fffffffa
00000002
fffffffc
00000000
00000000
fffffffe
fffffffd
ffffffff
00000000
fffffffe
ffffffff
00000002
fffffffd
00000003
00000003
ffffffff
00000002
fffffff7
00000004
00000000
00000003
ffffffff
00000000
00000006
fffffffe
ffffffff
00000000
fffffff7
ffffffff
fffffffc
00000001
00000002
ffffffff
00000000
00000002
ffffffff
00000000
fffffffd
00000001
00000000
00000000
00000000
ffffffff
00000002
ffffffff
00000000
fffffffd
00000002
00000005
00000000
00000005
00000003
fffffffd
00000002
00000000
ffffffff
00000000
ffffffff
fffffff9
0000000a
00000003
fffffffa
fffffff9
ffffffff
00000004
00000000
fffffffb
00000001
00000002
00000000
fffffffe
00000005
00000000
fffffffe
ffffffff
00000006
fffffffe
fffffffd
00000000
fffffffe
fffffffe
fffffffd
00000002
fffffffd
fffffffd
00000001
fffffffa
fffffffa
00000001
fffffff9
fffffffe
00000000
fffffffa
00000000
fffffffe
fffffffa
00000000
00000000
fffffffd
fffffffe
00000002
fffffffb
00000001
00000000
fffffffc
00000000
00000000
fffffffe
fffffffe
00000000
00000000
00000001
00000000
00000000
00000001
00000002
fffffff7
00000000
fffffffe
fffffff8
fffffffa
00000000
fffffffd
fffffffd
fffffffe
fffffff9
fffffffd
00000000
00000001
00000007
fffffffc
fffffff7
00000000
fffffffe
fffffffe
00000004
00000000
00000003
00000002
ffffffff
ffffffff
00000000
ffffffff
00000000
00000000
fffffffe
00000003
00000000
00000000
00000000
00000001
00000000
00000000
00000000
00000000
fffffff7
00000002
00000000
00000001
00000000
fffffffd
00000005
00000001
00000001
fffffffb
00000002
00000003
ffffffff
fffffffe
00000007
00000007
fffffffc
ffffffff
00000000
ffffffff
00000002
00000001
ffffffff
fffffffe
00000000
fffffffb
00000003
fffffffb
fffffffe
00000001
fffffffb
00000000
00000003
00000000
fffffff7
fffffffd
fffffffd
00000000
fffffffe
ffffffff
ffffffff
00000001
fffffffd
00000001
00000002
00000003
00000003
00000002
00000001
00000001
00000001
00000000
00000002
00000000
00000002
00000001
00000001
00000003
00000002
00000002
ffffffff
fffffffe
00000000
00000004
ffffffff
00000000
00000001
00000000
00000002
ffffffff
00000001
00000002
fffffff7
fffffffe
00000004
00000000
fffffffe
00000000
00000000
00000003
00000001
fffffffc
ffffffff
fffffffe
ffffffff
fffffffc
00000000
00000001
fffffffe
00000000
00000000
00000000
00000001
00000002
00000002
00000002
00000003
fffffffe
ffffffff
fffffffd
00000003
fffffffe
fffffffe
00000003
00000000
ffffffff
00000000
00000000
00000001
fffffffb
00000001
00000002
fffffff8
fffffffd
00000000
ffffffff
00000003
fffffff9
00000000
fffffffe
fffffffe
00000001
ffffffff
00000004
00000000
00000001
00000000
00000000
00000000
00000000
fffffffd
00000000
fffffffb
fffffffe
00000001
fffffffd
00000000
00000004
00000001
fffffffe
00000004
00000001
00000001
00000001
00000003
00000000
00000000
00000003
00000000
fffffffa
00000000
00000005
00000006
fffffffd
00000002
00000003
00000001
fffffffd
00000000
00000004
fffffffe
00000003
ffffffec
00000007
00000001
fffffff8
00000000
00000000
ffffffff
00000000
00000001
fffffffa
ffffffff
00000002
00000003
00000003
fffffffd
0000000d
00000000
00000007
00000004
fffffffa
00000000
00000001
ffffffff
00000001
00000000
00000001
00000001
00000002
00000000
00000001
00000005
ffffffff
ffffffff
00000001
00000002
00000004
fffffffb
fffffffd
00000000
00000004
fffffff6
fffffffc
00000006
00000003
00000000
fffffffe
00000000
ffffffff
00000000
00000002
00000000
00000002
ffffffff
00000000
00000000
00000000
00000002
ffffffff
00000000
00000001
00000006
fffffffe
00000001
00000003
00000005
00000001
00000003
fffffffe
fffffffa
fffffff8
00000000
fffffffd
fffffffb
fffffffc
00000000
0000000d
00000000
00000001
fffffffe
00000000
00000002
00000000
ffffffff
00000000
fffffffd
fffffffd
fffffffc
00000000
00000003
fffffffd
00000002
00000001
fffffffb
fffffffb
00000000
fffffff9
fffffffe
fffffffd
00000000
ffffffff
fffffffe
00000000
fffffff6
fffffffb
00000002
00000002
ffffffff
00000001
00000001
00000000
00000004
0000000c
00000000
00000003
00000007
00000004
fffffffb
fffffff6
fffffffd
fffffff8
fffffff7
00000000
fffffffd
ffffffff
00000000
ffffffff
00000000
ffffffff
fffffffe
fffffffd
fffffffa
ffffffff
fffffffd
00000000
fffffffd
00000000
fffffffe
00000000
ffffffff
00000000
00000004
00000003
00000004
ffffffff
fffffffe
fffffffc
fffffffe
00000005
00000000
00000002
fffffffe
fffffffa
00000002
fffffffc
00000002
00000000
fffffff3
fffffffa
00000001
00000000
fffffffd
fffffffe
00000000
00000000
fffffffd
00000000
00000004
00000001
fffffffb
00000002
00000002
fffffffb
00000000
fffffff9
fffffff3
ffffffff
fffffff9
fffffffe
00000000
ffffffff
fffffffd
00000009
00000000
ffffffff
00000000
fffffffc
00000000
00000004
00000000
0000000b
00000001
00000006
00000006
00000009
00000002
00000000
00000000
00000002
00000001
00000001
00000004
00000002
00000006
00000003
00000004
00000003
00000000
00000000
00000001
fffffffa
fffffffa
ffffffff
ffffffff
fffffffd
ffffffff
fffffffd
00000000
fffffffd
fffffffc
fffffffe
00000000
00000002
00000002
00000000
fffffffe
fffffffd
00000001
00000000
fffffff8
00000000
00000006
ffffffff
00000000
fffffffd
fffffffc
fffffffb
00000003
fffffffd
00000004
00000001
00000001
00000000
00000002
00000002
00000001
00000005
00000009
00000007
00000000
00000006
00000007
fffffffd
00000000
00000000
fffffffd
fffffffa
00000000
ffffffff
fffffffd
00000002
00000004
0000000a
ffffffff
00000002
00000009
00000000
00000003
fffffffc
fffffffc
fffffffc
00000006
ffffffff
00000005
00000005
00000003
00000009
fffffffc
00000005
00000004
fffffffe
00000004
00000001
00000007
00000000
00000007
00000006
00000004
00000000
fffffff9
fffffffb
00000000
00000001
fffffffd
fffffffe
00000002
00000000
00000000
00000004
fffffffd
00000004
00000000
00000000
00000002
00000003
00000001
00000000
00000005
fffffffd
00000008
00000004
00000000
00000004
ffffffff
fffffffe
00000000
fffffffa
00000002
fffffffc
fffffff0
fffffffd
fffffffa
fffffff7
fffffffd
fffffffe
fffffffc
fffffffe
00000001
00000004
ffffffff
00000001
00000004
ffffffff
00000002
00000002
00000000
00000003
fffffff7
fffffff7
00000002
fffffffb
fffffffc
00000000
fffffffe
ffffffff
fffffffb
fffffff7
fffffffa
fffffffc
ffffffff
00000000
fffffffd
fffffffa
fffffffc
fffffffd
fffffff8
fffffffc
00000001
00000002
00000000
00000002
0000000b
00000005
00000000
fffffffc
ffffffff
fffffffe
fffffffa
ffffffff
00000004
00000000
00000000
00000003
00000006
fffffffd
fffffffe
00000001
00000000
00000001
00000003
00000006
00000003
00000000
00000002
fffffffe
00000000
00000003
ffffffff
00000008
00000001
00000006
0000001c
00000003
00000000
00000000
00000001
00000000
fffffffc
00000007
ffffffff
fffffff3
ffffffff
fffffffe
fffffff8
ffffffff
fffffff8
fffffff9
fffffffa
fffffffd
00000005
fffffffc
fffffffa
00000004
fffffffd
00000000
fffffffe
00000002
fffffff9
fffffff8
ffffffff
00000000
fffffffb
00000002
00000001
00000008
00000003
00000004
00000001
00000009
00000008
fffffffe
00000004
ffffffff
fffffffa
fffffffa
00000003
fffffffb
fffffffe
00000000
ffffffff
ffffffff
fffffffc
ffffffff
fffffff9
00000001
00000005
00000001
00000005
00000005
00000000
fffffffc
00000001
fffffffc
00000000
00000002
00000000
fffffffd
fffffffc
ffffffff
00000007
00000005
00000001
00000001
fffffffd
fffffffc
00000001
fffffff8
fffffffd
fffffff5
fffffffd
fffffff8
fffffffd
00000004
00000000
00000002
00000005
00000003
00000001
fffffffe
00000004
00000001
0000000e
00000000
fffffffe
00000002
00000000
00000002
00000005
00000000
00000004
00000007
00000003
00000000
00000001
00000003
00000005
00000003
00000000
00000002
fffffff8
00000001
ffffffff
fffffffd
00000000
00000000
fffffff9
00000000
ffffffff
00000000
00000002
00000002
00000000
00000001
00000001
00000000
00000000
fffffffc
fffffff1
fffffffe
00000002
fffffffd
00000004
00000002
ffffffff
00000001
00000003
fffffff4
00000001
00000003
fffffff8
00000001
00000003
fffffffc
00000000
00000000
fffffff7
00000000
00000005
fffffffd
00000000
00000005
fffffffe
00000000
00000003
fffffff8
fffffff9
fffffffd
00000000
fffffffd
00000003
00000002
00000001
fffffffd
00000008
00000001
00000002
00000000
00000000
00000001
00000002
fffffffe
00000006
fffffffe
00000005
ffffffff
fffffffd
00000006
ffffffff
fffffffe
ffffffff
00000000
00000003
00000000
fffffffe
ffffffff
00000003
00000008
00000006
00000005
fffffffe
fffffff7
fffffffe
fffffffc
fffffff7
fffffffe
00000003
ffffffff
00000001
00000002
00000002
00000005
00000000
00000000
00000004
fffffffb
fffffffd
fffffffb
fffffffd
fffffffd
ffffffff
00000001
00000005
00000003
00000000
00000000
ffffffff
00000000
00000000
00000000
00000002
00000001
00000001
ffffffff
fffffffd
fffffffb
00000000
0000000a
00000002
00000002
00000002
00000003
00000003
0000000c
00000001
0000000c
0000001d
00000007
00000005
0000000c
fffffffe
00000000
00000000
00000000
fffffff8
fffffff8
fffffffc
fffffffc
fffffffb
fffffffb
ffffffff
fffffff7
00000001
ffffffff
fffffff9
00000000
00000007
00000003
00000001
fffffffe
00000006
fffffffd
ffffffff
00000003
00000002
fffffffe
00000000
00000000
fffffffe
ffffffff
fffffffe
00000000
00000001
00000000
00000002
fffffff9
fffffffb
fffffffc
ffffffff
00000006
00000000
fffffff9
00000001
00000005
00000006
00000000
fffffffd
fffffff9
fffffff8
00000003
00000002
fffffffe
00000000
fffffffc
fffffffe
fffffffe
00000000
ffffffff
00000000
00000002
00000003
00000000
00000000
00000001
00000002
00000006
fffffffe
00000001
00000007
00000000
00000003
00000007
00000000
ffffffff
fffffff7
fffffffd
fffffffc
00000003
fffffff9
fffffffd
00000005
ffffffff
00000001
0000000a
00000000
00000001
fffffffa
00000004
00000003
00000002
00000000
00000000
00000000
00000005
00000004
ffffffff
00000003
00000004
00000000
ffffffff
ffffffff
ffffffff
00000002
fffffffc
fffffff6
fffffffe
fffffffa
fffffff7
00000000
00000000
0000000b
00000007
00000006
00000008
00000005
00000000
00000000
00000004
00000002
00000000
00000000
fffffffd
ffffffff
00000000
fffffffc
fffffffc
ffffffff
00000000
00000001
00000000
00000000
fffffffc
fffffffb
00000000
fffffffd
ffffffff
00000000
ffffffff
fffffffd
fffffffb
fffffff9
00000000
fffffffe
ffffffff
fffffffb
00000001
00000005
00000003
00000002
00000009
00000009
00000002
00000004
00000003
00000000
fffffffb
00000000
fffffffe
fffffff8
fffffffe
00000000
fffffffd
fffffffe
00000001
00000006
00000000
fffffffc
00000000
00000004
fffffffe
fffffffd
00000006
ffffffff
00000004
fffffffc
00000000
00000007
fffffffd
ffffffff
00000001
00000003
00000003
00000001
00000002
00000005
fffffffe
00000001
00000002
fffffffb
00000003
fffffffe
00000000
00000000
fffffff8
fffffff3
fffffffa
00000000
00000001
00000000
00000000
fffffffc
00000002
00000003
00000004
fffffffd
fffffffe
fffffffe
00000000
00000003
fffffffe
00000000
fffffff8
ffffffe5
fffffff8
fffffffd
fffffff2
00000000
00000000
00000000
00000004
fffffffd
fffffffc
00000000
00000000
fffffffb
00000001
00000004
00000003
00000002
fffffffe
fffffffe
00000000
00000000
fffffff9
fffffff9
00000000
fffffff3
fffffffc
fffffffb
fffffffc
ffffffff
fffffffd
fffffffd
00000001
00000005
00000003
00000002
00000000
fffffffe
00000002
00000000
00000000
fffffffe
00000003
00000000
00000000
00000002
00000005
fffffffe
00000004
00000003
00000003
00000002
00000002
00000005
ffffffff
00000001
ffffffff
00000001
00000003
ffffffff
fffffffe
fffffffb
fffffff9
fffffffc
fffffff3
fffffff6
00000002
fffffffe
fffffffe
00000006
0000000e
fffffffb
00000006
0000000a
fffffffe
00000000
00000000
00000002
fffffffe
00000000
ffffffff
fffffffe
00000004
00000000
fffffffd
00000002
00000000
fffffffe
00000003
fffffffd
fffffffe
00000012
00000005
fffffffb
fffffffb
00000000
fffffffd
0000000d
fffffffe
ffffffff
0000000d
00000001
fffffffc
00000003
fffffffe
00000000
00000000
00000004
fffffffc
ffffffee
00000000
fffffffb
fffffff9
00000000
00000002
00000004
00000002
00000000
ffffffff
00000004
00000003
00000005
00000003
ffffffff
ffffffff
00000000
fffffffa
fffffffc
00000005
00000004
00000001
00000004
00000003
fffffffc
00000002
00000000
fffffffa
fffffffe
fffffffc
fffffff8
fffffffe
00000007
00000008
00000004
0000000f
0000003a
0000000a
00000005
0000000f
00000004
ffffffff
fffffff2
00000000
00000002
fffffffd
ffffffff
00000002
00000007
00000002
ffffffff
fffffffd
00000001
fffffffb
fffffff3
fffffffb
00000001
fffffffe
00000002
00000000
00000002
fffffffd
00000001
00000008
00000002
fffffffb
fffffff9
fffffffe
fffffffa
00000001
00000001
00000005
00000010
00000000
00000000
fffffffd
fffffffc
00000002
00000000
00000003
00000004
fffffff0
00000000
00000000
fffffffa
00000000
00000003
00000000
00000001
00000004
00000004
00000003
00000002
00000000
00000000
00000006
00000004
00000002
00000002
00000004
ffffffff
00000001
00000000
00000001
fffffffd
fffffffd
fffffffa
fffffffd
00000003
00000000
00000005
0000000c
00000005
00000002
fffffffd
fffffffe
00000005
00000008
00000005
00000001
00000009
00000005
00000002
00000004
fffffffe
fffffffe
fffffffe
fffffffb
00000000
00000003
00000000
fffffffe
fffffff8
00000000
fffffffa
ffffffef
00000003
00000000
fffffffa
ffffffff
00000000
fffffff9
fffffffb
00000000
00000007
ffffffff
fffffffe
00000000
fffffffb
00000004
ffffffff
fffffffb
00000007
00000004
fffffffc
00000000
00000000
00000000
00000004
fffffffb
00000000
00000004
ffffffff
00000002
00000000
00000006
ffffffff
fffffffd
00000000
00000000
ffffffff
00000000
ffffffff
00000000
00000008
00000002
ffffffff
fffffffd
fffffffa
fffffffb
fffffff7
fffffffa
fffffffc
fffffff9
fffffff7
00000000
fffffffe
fffffffa
ffffffff
00000001
00000000
ffffffff
fffffffd
fffffffe
fffffffb
fffffff4
fffffffd
fffffffa
fffffff6
fffffffa
fffffffa
fffffff6
fffffff7
00000003
00000002
fffffffd
fffffffd
00000001
00000000
fffffffe
00000000
fffffffd
00000002
00000000
00000000
00000002
00000005
00000001
00000002
00000009
ffffffff
fffffffa
00000000
fffffffe
fffffffb
fffffff8
fffffffc
fffffffd
fffffffc
00000000
00000000
ffffffe8
fffffffa
fffffffd
ffffffe2
fffffff6
00000000
fffffff7
00000000
fffffffd
0000000a
00000005
00000001
0000000a
00000009
00000000
00000002
00000004
fffffff8
00000001
00000000
fffffffa
00000005
fffffffc
fffffff9
00000001
fffffffd
00000008
fffffffd
00000003
ffffffff
fffffffc
00000000
fffffffd
00000000
ffffffff
00000003
0000000b
00000000
00000003
00000002
00000005
00000005
00000001
00000003
00000007
00000010
00000001
0000000b
00000010
00000008
00000002
00000001
00000002
00000001
00000001
00000000
00000000
ffffffff
fffffffd
00000003
fffffffe
00000000
ffffffff
fffffffb
ffffffff
fffffff9
00000000
00000001
fffffffd
00000000
00000002
00000000
00000000
00000000
00000001
00000004
00000000
ffffffff
0000000b
fffffffc
00000001
ffffffff
ffffffff
00000000
ffffffff
fffffffc
00000000
00000002
00000000
0000000a
00000019
0000000e
ffffffff
fffffff9
00000001
fffffffd
ffffffff
00000009
00000004
ffffffff
00000002
00000003
00000001
00000004
00000000
00000000
ffffffff
fffffffe
0000000a
00000000
00000002
00000008
00000003
00000004
0000000c
00000001
00000003
00000003
00000000
00000002
00000008
00000001
00000000
fffffffc
00000002
fffffffe
0000001a
fffffffc
ffffffff
00000005
fffffffd
fffffffc
ffffffff
fffffffe
fffffffb
00000000
00000000
00000000
fffffff8
ffffffff
00000000
fffffffc
00000003
00000002
0000000b
ffffffff
fffffffd
fffffffe
ffffffff
fffffffb
fffffff6
fffffffd
00000000
00000008
00000000
ffffffff
fffffff9
00000002
00000006
00000001
00000008
00000000
00000005
00000006
00000001
0000000d
0000000b
00000000
00000000
00000004
00000000
fffffffb
00000001
fffffffc
fffffff7
fffffffd
fffffffc
fffffffb
fffffffc
00000000
fffffffb
00000000
ffffffff
fffffff4
00000001
ffffffff
fffffff4
ffffffff
00000001
ffffffff
00000002
fffffffd
fffffffd
00000001
fffffffe
00000000
00000003
fffffffe
fffffffd
fffffffd
fffffffb
fffffff7
fffffffd
00000000
00000000
00000002
00000001
fffffffb
ffffffff
fffffffa
fffffff7
fffffffb
ffffffff
00000000
00000000
00000003
00000008
00000000
00000003
fffffff9
ffffffff
00000006
fffffffd
fffffffe
00000003
00000008
00000005
00000000
00000002
00000000
fffffffe
ffffffff
00000000
00000003
00000000
00000006
ffffffff
fffffff9
00000004
00000000
00000000
00000000
ffffffff
00000001
00000003
00000000
00000002
00000005
fffffffb
00000004
00000004
fffffffe
0000000b
00000003
00000001
ffffffff
fffffffd
00000003
ffffffff
00000001
00000003
fffffffb
fffffffc
00000001
fffffff8
fffffffe
00000001
fffffffa
00000001
00000000
fffffffa
fffffffc
00000002
fffffffb
00000000
00000004
fffffffb
00000000
0000000b
00000003
fffffffe
00000008
00000007
00000003
00000007
00000008
00000002
fffffffe
fffffff2
00000000
ffffffff
fffffff8
fffffffe
00000002
fffffffc
00000001
00000003
00000008
00000003
00000009
0000000e
00000003
00000002
00000004
00000000
fffffffa
fffffff8
fffffffe
fffffffd
fffffffd
ffffffff
fffffffd
fffffffe
00000001
00000004
ffffffff
00000000
fffffffe
00000000
00000000
00000000
00000006
00000002
00000004
fffffffb
fffffffd
00000000
ffffffff
00000000
00000008
00000004
00000007
00000000
00000003
00000000
fffffffe
fffffffe
00000000
00000001
00000006
00000002
00000003
00000003
00000004
00000004
00000005
00000003
fffffffd
fffffffd
fffffffc
00000002
fffffffd
fffffffd
ffffffff
fffffffc
fffffffc
00000000
fffffff5
00000000
00000000
fffffffe
00000000
fffffffe
00000002
fffffffd
fffffffc
00000000
fffffffa
00000000
fffffffa
00000001
fffffffc
fffffffe
fffffff9
00000000
fffffffa
fffffffa
fffffff9
ffffffee
fffffff8
fffffffa
fffffff6
fffffff8
fffffffc
fffffff5
fffffffc
00000000
fffffff7
ffffffff
fffffff9
fffffffe
fffffffe
fffffffc
00000000
00000001
00000001
0000000f
00000003
00000006
0000000a
00000005
00000003
00000005
00000006
ffffffff
fffffffc
fffffffc
00000000
fffffff9
fffffffa
00000003
fffffffe
00000002
00000000
00000000
fffffff9
00000003
00000000
fffffff9
00000003
00000000
fffffffc
00000002
00000009
00000007
00000000
fffffffe
00000005
00000005
0000000e
00000007
fffffffd
ffffffff
00000001
00000001
00000000
fffffffc
00000002
fffffffe
00000009
fffffffc
fffffff2
fffffffd
00000000
fffffffe
00000000
00000001
00000004
00000000
ffffffff
00000004
00000000
00000000
fffffffa
fffffffe
ffffffff
fffffff6
fffffffe
00000000
00000003
fffffffd
fffffffb
fffffffd
fffffffe
fffffffe
00000000
fffffffe
ffffffff
00000006
ffffffff
00000000
00000005
00000000
00000007
00000002
00000001
00000005
00000005
00000006
ffffffff
00000000
00000001
00000000
00000005
00000006
fffffffc
ffffffeb
fffffff8
fffffffc
fffffff6
fffffffb
00000000
fffffff9
fffffffd
00000000
00000001
00000002
fffffffc
fffffff8
fffffffd
fffffffd
fffffff8
fffffffc
fffffffc
ffffffff
fffffffb
00000000
00000008
00000002
ffffffff
00000008
00000000
00000000
00000000
00000004
00000005
00000006
00000005
fffffffe
00000002
ffffffff
00000000
ffffffff
00000005
fffffffd
00000001
00000002
fffffff8
00000000
00000002
00000001
00000007
00000001
ffffffff
00000002
00000002
00000000
fffffffe
fffffffb
00000000
fffffffe
fffffffd
ffffffff
fffffffb
fffffffd
ffffffff
00000009
00000001
fffffff8
fffffffb
fffffffd
fffffff7
fffffffe
00000000
fffffffa
fffffff7
00000002
00000005
00000000
00000001
00000001
00000001
00000002
00000000
fffffffe
00000000
00000001
00000002
00000004
00000000
00000001
00000003
00000004
00000002
00000001
fffffffb
fffffff7
00000001
fffffffd
fffffffb
fffffffb
fffffffd
00000000
ffffffff
ffffffff
00000004
00000005
00000000
00000005
00000009
fffffffd
fffffffe
fffffffd
00000002
0000000a
00000002
00000005
00000003
00000004
00000002
00000003
00000001
00000001
00000000
00000000
00000000
00000001
ffffffff
00000002
00000002
00000000
fffffffd
fffffffc
fffffffd
fffffffb
00000005
00000000
00000001
00000006
00000003
00000002
0000000b
ffffffff
00000001
00000001
ffffffff
ffffffff
fffffffe
fffffffb
ffffffff
fffffff9
ffffffff
00000000
fffffff9
ffffffff
00000000
00000001
00000004
fffffff9
fffffffd
00000000
fffffffc
00000000
fffffffd
fffffffd
fffffffa
fffffffc
ffffffff
fffffffc
00000000
fffffffc
00000003
00000000
00000002
00000005
00000000
00000002
00000007
00000000
00000002
00000004
00000001
00000001
00000004
00000007
00000002
fffffff5
ffffffff
00000006
fffffff9
00000002
00000001
00000000
00000000
00000002
00000008
fffffffe
00000000
00000006
fffffffa
00000000
fffffffe
00000001
00000001
fffffff7
00000000
fffffffe
ffffffef
fffffffb
00000000
fffffff9
fffffffa
00000000
fffffffe
00000002
00000003
fffffffd
fffffffd
00000000
fffffff8
fffffffe
00000006
00000005
00000000
ffffffff
fffffffd
ffffffff
ffffffff
fffffffe
fffffffe
00000002
00000006
00000002
00000000
00000005
00000006
fffffffe
00000001
00000002
00000000
00000004
0000000b
00000000
fffffffd
00000000
00000005
00000001
00000005
ffffffff
0000000c
fffffffe
00000004
00000008
00000003
00000001
00000002
00000003
00000002
00000000
00000004
00000004
00000001
00000003
ffffffff
00000000
00000001
fffffffd
00000001
00000000
00000000
00000000
ffffffff
00000002
ffffffff
00000000
ffffffff
fffffffa
ffffffff
fffffffd
fffffffb
00000002
00000000
00000004
00000001
fffffffb
fffffffe
00000000
00000000
fffffffd
ffffffff
00000001
00000000
fffffffd
00000000
00000000
00000001
00000000
00000001
00000005
00000003
00000003
00000004
00000001
00000004
00000001
ffffffff
00000000
00000000
fffffffe
fffffffd
fffffffb
ffffffff
fffffff7
00000000
00000001
fffffffc
00000001
00000000
fffffffb
00000000
fffffffe
fffffffc
fffffffd
fffffffb
fffffff9
00000000
fffffffd
fffffff7
00000002
00000002
00000000
fffffffd
00000005
00000000
fffffffc
ffffffff
fffffffe
fffffff8
00000003
00000002
00000002
00000000
00000001
ffffffff
00000002
00000003
fffffffb
fffffffd
00000003
00000002
fffffffc
fffffffc
00000000
00000005
00000000
00000004
00000001
00000006
00000004
00000004
00000003
00000000
00000002
00000005
00000002
fffffffd
ffffffff
ffffffff
00000000
0000000c
00000003
00000000
00000005
ffffffff
fffffff7
fffffff9
fffffffb
fffffffe
00000000
ffffffff
00000000
00000000
00000000
00000001
00000002
00000002
fffffffe
00000000
ffffffff
fffffffe
fffffffd
fffffffe
00000000
00000000
00000001
00000001
00000002
00000000
00000000
00000000
00000000
00000006
00000003
00000003
00000003
00000000
fffffffd
00000000
ffffffff
fffffffc
00000000
fffffffb
00000001
00000000
ffffffff
00000004
00000004
00000001
00000003
00000000
fffffff8
fffffffe
fffffffd
00000003
00000007
00000002
00000008
00000002
00000000
00000000
00000002
00000001
00000001
00000000
fffffffc
00000001
ffffffff
00000000
fffffffd
fffffffe
fffffff9
fffffff7
fffffff8
fffffffa
fffffff8
fffffffc
fffffffe
ffffffff
fffffffa
00000000
fffffffe
00000000
00000000
00000000
00000001
00000000
00000001
00000002
00000003
00000000
00000000
00000001
ffffffff
00000003
ffffffff
00000000
00000002
fffffffc
fffffff9
00000001
00000000
fffffff6
00000003
fffffffe
fffffffd
fffffffe
ffffffff
fffffffb
ffffffff
00000002
fffffffb
ffffffff
00000004
00000011
00000003
00000003
00000004
00000000
00000001
00000005
ffffffff
ffffffff
fffffff8
00000002
00000000
fffffffb
00000002
00000000
fffffffd
00000000
00000003
fffffffd
00000007
00000000
fffffffe
ffffffff
00000000
fffffffb
00000001
ffffffff
fffffffb
00000001
00000004
00000000
00000002
00000006
00000006
00000000
00000003
fffffff2
fffffffc
00000003
fffffffd
fffffffd
00000001
00000000
fffffffa
fffffffc
fffffffe
fffffffc
fffffffb
fffffff6
fffffff6
fffffffd
fffffffe
fffffffe
fffffffe
fffffff5
fffffff6
00000000
00000000
fffffff8
00000005
00000002
ffffffff
ffffffff
fffffff1
ffffffff
ffffffff
fffffff4
00000003
00000001
fffffffa
00000001
00000001
00000000
00000000
00000004
0000000c
00000001
00000000
00000005
00000004
00000003
00000006
00000002
00000001
fffffff7
fffffffc
00000003
fffffff9
fffffffd
00000001
0000000c
00000000
00000002
00000008
00000002
00000003
ffffffff
00000001
00000000
fffffffe
00000000
fffffffd
fffffffe
fffffffd
00000000
fffffff9
00000000
ffffffff
fffffffc
00000004
fffffffc
fffffffd
00000003
fffffffc
fffffffb
00000002
00000000
00000004
00000004
00000002
fffffffb
00000001
00000000
00000003
00000001
00000002
00000000
fffffffd
00000003
00000002
00000000
00000000
00000006
fffffffd
00000001
00000000
fffffffa
00000002
00000001
fffffffd
00000005
00000004
00000006
fffffffb
fffffffb
00000000
ffffffff
00000000
fffffffe
00000000
00000002
00000000
fffffffe
00000001
00000003
00000000
ffffffff
ffffffff
fffffffd
fffffff9
ffffffff
fffffffc
fffffffc
fffffffa
fffffffc
00000001
fffffffc
00000000
fffffffe
fffffffe
00000000
00000000
fffffffd
00000000
00000003
fffffffe
fffffffe
fffffff8
00000000
00000001
00000000
00000004
ffffffff
fffffffc
00000000
00000001
fffffffc
00000001
fffffffe
0000000d
00000004
ffffffff
00000004
00000000
fffffffe
00000002
00000001
00000000
fffffffb
fffffffe
00000000
00000002
fffffffc
ffffffff
fffffffc
00000000
00000000
00000002
fffffffd
00000003
00000005
00000003
00000000
00000004
00000001
fffffffe
fffffffa
00000001
00000004
00000000
fffffffd
00000000
00000001
00000000
fffffffc
00000000
fffffffb
fffffffc
fffffffe
fffffffb
00000001
00000004
00000004
00000000
00000000
00000000
ffffffff
00000003
fffffffc
fffffffd
00000002
fffffffe
00000001
fffffffc
ffffffff
00000000
00000000
ffffffff
fffffffa
00000000
00000001
00000000
ffffffff
00000003
00000003
00000003
ffffffff
00000003
fffffffe
ffffffff
00000000
ffffffff
fffffffb
00000000
fffffffd
fffffffc
00000001
00000004
00000000
00000002
00000004
fffffffd
00000002
00000002
00000002
00000001
00000003
00000002
fffffffc
fffffffc
fffffff9
fffffff3
fffffff7
fffffffc
00000000
0000000c
0000000b
ffffffff
fffffffe
ffffffff
ffffffff
00000001
ffffffff
00000002
00000008
00000001
00000003
00000002
00000001
fffffff9
ffffffff
ffffffff
fffffffc
00000000
00000000
00000001
00000005
00000001
00000001
00000000
00000006
00000001
00000005
00000000
00000000
00000006
00000008
00000003
00000003
00000000
00000000
00000003
00000000
00000004
00000000
00000003
00000004
0000000a
0000000b
00000000
00000000
ffffffff
00000004
ffffffff
00000002
00000002
00000005
00000000
00000001
00000002
00000000
fffffffb
fffffff8
fffffffa
00000001
fffffffd
fffffffc
00000000
00000001
00000000
00000000
fffffffd
ffffffff
00000004
00000000
00000002
00000000
00000000
00000001
00000003
00000007
fffffffe
00000000
00000000
00000002
00000004
00000004
00000005
00000003
00000003
00000007
00000001
00000002
00000000
fffffffe
fffffffe
ffffffff
fffffffa
fffffffc
fffffff6
fffffffe
fffffffe
ffffffff
fffffffd
00000007
00000005
00000004
00000001
00000006
00000000
00000003
00000002
fffffffe
ffffffff
fffffffd
fffffffd
fffffffc
fffffffc
fffffffe
fffffffd
fffffffb
00000003
00000002
ffffffff
00000004
00000004
00000005
00000004
00000001
00000003
00000000
00000000
00000002
fffffffb
00000000
ffffffff
fffffffb
fffffff9
fffffff7
00000002
fffffffb
fffffffc
ffffffff
00000000
00000005
fffffffe
fffffffe
00000004
00000001
00000000
00000000
fffffffc
00000000
fffffffd
fffffffc
ffffffff
fffffffe
fffffff9
fffffff9
00000001
fffffffc
fffffffa
ffffffff
fffffffd
fffffff7
00000000
fffffffd
fffffffd
ffffffff
00000002
fffffffc
00000000
00000001
ffffffff
00000003
00000004
fffffffa
ffffffff
00000000
00000002
ffffffff
fffffffb
fffffffb
fffffffe
fffffffd
fffffffc
00000000
fffffffb
fffffffa
fffffffd
00000002
00000007
fffffffc
00000005
00000004
00000000
ffffffff
fffffffd
fffffff9
00000000
fffffffb
00000003
ffffffff
00000000
fffffffd
00000004
00000005
00000002
00000000
00000001
00000003
00000000
00000000
00000001
fffffffe
fffffffe
00000002
fffffff9
00000000
00000000
fffffffb
fffffffe
fffffffe
00000001
00000002
00000003
fffffffe
ffffffff
00000001
00000000
00000001
fffffffe
fffffff7
fffffffa
fffffff8
fffffffb
fffffffc
00000000
fffffffe
00000000
ffffffff
fffffffe
00000000
ffffffff
00000001
00000000
00000000
00000000
00000002
fffffffb
00000001
ffffffff
fffffffe
00000004
00000001
00000007
00000001
00000001
00000001
fffffffb
fffffffa
fffffffd
fffffffc
fffffff9
fffffff8
00000000
00000000
fffffffb
00000000
00000003
00000000
fffffffb
fffffff9
ffffffff
fffffffe
fffffffd
00000001
00000000
00000000
00000001
ffffffff
00000004
00000000
00000003
00000001
ffffffff
00000000
fffffff8
fffffffe
fffffffa
fffffff5
00000000
fffffffc
00000002
fffffffd
00000004
ffffffff
fffffffd
00000002
ffffffff
00000001
00000000
fffffffd
ffffffff
fffffffb
00000001
fffffffc
fffffffc
00000000
00000002
ffffffff
00000000
00000000
fffffffd
fffffffc
fffffff7
00000000
fffffffb
00000000
00000003
ffffffff
00000004
00000000
00000000
ffffffff
00000005
00000002
00000002
00000002
00000001
fffffffc
00000006
00000002
00000005
fffffffc
fffffffc
fffffffd
00000001
fffffffd
00000000
ffffffff
fffffffe
fffffff7
fffffffc
fffffffe
fffffffb
ffffffff
00000000
00000000
fffffffb
fffffffd
fffffffe
fffffffa
fffffffe
00000000
00000000
fffffffe
00000004
fffffffd
fffffffe
fffffffe
00000000
fffffffe
fffffffc
00000000
00000007
00000005
fffffffe
00000004
00000004
00000005
00000009
00000004
00000003
00000004
00000001
fffffffc
00000001
fffffffb
ffffffff
00000000
fffffffe
00000002
00000003
00000002
00000001
00000001
00000001
0000000d
ffffffff
00000003
00000006
00000000
ffffffff
ffffffff
00000000
00000003
ffffffff
00000000
00000002
fffffffd
fffffffc
ffffffff
fffffffd
00000005
00000004
00000000
fffffffe
00000000
00000000
00000003
00000001
00000000
00000001
00000000
ffffffff
00000003
00000003
00000000
fffffffd
fffffffe
00000001
ffffffff
fffffffe
fffffffd
fffffffe
fffffffc
00000002
fffffffc
fffffffc
fffffff9
fffffffc
00000004
00000000
00000000
fffffffd
ffffffff
00000001
00000009
fffffffc
fffffffd
00000000
ffffffff
fffffffe
ffffffff
00000001
ffffffff
fffffffe
00000001
00000003
00000001
00000006
fffffff5
00000001
fffffffe
fffffffa
00000000
fffffffe
fffffffe
fffffffb
00000000
00000000
00000001
00000000
fffffffd
00000002
00000000
00000001
00000001
00000000
00000004
fffffffe
00000001
00000001
00000000
ffffffff
00000000
00000003
ffffffff
00000000
00000002
00000002
ffffffff
00000000
00000001
fffffffb
ffffffff
fffffffe
fffffffc
fffffffb
00000009
00000009
00000002
fffffff8
fffffff1
fffffff9
fffffffc
fffffffa
00000000
00000001
00000004
00000005
00000000
00000000
00000000
00000002
fffffffd
00000004
00000002
00000002
00000000
00000000
00000000
00000000
00000000
fffffffb
fffffffe
00000002
00000005
00000002
fffffffd
fffffffb
fffffffb
fffffffe
fffffff6
00000000
fffffffe
00000002
00000009
fffffffd
00000004
00000005
00000004
00000003
ffffffff
00000005
00000000
00000002
00000005
00000002
00000000
fffffffb
fffffffe
fffffff9
00000000
ffffffff
00000001
00000003
00000004
00000000
ffffffff
00000000
fffffffd
0000000b
00000003
00000001
00000003
00000000
00000001
ffffffff
fffffffc
00000001
00000001
00000001
00000004
00000006
00000003
00000006
ffffffff
00000004
fffffffc
00000000
00000000
fffffffb
00000000
ffffffff
ffffffff
00000001
fffffffe
00000000
00000001
ffffffff
00000001
00000000
00000000
00000003
00000000
ffffffff
00000000
00000002
ffffffff
00000000
fffffff9
fffffffd
fffffff9
fffffff4
fffffffe
fffffff7
fffffffa
00000003
00000002
00000001
00000003
00000001
fffffffe
00000001
00000000
fffffffd
00000000
fffffffd
fffffffd
00000000
00000002
00000001
00000000
00000001
00000000
ffffffff
00000004
fffffffa
fffffff6
fffffffa
fffffffd
00000001
fffffffe
ffffffff
00000006
00000002
fffffff9
fffffff9
fffffffd
fffffffd
fffffffe
00000000
ffffffff
00000004
00000004
fffffffd
fffffff9
fffffffa
fffffff5
fffffffa
00000002
fffffffb
fffffffd
00000000
00000001
00000001
00000003
00000005
00000001
00000001
00000004
00000005
00000007
fffffffa
00000002
00000003
fffffffd
fffffffe
00000001
fffffffb
ffffffff
00000000
00000004
fffffffe
00000000
00000007
00000003
00000001
00000000
00000004
ffffffff
00000003
00000007
00000008
00000003
0000000d
00000004
00000000
00000002
fffffffc
fffffffe
fffffffe
00000000
ffffffff
00000000
00000001
00000000
00000000
00000001
00000001
00000001
00000003
00000000
fffffffc
fffffffe
ffffffff
fffffffb
fffffffd
00000001
00000005
00000002
00000004
00000007
00000004
00000000
00000000
fffffffb
0000000a
00000005
00000003
00000004
00000001
00000001
00000003
00000000
00000002
fffffffb
fffffff7
fffffffb
fffffffa
fffffff8
fffffffb
fffffffc
00000004
00000001
00000001
fffffffe
ffffffff
00000000
fffffffe
00000001
00000000
00000002
00000004
fffffffc
fffffff3
fffffffa
fffffffa
fffffffd
fffffffc
fffffffb
00000001
fffffff9
00000002
00000002
00000001
ffffffff
fffffffd
00000000
ffffffff
ffffffff
00000000
ffffffff
00000004
00000000
00000000
00000003
00000000
fffffffc
00000000
fffffffc
00000002
00000002
00000002
00000002
00000002
00000000
00000004
fffffffd
00000001
00000001
ffffffff
ffffffff
fffffffb
00000003
00000002
00000001
ffffffff
00000001
fffffff6
fffffffe
fffffffb
fffffff9
fffffffa
fffffffd
00000001
00000007
0000000c
00000001
fffffffc
00000000
00000000
ffffffff
00000001
ffffffff
fffffffc
fffffffd
fffffff9
fffffffc
fffffffe
fffffffc
fffffffb
fffffff9
fffffffc
fffffffd
fffffffa
fffffffe
fffffffe
ffffffff
00000000
fffffffe
fffffffe
00000005
00000002
fffffffd
fffffffe
00000004
ffffffff
00000002
00000002
00000000
00000002
00000001
00000000
0000000a
0000000a
00000004
00000004
00000001
ffffffff
fffffffe
00000003
00000001
fffffffb
fffffffe
fffffffe
fffffffe
00000000
00000002
00000000
fffffffa
ffffffff
fffffffa
fffffffb
fffffffb
00000002
00000004
fffffffa
00000002
0000000a
fffffffa
00000002
fffffffb
00000000
fffffffb
fffffff8
fffffffc
ffffffff
00000000
fffffffc
fffffffc
fffffffd
ffffffff
00000006
00000003
00000004
00000007
00000007
00000002
ffffffff
00000000
fffffffc
fffffff9
fffffffb
fffffffa
00000000
fffffffa
ffffffff
00000000
00000000
fffffffb
00000001
00000003
00000000
00000003
00000003
00000005
fffffffe
fffffffd
fffffffe
fffffffb
fffffffb
fffffffc
00000000
00000000
00000000
00000001
00000003
00000000
00000000
ffffffff
00000004
ffffffff
fffffffa
00000006
00000002
00000000
00000002
fffffff8
fffffffb
fffffffb
ffffffff
fffffffb
fffffffe
00000002
00000002
00000000
00000001
00000002
00000001
00000000
00000000
ffffffff
00000000
00000002
fffffffe
00000003
00000002
ffffffff
00000002
00000001
ffffffff
00000005
ffffffff
ffffffff
ffffffff
fffffffa
fffffffc
fffffffd
00000003
00000001
00000003
00000001
00000000
00000004
fffffffe
ffffffff
00000001
fffffffa
fffffffd
fffffffc
fffffffe
fffffffc
ffffffff
fffffffe
00000000
00000005
00000000
fffffffe
fffffffe
fffffffd
fffffffe
fffffff8
fffffffc
fffffffe
00000000
fffffffa
00000000
00000000
ffffffff
00000000
00000004
fffffffc
ffffffff
fffffffb
00000000
fffffffc
00000001
00000000
00000000
00000000
00000000
ffffffff
fffffffc
fffffffe
00000000
ffffffff
fffffffd
00000000
00000000
fffffffc
fffffffe
00000002
ffffffff
fffffff9
00000000
fffffffe
00000002
fffffffe
fffffffa
fffffffe
fffffffe
fffffffa
fffffffd
00000005
00000001
00000000
00000000
fffffffd
00000003
00000000
fffffffc
00000001
fffffffe
fffffffa
fffffffc
fffffffc
fffffff8
ffffffff
00000003
00000000
00000001
fffffffd
fffffffd
fffffffc
fffffffe
fffffffb
fffffffd
00000000
fffffffc
ffffffff
00000001
ffffffff
fffffffe
00000001
ffffffff
fffffffd
00000000
fffffffa
00000000
fffffffe
fffffffe
fffffffe
fffffffb
fffffff9
fffffffb
fffffffe
fffffffe
fffffffa
00000000
fffffff6
00000000
00000004
00000008
0000000a
fffffffd
00000008
00000007
fffffffb
00000002
ffffffff
00000000
00000000
00000002
fffffffd
00000001
00000001
00000001
ffffffff
00000004
fffffffd
00000000
00000004
fffffffc
ffffffff
ffffffff
fffffffc
00000000
00000000
fffffffc
00000002
fffffffc
fffffffa
00000001
ffffffff
00000003
00000005
fffffffc
00000002
00000005
00000001
00000000
00000003
00000000
fffffffd
fffffffd
ffffffff
00000000
00000006
00000000
fffffffe
00000002
00000001
00000003
00000003
00000001
00000005
00000006
00000003
00000002
00000000
00000000
00000000
fffffffb
fffffff8
00000003
00000000
00000000
fffffffe
00000004
00000000
fffffffb
fffffffc
ffffffff
ffffffff
00000001
fffffffb
00000001
00000003
fffffffe
fffffffe
fffffffa
fffffffe
00000000
00000002
fffffffb
00000000
00000003
fffffffc
00000000
fffffffa
fffffffe
00000000
00000003
fffffffd
00000000
00000002
00000003
fffffff7
fffffff8
fffffffe
fffffffe
00000000
fffffffc
00000000
00000000
fffffffc
00000000
00000004
ffffffff
00000004
00000008
00000001
fffffffd
00000002
00000005
00000000
fffffffe
00000000
fffffffe
00000001
00000000
00000003
00000002
00000003
00000000
00000001
fffffffe
00000003
00000006
00000001
00000004
ffffffff
00000001
00000003
00000006
00000000
fffffffe
fffffffd
00000000
fffffffc
fffffffc
fffffff8
00000000
00000000
00000003
00000000
00000003
fffffffc
00000000
fffffffd
00000000
00000000
00000001
00000002
fffffffd
00000004
00000002
00000001
00000000
fffffffd
00000002
00000000
00000005
00000004
ffffffff
00000000
fffffffe
00000004
fffffffd
00000004
00000005
00000000
00000000
00000000
00000003
ffffffff
ffffffff
00000004
fffffff8
fffffffd
00000003
fffffffb
00000000
00000000
fffffffe
00000000
00000000
00000000
00000001
00000001
fffffffc
00000001
ffffffff
ffffffff
fffffffc
00000001
ffffffff
ffffffff
00000000
00000004
00000000
00000000
ffffffff
00000005
00000000
fffffffe
00000000
fffffffc
00000000
00000005
00000001
ffffffff
00000003
00000000
fffffffc
00000001
00000000
fffffffe
00000000
00000001
00000001
00000000
00000002
fffffffd
00000000
00000001
fffffffd
00000001
00000002
fffffffd
00000000
00000000
fffffff8
fffffffb
00000003
fffffffe
fffffffd
fffffffe
ffffffff
00000000
fffffffd
fffffff0
fffffff9
00000005
fffffff8
fffffff7
fffffffe
fffffffe
fffffff9
fffffff8
ffffffff
00000000
00000002
00000000
fffffffe
00000002
00000001
fffffffe
00000004
fffffffd
fffffffe
fffffffd
fffffffe
ffffffff
00000000
ffffffff
ffffffff
00000000
00000003
00000004
00000000
00000000
00000007
00000000
ffffffff
fffffffd
00000003
fffffff9
00000000
00000002
ffffffff
fffffffe
fffffffe
00000000
00000003
fffffffc
fffffffb
00000001
fffffffc
ffffffff
00000000
ffffffff
00000000
fffffffd
00000000
00000008
00000007
fffffffc
00000001
00000006
fffffffe
00000005
00000003
00000002
00000008
00000004
00000000
fffffffe
00000000
fffffffe
fffffffc
fffffffa
00000000
00000001
fffffffe
00000005
00000000
fffffffe
00000003
ffffffff
00000004
ffffffff
00000002
00000001
0000000a
00000002
fffffffe
00000003
fffffffc
fffffffd
fffffffb
fffffffb
ffffffff
00000000
ffffffff
00000000
fffffffc
ffffffff
fffffffe
00000000
fffffff7
fffffffb
ffffffff
fffffffa
fffffff9
fffffffa
fffffffe
fffffffd
fffffffe
00000002
00000001
00000000
00000004
00000004
00000001
00000001
00000001
00000003
00000008
00000002
00000009
0000000a
00000002
00000009
fffffffe
00000000
00000002
00000004
00000003
fffffffe
00000000
00000005
00000006
ffffffff
00000008
00000003
fffffffd
fffffffd
ffffffff
00000000
00000000
fffffffd
00000000
00000000
00000000
00000006
00000002
fffffffd
00000003
00000001
00000001
00000001
00000000
00000004
ffffffff
00000001
00000000
fffffffe
00000002
00000000
00000000
00000000
fffffffd
00000008
00000003
fffffffb
00000004
00000002
00000001
fffffffd
00000000
00000001
00000007
00000005
fffffffa
00000001
00000006
00000000
00000002
00000005
00000002
00000000
00000001
00000000
fffffffe
00000002
ffffffff
fffffffe
ffffffff
fffffffe
00000000
00000001
00000000
fffffffe
00000001
00000001
00000002
00000000
fffffffc
00000000
fffffff7
fffffff7
fffffffc
fffffffb
fffffff5
fffffffb
00000000
fffffffd
fffffff9
00000000
00000005
ffffffff
fffffffd
00000000
ffffffff
fffffffc
fffffffe
fffffffe
00000001
00000001
00000001
00000001
00000002
fffffffc
00000000
00000001
00000004
00000001
fffffffe
00000001
00000000
00000003
ffffffff
00000001
00000004
fffffffb
fffffffb
00000000
fffffffc
fffffffc
00000001
fffffffa
fffffff8
00000001
00000000
fffffffd
00000000
00000000
00000000
00000000
00000002
00000002
fffffffd
00000001
00000001
fffffffc
00000003
00000004
00000001
fffffffd
fffffffe
00000006
00000001
00000007
00000007
fffffffe
fffffffd
00000000
00000000
00000000
00000000
00000004
00000008
00000000
00000000
00000000
00000001
00000000
fffffffd
fffffffe
00000000
00000003
00000000
00000002
00000001
00000002
00000008
fffffffe
00000002
00000005
00000000
00000003
00000000
fffffffe
fffffff8
fffffffd
00000000
fffffff3
fffffff5
fffffffe
00000003
fffffffa
ffffffff
fffffffc
fffffffa
ffffffff
fffffffc
fffffff9
fffffffd
00000003
fffffffb
fffffffd
00000000
ffffffff
00000004
00000003
00000004
00000002
00000000
00000005
00000006
00000000
00000001
00000000
fffffffe
00000006
fffffffe
00000002
00000008
00000002
fffffffe
00000003
00000005
fffffff8
00000003
00000002
00000000
00000003
00000002
00000005
00000001
00000003
00000003
fffffff5
fffffffb
fffffffe
00000000
00000000
00000000
00000000
00000001
fffffffd
0000000a
00000005
fffffffb
00000002
00000003
00000000
00000005
00000004
00000005
00000005
00000002
fffffffe
ffffffff
fffffffc
fffffffe
00000003
00000003
00000002
00000004
00000000
fffffffd
00000004
00000000
fffffffc
fffffffd
fffffffd
00000002
00000002
00000006
fffffffa
ffffffff
00000008
00000000
fffffffa
00000003
00000003
00000005
00000003
ffffffff
00000002
00000002
00000000
fffffffc
00000002
00000003
fffffffb
fffffffd
00000005
00000001
fffffffa
00000002
fffffffe
fffffffd
00000001
fffffffa
fffffffe
fffffffe
00000000
00000000
00000001
00000001
00000001
ffffffff
00000000
00000003
00000008
00000003
00000004
00000000
00000005
00000004
00000001
fffffffe
00000000
00000002
00000002
ffffffff
00000000
00000003
00000000
fffffff8
00000002
fffffffc
fffffffe
00000002
fffffffe
00000005
00000006
00000006
0000000a
00000000
ffffffff
00000001
00000002
00000003
ffffffff
00000001
00000001
00000000
fffffffd
fffffffd
fffffffe
fffffffb
00000002
00000002
00000000
00000000
ffffffff
fffffff7
00000000
00000004
fffffffe
00000000
00000000
fffffffc
fffffffb
ffffffff
00000005
00000005
fffffffd
00000007
00000008
00000005
00000000
ffffffff
00000007
fffffffb
00000000
00000006
fffffffe
00000000
00000003
fffffffe
fffffffd
00000000
00000004
fffffff7
00000000
00000003
fffffffe
fffffffe
00000000
00000001
fffffffa
ffffffff
00000001
fffffffb
00000000
00000002
fffffffc
00000000
00000001
fffffffe
ffffffff
ffffffff
fffffffa
00000000
00000003
00000000
00000000
00000003
00000006
fffffffe
00000001
00000009
fffffffd
00000000
00000006
00000002
00000004
00000002
00000004
00000000
00000005
00000006
00000003
00000001
00000005
00000003
00000002
00000000
00000000
00000001
00000000
00000003
fffffffd
fffffffc
00000003
fffffffd
fffffff4
fffffffa
00000003
fffffffa
fffffffd
00000001
00000000
00000000
ffffffff
00000000
00000003
00000000
00000002
00000000
00000002
00000000
00000000
00000002
00000002
00000003
00000002
00000002
00000003
00000000
00000004
ffffffff
00000003
fffffff9
fffffffe
00000003
00000000
fffffffd
fffffffc
fffffffa
fffffffd
fffffff6
fffffffe
00000004
ffffffff
00000005
00000006
ffffffff
00000003
00000000
fffffffe
ffffffff
00000001
fffffffe
00000006
00000000
00000000
fffffffb
fffffffe
fffffffc
ffffffff
00000002
ffffffff
00000000
00000001
00000006
fffffffa
00000000
fffffffe
fffffffe
fffffffe
00000002
00000000
00000001
00000000
fffffffd
00000002
fffffffd
ffffffff
fffffffe
fffffffe
fffffffe
fffffffd
ffffffff
ffffffff
ffffffff
00000000
00000001
00000004
00000004
ffffffff
00000004
00000002
00000000
00000000
fffffffc
00000000
00000000
00000003
00000001
fffffffe
00000001
00000004
00000000
00000000
00000000
00000008
00000007
fffffffc
00000001
0000000c
fffffff9
ffffffff
0000000a
fffffffe
ffffffff
fffffffb
00000001
fffffffe
00000000
ffffffff
00000001
00000000
00000001
00000008
00000000
00000004
00000000
fffffffb
00000002
fffffffc
fffffff9
00000007
00000001
fffffff9
00000002
00000003
00000003
ffffffff
00000003
0000000b
00000005
00000000
fffffffc
00000003
fffffffd
ffffffff
00000000
00000000
00000003
00000000
fffffffb
fffffff7
00000002
00000000
00000000
00000000
ffffffff
fffffffb
fffffff6
00000000
00000005
ffffffff
fffffffc
fffffffc
00000007
fffffffd
fffffffb
ffffffe7
fffffff2
fffffff8
fffffff4
fffffff9
fffffff4
fffffff8
fffffff8
fffffff7
00000000
ffffffff
fffffffe
00000000
00000000
fffffffb
fffffffc
fffffff9
fffffffc
00000002
00000002
00000000
00000002
00000000
00000001
ffffffff
fffffffb
00000000
00000001
00000003
fffffffd
fffffffe
ffffffff
00000000
ffffffff
fffffffd
fffffffe
00000005
ffffffff
fffffffc
00000001
00000000
00000001
00000004
00000002
00000002
00000007
00000005
fffffff8
00000005
00000008
00000004
fffffff8
00000001
00000004
0000000d
00000005
0000000a
00000000
fffffffc
00000009
00000001
ffffffff
00000005
00000001
00000001
ffffffff
00000003
00000000
00000000
00000000
00000001
00000001
fffffffc
ffffffff
fffffffd
fffffffa
00000001
fffffffe
00000000
00000004
ffffffff
00000001
00000000
00000006
ffffffff
00000000
00000001
00000005
00000001
00000005
00000001
fffffffb
ffffffff
00000003
ffffffff
ffffffff
00000003
00000001
00000000
00000000
fffffffe
fffffffd
fffffffb
fffffffa
fffffffd
00000000
00000004
00000000
00000000
ffffffff
00000001
00000001
00000000
00000000
00000001
00000001
fffffffd
00000000
00000002
00000003
fffffffc
00000001
00000001
00000001
00000002
00000000
00000004
00000002
fffffffa
00000001
00000002
00000000
00000001
00000001
00000000
00000002
00000007
00000007
00000000
00000003
00000004
fffffffb
00000000
fffffffe
fffffffb
fffffff9
fffffffd
fffffffc
fffffff9
fffffff8
fffffffd
fffffffd
fffffff4
fffffffd
fffffff8
fffffffd
00000003
00000000
00000001
00000003
00000003
00000001
fffffffb
fffffffe
fffffffe
00000000
00000001
ffffffff
00000003
fffffffe
ffffffff
fffffffb
fffffffa
fffffffd
fffffffa
fffffff7
fffffffd
fffffffd
fffffffd
00000000
fffffffe
fffffffe
fffffffe
fffffffe
fffffffc
fffffffd
fffffffd
fffffff6
fffffffd
00000007
00000003
fffffffe
ffffffff
00000005
00000006
fffffffe
00000003
00000002
fffffffd
fffffffd
00000001
ffffffff
fffffffc
fffffffb
ffffffff
00000001
fffffff6
fffffff8
fffffff6
ffffffff
00000002
00000000
fffffffe
00000001
00000002
00000000
fffffffe
ffffffff
00000000
00000000
00000000
00000000
00000001
00000003
00000003
00000006
00000009
00000010
ffffffff
00000003
0000000f
00000002
00000002
00000004
fffffffc
fffffffb
00000001
ffffffff
fffffffa
fffffffe
00000000
00000001
00000001
fffffffc
00000000
fffffffd
ffffffff
0000000a
00000001
00000000
fffffffb
ffffffff
00000000
00000008
fffffffe
fffffffe
00000007
00000000
fffffffd
ffffffff
00000001
00000000
0000000a
00000000
00000000
fffffffa
fffffffe
fffffffe
fffffff7
fffffffb
00000000
fffffffe
fffffffd
00000003
00000000
ffffffff
00000008
00000003
00000005
fffffffd
00000001
00000000
00000005
00000001
00000002
fffffffe
00000002
00000001
fffffffc
fffffffb
00000000
00000001
00000001
00000000
00000000
00000001
00000000
fffffffc
fffffff6
fffffffc
fffffffd
00000004
fffffff9
fffffffe
00000003
fffffffe
00000000
00000000
fffffffc
ffffffff
00000000
fffffffd
ffffffff
fffffffc
fffffffc
00000002
0000000a
00000000
fffffffe
fffffffb
ffffffff
ffffffff
fffffffd
fffffffe
00000000
00000001
00000003
00000001
00000000
00000000
00000000
fffffff9
fffffffb
00000003
00000014
00000000
00000000
fffffffb
00000001
fffffffe
fffffffa
00000004
00000000
fffffff5
00000002
ffffffff
00000000
00000002
ffffffff
fffffffd
00000003
00000000
00000007
00000000
00000000
00000006
fffffffc
fffffffb
0000000c
00000005
fffffffe
fffffffb
fffffffc
00000000
fffffffa
ffffffff
00000000
00000000
fffffffd
00000008
00000003
00000002
00000006
00000001
00000002
00000000
fffffff8
00000000
00000002
0000000a
00000001
ffffffff
00000000
00000001
00000002
00000000
00000004
00000000
fffffffa
00000003
fffffffd
fffffffa
fffffffd
fffffffc
00000007
fffffffc
00000002
00000001
ffffffff
fffffffd
fffffffd
ffffffff
00000000
00000002
ffffffff
00000000
ffffffff
00000001
00000000
fffffffe
ffffffff
00000007
fffffffe
00000003
00000000
00000000
fffffffe
fffffffd
00000000
00000000
fffffffe
ffffffff
fffffffe
ffffffff
fffffffd
00000000
00000005
00000003
00000004
00000002
00000008
00000004
00000000
fffffffd
ffffffff
00000000
00000003
00000000
00000000
fffffffb
00000003
00000000
fffffff5
00000000
00000001
fffffffd
fffffffc
fffffffe
00000002
fffffffe
fffffffb
ffffffee
00000000
fffffffb
fffffff8
00000000
00000005
00000006
00000006
00000004
0000000a
00000004
00000000
00000007
00000001
ffffffff
00000000
00000000
00000000
00000006
fffffffd
fffffffd
00000001
fffffffd
fffffffa
fffffff1
fffffffa
00000002
00000008
00000002
ffffffff
ffffffff
00000000
00000004
00000001
00000000
ffffffff
00000000
fffffffe
00000000
00000001
00000001
ffffffff
ffffffff
ffffffff
00000001
0000000b
00000000
00000000
00000001
fffffffd
00000000
fffffffd
fffffffe
00000000
00000008
00000000
00000001
00000003
00000001
00000002
ffffffff
00000003
fffffffd
fffffff8
ffffffff
fffffffe
fffffff9
00000000
00000001
00000001
00000001
fffffffe
ffffffff
fffffffb
00000000
00000000
00000000
ffffffff
00000002
0000000a
00000000
ffffffff
fffffffd
00000000
00000000
00000000
00000001
00000000
00000002
ffffffff
fffffffe
00000000
fffffffd
ffffffff
fffffffb
fffffffd
00000007
00000000
fffffffe
fffffff3
fffffffd
fffffffe
00000008
00000000
fffffffe
00000001
fffffffc
00000000
00000008
00000003
00000002
00000000
00000000
00000002
fffffffd
00000000
00000000
ffffffff
00000000
00000000
00000002
00000007
00000005
00000007
00000002
fffffffe
fffffffb
fffffffb
ffffffff
fffffff9
fffffffe
00000000
fffffffe
00000001
fffffffe
00000000
ffffffff
00000000
00000001
fffffffe
ffffffff
ffffffff
00000000
00000000
fffffffd
fffffffd
00000000
fffffffb
ffffffff
00000002
ffffffff
00000003
00000003
00000007
00000000
00000000
fffffffb
fffffffd
ffffffff
fffffff5
fffffffc
00000003
00000018
00000004
fffffffb
fffffffe
fffffffd
fffffffd
fffffff2
00000000
00000002
00000008
00000000
00000000
00000003
00000000
00000000
fffffffd
00000002
00000003
00000008
00000002
00000004
00000005
00000004
00000000
00000000
ffffffff
fffffffd
fffffffb
00000000
ffffffff
00000002
00000000
fffffffd
fffffffd
00000000
00000005
fffffff9
00000002
00000000
00000000
00000000
fffffffe
00000005
0000000e
fffffffe
ffffffec
00000001
00000000
fffffffb
00000000
00000001
00000000
00000001
00000000
ffffffff
00000001
00000000
fffffffb
ffffffff
00000002
ffffffff
00000000
fffffffe
fffffff4
fffffffe
00000003
00000005
ffffffff
00000005
0000000e
00000001
00000000
00000005
00000000
ffffffff
00000001
ffffffff
00000000
00000005
ffffffff
00000001
00000008
00000002
ffffffff
00000004
00000001
fffffffc
00000003
00000002
00000000
fffffffd
fffffffe
00000001
fffffffd
00000001
00000000
fffffff9
00000000
00000000
fffffffc
ffffffff
00000002
fffffffa
fffffffe
ffffffff
fffffff7
00000000
fffffffe
ffffffff
fffffffd
fffffffe
fffffff8
fffffffb
00000001
0000000c
00000002
00000000
fffffffa
fffffffe
00000000
fffffff9
fffffffd
00000001
00000000
00000000
00000000
00000001
00000002
fffffffd
00000001
00000001
00000000
00000001
00000004
00000000
fffffff4
00000000
fffffffd
00000006
00000000
00000004
0000000e
00000002
00000000
fffffffe
00000000
00000000
00000003
ffffffff
00000000
0000000a
fffffff9
00000000
00000004
00000003
ffffffff
00000000
00000000
00000000
fffffffe
00000000
00000001
00000000
fffffffa
00000005
00000006
00000001
fffffffe
00000000
00000007
00000002
00000000
00000003
ffffffff
00000001
00000000
00000002
00000002
00000001
00000002
00000000
ffffffff
00000007
00000000
fffffffe
00000003
ffffffff
00000001
00000003
fffffffa
00000003
00000004
00000005
ffffffff
00000003
fffffffc
00000001
00000002
ffffffff
00000000
00000002
00000002
00000001
fffffffe
fffffffe
00000001
fffffffd
ffffffff
00000000
fffffffe
fffffffc
fffffffe
fffffffe
fffffffc
00000001
00000004
00000005
00000001
00000001
00000000
ffffffff
fffffffe
fffffffd
ffffffff
fffffffd
fffffff6
fffffffe
00000000
00000005
00000001
00000002
00000001
00000001
ffffffff
00000004
00000001
fffffffe
00000004
fffffffe
fffffffa
ffffffff
fffffffc
fffffffe
fffffff3
fffffffe
fffffffd
fffffffb
00000000
00000003
ffffffff
00000000
00000002
00000000
00000000
00000000
00000000
00000000
00000001
fffffffe
00000002
00000000
00000005
00000005
fffffffc
ffffffff
00000006
00000000
ffffffff
00000007
fffffffe
fffffffe
fffffffd
00000001
00000000
fffffffa
00000004
00000002
00000002
00000001
fffffffa
00000001
00000001
fffffffd
fffffffe
ffffffff
00000001
00000000
00000000
00000002
00000000
00000001
00000005
00000000
00000000
00000001
00000004
00000003
fffffffc
ffffffff
00000005
fffffff5
ffffffff
00000000
00000000
00000004
00000000
fffffffc
ffffffff
fffffffb
fffffffa
fffffffe
fffffffd
fffffffc
fffffffd
00000002
fffffffd
00000002
00000000
fffffffb
fffffffe
ffffffff
fffffffa
fffffffb
00000003
00000003
00000000
00000001
00000000
fffffffe
00000000
00000000
00000004
00000003
00000003
00000002
00000001
ffffffff
00000000
00000001
00000006
00000001
fffffff7
fffffffb
fffffffe
00000001
00000003
00000003
00000009
00000005
00000002
fffffffe
fffffffd
ffffffff
00000002
ffffffff
00000001
00000003
00000003
00000002
00000000
00000000
fffffffa
ffffffff
fffffffe
fffffffe
00000000
00000004
fffffffe
00000000
00000001
00000000
00000000
00000004
00000001
00000000
00000000
00000002
fffffff9
ffffffe2
fffffffa
fffffffc
fffffff7
fffffffe
ffffffff
00000004
00000002
00000003
00000000
00000001
00000000
fffffffd
00000000
00000000
ffffffff
ffffffff
fffffffe
fffffffd
fffffffc
ffffffff
fffffffd
00000000
00000003
00000002
fffffffa
00000005
ffffffff
00000000
00000000
00000000
00000005
00000002
fffffff7
00000000
00000003
00000001
fffffffe
fffffffd
00000001
fffffffb
ffffffff
fffffffe
fffffffd
00000001
fffffffd
00000001
fffffffc
00000000
00000002
00000000
00000001
00000003
00000002
00000003
00000001
00000001
00000000
00000004
00000006
00000000
00000004
fffffffe
fffffff7
00000002
ffffffff
fffffff7
00000000
ffffffff
fffffffd
00000003
ffffffff
00000004
00000000
00000000
00000004
fffffffe
00000003
00000003
fffffffe
00000000
fffffffd
ffffffff
00000000
ffffffff
00000002
fffffffe
fffffffd
00000000
00000000
fffffffb
00000002
00000000
00000001
ffffffff
00000006
00000004
fffffffc
00000004
00000002
00000000
00000000
00000001
00000002
00000001
00000001
fffffffe
fffffffe
fffffffa
00000003
00000002
00000002
00000001
00000000
00000002
00000000
ffffffff
fffffffe
00000003
ffffffff
fffffffa
00000001
00000000
fffffffa
00000000
ffffffff
00000003
00000001
ffffffff
00000000
fffffffc
00000000
00000000
fffffffd
00000002
00000006
00000003
00000000
00000005
00000002
ffffffff
00000002
fffffffd
00000003
00000007
00000001
ffffffff
00000003
00000000
ffffffff
00000009
ffffffff
ffffffff
00000003
fffffffd
00000005
fffffffe
00000000
00000002
fffffffd
00000002
fffffff7
fffffffc
00000003
ffffffff
fffffff8
00000004
fffffffa
00000003
00000002
00000002
00000001
00000001
fffffffc
fffffffd
00000002
ffffffff
00000001
00000000
00000000
00000004
00000004
00000005
00000000
00000002
00000000
00000000
ffffffff
fffffff9
ffffffeb
fffffffc
00000000
fffffffc
00000000
00000000
fffffff9
ffffffff
fffffffe
fffffff5
ffffffff
fffffffd
fffffffe
ffffffff
00000000
fffffffe
00000001
fffffffe
fffffffc
fffffffd
fffffffd
00000000
00000000
00000000
fffffffd
00000001
00000007
00000002
00000002
00000001
00000001
00000001
00000004
fffffff6
fffffffc
00000000
fffffffe
ffffffff
00000001
fffffffa
ffffffff
ffffffff
fffffff7
00000000
fffffffe
fffffffb
fffffffc
ffffffff
00000000
00000000
ffffffff
fffffff8
ffffffff
00000009
0000000a
00000003
ffffffff
fffffffd
fffffffd
fffffffe
fffffffc
00000000
00000001
00000001
ffffffff
ffffffff
00000005
00000000
00000000
00000001
00000000
fffffffd
ffffffef
fffffffe
00000003
00000000
00000000
ffffffff
fffffffa
ffffffff
00000000
fffffffd
00000002
00000000
fffffff9
00000001
00000002
00000007
00000004
fffffffa
fffffffe
ffffffff
ffffffff
fffffffc
fffffffe
00000000
ffffffff
00000000
00000001
00000002
00000000
00000000
00000001
00000000
00000001
00000000
00000002
00000001
00000002
00000000
00000002
fffffff7
ffffffff
ffffffff
fffffffa
ffffffff
ffffffff
fffffffc
00000001
fffffffe
fffffff9
00000001
fffffffe
00000002
00000003
00000005
00000003
00000002
00000003
00000001
00000000
00000000
00000000
00000000
ffffffff
fffffff8
ffffffff
fffffffe
00000000
00000001
fffffffe
00000002
00000000
00000000
fffffff7
fffffffd
00000001
ffffffff
ffffffff
00000001
00000008
00000000
fffffffd
fffffff7
00000000
00000000
00000000
00000000
00000003
fffffffd
ffffffff
fffffff7
fffffffb
fffffffc
00000000
ffffffff
ffffffff
00000004
00000005
00000004
00000000
fffffffa
fffffffd
00000001
00000002
fffffffd
ffffffff
00000003
00000008
fffffffe
fffffff8
fffffffe
00000004
00000003
00000000
fffffffe
00000000
ffffffff
fffffffe
ffffffff
fffffffc
ffffffff
fffffffc
fffffffc
00000000
fffffffc
ffffffff
00000005
fffffffe
00000001
00000001
fffffff9
00000000
00000002
00000004
00000003
00000002
fffffffb
fffffffd
fffffffd
fffffffe
ffffffff
00000000
00000005
00000003
ffffffff
fffffffc
ffffffff
fffffffe
fffffff8
fffffffb
00000000
ffffffff
00000001
00000000
00000001
00000000
fffffffc
fffffffa
fffffffc
fffffffc
fffffffa
fffffffe
00000000
00000001
00000000
00000000
ffffffff
00000001
fffffffe
fffffffc
fffffffe
fffffffe
fffffffc
fffffffd
00000001
00000000
fffffffe
00000003
00000002
ffffffff
00000000
fffffffc
fffffffb
fffffffc
fffffffa
fffffffb
fffffffd
fffffffc
00000000
fffffffe
fffffffd
fffffffd
fffffffe
fffffff8
ffffffff
fffffffc
ffffffff
fffffffc
00000000
00000003
00000001
fffffffd
00000000
fffffffe
ffffffff
fffffffa
fffffffe
00000001
00000001
00000000
fffffffd
ffffffff
00000000
00000000
ffffffff
00000001
00000001
00000000
00000001
fffffffe
fffffffb
ffffffff
fffffffc
fffffff5
fffffffe
00000005
00000001
00000002
00000001
00000003
00000002
00000001
00000001
ffffffff
00000001
00000001
fffffffe
00000002
00000000
00000000
00000000
00000002
00000005
fffffffe
00000005
00000005
fffffffa
00000003
00000000
fffffffe
00000005
ffffffff
fffffffc
00000000
ffffffff
fffffffe
00000002
00000000
00000000
0000000a
00000003
00000004
00000004
00000006
00000004
fffffffc
00000002
00000003
fffffffd
fffffffd
00000000
ffffffff
00000000
ffffffff
00000002
00000004
00000000
00000003
00000003
fffffffd
fffffffb
fffffffa
00000000
fffffffb
fffffff9
00000000
ffffffff
00000000
00000001
00000004
00000000
ffffffff
fffffffe
fffffffe
fffffffc
fffffff8
00000000
00000000
00000006
00000000
ffffffff
00000002
00000000
fffffffc
00000001
00000000
fffffffd
00000000
00000000
ffffffff
fffffffe
00000000
fffffffb
ffffffff
00000000
00000002
fffffffe
00000002
ffffffff
00000000
00000001
00000003
fffffffd
00000002
00000000
00000001
fffffffe
fffffffe
00000001
ffffffff
00000000
00000002
00000003
00000001
00000002
00000001
00000000
00000003
00000000
00000003
00000000
00000000
00000000
ffffffff
00000001
00000002
00000004
ffffffff
00000006
00000005
00000000
00000000
00000000
00000000
00000000
00000003
00000003
00000000
00000007
00000005
00000001
00000006
00000006
00000000
00000005
00000006
fffffffd
00000005
00000000
fffffffe
00000000
ffffffff
00000001
00000001
00000003
00000000
00000000
00000000
00000001
00000003
00000000
00000000
00000004
00000001
00000000
00000008
00000002
00000001
00000003
00000003
00000000
00000002
00000000
00000001
ffffffff
00000000
fffffffd
fffffffe
00000004
fffffffe
00000000
00000005
ffffffff
ffffffff
00000001
fffffffc
fffffff9
fffffffe
00000000
fffffffd
00000000
00000007
00000009
00000001
00000003
fffffffd
00000001
00000000
fffffff9
00000000
00000001
fffffffd
00000006
00000004
00000003
00000000
00000001
fffffffd
fffffffd
00000003
00000001
ffffffff
ffffffff
ffffffff
fffffffd
fffffffc
fffffffe
fffffff8
fffffffe
00000002
fffffffb
ffffffff
00000001
00000000
ffffffff
ffffffff
fffffffc
00000000
fffffffd
fffffffe
00000001
00000000
00000000
00000004
00000006
00000003
00000005
00000006
00000004
fffffffd
00000006
ffffffff
fffffffd
00000000
fffffffc
00000002
fffffffd
fffffffd
00000001
ffffffff
00000000
00000002
00000000
00000001
ffffffff
00000007
00000003
fffffffe
fffffffc
ffffffff
00000000
00000000
00000000
00000002
00000002
00000003
00000000
00000000
00000001
00000004
00000002
00000004
00000006
00000003
00000003
fffffffe
fffffff5
fffffffb
fffffffe
ffffffff
fffffffe
00000000
00000005
00000000
ffffffff
00000001
00000002
fffffffe
00000000
00000000
00000000
00000000
00000000
fffffffd
00000000
00000000
00000000
00000001
00000000
00000000
00000000
ffffffff
00000001
fffffffe
fffffffd
00000000
fffffffc
fffffffe
fffffffe
fffffffe
fffffffc
00000000
ffffffff
ffffffff
00000000
00000000
fffffffc
fffffffd
fffffff8
fffffffc
00000003
00000002
00000003
00000000
00000000
00000003
00000002
ffffffff
00000000
fffffffd
00000000
ffffffff
fffffffc
00000000
00000002
fffffffd
00000001
00000001
00000004
00000000
00000000
ffffffff
00000000
00000000
00000000
ffffffff
00000000
00000000
fffffffd
00000001
fffffffd
fffffffe
00000000
00000000
00000001
00000002
00000000
00000000
00000003
00000003
00000007
00000003
00000007
0000000f
00000008
00000003
00000006
00000001
00000004
00000005
00000001
00000003
fffffffd
00000000
00000001
00000001
00000000
00000002
00000001
00000002
fffffffe
00000001
00000001
fffffffa
fffffff6
fffffffc
fffffffd
fffffffc
fffffffe
00000000
ffffffff
00000000
00000005
00000000
00000000
00000001
00000000
00000000
00000003
00000006
00000003
00000001
00000000
00000003
00000001
00000001
00000000
ffffffff
fffffffe
fffffffd
fffffffe
fffffffe
00000001
ffffffff
fffffffe
ffffffff
00000000
fffffff9
fffffff9
fffffffe
fffffffd
00000001
00000000
ffffffff
fffffffc
00000000
00000003
00000001
ffffffff
ffffffff
ffffffff
00000000
ffffffff
fffffffd
00000000
00000000
fffffffc
00000002
00000005
00000005
00000000
fffffffc
00000002
fffffffd
fffffffe
fffffffe
00000007
0000000d
00000003
00000004
00000006
00000002
ffffffff
ffffffff
00000007
00000000
ffffffff
fffffffc
00000002
00000000
fffffffd
00000000
00000001
00000000
fffffffd
ffffffff
fffffffe
ffffffff
00000003
00000004
fffffffd
ffffffff
00000000
00000001
00000000
00000002
00000002
00000000
00000003
00000001
00000004
00000004
00000001
00000006
00000001
ffffffff
ffffffff
00000000
00000002
00000000
ffffffff
ffffffff
00000000
ffffffff
fffffffe
fffffffe
ffffffff
ffffffff
fffffffb
fffffffc
00000000
00000003
fffffffd
00000002
ffffffff
ffffffff
00000000
00000000
00000001
fffffffc
ffffffff
fffffffd
fffffffd
fffffffe
ffffffff
00000001
ffffffff
00000002
fffffffe
00000002
00000003
fffffffd
00000000
00000002
00000000
00000001
00000001
ffffffff
00000000
ffffffff
fffffffb
00000000
fffffffa
fffffffc
00000002
00000000
fffffffc
ffffffff
fffffffd
fffffffe
fffffffd
ffffffff
00000005
00000000
00000000
ffffffff
00000000
ffffffff
fffffffe
fffffffc
ffffffff
fffffffe
fffffffa
fffffffd
00000002
00000002
ffffffff
00000002
00000005
00000000
00000003
00000002
00000001
fffffffb
ffffffff
fffffffa
00000000
00000000
00000000
ffffffff
ffffffff
ffffffff
00000003
00000000
ffffffff
ffffffff
fffffffd
00000001
00000003
00000000
fffffffe
00000004
fffffffc
00000002
00000000
fffffff8
ffffffff
00000004
ffffffff
00000002
ffffffff
ffffffff
00000003
fffffffc
fffffffd
00000003
fffffffd
ffffffff
00000002
00000000
00000001
ffffffff
00000004
00000004
00000000
00000006
00000004
00000000
00000000
fffffffa
fffffffd
fffffffa
ffffffff
00000000
00000000
00000002
00000000
00000001
00000000
00000000
00000002
ffffffff
fffffffd
ffffffff
fffffffc
fffffffb
fffffff9
fffffffa
fffffffe
00000001
00000001
00000002
00000004
00000003
00000004
00000002
00000000
00000001
00000000
00000000
00000001
ffffffff
ffffffff
00000000
00000002
ffffffff
00000000
fffffffe
ffffffff
00000001
fffffffd
fffffffa
ffffffff
00000001
00000003
ffffffff
00000001
00000000
00000002
fffffffc
ffffffff
fffffffb
00000002
00000000
00000000
ffffffff
fffffff9
