04e501ec
028603a1
081805ea
fe5408c1
09b103e4
08f4009c
037e0295
073d02da
02e4fb88
010c0687
ff9a0326
00f3f73b
030101ba
fd170395
04bf01a2
012f050b
f8bf0638
0c63fe8f
0339fa23
02e5fdb8
06090463
023b0620
0355f8fd
017904f9
07d50117
02a7086d
0102023d
0225001c
0b0a02c0
024601db
05f6ff22
0056ff95
006d0460
0347fe0c
05000179
04980247
05b6034b
01280410
00fe0093
fc7300c7
ffb90059
fc33f8ae
fe4203be
0224031f
029901b1
01f0fe81
ff7cfd78
fcf00513
0075055a
feaf0514
f8ce02c6
ffe104bf
feb5ff90
076600c8
01a3002a
fc6200e7
001803eb
0c2eff89
00d7fe88
0c73f870
06d0ff67
fd4f05f1
0650027b
00a9fede
