000001ec
000004e5
000003a1
00000286
000005ea
00000818
000008c1
fffffe54
000003e4
000009b1
0000009c
000008f4
00000295
0000037e
000002da
0000073d
fffffb88
000002e4
00000687
0000010c
00000326
ffffff9a
fffff73b
000000f3
000001ba
00000301
00000395
fffffd17
000001a2
000004bf
0000050b
0000012f
00000638
fffff8bf
fffffe8f
00000c63
fffffa23
00000339
fffffdb8
000002e5
00000463
00000609
00000620
0000023b
fffff8fd
00000355
000004f9
00000179
00000117
000007d5
0000086d
000002a7
0000023d
00000102
0000001c
00000225
000002c0
00000b0a
000001db
00000246
ffffff22
000005f6
ffffff95
00000056
00000460
0000006d
fffffe0c
00000347
00000179
00000500
00000247
00000498
0000034b
000005b6
00000410
00000128
00000093
000000fe
000000c7
fffffc73
00000059
ffffffb9
fffff8ae
fffffc33
000003be
fffffe42
0000031f
00000224
000001b1
00000299
fffffe81
000001f0
fffffd78
ffffff7c
00000513
fffffcf0
0000055a
00000075
00000514
fffffeaf
000002c6
fffff8ce
000004bf
ffffffe1
ffffff90
fffffeb5
000000c8
00000766
0000002a
000001a3
000000e7
fffffc62
000003eb
00000018
ffffff89
00000c2e
fffffe88
000000d7
fffff870
00000c73
ffffff67
000006d0
000005f1
fffffd4f
0000027b
00000650
fffffede
000000a9
