ffffffa3
00000e22
000007fb
00000f3c
ffffeebc
00000889
00002fe9
000021b7
00001de4
000003c7
00000151
00000e00
0000167e
000015d9
000038be
ffffeee0
000017b5
fffff756
000025a6
0000198a
fffffa4c
00002003
000022b8
00001633
00001c06
00001a1b
00000782
000010dd
0000110e
00001749
000004e0
ffffe2a6
000031d4
00000e05
00000092
fffff9c3
00000171
fffffb05
000012bb
fffff828
00002791
00000d8f
00001c2f
00001857
000015bf
0000184f
00000889
00002ce6
00001237
ffffeecb
000014cd
00002e61
00001247
00002026
00001ae1
00000bf2
00003bfb
fffff500
000000ee
fffff64e
00002121
00002925
0000002c
000008d0
000010e7
00001f15
00000042
0000089f
fffff1f3
000028c3
000005c3
000024a6
fffff469
00000b57
000011b0
0000095a
00001d47
00000bbb
ffffff7c
fffff7e6
ffffe1f3
000001ca
ffffe6a3
fffff300
000014cf
000000ff
00001024
ffffd800
00001e9b
ffffffd5
00001763
00004bfe
000020e6
0000159a
00000ef5
00001bff
0000354a
00000999
fffff8ab
000011fe
00001f64
00000d0d
00000397
00003965
00000c61
00000b6c
000016a9
000034ce
ffffe180
00002fef
0000064e
00002d34
00002ad7
00001ca0
fffff296
0000142c
fffff445
ffffea54
fffffadd
0000125a
000033e4
00002064
00002138
000001bc
000005bd
000016ab
fffffc1f
00002ae5
fffffefe
00000730
00001b3b
fffffd9a
ffffffcd
00002158
00001fc5
00000128
00000931
00000727
000016af
fffffa19
00002c32
ffffddb3
00000ee7
00001f01
000019bd
ffffdf23
00001fd2
fffff963
00001f1c
00002e83
fffffc7c
ffffc689
0000208f
000028b6
fffff5bb
ffffdf29
00000cb5
00002a81
00001a44
00000c29
000018e2
000001b6
000003fb
00000b2a
000029fd
00000540
0000049e
0000037a
fffffe61
00001967
00001bbe
00001ed7
fffffcf0
fffff8c3
0000152d
0000310d
00003ad0
00003487
00004668
00002891
00002ba8
00003551
000033a5
00001233
00000562
000016a1
000014c8
ffffe1e7
00000177
0000246e
00001647
00000efe
00002673
ffffe7f1
00002793
000003af
00001c5a
00000871
00003d59
000020fa
0000190b
00002788
00001b26
00001ffd
ffffe1ec
0000118f
0000116f
000023a3
fffff4b5
fffffc23
fffffd34
000003ed
00000d8c
00001a4e
00000884
00000647
00000221
00002d72
ffffed45
0000234f
00000147
00000311
00001439
fffff8c5
00004a02
000010a7
000018f4
000005a6
00001fe4
00001848
00000285
000003ad
00000d8c
0000265f
00002cb1
fffff9c2
ffffde56
00002027
ffffe869
0000025c
00001d47
00000136
0000298d
00003773
00001de2
00000726
ffffefa7
00000ce4
fffff745
fffff7f5
0000143c
000009fc
0000250a
000013d9
00000aec
0000158e
00002320
ffffb908
ffffff1d
fffff6e4
0000311a
00002ea5
ffffecd8
00001721
fffff523
00000b39
000003b7
000019d7
fffff387
00001086
fffff115
00004c6f
00000978
00001aae
00001538
0000230d
fffff046
ffffe548
00004e64
ffffdba8
00002571
00000198
fffffe9a
0000351d
0000125d
ffffec2c
fffffc60
00001222
00000d2f
00000524
00001ee6
000009e3
000003f6
fffff728
000014c4
00002b71
fffffd67
fffff5a6
00001e0e
0000055e
ffffffae
00000f1b
000032e1
00000ec4
00001654
ffffeb5a
0000108a
fffff45a
00001828
0000001d
00000bb7
000005cc
00001c5f
ffffef55
000028cc
ffffda7e
00001002
ffffe5f0
fffffa1d
00001152
00001da1
ffffe9ba
00000a5b
fffff9c8
fffff771
00000016
0000264c
0000161c
000008f7
fffffa74
000012c1
ffffe932
00000836
0000102f
ffffdbf8
00000451
fffffc1a
00000a1a
00001b91
00000c3b
00001200
fffffcda
00000ffa
fffff648
00000659
000017ad
00002b3b
000019fc
00000bd9
00000889
0000292c
00003969
00000d2e
00001bbb
00002900
fffffdbe
fffffb63
ffffdd26
000019c3
00001daa
fffffe63
ffffdb6d
00002525
ffffd6ac
00001537
00001894
ffffdfb1
00001030
00000436
000007b8
ffffd4f2
fffffe21
00000ed8
ffffee3d
00002e70
00001b25
000028b1
ffffe3bd
00000246
00000b85
00001220
ffffc803
00003b61
00001a07
ffffe609
00001798
000000b8
00000f90
00000688
00001ba5
fffff72f
00001635
fffff012
0000407b
000018ff
00001d56
00001f56
00001b78
fffff798
00001ccf
0000131f
fffffc2a
fffff7d4
00001b6f
00000f14
ffffffe0
00002794
00000ca8
ffffe987
000021c8
00000ddb
000003f9
00001059
fffff50f
fffffdaf
ffffdab0
00001c91
fffffd1f
000014fa
000000e6
00002314
00000477
000041c8
00004d73
00000189
00000067
ffffe732
ffffdc6e
00000308
00000b1d
000026f8
fffff796
00001a34
00000280
fffff04c
00002130
fffff918
fffffe1c
ffffe93d
000006c9
000012d7
000005aa
000010aa
00001f74
000019f5
000019b2
0000080c
fffff6fc
00001acb
ffffd0f7
fffffe10
00001c62
00001893
000024af
00001ad2
0000079a
00001898
fffff4ac
000012de
00000411
00001e35
0000164b
0000124e
0000065f
000015f2
000019d8
000012b9
00000eea
ffffe7ec
00000b48
000033d2
00000848
00004682
fffffb54
00000498
00003de2
000016eb
fffff372
000010e1
fffffde8
000022e4
00000dca
00000aa3
00002ffc
fffffd58
ffffee13
00002cc4
00001bbe
00000671
000032f5
00001764
ffffe719
000010e7
fffff502
fffff95a
fffff54e
000005ff
0000225e
00001b9b
ffffed4f
00000bc9
00001176
000009af
00001559
000001eb
00003405
00001402
000008a6
000020ad
fffff7ef
00000aac
ffffef30
