00000000
00000017
0000001c
00000011
ffffffff
00000000
00000002
00000003
00000006
00000001
fffffff8
00000000
00000005
ffffffff
00000007
00000010
00000001
00000003
00000000
00000001
00000000
0000000b
fffffffb
00000000
00000001
00000000
fffffffa
00000000
00000001
ffffffff
00000002
00000001
fffffff1
ffffffff
00000004
00000000
fffffffe
00000002
00000008
fffffffd
ffffffff
00000001
fffffff4
00000004
00000007
00000000
fffffff6
00000006
fffffffd
fffffff9
00000013
ffffffe5
00000001
fffffff7
00000004
00000000
00000026
00000005
0000000b
fffffffe
00000003
00000000
00000000
00000000
00000001
fffffffd
fffffffc
ffffffff
ffffffff
00000009
fffffff7
ffffffcf
00000007
00000001
fffffffc
fffffffe
00000009
00000000
fffffffe
00000004
fffffffd
00000000
00000000
00000002
00000000
ffffffff
ffffffef
00000000
fffffffd
fffffff9
fffffffb
00000000
00000002
ffffffef
ffffffff
fffffffd
fffffffd
fffffffd
00000000
fffffffc
00000002
fffffff7
00000001
00000001
00000000
00000000
fffffff2
fffffffe
00000000
ffffffff
00000000
00000000
00000000
00000018
00000001
00000007
fffffffc
00000000
ffffffe9
00000000
fffffffd
0000003b
fffffff5
ffffffff
00000000
ffffffff
ffffffff
fffffff5
00000004
fffffffb
fffffff4
00000003
ffffffff
00000001
00000000
00000005
fffffff6
00000000
ffffffff
00000001
ffffffe1
00000000
00000000
00000001
00000001
00000000
00000001
00000000
0000000f
ffffffff
00000004
ffffffff
00000000
00000008
ffffffff
ffffffff
00000016
00000000
00000000
fffffff9
00000001
fffffffe
00000000
00000001
00000000
fffffffc
ffffffff
00000000
fffffff2
fffffffc
00000001
fffffffb
00000000
00000000
ffffffff
00000000
fffffffa
ffffffff
00000003
fffffffe
00000000
00000000
fffffffa
ffffffff
00000003
ffffffee
00000007
00000000
00000000
00000004
fffffff5
ffffffc5
00000001
00000004
00000004
00000006
ffffffde
fffffff7
ffffffff
00000001
fffffffc
00000000
ffffffff
00000004
00000000
ffffffff
00000008
00000002
00000000
fffffff5
00000001
ffffffe9
00000000
00000005
00000000
00000030
00000005
00000027
00000006
ffffffff
fffffffd
00000004
fffffffe
00000000
00000000
00000000
fffffffd
0000000f
00000000
00000003
00000000
00000000
fffffff6
ffffffff
00000002
00000001
00000000
00000000
00000000
ffffffff
00000000
00000019
00000004
00000000
0000000d
00000000
00000001
00000009
fffffff6
ffffffec
00000013
00000006
0000000d
fffffff9
00000003
0000000a
fffffffb
00000000
fffffffa
ffffffff
00000000
fffffffe
ffffffff
fffffffd
00000001
fffffffb
00000004
00000000
00000007
fffffff5
00000009
00000006
00000004
fffffffd
00000000
00000008
fffffffb
00000000
ffffffd4
00000000
ffffffe9
00000002
00000001
00000001
00000000
fffffffc
0000000a
00000000
00000008
00000000
fffffffd
fffffffa
00000001
fffffff6
00000009
00000000
00000005
00000001
fffffff9
00000011
fffffff4
00000035
00000009
fffffffc
fffffff6
00000000
00000000
00000000
00000007
00000000
fffffff3
00000000
00000007
00000000
ffffffff
ffffffff
fffffffd
00000000
ffffffff
00000013
fffffff7
ffffffff
fffffffe
00000003
00000006
ffffffff
00000002
00000003
00000002
fffffffd
00000003
00000002
ffffffcc
fffffffc
00000000
00000001
00000000
fffffffe
00000005
00000004
00000005
00000008
00000000
00000000
fffffffd
0000000a
00000002
fffffff8
00000000
00000000
00000006
00000000
ffffffd5
0000000b
00000000
fffffffe
ffffffe9
fffffff1
ffffffff
ffffffff
00000000
fffffffe
00000013
00000000
fffffffc
00000000
00000001
ffffffff
fffffff8
fffffffe
00000002
ffffffe3
fffffffb
00000001
ffffffef
fffffffe
fffffffe
00000000
00000000
00000000
fffffff7
fffffffd
00000004
00000002
00000000
fffffffa
00000004
00000000
00000001
ffffffe2
00000000
fffffff8
ffffffff
00000011
00000000
00000003
00000001
00000002
fffffffe
00000001
0000000b
ffffffff
ffffffff
00000000
00000000
ffffffff
ffffffff
00000005
00000005
00000005
fffffff9
ffffffe8
00000000
00000000
00000001
00000000
fffffffb
fffffff2
00000000
00000001
00000001
00000004
fffffffd
00000000
fffffffc
fffffff8
00000001
00000000
00000008
00000001
fffffffd
ffffffff
fffffffa
00000000
ffffffff
00000001
0000000a
00000005
00000000
00000001
00000004
00000003
00000001
00000000
fffffffd
ffffffff
fffffffd
00000001
00000005
00000000
00000000
fffffffa
fffffffb
fffffffe
fffffffb
00000000
0000000d
00000000
00000000
00000004
00000002
00000004
fffffffc
00000000
0000001f
0000000a
ffffffff
fffffffe
fffffffd
00000000
00000000
00000001
00000000
fffffff8
fffffff5
00000003
00000000
ffffffed
fffffffa
00000000
00000004
00000002
fffffff7
ffffffff
00000000
00000000
0000000c
ffffffdf
fffffff9
fffffffb
00000001
00000001
00000022
fffffff8
ffffffff
fffffffe
0000000a
0000001f
00000000
00000010
00000000
ffffffff
0000000c
fffffffe
00000000
fffffffa
00000002
fffffffe
00000000
fffffffe
00000000
00000005
00000000
0000000a
ffffffeb
00000000
00000000
00000009
fffffffb
00000002
fffffffe
ffffffd7
ffffffee
00000000
ffffffff
fffffffd
ffffffff
ffffffff
00000001
00000002
00000003
00000003
00000006
00000000
fffffffb
00000000
00000002
00000000
0000000d
00000011
00000001
ffffffff
00000008
00000002
ffffffed
00000003
00000000
00000002
00000001
00000000
fffffffe
00000001
fffffffd
00000000
fffffffd
00000004
fffffffb
ffffffff
ffffffff
00000005
00000002
00000004
00000000
ffffffe7
00000004
00000004
fffffffd
fffffffb
00000009
00000003
fffffff7
00000000
fffffffe
00000000
00000002
fffffff5
0000000e
ffffffef
00000000
00000005
00000000
00000001
fffffffa
fffffffe
00000008
00000000
00000001
fffffffe
fffffffe
fffffffd
00000014
fffffffd
00000007
00000000
00000000
fffffff8
fffffffc
00000001
00000008
ffffffff
fffffffe
fffffff9
fffffffc
00000000
00000000
00000000
ffffffff
ffffffe7
fffffffd
00000000
fffffff4
0000000b
00000000
fffffff7
00000000
ffffffff
00000000
00000000
fffffffe
00000004
00000000
00000000
00000005
00000000
00000002
0000001c
0000000b
ffffffdd
ffffffed
fffffffe
fffffffd
00000000
ffffffe1
00000000
00000004
00000001
fffffffb
ffffffff
fffffff9
ffffffff
fffffffe
00000000
00000003
fffffffc
0000000e
00000001
00000000
0000000f
00000015
00000000
ffffffff
00000006
00000001
00000002
00000000
00000000
00000000
00000001
00000004
00000003
0000000a
00000001
fffffff9
00000001
0000000a
00000000
ffffffff
00000001
ffffffee
00000015
00000007
fffffff9
fffffffe
0000000e
00000004
fffffffe
00000003
0000000a
fffffffe
00000003
00000000
00000008
fffffffc
00000007
00000000
00000000
fffffffc
00000000
fffffffb
00000001
00000020
00000002
00000006
00000001
00000004
00000003
0000000a
00000011
00000004
00000000
00000000
00000000
00000008
fffffffe
00000000
ffffffeb
00000000
fffffff6
00000000
00000002
fffffff5
00000000
00000002
fffffffe
fffffffe
00000008
ffffffff
ffffffff
0000000a
fffffffa
00000002
ffffffeb
ffffffff
00000014
00000001
00000017
00000000
fffffffd
ffffffc4
fffffffd
00000000
00000000
fffffff9
fffffff6
00000006
fffffffe
00000001
00000002
00000000
0000000f
00000000
00000003
00000004
00000000
ffffffd8
fffffff7
fffffffd
fffffffe
00000001
fffffffe
00000000
00000001
fffffffb
fffffff6
00000000
00000000
00000011
fffffff3
fffffffe
fffffffd
fffffff4
ffffffff
00000000
00000005
fffffffb
fffffffc
0000000b
00000001
00000003
00000000
00000005
0000000c
0000000c
00000000
00000000
ffffffe1
00000003
fffffffc
fffffffa
fffffffe
00000001
fffffff9
00000001
ffffffe7
00000006
00000005
ffffffff
ffffffff
ffffffdd
00000000
fffffffe
00000003
0000000f
fffffffd
00000003
00000000
fffffffd
0000001e
0000002f
00000000
00000001
00000000
00000003
fffffffe
ffffffff
00000005
ffffffff
00000000
0000000a
00000000
fffffffd
fffffff4
fffffff7
fffffffc
00000001
00000010
00000015
00000000
00000000
00000000
00000004
00000000
00000006
ffffffff
00000008
00000000
00000008
00000000
fffffff7
00000000
00000013
00000000
fffffffd
00000001
00000000
00000001
ffffffed
fffffff2
fffffff5
00000000
00000000
fffffffd
00000003
fffffffe
fffffffb
fffffffe
fffffffe
fffffffc
00000001
ffffffeb
fffffffa
00000000
0000000b
fffffffb
00000000
ffffffff
fffffff4
00000002
00000000
00000000
fffffff9
fffffffd
fffffff9
00000000
00000005
00000008
fffffff7
fffffffa
00000001
00000004
00000001
00000001
fffffffd
00000000
fffffffb
ffffffff
fffffffd
00000000
00000000
00000004
fffffff8
00000003
fffffffe
0000000a
fffffffa
fffffffc
00000017
00000000
00000027
00000000
00000000
00000002
ffffffff
ffffffff
ffffffdc
00000009
00000000
00000000
ffffffff
00000000
00000008
00000018
00000000
fffffff9
ffffffee
00000039
00000050
00000000
fffffff2
fffffffc
00000002
00000008
fffffffe
fffffff1
00000002
00000000
00000000
00000000
00000000
00000000
fffffffa
00000006
00000000
fffffff1
ffffffff
00000004
00000001
fffffffe
00000007
00000004
00000010
ffffffff
00000000
00000002
ffffffff
00000000
fffffffe
fffffffd
00000000
00000000
fffffffb
fffffff9
fffffffc
0000000b
fffffffa
00000003
00000000
ffffffeb
00000003
00000001
00000001
00000002
00000000
00000027
00000000
00000002
fffffffc
fffffff8
fffffffc
00000000
fffffffe
00000000
ffffffea
00000006
00000004
ffffffff
00000003
00000001
ffffffec
fffffffc
00000006
00000004
00000003
fffffffa
00000006
fffffffb
ffffffe0
00000002
00000000
ffffffff
00000001
fffffffe
00000002
ffffffff
00000003
fffffffb
fffffffc
ffffffe4
00000002
fffffff3
ffffffef
00000000
00000004
00000005
ffffffec
ffffffff
ffffffff
00000000
00000008
00000007
00000005
00000000
00000000
fffffffe
00000000
fffffffa
fffffffe
fffffffe
0000000f
fffffffa
00000009
00000000
00000002
ffffffff
00000022
00000003
00000000
0000000c
ffffffee
00000000
00000000
00000000
fffffffe
00000003
00000000
fffffffd
00000001
00000000
00000000
00000000
00000000
00000000
00000007
00000002
00000001
00000000
00000000
00000000
00000000
00000000
00000000
00000000
00000000
00000004
00000000
fffffffd
00000002
fffffffe
00000000
00000000
fffffffe
00000000
00000000
00000000
fffffffe
00000000
ffffffff
ffffffff
00000000
00000000
00000002
00000000
00000000
fffffffe
00000000
00000000
fffffffa
fffffffe
00000007
00000000
fffffffe
00000003
00000000
00000001
ffffffff
fffffffa
00000000
00000000
00000000
fffffffd
ffffffee
00000000
ffffffff
00000000
00000000
00000000
00000001
00000001
ffffffff
00000001
00000000
ffffffff
00000000
ffffffff
00000000
fffffff9
ffffffff
00000000
00000001
00000000
0000000e
00000000
00000000
00000000
00000001
00000000
00000000
00000000
00000000
00000000
fffffffd
00000000
00000001
ffffffff
00000000
00000000
00000001
00000004
00000002
fffffffe
00000000
00000000
ffffffff
fffffffe
00000000
ffffffff
00000000
00000000
00000000
00000000
00000000
00000000
00000000
00000000
ffffffff
00000000
00000000
00000006
fffffffe
00000000
00000000
00000000
00000000
00000000
00000000
fffffffe
00000000
00000000
00000000
00000000
00000000
ffffffff
00000000
00000002
fffffffe
00000000
00000000
00000000
00000000
fffffffb
ffffffff
00000000
00000000
00000002
ffffffff
00000000
00000000
00000000
00000000
00000000
00000000
00000000
fffffffe
00000000
00000000
00000000
00000000
00000000
00000000
00000000
00000001
00000007
fffffffc
00000001
00000000
00000000
00000000
00000000
fffffffe
ffffffff
00000000
00000000
00000000
00000000
00000000
00000000
00000000
ffffffff
00000000
00000001
00000000
00000000
00000000
00000000
00000000
00000000
fffffff9
00000000
00000001
00000000
00000000
00000000
00000000
00000000
00000000
00000000
00000000
00000000
00000000
00000000
00000002
fffffffd
00000001
fffffffd
00000000
00000000
00000000
00000005
00000000
00000000
00000000
00000001
00000000
ffffffff
00000000
00000001
00000000
00000002
00000000
fffffffd
ffffffff
00000000
00000000
00000000
fffffff5
00000000
00000003
00000000
00000000
00000000
00000000
fffffffd
00000000
fffffffd
fffffffd
00000000
00000008
fffffffd
00000000
00000000
00000000
00000000
00000000
00000000
00000000
fffffffe
00000000
00000000
ffffffff
ffffffff
00000000
fffffffb
ffffffff
00000000
ffffffff
00000000
00000001
ffffffff
ffffffff
fffffffe
fffffff8
00000000
00000000
ffffffff
ffffffff
00000000
00000000
00000003
00000000
00000000
fffffffe
00000000
00000000
fffffffd
00000000
fffffffe
ffffffff
fffffffd
00000000
ffffffff
ffffffff
00000000
fffffff7
00000000
fffffffe
ffffffff
00000000
00000000
00000000
00000000
ffffffff
00000000
00000000
00000000
00000001
00000000
fffffffd
ffffffff
00000000
00000000
00000000
00000001
ffffffff
fffffffc
00000000
00000004
fffffffe
ffffffff
00000001
00000000
00000000
00000000
00000001
00000000
00000006
00000000
00000000
00000000
00000000
00000000
00000002
00000000
00000000
00000004
00000001
00000000
00000000
00000000
ffffffff
00000002
00000000
00000000
00000000
fffffffe
ffffffff
00000000
00000004
00000000
00000000
fffffffb
00000000
00000000
fffffff8
00000000
00000004
0000000f
00000000
00000000
fffffffe
ffffffff
ffffffff
00000001
00000002
00000000
fffffffd
00000000
fffffffe
00000002
00000001
00000002
00000001
ffffffff
00000000
ffffffff
00000000
00000000
ffffffff
00000000
00000000
00000000
00000000
00000000
00000000
ffffffff
00000000
00000006
00000001
00000001
ffffffff
00000000
0000000b
00000000
00000000
00000000
00000000
00000000
00000007
00000000
00000000
00000000
fffffffd
00000000
ffffffff
fffffffc
00000000
fffffffe
00000002
ffffffff
00000000
00000004
ffffffff
00000000
ffffffff
ffffffff
00000001
00000003
00000003
00000009
00000000
00000000
00000000
00000000
00000000
00000001
fffffffe
00000000
00000000
00000002
00000000
00000000
fffffffd
fffffffd
00000001
00000000
00000000
00000006
00000000
00000000
00000000
00000001
00000000
00000000
00000001
fffffffd
ffffffff
ffffffff
00000004
00000000
00000000
00000004
ffffffff
00000000
00000000
00000000
00000000
00000007
00000000
00000000
fffffffe
00000000
00000000
00000000
00000000
00000000
fffffffe
00000000
00000001
00000001
fffffffc
00000000
00000000
00000001
ffffffff
00000002
00000000
fffffffe
ffffffff
00000001
fffffffa
fffffffe
00000000
ffffffff
00000000
00000000
00000000
00000000
00000000
00000000
ffffffff
ffffffff
00000000
00000000
ffffffff
00000000
ffffffff
fffffffd
00000000
fffffff9
00000000
00000000
ffffffff
fffffffe
ffffffff
ffffffff
00000000
00000000
ffffffff
fffffffe
ffffffff
00000000
fffffffe
fffffffe
00000000
00000002
00000000
00000000
00000000
00000000
00000000
00000000
00000000
00000000
00000000
00000000
00000000
ffffffff
00000000
fffffffd
00000001
00000000
00000000
00000002
00000000
00000000
fffffffe
00000000
00000001
00000000
00000002
fffffffb
ffffffff
00000000
00000000
ffffffff
00000000
fffffff9
00000001
00000001
fffffffe
fffffffa
00000000
00000000
fffffffd
fffffff7
00000000
00000000
00000003
00000000
00000000
fffffffd
00000000
00000000
fffffffe
00000000
00000000
ffffffff
00000004
00000000
00000002
00000001
00000003
00000000
00000000
fffffffe
00000000
fffffffe
fffffff9
0000000a
00000001
00000000
00000000
ffffffff
0000000b
00000000
00000000
00000000
00000001
00000000
00000000
00000001
00000002
ffffffff
00000000
ffffffff
00000000
00000001
fffffffd
00000001
00000000
00000000
00000001
00000001
fffffffe
00000000
00000000
ffffffff
00000000
00000000
00000000
00000000
00000000
00000000
00000001
00000000
00000000
00000000
00000000
00000000
00000001
00000001
00000000
00000003
00000000
00000000
fffffffa
00000002
00000000
00000003
00000000
00000000
00000000
00000000
00000000
00000000
00000000
00000000
00000000
00000000
00000000
fffffff5
fffffffe
fffffffc
fffffffd
00000000
ffffffff
00000000
00000000
00000002
ffffffff
00000000
00000001
00000000
00000000
00000001
fffffffe
00000000
00000001
00000001
00000000
fffffffc
00000000
ffffffff
00000000
00000000
00000000
fffffffb
fffffffe
00000001
00000000
00000000
00000000
00000000
00000000
00000000
fffffffe
00000000
00000000
00000000
ffffffff
00000000
ffffffff
00000000
00000000
fffffff8
00000001
00000002
00000000
00000002
00000000
00000000
ffffffff
fffffffe
00000000
00000000
00000000
00000007
00000000
fffffffe
00000000
00000000
00000000
00000000
fffffff9
00000000
00000003
00000000
00000001
00000000
fffffffb
00000000
00000002
00000000
00000000
00000000
00000000
fffffffd
00000001
ffffffff
00000000
00000002
00000000
00000000
fffffffc
00000001
fffffffc
fffffffd
00000000
00000000
00000001
fffffff9
00000000
00000000
ffffffff
00000002
00000000
fffffffd
00000000
00000001
00000000
fffffffc
00000000
00000000
fffffffe
ffffffff
00000000
00000000
00000003
ffffffff
fffffffd
00000000
00000000
00000000
00000002
fffffffe
00000000
00000000
fffffffc
00000000
fffffffa
fffffffc
00000000
00000003
00000000
00000000
00000000
00000000
00000000
00000001
00000004
00000000
fffffffe
00000000
00000000
ffffffff
00000000
00000000
00000000
00000000
fffffffd
fffffffc
00000001
fffffffe
00000001
00000000
00000000
00000001
fffffffb
00000000
00000000
fffffff3
00000000
fffffffd
00000000
00000000
00000001
ffffffff
00000000
00000003
00000001
00000002
00000000
00000000
00000003
00000000
00000007
00000000
fffffffa
00000000
00000000
00000000
ffffffff
00000000
00000000
00000000
00000001
00000000
ffffffff
00000000
ffffffff
00000000
00000000
00000000
ffffffff
00000000
00000000
ffffffff
00000001
00000001
00000004
ffffffff
fffffffd
00000000
00000000
00000000
00000000
00000000
00000001
00000000
00000000
00000000
00000002
00000000
ffffffff
00000002
00000002
ffffffff
00000000
00000000
00000000
00000002
00000000
00000001
00000000
00000000
00000000
00000000
00000000
00000000
00000000
00000000
00000000
00000006
00000000
fffffffd
fffffffb
00000000
00000004
fffffffe
00000000
00000000
00000005
00000003
00000000
00000000
00000000
ffffffff
ffffffff
00000000
00000002
fffffffe
fffffffe
fffffffe
ffffffff
00000001
00000000
00000000
00000000
00000000
00000000
00000000
00000000
00000000
00000000
ffffffff
ffffffff
00000001
00000000
00000001
00000000
00000000
00000000
00000000
ffffffdf
00000000
00000000
00000000
fffffffe
00000000
00000003
00000001
00000000
ffffffff
ffffffff
00000000
ffffffff
00000002
00000000
fffffffc
00000000
00000001
fffffff7
00000001
00000001
00000004
fffffffd
00000000
ffffffff
00000001
00000000
fffffffc
00000000
00000000
00000001
00000000
00000000
00000001
00000003
fffffffe
00000000
00000002
00000000
00000000
00000000
00000000
fffffffb
00000000
00000000
ffffffff
00000000
00000000
00000000
00000001
00000000
00000000
ffffffff
00000000
ffffffff
ffffffff
fffffffe
00000000
00000000
00000000
00000000
00000000
00000000
00000000
00000000
fffffffd
00000000
fffffff9
fffffffe
ffffffff
00000002
00000000
ffffffff
00000000
00000004
00000001
00000003
00000005
00000004
00000000
fffffffe
00000000
00000003
00000002
ffffffff
fffffffe
00000000
fffffffe
00000003
fffffffe
00000000
00000001
00000000
00000000
00000000
00000000
00000000
00000000
00000000
fffffff0
00000000
00000000
fffffffd
00000000
00000001
00000004
fffffffb
00000006
00000000
00000000
00000000
00000000
00000003
fffffffe
00000000
00000000
00000001
00000004
00000000
00000000
ffffffff
ffffffff
fffffffc
ffffffff
00000000
00000000
00000009
00000000
00000000
00000000
fffffffe
00000000
00000000
00000000
00000000
00000000
00000004
00000002
ffffffe6
ffffffdc
ffffffff
ffffffd2
00000003
ffffffc5
ffffffe8
00000000
ffffffbb
fffffffc
ffffffd3
ffffffc9
ffffffb8
ffffffb7
00000003
ffffffec
00000007
ffffffea
00000004
ffffffd8
ffffffe2
ffffffcf
00000008
00000002
ffffffde
fffffffa
00000002
00000007
ffffffdd
fffffffd
ffffffee
ffffffe1
00000001
fffffffb
ffffffd9
fffffffd
fffffff2
ffffffb9
ffffffcb
00000002
ffffffeb
ffffffe6
ffffffe6
00000001
ffffffcd
ffffffda
fffffff9
ffffffc5
fffffff0
fffffffe
fffffff3
ffffffd3
00000042
ffffffdd
00000013
fffffffe
00000004
00000013
00000013
fffffffd
00000002
ffffffe5
ffffffeb
00000000
00000009
ffffffe0
00000006
fffffffc
0000000e
fffffff5
ffffffc9
00000000
ffffffd9
0000002b
ffffffec
00000001
ffffffe4
ffffffcf
00000009
00000000
00000006
0000000c
00000010
fffffffc
fffffffa
00000000
ffffffb9
fffffff4
ffffffaa
00000008
fffffffd
ffffffa2
ffffffbf
fffffff8
0000000e
00000009
ffffffde
ffffffdb
ffffffff
ffffffcd
00000002
ffffffef
0000000d
00000006
0000000e
0000000e
00000004
00000005
ffffffd6
fffffff9
fffffffd
00000009
ffffffd6
ffffffe7
00000010
ffffffff
ffffffa1
fffffffe
fffffff3
0000004c
ffffffd2
00000002
0000000a
00000007
ffffffd8
ffffffeb
ffffffc4
ffffffd4
ffffffc8
ffffffed
ffffffef
ffffffe0
fffffffe
00000001
ffffffe2
fffffff7
00000005
ffffffce
00000004
00000001
00000001
fffffff2
fffffffc
00000002
00000001
00000001
ffffffee
00000000
ffffffc2
00000003
00000000
ffffffd0
0000000a
fffffffe
ffffffe3
ffffffd6
ffffffcb
ffffffe2
00000001
ffffffbe
ffffffff
00000003
ffffffdb
ffffffe6
00000007
fffffffb
ffffffe6
ffffffdb
ffffffff
ffffffe5
00000001
fffffffb
0000000a
00000002
ffffffe0
00000008
00000007
00000005
fffffffb
ffffffff
ffffffe4
00000005
ffffffb0
fffffff5
ffffffdf
00000001
fffffffa
ffffffbb
ffffffed
fffffffb
00000005
ffffffcd
ffffffd9
ffffffd9
fffffff8
ffffffec
00000003
ffffffe8
00000001
00000001
0000000c
ffffffda
00000001
fffffffe
ffffffdd
ffffffca
00000003
ffffffe0
00000000
fffffff1
ffffffd2
00000018
00000001
ffffffc4
ffffffd6
00000006
0000000a
00000001
ffffffe4
00000017
ffffffe3
00000003
00000000
0000000a
ffffffd9
ffffffe2
00000001
ffffffcd
ffffff80
00000009
00000008
fffffff3
fffffffc
ffffffd8
00000007
00000001
00000000
00000001
00000005
00000000
ffffffe0
00000009
ffffffd9
ffffffd1
00000009
ffffffd9
ffffffee
ffffffd8
fffffff4
ffffffe6
ffffffdd
ffffffdf
0000001d
ffffffed
ffffffd2
0000000b
0000000b
ffffffe5
fffffff4
fffffffd
0000000f
ffffffef
00000004
00000004
ffffffe9
ffffffd6
ffffffcb
ffffffe6
fffffffe
00000007
ffffffa2
ffffffcd
0000000a
ffffffbe
ffffffea
fffffffe
00000021
00000010
ffffffea
ffffffec
00000007
00000007
ffffffce
ffffffa9
ffffffc8
fffffffc
00000006
00000009
ffffffe4
00000005
ffffffdb
ffffffdc
ffffffd6
ffffffc5
ffffffb7
ffffffd2
ffffffda
fffffff7
ffffffc1
ffffffde
ffffffbd
ffffffec
ffffffdb
00000004
00000003
00000000
ffffffe8
00000002
fffffff0
00000004
00000005
00000000
ffffffe6
00000004
fffffff7
ffffffcc
ffffffc5
ffffffae
ffffffcc
00000002
00000008
ffffffde
ffffffac
ffffffd5
0000006a
ffffffdd
00000000
ffffffd9
fffffffa
00000005
ffffffca
00000009
00000001
ffffffd1
ffffffff
ffffffd9
ffffffe1
0000000e
ffffffe3
ffffffd9
00000008
fffffffd
ffffffd2
ffffffbf
ffffffba
ffffffc2
ffffffbb
ffffffcf
ffffffe3
00000010
fffffff7
ffffffcb
fffffff1
ffffff99
ffffffa6
ffffffc0
00000007
fffffffc
fffffffe
00000001
ffffffed
00000003
fffffffa
00000006
0000000a
fffffff5
00000000
ffffffd3
00000007
ffffffc9
ffffffb7
fffffffe
00000006
00000011
00000036
00000009
fffffffe
00000006
ffffffc5
00000000
ffffffe1
ffffffcf
0000001b
ffffffe4
ffffffe8
fffffffe
ffffffb3
ffffffff
00000003
ffffffd5
ffffffb5
0000000e
fffffff8
ffffffad
ffffffd0
ffffffac
fffffff1
ffffffc0
ffffffc7
ffffffaa
ffffffa4
ffffffe9
00000002
0000000c
00000003
00000002
ffffffdc
ffffffac
ffffffe9
00000045
0000000b
ffffffab
00000002
fffffffe
fffffff4
ffffffcb
ffffffe5
00000002
00000019
fffffffe
fffffff4
00000003
ffffffe5
ffffffd5
fffffffc
fffffffd
fffffffc
ffffffde
fffffff9
ffffffe3
0000006b
ffffffdb
fffffffe
0000000e
fffffff0
0000001f
00000001
00000005
ffffffe2
ffffffdb
fffffffa
ffffffed
fffffff0
fffffff4
ffffffbd
00000000
00000005
00000001
ffffffd7
ffffffe3
ffffffc2
ffffffd1
ffffffdc
0000000e
fffffff7
ffffffec
ffffffd9
ffffffec
ffffffc6
ffffffea
ffffffea
ffffffd4
00000001
ffffffde
00000000
ffffffbf
00000003
00000000
00000005
fffffff0
fffffffd
ffffffe9
ffffff9a
fffffff8
00000004
ffffffe8
fffffffd
00000003
ffffffcf
ffffffe1
ffffffd1
ffffffeb
00000000
00000005
ffffffff
00000055
ffffffd5
00000000
00000002
00000003
00000003
ffffffd7
fffffffe
0000000d
fffffffb
fffffff4
ffffffd9
ffffff9d
ffffffe0
0000000f
ffffffbb
ffffffff
ffffffff
ffffffca
00000014
fffffffc
00000000
00000007
00000005
ffffffd9
0000000e
0000000b
00000004
fffffffd
ffffffe6
fffffffc
ffffffd4
00000004
fffffffb
fffffffb
fffffffe
ffffffe5
00000004
00000007
fffffff9
00000001
ffffffec
fffffff7
fffffff9
00000001
00000017
fffffffe
00000006
fffffffd
fffffff5
fffffff8
ffffffff
fffffffc
ffffffe2
ffffffe3
fffffffc
00000024
fffffffc
fffffff8
ffffffcc
fffffff5
fffffffd
ffffffe3
ffffffed
00000002
fffffffa
fffffff9
00000017
00000006
fffffffa
0000001a
00000002
00000002
ffffffe5
00000007
fffffffb
fffffff5
ffffffff
fffffffa
fffffffc
00000008
00000002
fffffff6
ffffffff
fffffffd
ffffffe6
ffffffe9
fffffffb
fffffffe
00000000
fffffffd
0000000a
ffffffe9
ffffffef
0000000f
fffffffa
00000007
fffffffb
ffffffe1
00000007
ffffffe2
ffffffff
fffffff9
00000005
00000001
ffffffea
ffffffd6
fffffff7
fffffffc
fffffff9
fffffff4
00000000
ffffffdc
00000007
00000003
fffffff7
00000001
fffffff1
00000005
ffffffff
00000006
ffffffe4
ffffffe3
00000008
00000002
ffffffe6
00000001
fffffffe
ffffffef
ffffffff
ffffffee
00000005
ffffffe2
fffffff7
ffffffe8
00000000
0000003a
fffffff9
fffffff0
fffffffe
00000009
fffffff1
ffffffc8
ffffffff
fffffff6
00000007
0000000c
fffffffa
ffffffe1
fffffff4
ffffffe5
00000004
00000000
00000003
00000001
fffffffa
00000002
fffffffe
00000001
ffffffe7
fffffffc
00000003
ffffffda
ffffffec
ffffffff
00000006
00000003
ffffffe9
00000013
fffffff7
0000000b
fffffff1
ffffffeb
fffffffa
00000009
fffffffe
fffffffc
fffffff4
00000000
00000018
fffffff3
fffffff9
00000005
fffffffd
ffffffee
ffffffe3
fffffffd
ffffffe3
ffffffdb
fffffff9
00000004
fffffffc
fffffff2
00000005
fffffffc
fffffff8
00000003
ffffffd9
fffffffd
fffffffe
ffffffe9
00000006
ffffffe9
fffffff0
ffffffff
fffffffe
fffffff7
00000004
ffffffed
fffffff8
fffffffd
fffffffb
fffffff0
ffffffe3
00000002
fffffffc
0000000d
fffffff3
fffffffe
00000004
ffffffff
fffffff5
00000000
fffffff2
00000006
00000016
fffffff5
fffffff2
00000006
fffffff3
ffffffd5
fffffff9
00000004
ffffffed
fffffffe
00000004
0000000a
fffffffb
fffffff7
ffffffec
fffffffa
fffffffb
00000001
fffffffa
ffffffe5
fffffff6
fffffffa
fffffff8
fffffff7
ffffffeb
00000005
00000001
00000004
fffffff9
00000009
fffffffe
ffffffe8
ffffffff
fffffffc
ffffffe9
00000003
ffffffe8
fffffff0
ffffffef
ffffffe4
0000001c
fffffffb
00000004
ffffffe7
00000005
fffffff7
ffffffe7
00000003
ffffffff
00000004
fffffff9
00000003
00000005
fffffff8
00000000
00000000
fffffff9
ffffffe7
ffffffe2
ffffffff
00000004
00000008
0000001a
00000007
ffffffeb
0000000d
fffffffb
00000008
fffffff9
00000003
fffffff8
00000009
00000003
00000000
ffffffd9
00000000
ffffffff
ffffffe2
fffffffc
ffffffef
ffffffff
fffffffa
0000000e
fffffffe
00000000
00000004
ffffffff
00000009
fffffffe
00000019
00000007
fffffff6
00000006
00000002
00000002
fffffffb
00000000
00000007
fffffffc
00000000
00000000
00000000
fffffffe
00000000
00000008
0000002c
fffffff7
ffffffe3
fffffff7
00000004
00000005
ffffffed
fffffffd
ffffffef
00000006
ffffffea
00000004
00000000
fffffffa
00000004
fffffffe
ffffffde
ffffffe9
fffffffd
fffffffe
00000000
fffffff1
fffffffd
00000000
00000004
00000004
fffffff7
fffffffe
fffffff7
fffffff2
00000003
0000000b
00000003
00000003
ffffffde
00000004
ffffffff
0000000f
ffffffdf
fffffffb
00000005
00000004
ffffffff
fffffffd
fffffff8
ffffffff
fffffff2
fffffff2
00000003
fffffff4
fffffff7
fffffffa
00000001
00000000
ffffffe9
ffffffe9
ffffffea
fffffffd
ffffffc0
00000005
ffffffd8
ffffffdb
0000001c
00000007
00000005
fffffff5
fffffffc
fffffffd
00000020
00000004
ffffffea
00000002
0000001d
0000001b
fffffffe
00000004
ffffffe0
00000000
00000008
ffffffec
ffffffff
00000007
ffffffec
fffffffe
fffffff2
fffffff6
00000003
ffffffff
fffffff8
0000000b
00000000
00000008
00000005
0000000c
00000002
00000007
00000002
00000000
fffffff8
fffffffa
fffffff2
fffffff5
ffffffed
fffffff9
00000002
fffffff9
00000001
fffffff4
00000004
00000001
ffffffde
fffffffc
00000004
00000002
fffffff7
fffffff9
fffffffe
ffffffe6
ffffffee
ffffffff
fffffffa
fffffff0
fffffffb
ffffffed
fffffff9
00000003
00000004
00000011
fffffffb
00000035
00000000
00000003
fffffffb
ffffffe8
ffffffe6
fffffff9
ffffffed
0000000a
fffffff9
00000001
00000012
00000004
ffffffed
00000010
fffffffe
00000001
00000003
00000002
00000007
00000001
00000008
fffffffc
00000001
fffffff8
fffffff6
00000006
fffffff6
00000007
00000006
fffffffb
00000004
fffffff4
00000002
00000002
ffffffe2
fffffffe
fffffff1
ffffffef
fffffffb
00000000
fffffff5
ffffffd2
00000000
fffffff4
00000008
fffffffe
00000003
ffffffff
00000003
fffffff4
00000023
00000008
fffffff6
00000003
00000000
00000015
ffffffdd
fffffffe
00000004
fffffffc
ffffffe9
00000006
fffffff7
00000000
00000007
fffffffe
00000014
fffffffd
0000000b
fffffff0
fffffffc
00000008
fffffff1
0000001a
ffffffef
ffffffe7
00000007
0000000b
00000003
0000000a
00000000
fffffff5
fffffffb
ffffffef
fffffffd
00000005
fffffff2
fffffff8
00000008
00000006
00000001
00000000
00000001
00000000
fffffff8
ffffffdc
fffffff9
ffffffe7
fffffff7
00000008
00000000
ffffffe7
0000002e
fffffff8
fffffff9
ffffffeb
ffffffee
fffffffa
00000006
fffffff4
00000004
ffffffd4
fffffffe
fffffff6
ffffffe5
ffffffe9
00000005
00000003
ffffffed
fffffffc
00000004
00000007
00000003
fffffffc
00000001
ffffffeb
00000004
00000005
fffffff9
00000006
00000003
fffffffb
fffffffa
00000008
0000001d
fffffff1
ffffffee
ffffffd6
ffffffe8
fffffff3
fffffffa
fffffff9
00000007
00000002
fffffffb
ffffffeb
fffffff0
ffffffee
fffffffc
fffffffc
00000000
fffffff4
ffffffee
00000003
fffffffe
00000004
ffffffff
ffffffe9
fffffffa
0000000f
ffffffe1
ffffffe9
ffffffe6
fffffffd
ffffffef
fffffff9
00000003
00000003
00000004
ffffffe6
fffffffb
fffffffc
fffffff9
ffffffea
ffffffcf
00000001
00000004
ffffffe9
00000006
fffffff1
fffffff9
ffffffe4
fffffff2
ffffffff
fffffffb
00000016
ffffffdd
fffffffb
00000001
ffffffef
00000007
fffffff7
fffffff2
fffffff6
fffffff9
ffffffff
fffffff2
fffffff9
fffffffb
00000004
ffffffe1
00000008
ffffffe0
00000006
00000003
00000000
00000001
00000000
fffffff6
fffffffd
00000003
ffffffef
00000002
00000004
ffffffeb
fffffffc
00000000
00000005
fffffff6
ffffffe4
fffffffd
fffffff6
0000000c
ffffffeb
ffffffe7
00000008
0000000b
00000000
00000002
fffffff2
ffffffff
00000005
ffffffea
00000005
ffffffff
fffffffb
ffffffee
ffffffdc
00000006
ffffffdc
fffffff7
00000000
fffffffd
fffffffe
00000001
00000001
00000004
ffffffe8
fffffffd
fffffffd
0000001a
ffffffeb
ffffffd6
fffffff7
ffffffef
fffffffa
ffffffe0
fffffffe
00000000
fffffffb
00000022
00000001
00000001
fffffff7
fffffff6
00000022
fffffffc
00000001
ffffffff
ffffffe6
00000003
fffffffb
00000002
fffffffa
00000000
fffffff8
00000003
00000008
ffffffe8
ffffffda
fffffff7
ffffffeb
ffffffe4
ffffffff
00000004
ffffffe8
00000005
00000009
00000006
fffffff7
fffffff9
ffffffe3
00000003
fffffff7
fffffff5
ffffffe2
fffffff5
fffffff8
00000001
fffffffc
00000000
ffffffee
00000005
fffffffa
00000001
ffffffdb
00000000
00000000
fffffffa
00000003
00000002
fffffff2
00000000
fffffff2
ffffffea
fffffff2
ffffffe3
ffffffe0
fffffff2
00000001
ffffffe4
fffffffc
00000002
ffffffef
fffffffc
00000004
fffffffe
fffffff6
fffffffa
fffffffd
fffffffb
fffffff0
00000005
00000005
00000006
fffffffb
00000006
fffffff3
ffffffeb
ffffffed
00000000
fffffffa
fffffff7
fffffff9
00000000
fffffffd
fffffffd
fffffff0
fffffffa
00000000
fffffffa
ffffffea
00000002
00000006
ffffffe5
fffffff8
00000005
fffffffb
fffffff7
fffffff5
fffffff0
ffffffff
ffffffff
00000000
ffffffee
ffffffea
fffffff9
fffffffd
fffffff4
fffffffd
00000006
fffffff9
00000006
fffffff8
fffffffc
fffffffe
fffffffe
00000000
fffffff7
00000006
fffffff7
fffffff1
ffffffee
fffffff5
ffffffd7
00000008
ffffffdd
00000006
ffffffe0
00000001
fffffffa
00000006
fffffff7
ffffffec
00000001
fffffffb
00000000
00000005
fffffff1
00000008
fffffffd
fffffffd
fffffffa
fffffff0
00000002
fffffff8
00000003
ffffffec
00000037
00000000
fffffff9
ffffffdf
fffffff4
0000000a
00000005
fffffff9
00000020
fffffff8
fffffff5
ffffffee
ffffffee
00000002
fffffff9
fffffffb
00000006
00000003
fffffffd
fffffffe
ffffffea
fffffff7
fffffff9
fffffffc
ffffffff
00000000
fffffffe
ffffffdf
00000014
ffffffee
ffffffe3
00000002
ffffffef
ffffffea
ffffffea
00000002
fffffffd
00000002
fffffff6
ffffffe7
00000004
fffffff7
fffffff8
ffffffed
fffffff9
00000000
fffffff7
fffffffd
ffffffea
00000004
fffffffb
fffffff8
00000005
ffffffe8
fffffff8
fffffffe
00000010
00000001
ffffffff
ffffffe9
00000004
00000000
fffffff3
00000003
ffffffff
fffffffb
00000002
ffffffff
00000005
fffffffe
fffffffd
00000003
00000006
0000001e
00000021
00000008
fffffff4
fffffffd
fffffffa
00000006
fffffff7
0000000a
fffffff5
ffffffd6
ffffffe4
fffffffb
fffffffd
fffffff5
00000011
ffffffef
fffffffb
0000000d
ffffffef
fffffffa
00000000
fffffff6
00000015
ffffffec
00000001
fffffff7
0000000d
fffffffb
fffffff4
fffffff6
fffffff8
fffffff7
ffffffe0
fffffffe
ffffffdd
00000007
fffffff9
ffffffe4
00000000
fffffffb
00000008
00000000
ffffffe2
ffffffe7
00000000
ffffffff
00000005
fffffffb
fffffffd
fffffffc
ffffffeb
00000008
fffffffc
fffffff7
fffffff6
fffffff7
fffffffd
00000007
fffffffa
00000004
00000003
ffffffe5
ffffffff
ffffffe3
fffffff8
ffffffe9
ffffffe7
ffffffe2
00000000
00000000
00000000
ffffffe9
fffffffe
fffffff7
ffffffef
00000007
00000003
fffffff9
fffffffe
fffffffa
0000000c
ffffffe9
00000008
00000005
ffffffe1
ffffffe9
0000000d
fffffffd
00000006
fffffffb
fffffffe
fffffffd
ffffffff
00000000
00000005
fffffff9
ffffffe0
00000004
fffffff1
ffffffe9
00000000
00000001
ffffffe8
00000000
00000026
fffffffb
00000000
ffffffed
00000004
fffffff8
00000000
ffffffe0
fffffffa
ffffffe0
fffffff7
fffffffa
fffffff2
fffffff5
ffffffd5
fffffffa
fffffff9
00000000
00000004
00000003
00000002
fffffff5
00000003
fffffffe
00000000
00000008
fffffff7
ffffffe6
fffffff9
00000000
fffffff6
ffffffed
fffffff4
00000003
ffffffe8
fffffff8
00000007
ffffffe5
fffffff3
fffffff7
ffffffe6
fffffff1
fffffff9
00000000
ffffffec
ffffffef
00000004
00000003
ffffffed
00000003
fffffffd
fffffff5
fffffffb
fffffff7
00000004
00000004
fffffff6
00000008
fffffff5
00000003
00000000
ffffffe4
fffffff4
fffffffe
fffffff9
ffffffed
00000002
00000003
fffffff1
00000009
00000015
fffffff4
00000000
ffffffee
00000000
00000008
fffffff1
fffffffd
ffffffe8
0000000e
ffffffdb
00000006
00000004
00000000
00000003
ffffffef
ffffffed
fffffff1
fffffff5
fffffffc
fffffffa
00000006
fffffffe
00000009
ffffffee
fffffff0
fffffffd
fffffff7
ffffffec
fffffff2
ffffffde
00000006
00000000
ffffffe0
fffffffc
00000002
fffffffe
fffffff2
0000002a
fffffff0
ffffffe2
ffffffea
ffffffdc
fffffffa
fffffffa
fffffff6
0000000a
00000006
fffffff9
fffffff1
ffffffe2
00000008
ffffffd8
00000000
00000000
00000007
ffffffdd
ffffffee
ffffffdd
00000003
00000001
fffffff8
00000001
fffffffb
00000007
00000009
00000002
fffffffa
fffffff8
ffffffff
fffffff1
00000001
00000001
00000006
ffffffda
0000000d
ffffffed
ffffffe3
ffffffdc
ffffffe1
ffffffe8
ffffffff
ffffffe6
fffffff6
fffffffd
fffffff2
00000007
fffffffd
ffffffe8
fffffff6
fffffffd
fffffff6
fffffff3
ffffffe3
00000001
00000017
ffffffff
00000007
fffffffb
00000021
ffffffe4
00000005
fffffffa
fffffff3
00000002
fffffff0
00000006
fffffffc
ffffffd7
00000004
ffffffde
fffffffc
ffffffe1
fffffffe
fffffff6
fffffff9
0000000f
00000004
00000004
00000004
fffffff9
fffffff8
00000004
00000007
fffffffe
ffffffdc
00000004
00000003
fffffff7
fffffff9
fffffffa
fffffffa
fffffff8
fffffff7
fffffff8
ffffffe8
00000000
ffffffe8
00000008
00000004
fffffffd
fffffff6
fffffffe
ffffffea
0000000b
fffffff7
00000007
ffffffe4
fffffff7
00000007
fffffff6
ffffffe9
00000003
fffffff0
fffffffa
00000003
ffffffe7
0000000c
00000000
fffffffb
00000003
0000000f
00000004
0000000c
ffffffe2
00000008
00000002
ffffffe5
00000000
ffffffdc
fffffffa
0000001f
00000015
00000029
fffffff3
00000004
ffffffda
fffffff6
fffffff8
ffffffea
00000005
fffffffa
00000007
00000006
fffffffd
00000002
00000002
fffffff2
fffffff5
fffffffb
fffffffe
ffffffdd
00000006
fffffffb
fffffffb
00000018
fffffffc
fffffff8
fffffffd
00000002
00000001
00000004
fffffffd
fffffff0
fffffffb
00000001
fffffffa
00000008
00000003
fffffffe
0000002a
fffffff9
ffffffec
00000001
00000005
ffffffde
00000000
fffffffd
00000001
00000005
fffffff9
fffffff3
fffffffc
00000000
fffffff1
00000004
fffffffe
fffffffa
fffffffc
00000003
00000006
00000006
00000001
fffffffb
fffffffb
fffffff9
fffffff6
fffffffd
00000008
fffffff0
ffffffd8
00000011
0000000c
00000005
ffffffe5
fffffff5
fffffffc
fffffffc
fffffff3
fffffff1
fffffff9
fffffffe
00000008
fffffff7
00000006
fffffff2
00000006
ffffffff
00000008
ffffffef
fffffff8
fffffffe
fffffff9
fffffffa
00000006
00000000
ffffffed
ffffffe1
fffffff8
00000011
fffffff7
fffffffe
ffffffeb
00000003
fffffffd
ffffffda
ffffffe9
fffffffb
ffffffff
00000004
00000005
00000002
fffffff7
00000004
00000020
ffffffec
fffffffb
0000000b
fffffffe
fffffffc
fffffff6
ffffffdb
fffffff9
ffffffea
fffffff8
00000000
fffffff8
fffffff4
00000008
ffffffe1
fffffffa
00000007
ffffffff
ffffffef
00000001
00000001
ffffffde
00000008
ffffffef
00000000
ffffffdf
fffffff9
ffffffed
ffffffff
fffffff9
fffffff6
00000000
ffffffed
00000004
00000004
fffffff2
00000006
ffffffef
ffffffec
fffffff9
00000008
00000003
0000000a
ffffffff
00000000
00000007
00000008
fffffffb
fffffff8
00000002
00000007
fffffffb
00000023
ffffffdb
ffffffe2
ffffffe1
00000008
fffffff9
00000000
fffffff6
00000030
00000001
fffffff9
ffffffee
00000001
00000002
00000000
00000003
00000000
00000001
ffffffed
fffffffc
00000000
00000000
00000004
00000025
fffffff5
fffffffc
fffffff7
fffffff3
fffffff9
fffffff6
ffffffe5
00000005
00000003
00000001
fffffff6
ffffffe0
00000005
fffffffb
ffffffe1
00000005
fffffffc
fffffff8
00000008
0000001a
00000012
fffffff5
00000000
00000000
00000000
fffffffb
fffffffc
ffffffdf
0000000a
00000004
fffffff8
00000000
fffffff8
ffffffff
00000000
fffffff9
fffffff9
00000003
fffffff8
fffffffe
fffffff1
ffffffe2
fffffff0
fffffff8
ffffffea
fffffff9
fffffffa
fffffffa
ffffffda
fffffff7
fffffff3
fffffffd
0000000a
00000001
00000000
fffffffe
00000011
0000000c
fffffff4
00000000
00000000
fffffffc
ffffffe1
fffffff6
fffffff5
00000004
0000000c
fffffff0
fffffffe
00000000
fffffff7
00000004
00000003
ffffffe8
fffffffd
00000002
ffffffec
fffffffa
fffffffe
ffffffe7
00000003
00000014
ffffffff
fffffffb
ffffffd7
00000006
00000001
fffffffa
fffffff3
fffffff8
ffffffd8
fffffff9
00000004
fffffff6
00000001
ffffffea
fffffff7
00000000
00000000
00000001
ffffffee
00000000
ffffffe4
00000008
ffffffd4
00000002
ffffffff
00000006
ffffffea
ffffffeb
fffffffc
fffffffc
ffffffed
00000002
ffffffff
ffffffe4
ffffffff
fffffff7
ffffffe0
ffffffef
fffffff8
ffffffe2
fffffff0
00000005
00000000
00000001
00000009
00000002
00000003
00000003
fffffffd
00000007
fffffff8
00000005
00000007
fffffff8
ffffffff
fffffffe
00000000
fffffffe
00000002
ffffffeb
fffffffd
fffffff4
ffffffe6
ffffffe7
ffffffe9
00000007
00000000
fffffffe
fffffff6
00000005
fffffffa
0000001b
fffffff5
00000000
00000003
00000018
fffffffb
ffffffe4
00000007
ffffffe9
fffffffb
00000001
ffffffe7
ffffffe4
fffffff3
00000007
0000000c
00000006
fffffffd
fffffffe
ffffffff
fffffffd
00000002
00000008
fffffffd
00000004
00000007
fffffffc
ffffffed
ffffffdc
00000005
fffffffe
fffffff2
00000005
ffffffea
fffffff0
ffffffef
ffffffed
fffffff1
ffffffe2
ffffffe6
ffffffe6
ffffffff
ffffffe7
ffffffef
fffffffb
fffffff9
ffffffea
fffffff5
0000000a
fffffffb
ffffffea
00000006
00000004
fffffff6
ffffffe1
0000000d
ffffffe9
00000006
fffffff6
fffffff9
00000006
fffffffe
00000000
fffffffe
ffffffff
ffffffe5
fffffffa
00000000
ffffffff
ffffffe1
00000001
00000002
ffffffe7
00000003
ffffffe4
0000001f
ffffffe1
ffffffe2
ffffffef
00000002
00000014
fffffffe
ffffffeb
00000001
00000000
fffffffc
ffffffe9
fffffff9
fffffffb
00000003
fffffffe
fffffff5
fffffffe
ffffffee
ffffffea
00000003
fffffffa
ffffffe2
ffffffe8
00000006
00000006
ffffffe8
00000001
ffffffed
00000002
ffffffe5
ffffffe2
fffffffb
0000000a
fffffffd
ffffffe2
fffffff6
fffffff4
00000005
fffffff3
fffffffe
fffffff4
fffffffd
ffffffed
0000001e
fffffff9
fffffffd
00000003
0000001e
fffffffe
00000003
fffffffa
00000000
fffffffa
00000002
ffffffff
ffffffed
ffffffee
ffffffe9
fffffff8
ffffffee
00000011
fffffff7
fffffffe
fffffff1
fffffffc
00000003
fffffff8
fffffff7
fffffff7
fffffffa
00000001
00000000
fffffffa
ffffffe7
fffffff6
fffffff8
fffffffb
fffffffc
0000000d
ffffffe4
fffffff0
fffffff8
00000005
ffffffe9
00000007
00000000
ffffffe7
00000000
00000004
fffffffe
00000005
fffffff4
fffffffe
ffffffe1
fffffff9
ffffffee
00000001
00000004
ffffffd4
fffffffd
00000003
ffffffef
fffffff9
fffffff7
00000004
fffffffb
00000002
ffffffff
00000001
ffffffe0
00000000
00000003
ffffffee
00000018
00000007
fffffff5
ffffffec
ffffffeb
0000000b
00000017
00000002
00000003
fffffffd
fffffffd
00000007
00000005
fffffff6
00000006
00000000
ffffffe0
fffffffa
fffffffc
ffffffec
fffffff2
ffffffdd
00000001
fffffffd
fffffff6
fffffff6
fffffff9
00000003
ffffffff
fffffff3
fffffffa
00000005
00000004
00000010
fffffffe
fffffff9
00000004
fffffff9
fffffff8
00000003
00000000
ffffffff
ffffffff
ffffffff
00000002
fffffff7
00000002
0000000b
ffffffe0
ffffffee
00000006
ffffffec
00000004
fffffff1
00000010
00000002
fffffffc
fffffff8
fffffff8
fffffff7
00000005
fffffffb
fffffffe
ffffffe8
ffffffeb
00000003
00000005
fffffffc
fffffff9
00000006
00000003
fffffffd
fffffff7
fffffffe
00000004
fffffff5
ffffffee
00000003
0000001b
fffffffc
fffffff7
ffffffe6
00000004
00000005
0000000e
fffffff4
00000006
fffffffa
00000000
00000002
fffffff8
fffffffc
00000007
ffffffe5
00000000
00000003
00000000
00000000
00000006
fffffffd
ffffffeb
00000000
fffffffe
ffffffe4
00000004
ffffffea
fffffff7
0000000c
ffffffdb
00000007
fffffffa
fffffff8
fffffff9
00000005
00000009
00000000
00000005
fffffff6
00000004
ffffffed
ffffffff
00000020
00000000
00000008
ffffffff
ffffffff
00000017
00000002
fffffff6
ffffffd8
00000008
fffffff0
ffffffe2
00000000
fffffffc
00000001
00000002
00000003
00000008
fffffff9
fffffff7
fffffff8
fffffff6
00000005
fffffff9
fffffff8
fffffff8
ffffffea
00000036
ffffffed
00000008
00000001
fffffffb
fffffff8
fffffff0
00000003
0000000c
00000015
ffffffff
fffffff6
fffffffa
fffffff5
fffffff8
00000001
ffffffed
00000014
00000006
fffffff8
ffffffee
0000000d
ffffffe9
fffffffe
fffffff3
fffffff7
fffffffa
fffffffe
0000002a
00000006
fffffff6
0000001b
fffffff5
ffffffe5
00000006
ffffffff
0000000c
00000006
fffffffb
00000000
fffffffd
fffffff5
fffffffd
fffffff7
fffffff8
fffffff8
00000006
fffffffc
00000006
fffffffc
fffffff8
fffffffd
00000000
00000001
00000004
00000000
00000004
fffffff9
00000012
fffffff8
ffffffe6
00000005
0000000c
ffffffec
ffffffe3
fffffff7
fffffff4
fffffffd
fffffff9
00000007
00000014
fffffffe
fffffffa
ffffffd5
00000000
00000006
fffffffe
fffffffd
ffffffeb
0000002a
ffffffea
00000010
00000003
ffffffea
ffffffdd
fffffff1
fffffff7
00000008
fffffffe
ffffffd9
fffffff4
00000004
fffffff7
00000000
00000009
fffffffa
00000005
fffffffe
ffffffe8
00000009
00000000
fffffffb
ffffffdc
ffffffe7
fffffff5
fffffff7
ffffffe9
fffffffc
fffffff8
00000000
fffffff4
fffffffe
00000006
fffffffd
fffffff8
fffffff9
fffffff7
ffffffef
ffffffff
00000004
fffffffe
00000000
fffffff2
00000000
ffffffd1
fffffffd
ffffffef
00000004
fffffff8
00000004
fffffffa
fffffff9
fffffff6
fffffffb
ffffffda
fffffff7
fffffffc
ffffffe3
00000006
00000002
ffffffe1
fffffff2
fffffff6
ffffffda
ffffffe7
fffffff9
00000003
ffffffed
fffffff6
fffffffc
00000006
ffffffed
00000003
fffffffc
ffffffee
00000003
00000003
ffffffec
00000001
00000005
00000017
fffffff9
00000003
00000006
fffffffc
fffffffc
fffffff1
ffffffeb
ffffffec
00000000
00000005
fffffff8
fffffff6
00000007
ffffffdf
fffffff1
fffffff7
fffffff4
fffffffe
0000000f
fffffff9
fffffff2
0000000a
ffffffe2
00000000
fffffffc
ffffffe7
ffffffee
fffffff7
ffffffce
ffffffef
00000011
fffffff9
fffffff5
fffffff8
00000008
00000004
0000001c
ffffffe7
00000003
fffffff9
fffffff5
fffffffa
ffffffe2
00000005
fffffffd
fffffff9
00000004
ffffffe7
ffffffed
fffffff8
0000000f
fffffff5
fffffff4
ffffffd6
00000005
00000002
ffffffe5
00000002
fffffff3
00000008
fffffffa
fffffff4
ffffffe6
fffffff9
ffffffe9
00000005
ffffffff
fffffff7
ffffffdb
fffffff0
ffffffde
00000009
ffffffff
00000000
00000005
00000004
fffffff1
00000003
ffffffff
ffffffe3
fffffff9
fffffffa
fffffff6
00000013
fffffffe
00000002
ffffffd0
00000013
00000027
fffffff0
fffffff3
00000004
00000024
fffffffd
fffffffb
fffffffa
0000000b
00000000
ffffffff
fffffff7
ffffffdf
00000004
ffffffff
00000003
fffffffe
fffffff1
00000006
0000000d
00000000
fffffff7
00000007
00000016
ffffffdb
00000001
00000000
ffffffe9
fffffffc
fffffff6
00000014
ffffffee
ffffffed
fffffffa
ffffffe5
fffffffb
ffffffeb
fffffffc
ffffffed
fffffffd
fffffff4
00000002
fffffff2
00000000
ffffffea
00000005
fffffffd
00000005
ffffffee
0000001e
fffffffe
fffffffb
fffffff6
fffffffd
00000007
00000000
fffffff6
ffffffe4
fffffffc
ffffffef
ffffffff
fffffff5
00000005
fffffffa
fffffffe
ffffffef
00000004
ffffffe3
fffffff9
00000002
00000009
ffffffeb
ffffffff
00000005
00000004
0000000b
fffffff6
fffffffa
fffffffe
fffffffc
fffffff1
ffffffe0
fffffff6
fffffffe
00000000
ffffffe1
00000007
00000003
00000012
00000008
00000009
fffffff6
00000006
ffffffdd
0000000b
ffffffe4
ffffffec
fffffffa
fffffff6
fffffff7
fffffff7
fffffff9
ffffffff
ffffffe7
00000005
ffffffff
fffffff6
fffffffa
00000006
00000003
00000000
ffffffe7
00000000
fffffff9
fffffffa
ffffffef
00000001
fffffffd
fffffffe
fffffff8
fffffffc
ffffffee
fffffff2
00000003
fffffffc
00000004
00000007
fffffff2
fffffffa
fffffffe
fffffffc
ffffffef
00000000
00000007
ffffffd4
fffffffe
ffffffef
fffffff6
00000006
ffffffcb
00000008
00000000
00000000
00000001
fffffff5
ffffffed
ffffffe7
fffffffd
fffffff5
fffffff6
00000007
00000000
00000004
fffffff7
fffffffc
fffffff8
00000006
fffffff9
fffffffe
fffffff9
00000001
00000000
ffffffcd
ffffffde
ffffffef
00000003
ffffffe5
fffffff7
ffffffe1
00000018
ffffffe3
fffffff7
fffffff4
fffffff4
00000003
fffffff9
00000002
00000003
ffffffe8
ffffffeb
00000004
00000007
00000002
fffffffd
00000001
fffffff2
00000004
fffffffe
ffffffe9
fffffffd
00000015
ffffffec
fffffff4
00000026
ffffffff
00000004
fffffffd
00000000
00000005
ffffffdc
ffffffe0
fffffff9
fffffff6
00000007
00000005
00000004
fffffff6
00000000
ffffffe4
00000000
00000000
fffffff7
00000008
00000000
fffffff8
ffffffe9
00000009
00000009
fffffff8
fffffffa
ffffffdc
ffffffe2
ffffffeb
fffffff1
00000005
00000009
fffffff6
fffffff0
00000000
00000005
0000000f
00000005
ffffffef
00000000
fffffff9
ffffffe0
ffffffec
00000004
fffffff6
fffffff9
fffffffc
fffffff9
ffffffff
fffffffa
ffffffee
00000008
fffffffb
0000000e
00000004
00000000
fffffff5
00000008
00000000
00000000
fffffff9
00000000
fffffffa
fffffff6
ffffffff
00000004
fffffff9
fffffff2
ffffffe6
fffffff3
ffffffeb
fffffffe
fffffffa
00000003
00000000
fffffffc
fffffff7
fffffff1
00000017
00000003
00000002
fffffff5
fffffffc
fffffff2
fffffffe
00000010
fffffff2
fffffffc
fffffffe
fffffff8
0000000b
fffffff6
fffffff7
fffffff3
00000000
fffffffe
00000006
0000000f
00000005
ffffffff
ffffffe5
00000026
fffffffd
00000000
fffffff6
ffffffed
fffffffc
fffffffd
00000010
00000003
00000001
00000000
fffffff7
00000005
00000005
fffffff7
fffffffe
00000001
0000001a
00000003
fffffff2
fffffffc
ffffffff
fffffff8
fffffffe
fffffff9
00000000
fffffffa
fffffff9
ffffffeb
00000007
fffffff9
fffffff4
00000002
fffffffa
ffffffe8
00000005
fffffffb
fffffff8
fffffff0
0000000c
fffffff9
ffffffdf
00000005
fffffffb
fffffff0
00000007
00000007
00000026
fffffff5
fffffffa
00000001
00000004
00000017
ffffffe7
fffffff7
fffffff9
fffffff4
fffffff2
fffffff7
fffffffc
00000001
ffffffff
00000003
fffffff2
00000000
fffffff1
fffffff1
00000003
fffffffb
ffffffea
0000002a
0000001f
ffffffe6
fffffff6
00000001
fffffffe
fffffffe
00000000
ffffffd8
00000007
ffffffe6
00000004
00000003
00000009
00000001
ffffffe3
fffffff6
00000007
00000005
fffffffb
ffffffe7
fffffff2
ffffffef
fffffffa
ffffffe2
fffffffe
ffffffff
fffffffb
ffffffed
fffffffd
ffffffff
00000006
ffffffd9
00000008
fffffffd
fffffff7
fffffffe
00000004
fffffff9
fffffff2
00000001
fffffff6
00000003
fffffffe
00000000
ffffffec
00000001
00000001
fffffff9
fffffffd
00000005
00000001
fffffff4
00000001
00000008
fffffff8
fffffff7
fffffffb
00000001
ffffffff
00000007
ffffffcf
ffffffec
ffffffef
fffffff4
fffffffd
ffffffdb
00000009
fffffff9
00000006
ffffffe6
00000006
fffffffb
0000002b
fffffff4
fffffff6
fffffff9
00000000
00000002
ffffffdf
00000000
fffffff6
00000005
fffffffb
00000027
00000009
00000012
ffffffd9
00000014
00000008
fffffffb
fffffff6
fffffffd
fffffffd
fffffffb
ffffffeb
00000010
ffffffff
fffffff7
00000014
ffffffe1
ffffffe5
00000002
00000005
ffffffe2
00000005
fffffff1
fffffff4
fffffff5
ffffffd0
fffffffb
ffffffdf
ffffffe5
ffffffea
00000002
fffffff1
ffffffe3
fffffff7
00000008
00000000
ffffffff
ffffffe4
0000000a
00000023
00000007
fffffff2
fffffff8
ffffffde
00000001
ffffffe4
00000008
00000003
fffffffb
00000003
00000000
ffffffe9
0000000b
ffffffff
0000000b
fffffffa
ffffffff
ffffffe1
fffffff9
00000000
00000002
fffffffa
ffffffe9
00000006
fffffff2
ffffffdf
00000022
ffffffda
fffffffa
00000021
fffffff9
0000000f
00000000
fffffffa
fffffff4
ffffffe2
fffffffc
fffffffe
00000006
fffffff4
ffffffe7
00000005
00000000
ffffffd5
00000009
fffffffc
00000000
00000006
ffffffff
00000000
fffffff4
00000007
0000000b
00000013
00000013
ffffffe8
00000002
ffffffd0
00000002
fffffffc
fffffff6
00000007
fffffffb
ffffffe3
00000008
00000005
00000008
fffffff5
0000000a
00000006
00000000
0000000c
ffffffef
fffffffd
fffffffc
fffffffe
00000006
fffffffb
fffffff7
fffffff8
00000019
ffffffe8
ffffffec
fffffffd
ffffffd2
fffffff9
00000003
0000000b
ffffffe3
fffffffa
00000033
fffffffa
00000001
ffffffe6
fffffff3
00000001
0000000c
00000001
fffffff6
ffffffd9
fffffffa
fffffffd
00000001
ffffffe8
00000006
fffffff9
fffffffd
fffffff9
ffffffca
00000004
00000006
0000000d
ffffffea
ffffffff
ffffffe7
ffffffff
ffffffdf
ffffffe9
fffffff0
ffffffd8
00000022
00000007
fffffff9
fffffff7
fffffffb
00000007
ffffffee
00000004
00000002
00000006
00000007
fffffffe
00000008
00000000
ffffffee
ffffffff
fffffffe
ffffffec
0000001e
ffffffff
fffffff8
00000003
ffffffed
ffffffff
ffffffe5
fffffffb
00000000
fffffffb
00000008
00000005
ffffffe6
00000008
00000003
fffffffe
0000001a
00000001
fffffffc
fffffffa
00000000
fffffff6
00000003
fffffffa
ffffffe9
fffffff5
00000008
00000005
0000000a
fffffff1
fffffff0
fffffff2
00000001
fffffff3
ffffffff
00000003
00000006
00000002
00000009
ffffffff
00000006
00000003
fffffff8
fffffffa
00000006
00000003
fffffffe
ffffffef
ffffffd5
fffffffc
0000000e
00000002
00000006
00000017
fffffffd
fffffff1
fffffff9
fffffff6
fffffffd
fffffff8
ffffffff
fffffffe
00000004
ffffffee
fffffffa
fffffff8
00000004
0000000d
00000000
00000004
fffffffc
00000001
00000003
00000002
ffffffff
ffffffe5
0000001d
0000000b
fffffff1
fffffffd
00000003
ffffffe5
fffffffb
00000003
fffffffa
ffffffeb
00000003
00000008
00000005
fffffffe
fffffffa
fffffff7
00000005
00000030
fffffff6
00000003
00000013
0000000a
fffffffc
ffffffff
ffffffeb
fffffff7
fffffffe
ffffffd0
00000004
ffffffdc
fffffff1
00000009
fffffffa
0000000e
fffffffb
fffffff9
ffffffe6
fffffffe
ffffffff
0000000a
00000011
ffffffed
00000004
fffffff4
fffffffa
ffffffe5
00000000
ffffffec
00000004
00000000
fffffff8
00000000
fffffffe
ffffffe3
fffffffa
fffffffb
fffffff2
fffffff8
00000000
fffffffe
00000000
fffffff8
00000015
fffffffc
0000000b
fffffff9
fffffffb
00000008
00000000
00000006
00000000
ffffffc6
fffffff6
fffffff5
00000000
00000000
00000001
ffffffff
00000009
ffffffff
0000000e
fffffffb
fffffff7
00000007
fffffffb
fffffffa
fffffffa
00000010
fffffff1
00000001
fffffff8
00000008
fffffffe
ffffffe0
ffffffe5
ffffffff
fffffff2
fffffffe
fffffff3
fffffffc
ffffffc0
00000009
fffffffe
00000006
00000002
ffffffd9
00000003
fffffff5
ffffffe8
ffffffff
fffffffe
00000007
00000009
00000000
00000014
ffffffda
00000001
fffffffa
fffffff5
00000005
00000003
ffffffd2
00000004
fffffffc
fffffffc
00000007
00000002
fffffffb
fffffffa
00000004
00000007
fffffffe
fffffff3
00000000
ffffffde
ffffffd2
fffffff7
fffffff9
ffffffef
00000005
00000001
00000000
fffffff5
00000001
00000000
ffffffea
00000000
00000000
fffffffc
00000000
ffffffd4
00000018
ffffffff
fffffff2
fffffff8
00000008
ffffffde
0000001f
fffffffd
0000000a
ffffffe5
ffffffe8
fffffffd
fffffff8
00000006
00000002
fffffffb
00000013
0000000d
00000002
ffffffe8
00000000
00000006
fffffff8
fffffffa
fffffff0
ffffffe3
fffffffd
fffffff7
fffffffd
00000004
fffffffe
ffffffee
00000002
00000000
fffffff9
00000000
fffffff9
00000004
ffffffff
fffffffc
fffffffd
fffffffa
00000000
ffffffea
00000004
fffffff3
00000004
00000002
fffffffa
fffffff8
ffffffff
ffffffe9
ffffffff
fffffff7
00000001
ffffffee
fffffff4
0000000a
ffffffec
0000000e
00000008
0000001b
ffffffe7
00000000
ffffffbb
fffffff2
fffffff6
00000002
ffffffd6
fffffffa
0000000b
00000000
fffffffb
ffffffff
fffffffa
ffffffe0
00000001
00000008
00000001
00000004
00000007
ffffffe5
ffffffff
00000004
ffffffec
fffffffb
ffffffec
fffffff4
ffffffe8
ffffffea
fffffffe
00000007
00000004
fffffffd
00000000
0000001a
fffffff7
0000000e
00000000
00000004
fffffff4
00000006
00000007
fffffff9
ffffffde
ffffffff
fffffffa
00000007
ffffffd8
ffffffea
0000002b
ffffffd9
00000026
fffffffa
00000004
00000005
fffffffb
00000005
0000000e
fffffff1
00000000
00000004
fffffff1
fffffff5
fffffff6
00000003
fffffff9
00000000
00000000
ffffffe7
00000005
fffffffb
ffffffed
fffffff8
ffffffee
ffffffe5
00000003
00000000
fffffff6
fffffffe
fffffff4
fffffffa
fffffffc
fffffff8
ffffffe9
fffffffe
00000011
00000003
00000004
fffffffe
ffffffe9
fffffff7
fffffff9
00000002
00000007
00000000
00000000
00000008
fffffffb
00000001
00000004
ffffffd7
00000008
fffffff4
00000009
ffffffd9
00000001
00000003
00000017
ffffffdf
0000000d
ffffffe2
ffffffef
0000000a
ffffffcd
fffffffa
ffffffe8
fffffff8
ffffffe9
fffffff7
ffffffff
ffffffee
00000003
00000004
00000002
fffffff7
fffffff8
fffffffc
fffffffa
ffffffed
00000008
00000004
00000001
ffffffed
0000000b
00000004
fffffff7
ffffffed
fffffffb
00000023
ffffffeb
ffffffe8
fffffffc
00000003
ffffffda
00000003
ffffffee
fffffff6
ffffffe7
00000001
fffffff1
fffffffe
00000003
00000005
ffffffd2
fffffff8
00000007
fffffffb
00000001
00000024
00000003
fffffffc
00000003
fffffffb
fffffff8
fffffffe
fffffff9
ffffffe3
ffffffe0
ffffffd6
00000005
0000001b
ffffffd7
00000002
00000000
00000006
00000004
00000018
00000009
00000007
00000000
fffffff9
fffffffe
00000008
ffffffff
ffffffe1
ffffffed
fffffffb
0000000a
00000008
00000003
ffffffde
ffffffda
fffffff7
fffffffe
ffffffdc
00000007
00000000
fffffffb
00000004
00000006
ffffffeb
00000006
00000002
00000011
fffffff7
ffffffc2
00000000
00000003
fffffffa
ffffffef
fffffff9
00000004
ffffffef
fffffff8
fffffff7
00000002
00000000
fffffffe
fffffffb
00000001
00000003
ffffffff
00000006
ffffffed
ffffffd7
fffffff7
00000007
ffffffe5
fffffffc
fffffffc
ffffffe1
00000008
fffffff9
fffffffa
00000000
ffffffff
ffffffee
0000000e
ffffffff
00000000
ffffffec
00000000
ffffffff
fffffff2
00000009
fffffff8
fffffff7
fffffffc
fffffffd
ffffffef
00000006
00000002
00000005
ffffffd7
ffffffe9
00000013
00000008
ffffffde
00000001
00000000
00000006
fffffff9
fffffff9
fffffff7
ffffffff
00000005
00000000
ffffffff
00000000
00000007
fffffff6
fffffffe
ffffffd7
ffffffea
ffffffff
fffffff6
00000006
ffffffc0
fffffffc
00000011
00000001
00000005
fffffff4
fffffffe
fffffff8
fffffffa
fffffffc
ffffffe5
ffffffd0
00000006
00000000
00000003
fffffffa
00000000
ffffffed
fffffffb
fffffff2
ffffffe2
0000000c
fffffffd
fffffff5
fffffffa
fffffffd
ffffffff
00000000
fffffff7
00000001
00000001
00000014
ffffffd8
00000008
fffffff9
00000000
fffffff8
00000000
fffffffe
fffffffc
ffffffc9
fffffff0
00000007
00000001
00000004
00000000
00000006
00000007
ffffffec
ffffffd0
ffffffd0
fffffff8
ffffffd9
fffffff9
ffffffe9
ffffffe5
00000013
00000004
00000000
fffffffd
00000000
fffffff8
00000005
ffffffee
00000009
00000005
fffffff8
ffffffc9
ffffffe9
00000007
ffffffc9
fffffffa
fffffffc
ffffffed
fffffffa
fffffffa
ffffffd1
fffffff6
00000005
fffffff5
fffffffc
fffffffc
ffffffe2
fffffffa
ffffffff
fffffff8
ffffffff
00000008
00000003
00000003
00000001
00000008
fffffffd
ffffffdb
fffffffe
ffffffe3
00000004
00000002
fffffffc
00000008
fffffff9
fffffff3
fffffffa
ffffffff
00000021
fffffffc
00000007
00000000
ffffffe5
ffffffdf
fffffffe
fffffffc
0000000f
ffffffff
fffffff8
ffffffe0
fffffff3
0000000b
00000007
fffffff8
00000004
0000000e
fffffff8
00000014
00000006
ffffffff
ffffffdf
ffffffe7
ffffffd6
fffffffe
fffffffe
00000007
00000008
00000000
fffffff9
00000003
0000001e
fffffff2
ffffffdc
fffffffa
00000006
ffffffff
00000006
00000000
00000010
00000005
00000000
00000000
00000000
fffffffe
00000006
fffffffb
fffffff7
fffffff1
fffffffc
00000020
00000000
00000002
ffffffea
00000003
fffffffd
00000005
fffffffc
00000007
fffffff3
00000011
00000000
fffffff9
fffffff1
00000002
fffffffc
00000004
fffffffb
ffffffdf
fffffffa
fffffff2
ffffffe6
00000006
fffffff2
ffffffe4
fffffff8
00000004
00000007
fffffff9
00000027
fffffffe
fffffffc
fffffffd
00000004
fffffffd
00000000
00000001
00000007
ffffffe5
fffffffc
fffffffb
fffffff9
00000003
fffffff8
ffffffdb
00000000
fffffff5
00000006
00000003
00000000
fffffffe
fffffff8
0000001c
fffffffc
00000003
00000001
00000006
00000009
00000008
00000009
00000009
fffffff8
ffffffde
fffffffa
00000007
00000000
fffffff8
fffffffb
fffffffe
00000000
0000000b
0000000c
00000000
00000000
00000014
fffffff7
fffffff9
ffffffe8
ffffffff
fffffff8
00000021
ffffffff
fffffff7
ffffffe4
fffffffa
00000006
fffffffe
fffffff6
fffffff2
00000000
00000003
ffffffed
00000000
00000004
ffffffe6
fffffffb
fffffff9
fffffffb
00000000
00000003
ffffffe1
fffffff8
fffffff6
fffffffd
00000009
fffffff3
fffffff2
fffffff1
fffffff2
00000007
00000006
00000011
00000010
fffffff1
ffffffdd
ffffffff
00000004
00000000
00000000
00000006
fffffffd
00000012
fffffffb
00000007
fffffffc
00000003
00000009
ffffffef
fffffff0
fffffffe
00000008
00000007
00000005
ffffffe7
00000000
00000000
fffffff8
0000002f
ffffffe7
fffffffe
00000008
fffffff1
ffffffec
ffffffea
fffffffe
00000003
ffffffee
fffffff9
ffffffcb
00000000
00000020
ffffffd7
fffffff3
00000012
ffffffc8
ffffffec
00000008
fffffff9
fffffff6
fffffff4
00000009
00000001
ffffffeb
fffffff3
ffffffff
ffffffea
0000000c
00000000
00000000
ffffffdd
fffffff4
fffffff2
00000000
00000007
00000009
00000006
00000000
00000001
fffffffe
00000005
ffffffcd
00000002
00000002
ffffffcd
00000000
fffffffe
00000000
ffffffc6
ffffffe0
00000025
00000000
00000006
fffffff5
00000016
fffffff6
ffffffec
fffffffc
ffffffe8
00000007
00000006
ffffffe6
00000001
00000002
00000003
fffffff5
fffffff7
fffffff7
fffffffe
ffffffd9
fffffff6
ffffffff
fffffffe
ffffffde
0000000f
00000001
fffffff8
ffffffea
00000006
00000010
ffffffe6
ffffffe8
00000007
00000005
ffffffeb
0000000d
ffffffe4
fffffffa
ffffffea
00000008
00000001
fffffffc
00000001
00000000
ffffffd6
00000015
00000000
00000004
fffffffa
ffffffc7
fffffffa
00000001
00000000
00000007
00000008
fffffffb
fffffffb
fffffffe
ffffffff
00000008
00000002
ffffffe7
00000029
00000008
00000000
ffffffed
0000000d
00000000
fffffffd
fffffffe
00000000
ffffffdf
fffffffa
0000000b
00000000
fffffffb
ffffffea
00000014
0000000b
fffffffc
0000001a
ffffffc6
0000001c
ffffffff
00000007
00000015
00000007
fffffff9
ffffffcd
fffffff6
fffffffe
fffffff0
fffffff8
ffffffdc
fffffff9
fffffff3
0000001f
fffffff5
fffffff9
fffffff8
ffffffe5
0000000c
00000004
ffffffb5
00000001
00000000
ffffffff
00000007
00000004
fffffffc
fffffffc
00000009
00000000
fffffffb
ffffffce
ffffffe4
fffffff9
0000000e
fffffff9
fffffffe
fffffffa
ffffffea
00000009
fffffffb
fffffffc
00000000
fffffff9
ffffffee
00000000
00000002
fffffff9
ffffffe2
00000000
00000006
ffffffc9
fffffffb
00000008
fffffffc
fffffffa
fffffff1
fffffff9
ffffffff
ffffffff
fffffff6
ffffffde
ffffffe3
ffffffdc
00000003
fffffff8
fffffffd
00000005
fffffffd
fffffffe
00000001
00000000
00000005
fffffff8
00000001
00000006
fffffff8
fffffff8
0000000a
00000023
ffffffe8
ffffffe5
00000004
fffffffe
fffffffe
00000014
0000000c
ffffffe8
00000000
fffffff6
00000004
00000000
00000008
00000002
fffffffd
ffffffe2
ffffffe1
00000003
fffffff8
ffffffff
fffffff8
fffffff9
fffffff4
00000005
fffffffd
00000018
fffffffc
fffffffe
ffffffeb
00000001
fffffffd
00000002
00000008
00000006
00000002
00000000
ffffffff
fffffffb
00000000
00000006
00000007
0000000a
00000001
00000006
00000008
ffffffd2
fffffffe
0000000f
00000000
fffffffb
00000003
00000005
fffffff5
ffffffe5
fffffff5
ffffffee
fffffffd
ffffffd4
00000001
00000008
ffffffdc
00000008
fffffffe
00000001
ffffffce
00000000
00000007
fffffff9
fffffff1
00000000
fffffffe
ffffffd7
00000008
ffffffe2
fffffffd
fffffff2
fffffff9
00000009
ffffffea
00000004
00000007
ffffffea
00000000
fffffff7
fffffff1
ffffffff
fffffffb
fffffffc
fffffff2
fffffffd
fffffffc
fffffffe
00000000
00000000
00000008
00000006
fffffffa
00000006
fffffffc
ffffffee
fffffff5
00000010
fffffffa
00000008
00000004
00000003
ffffffcf
00000004
ffffffcf
ffffffc8
00000003
fffffffa
fffffff4
ffffffe8
ffffffe3
00000003
0000001d
00000016
fffffffd
00000000
fffffffc
0000000a
fffffffb
00000002
fffffff8
00000002
fffffffd
fffffff8
00000003
00000003
0000000c
fffffff2
ffffffe4
ffffffc4
00000005
fffffffb
00000018
00000006
fffffffa
00000001
fffffff9
0000000a
fffffffe
ffffffcf
fffffff8
ffffffff
00000004
00000004
fffffffc
ffffffec
fffffffa
fffffffa
00000003
fffffffc
00000006
00000005
fffffff7
fffffffd
ffffffef
00000003
ffffffe8
fffffff7
fffffff4
00000000
fffffff2
fffffff6
00000008
00000000
fffffffa
fffffff7
ffffffec
00000000
00000005
ffffffe5
00000004
00000008
fffffffc
ffffffff
00000008
fffffff8
00000000
ffffffe9
00000002
ffffffe6
fffffff0
fffffff2
fffffffd
fffffffd
fffffffd
0000000a
ffffffff
fffffff9
fffffffc
00000007
00000004
fffffff7
fffffffd
0000000b
ffffffcc
00000000
fffffffc
fffffffb
ffffffe4
00000009
ffffffee
0000000a
0000000a
00000000
ffffffff
00000001
ffffffeb
00000005
fffffffa
00000000
fffffff8
fffffff7
fffffff6
ffffffd8
00000001
00000007
fffffffc
00000002
ffffffef
00000001
fffffff7
00000006
fffffff3
00000002
00000003
fffffffb
fffffff4
ffffffe5
00000007
00000000
00000009
ffffffea
fffffffa
fffffff3
00000000
00000000
ffffffcc
fffffff5
fffffffb
ffffffdd
fffffffe
ffffffff
00000008
fffffffa
00000003
00000000
fffffffc
0000001a
fffffffa
fffffffc
fffffff6
00000004
fffffff9
00000008
fffffffe
00000006
0000000a
00000004
00000006
ffffffe7
fffffffd
ffffffe7
ffffffff
ffffffea
fffffff1
00000006
00000006
00000004
fffffffa
fffffff3
fffffff5
00000002
0000000a
00000005
fffffff9
fffffff8
fffffff5
fffffff6
fffffff5
fffffff6
00000001
00000000
00000005
fffffffe
fffffff5
fffffff7
00000004
00000008
00000000
ffffffe0
00000002
00000005
00000008
00000007
00000003
00000001
00000000
fffffff7
fffffffa
fffffffd
ffffffff
fffffff8
ffffffd7
fffffffe
ffffffec
ffffffeb
ffffffdd
0000001d
fffffffa
ffffffe9
ffffffeb
00000007
fffffff6
00000013
ffffffd1
00000008
fffffffe
00000006
fffffff1
ffffffd4
00000000
00000003
00000008
fffffff1
00000000
ffffffc5
ffffffef
ffffffdb
fffffffc
00000006
00000003
00000006
fffffff7
00000000
00000005
00000005
fffffff8
fffffff8
00000004
00000003
ffffffe5
fffffff8
00000000
00000002
0000000b
ffffffe9
ffffffdc
ffffffea
fffffff1
ffffffec
00000004
0000001f
fffffffb
ffffffea
00000003
00000002
fffffff4
ffffffe1
0000000b
00000000
fffffffd
00000003
ffffffeb
00000002
fffffff1
00000005
fffffffb
00000005
00000000
ffffffd6
fffffffa
00000000
00000000
00000005
fffffff6
ffffffe8
00000003
fffffffb
00000001
ffffffdf
00000013
00000008
00000003
0000001c
00000003
ffffffe4
00000003
fffffffb
fffffff9
ffffffe7
fffffffb
ffffffff
00000004
ffffffe9
00000025
00000002
00000007
00000000
00000002
00000007
00000003
00000006
fffffffe
00000001
fffffff6
fffffff6
00000026
fffffffc
00000000
fffffffe
ffffffd8
ffffffff
00000000
fffffff9
fffffffb
fffffff8
ffffffe6
00000007
00000001
00000003
00000000
00000003
fffffff7
0000000f
00000003
0000000a
fffffff7
fffffff3
00000006
00000000
00000019
fffffff9
00000006
fffffff1
00000003
fffffffe
ffffffee
fffffffc
fffffff0
00000021
00000001
ffffffff
00000008
00000001
00000000
ffffffe3
00000004
00000000
fffffff0
00000005
00000004
fffffffa
fffffffb
00000001
fffffffc
fffffff8
ffffffe7
fffffff7
00000004
ffffffe8
ffffffd8
ffffffff
fffffff6
ffffffee
fffffffd
00000000
fffffff6
00000006
00000006
fffffffc
00000003
00000001
fffffff4
00000007
00000008
fffffff6
ffffffe4
00000002
00000003
ffffffd9
fffffff9
ffffffea
fffffffe
00000002
ffffffba
0000001a
00000002
00000000
00000007
fffffff1
00000005
ffffffde
fffffff8
0000000e
00000005
00000003
fffffffe
ffffffff
00000000
fffffffd
00000007
fffffffc
00000005
00000000
fffffff8
00000006
fffffffc
fffffff6
0000000f
ffffffdb
00000017
ffffffea
00000001
ffffffd4
00000015
ffffffe2
00000006
ffffffe9
ffffffde
00000004
fffffffd
00000003
00000000
ffffffdf
ffffffd7
fffffffe
fffffffa
0000000f
0000001f
00000008
ffffffee
00000003
fffffff7
ffffffc8
fffffffb
00000011
ffffffe0
00000001
fffffff5
00000002
00000001
ffffffd3
00000002
fffffffd
ffffffd4
ffffffe9
fffffff7
fffffff9
fffffffd
fffffffa
fffffff9
00000000
00000008
0000001d
fffffffd
fffffffe
fffffff7
fffffffb
fffffffc
0000000b
ffffffde
0000000b
ffffffec
fffffff0
00000007
ffffffca
fffffffc
00000028
fffffffb
00000007
00000005
00000004
ffffffda
fffffffc
fffffff6
ffffffeb
0000000a
ffffffe5
fffffff9
ffffffe0
00000004
ffffffda
00000001
ffffffde
fffffff4
00000002
ffffffe4
fffffff7
00000006
ffffffe3
fffffffb
00000004
ffffffe7
00000004
00000001
00000000
00000007
00000000
00000000
00000004
00000003
00000005
fffffffa
00000000
fffffff9
00000002
0000000f
00000007
ffffffff
fffffff4
00000007
00000006
00000007
fffffff7
fffffff5
fffffff7
ffffffe0
ffffffda
fffffffa
00000007
fffffff2
fffffff5
00000009
00000015
ffffffff
0000004c
fffffff9
00000002
0000000e
ffffffd4
fffffff8
fffffff7
fffffffa
0000000b
fffffff2
fffffffb
00000007
00000003
fffffffa
fffffff2
ffffffe5
ffffffe3
00000001
0000000d
00000012
00000000
00000007
00000001
00000008
ffffffd2
fffffff4
ffffffe0
00000002
00000000
00000007
00000000
00000000
fffffffe
fffffff4
fffffff8
ffffffff
ffffffff
fffffff7
00000005
fffffffc
00000004
fffffffc
00000000
00000002
00000000
0000000c
ffffffe2
00000010
ffffffd6
fffffff2
fffffffc
00000001
fffffffe
0000002d
00000003
00000000
fffffff7
00000002
fffffff7
00000000
00000000
ffffffd2
ffffffdf
00000000
00000010
00000004
0000000a
ffffffde
0000001c
0000000c
00000000
fffffff4
ffffffd6
fffffffe
fffffffc
00000001
ffffffff
ffffffff
ffffffdd
00000004
fffffff5
ffffffd7
fffffff6
00000003
fffffff1
ffffffdd
00000010
ffffffda
fffffffb
0000001a
fffffffe
00000004
00000000
00000020
fffffffd
ffffffdb
00000003
fffffffd
ffffffec
00000003
ffffffe5
00000006
fffffffd
fffffffd
fffffff9
fffffff7
00000004
ffffffe6
00000009
ffffffee
00000006
00000005
00000006
00000017
ffffffef
fffffffe
ffffffff
0000001e
ffffffef
00000001
fffffffc
00000004
fffffffe
ffffffe4
fffffff7
00000003
ffffffe9
fffffff5
fffffff6
fffffff7
ffffffdb
fffffffc
00000009
fffffffe
fffffff6
00000009
00000003
fffffff5
00000000
00000003
fffffffb
fffffffc
00000001
00000000
fffffffb
00000000
ffffffdb
00000000
00000010
fffffff5
00000006
fffffff1
fffffffe
00000009
00000002
fffffff5
fffffffe
fffffff1
fffffffc
ffffffff
fffffffc
00000005
ffffffe4
fffffffd
ffffffd8
fffffff7
ffffffda
fffffff7
00000005
0000000f
00000004
00000024
fffffff8
ffffffdf
fffffffa
00000000
fffffffb
00000004
00000000
00000000
fffffff5
ffffffea
fffffff9
fffffff6
fffffff1
00000022
ffffffeb
00000005
fffffffc
ffffffe1
00000003
0000001b
00000000
ffffffef
ffffffed
ffffffed
ffffffba
ffffffed
fffffff1
00000008
fffffff9
00000000
fffffff5
00000001
ffffffef
fffffff5
ffffffef
fffffff8
ffffffe3
fffffff4
00000006
fffffffe
ffffffe6
0000000c
ffffffe6
fffffff7
00000003
00000005
00000005
00000006
0000002a
00000001
00000002
ffffffee
fffffff9
ffffffff
ffffffe9
ffffffdb
00000004
fffffff7
ffffffeb
ffffffe2
00000010
0000000f
fffffff0
ffffffe3
ffffffe7
00000002
ffffffdc
fffffff9
fffffffd
00000000
00000000
00000001
ffffffe6
fffffff2
00000006
00000005
00000010
ffffffef
00000003
00000002
00000004
00000000
00000000
ffffffe5
fffffffd
fffffffd
00000002
fffffff0
fffffffd
00000004
fffffff9
ffffffec
ffffffe7
00000000
ffffffe2
ffffffee
ffffffd3
fffffff1
ffffffde
00000008
ffffffdd
fffffff5
fffffffe
fffffffd
ffffffea
fffffffc
fffffffc
fffffff8
fffffff8
ffffffe4
00000006
fffffffc
00000000
fffffff4
00000005
fffffff6
00000003
fffffff7
00000003
ffffffd5
fffffff8
fffffff5
0000000a
ffffffff
fffffff9
00000003
00000000
fffffffe
fffffff5
ffffffff
fffffffd
ffffffd8
fffffffe
fffffff9
fffffffc
ffffffc7
00000013
00000006
ffffffec
ffffffff
00000021
ffffffe0
00000007
00000000
00000004
00000021
00000000
fffffff9
ffffffe3
00000005
00000000
fffffff7
00000000
ffffffe8
fffffff4
00000003
0000000c
fffffff2
fffffff2
00000006
fffffff5
00000000
fffffff9
0000000b
00000001
00000000
00000001
00000000
ffffffff
fffffffa
fffffff9
ffffffea
fffffff5
00000008
00000019
ffffffeb
00000002
fffffff6
00000000
ffffffff
00000001
fffffff0
fffffffb
fffffff7
fffffffb
00000006
00000004
00000016
00000002
fffffff8
00000007
ffffffdf
00000000
00000005
ffffffe8
fffffffd
ffffffe0
fffffffa
00000007
0000000b
0000000e
00000007
fffffff6
00000004
fffffffe
ffffffe3
ffffffd9
00000001
ffffffe9
00000002
00000000
fffffff8
00000006
00000005
fffffff9
fffffffc
00000002
00000006
fffffff6
fffffff8
00000006
ffffffff
ffffffee
ffffffe7
00000011
fffffff4
00000024
fffffffb
fffffff6
fffffff7
fffffff8
00000009
fffffffd
fffffffa
0000000a
00000000
00000000
fffffff6
ffffffe9
ffffffe9
00000002
fffffffd
fffffff6
fffffffb
fffffffc
ffffffec
00000002
fffffff2
ffffffea
00000002
00000006
ffffffe1
00000000
ffffffff
00000002
fffffffe
00000000
fffffffd
00000003
ffffffe6
ffffffec
00000005
fffffffd
00000001
fffffffb
fffffffd
fffffffa
00000002
fffffffd
fffffffd
00000001
fffffff5
fffffff5
00000006
00000001
0000000a
00000012
fffffff3
fffffff2
fffffff8
fffffff2
00000004
ffffffe5
00000002
0000000b
00000005
fffffffa
fffffff0
fffffff3
00000004
00000008
ffffffec
00000002
fffffffe
0000000d
ffffffd1
ffffffe7
00000006
ffffffef
00000007
fffffffc
ffffffe6
00000004
00000000
ffffffed
00000000
fffffff0
ffffffed
00000006
fffffffe
fffffff6
00000009
fffffffe
fffffffe
00000001
00000005
fffffff6
00000000
fffffff3
fffffffa
00000001
00000003
ffffffe5
fffffff4
00000012
00000005
00000000
fffffff7
0000000a
fffffff0
00000008
ffffffee
00000022
00000004
00000001
fffffff8
ffffffe6
fffffffa
fffffff2
fffffff3
ffffffe5
00000001
fffffff8
00000014
00000017
fffffff5
00000004
fffffff8
ffffffff
fffffff7
fffffff6
ffffffe9
00000000
00000001
fffffff5
0000000c
ffffffea
fffffff9
00000000
ffffffe9
00000000
00000006
fffffff8
fffffffd
00000003
0000000f
ffffffec
00000006
ffffffff
00000005
fffffff7
00000009
fffffff9
fffffff6
00000006
fffffffc
fffffff4
00000003
00000000
00000004
00000006
fffffff5
00000008
00000009
00000007
00000016
ffffffda
ffffffd0
fffffff6
ffffffdd
fffffffd
fffffffc
00000008
fffffff7
00000006
fffffff7
ffffffdc
fffffffb
fffffffb
00000008
00000007
fffffff5
fffffff8
fffffff4
fffffffb
00000003
fffffff4
ffffffe7
fffffffd
00000001
fffffffc
fffffff0
ffffffe0
fffffff9
00000003
fffffffd
00000002
00000006
ffffffdf
00000004
0000000c
fffffff0
fffffff7
00000002
ffffffed
00000002
fffffff3
00000003
00000004
fffffffb
00000000
00000007
00000004
00000012
fffffffa
ffffffdc
fffffffa
00000004
00000012
00000000
0000000e
fffffffb
00000007
fffffffb
fffffffd
fffffffa
fffffff2
fffffff8
ffffffff
00000003
00000007
ffffffff
00000002
ffffffe2
ffffffea
00000006
00000004
ffffffea
ffffffee
00000006
fffffff7
00000004
00000004
fffffff1
ffffffed
00000009
ffffffd7
fffffff5
00000007
00000006
00000000
00000007
fffffff9
00000005
00000018
00000002
fffffffe
ffffffd8
00000005
0000000a
fffffff9
00000005
00000000
0000000a
00000000
00000001
fffffffe
ffffffe9
fffffff3
ffffffde
fffffffe
ffffffd4
fffffffc
00000000
0000000b
fffffff1
fffffff6
00000020
00000007
ffffffef
0000000e
00000001
00000011
00000009
00000001
fffffff7
fffffff5
00000006
00000005
fffffff3
00000023
ffffffe2
ffffffe5
fffffff3
00000024
00000007
ffffffec
00000003
00000005
00000002
00000022
ffffffe3
00000000
fffffff9
fffffffa
fffffff0
0000000a
fffffffd
fffffffd
fffffff5
00000004
ffffffe6
00000004
ffffffe4
ffffffe4
ffffffed
fffffff6
ffffffd8
00000000
fffffffe
fffffff8
fffffffc
00000006
fffffffc
fffffffd
fffffffd
ffffffe0
fffffffe
ffffffee
00000005
00000000
fffffff7
ffffffdc
ffffffe8
ffffffd9
00000007
00000001
00000004
0000000a
00000005
00000012
fffffffd
fffffff6
ffffffe7
fffffffc
ffffffff
ffffffe8
00000009
00000008
00000000
fffffff2
ffffffe7
ffffffed
ffffffff
ffffffda
00000004
ffffffdc
fffffffd
00000020
fffffffc
fffffff3
ffffffee
fffffffe
ffffffe6
ffffffe8
00000002
0000000d
00000001
fffffff3
00000012
00000009
fffffffa
ffffffef
00000002
fffffffc
00000003
fffffffa
00000007
00000000
fffffff8
fffffffc
ffffffe5
fffffff0
fffffff4
00000018
fffffff6
ffffffc9
fffffffb
ffffffc5
00000007
00000000
ffffffff
00000008
fffffffe
00000001
fffffffa
0000000b
ffffffda
00000006
fffffffb
00000004
fffffffe
fffffffc
00000001
fffffffa
00000008
fffffff7
ffffffe4
fffffffc
fffffff2
00000004
00000015
fffffff8
00000001
ffffffeb
00000000
00000006
fffffffa
fffffffd
ffffffe9
fffffff4
fffffff6
00000004
fffffff3
00000005
00000000
fffffff6
ffffffd4
ffffffe2
00000000
00000004
00000001
00000017
00000019
ffffffe6
00000005
fffffffe
ffffffd4
0000000a
00000006
fffffffd
00000001
fffffffe
fffffffc
00000007
00000007
fffffff5
00000010
00000000
ffffffe7
00000008
00000000
00000008
00000003
00000001
ffffffdd
fffffffa
00000004
fffffffe
fffffffa
0000000a
00000004
00000002
fffffffe
fffffff8
00000007
fffffff0
00000011
fffffffb
fffffffd
ffffffef
00000000
fffffffd
fffffffd
00000002
00000008
00000003
fffffff9
00000000
fffffffb
00000008
00000000
00000004
fffffff1
fffffffc
fffffffa
ffffffee
00000008
ffffffd9
00000003
00000001
ffffffd9
fffffff1
fffffffd
00000008
00000012
00000000
ffffffdf
0000000a
00000000
fffffff3
00000007
00000000
00000007
00000003
fffffff9
00000009
00000000
fffffffa
00000000
fffffff9
00000006
fffffff8
fffffffc
ffffffe5
fffffff1
ffffffed
00000002
0000000e
00000000
ffffffe6
fffffffe
fffffffc
00000004
ffffffe5
fffffff8
00000002
00000008
00000004
fffffffc
ffffffe6
ffffffd9
fffffffd
0000000b
00000004
ffffffe9
00000009
00000000
00000001
fffffffa
0000000f
fffffff7
ffffffd9
00000011
00000000
ffffffed
fffffff7
ffffffff
0000001a
00000005
fffffffc
ffffffe5
ffffffe6
00000007
fffffff8
00000002
fffffffc
00000004
00000000
fffffffc
ffffffc8
fffffff5
00000006
00000000
fffffffe
00000004
00000002
ffffffdc
ffffffe5
ffffffd7
ffffffdf
00000005
ffffffd9
fffffff4
fffffff6
ffffffe7
00000002
00000000
00000006
fffffffa
00000001
fffffffd
ffffffef
fffffff7
ffffffe0
00000002
fffffff7
fffffff4
00000008
00000004
fffffff0
00000004
fffffff7
ffffffe6
fffffffb
fffffff9
00000014
fffffffe
fffffff8
00000016
fffffffc
00000002
00000010
0000000d
00000004
ffffffff
0000000b
fffffffc
00000005
0000000d
0000000a
00000000
fffffff6
0000000e
fffffff7
fffffff8
ffffffec
00000007
00000000
00000005
00000005
fffffff5
00000001
00000028
ffffffcf
fffffff7
00000008
0000000b
ffffffe9
ffffffff
fffffff6
0000002b
ffffffe1
00000003
fffffffa
fffffffb
ffffffff
ffffffe5
fffffffa
00000002
fffffff8
fffffffa
fffffffa
ffffffe4
fffffff8
00000006
ffffffdd
fffffffb
00000010
00000004
fffffff8
fffffff6
00000006
00000001
00000003
00000005
00000031
fffffff6
00000016
fffffff8
fffffffb
00000006
00000000
00000000
ffffffd8
00000004
fffffffd
fffffffc
0000000b
ffffffff
fffffff6
fffffff7
fffffffb
fffffffb
fffffffc
00000016
0000000b
ffffffee
0000001e
ffffffdb
fffffff0
ffffffd8
00000000
fffffffd
fffffffc
00000004
ffffffff
00000004
fffffff6
fffffffc
fffffff8
00000000
fffffff6
fffffffb
ffffffdf
ffffffff
fffffff6
fffffffe
00000010
ffffffef
00000003
0000000a
00000000
ffffffdd
00000002
00000004
00000001
00000008
00000000
00000000
ffffffe8
0000000a
fffffffb
ffffffd4
fffffff9
0000000c
fffffff3
ffffffe3
0000001d
ffffffd0
00000004
0000001d
00000009
fffffffe
00000002
fffffff1
fffffff8
ffffffdc
fffffffb
00000005
00000000
fffffffc
00000000
00000009
fffffff8
00000003
00000004
00000002
00000001
ffffffea
fffffffb
00000002
00000007
fffffff7
00000001
00000011
ffffffee
00000004
fffffffb
ffffffe7
fffffff0
00000007
fffffff9
00000007
ffffffff
ffffffe4
fffffff4
fffffffe
ffffffda
00000003
ffffffff
00000005
00000026
0000000a
00000007
fffffff7
fffffffb
00000001
00000004
ffffffe4
00000004
0000000a
fffffffc
fffffffe
00000008
ffffffed
fffffffc
00000001
ffffffec
ffffffe9
ffffffef
ffffffdc
00000003
ffffffde
00000007
00000004
ffffffff
fffffffc
fffffffb
fffffff9
fffffff4
fffffffc
00000005
00000000
fffffffc
ffffffff
ffffffe7
00000000
00000017
fffffff9
fffffffa
ffffffde
ffffffe1
ffffffe7
ffffffee
ffffffe3
ffffffe1
00000008
fffffffd
00000008
00000000
00000000
0000002a
fffffffd
00000000
00000008
fffffffe
00000030
ffffffe4
00000004
00000003
00000001
00000005
0000000d
00000000
0000000c
fffffff8
fffffff3
00000021
ffffffdb
fffffff6
fffffff9
00000017
0000000d
00000004
00000000
ffffffff
00000005
00000000
0000000b
0000000e
0000000b
00000016
00000009
fffffff3
ffffffe8
ffffffee
00000007
ffffffff
fffffffe
0000000c
fffffffc
ffffffe6
fffffffb
ffffffff
fffffff1
00000006
00000005
fffffffc
fffffff4
fffffffd
00000002
fffffff8
0000000d
ffffffee
fffffffa
fffffff1
00000004
fffffff2
00000000
0000000e
0000000a
ffffffe8
fffffffc
00000009
fffffff7
ffffffe9
00000005
00000005
ffffffff
fffffffb
fffffff8
00000005
ffffffff
ffffffe7
fffffffb
00000000
ffffffdc
ffffffeb
00000002
00000001
fffffffc
fffffff7
00000001
fffffffe
fffffff9
00000002
00000007
ffffffec
fffffff2
ffffffe5
00000008
fffffff0
00000001
ffffffe4
ffffffff
fffffff7
fffffffe
ffffffe2
00000027
00000007
fffffffe
fffffffa
00000007
fffffffe
00000004
00000009
fffffff5
fffffffc
fffffff6
00000001
0000000f
fffffff9
ffffffe3
fffffff9
ffffffde
fffffff0
00000002
00000006
fffffffc
fffffff9
fffffff2
00000014
00000000
0000000a
ffffffeb
0000000f
00000008
fffffffe
ffffffe7
00000014
fffffff6
fffffffc
00000008
ffffffd9
00000018
00000001
00000007
0000000b
0000002f
00000007
00000001
fffffffa
00000000
fffffffc
fffffff9
00000002
ffffffd2
fffffff5
fffffff5
ffffffe7
00000003
fffffff9
00000009
ffffffd5
fffffffe
fffffff7
ffffffd2
fffffffd
00000001
fffffff9
00000007
00000005
00000000
00000004
fffffff3
ffffffff
00000001
ffffffe6
00000007
00000000
00000001
00000002
ffffffe3
ffffffff
ffffffe8
fffffffe
00000002
fffffffc
00000000
00000008
ffffffde
00000005
00000001
fffffffc
ffffffe1
00000009
fffffffb
ffffffda
0000000f
ffffffdf
fffffffd
00000007
ffffffe7
00000008
00000005
fffffffe
fffffffe
ffffffec
00000005
0000000f
00000009
fffffffc
00000000
fffffffa
fffffff8
00000002
fffffffd
00000003
00000006
00000000
00000005
fffffff9
00000001
fffffffc
fffffffc
fffffff2
0000000f
ffffffe1
00000006
00000020
fffffff9
fffffffa
00000001
00000004
00000000
ffffffeb
ffffffef
00000004
00000009
fffffffd
fffffffc
fffffff3
ffffffd4
00000005
0000000a
fffffff9
fffffff8
0000000a
fffffff9
fffffffd
fffffff3
ffffffec
00000003
ffffffc8
ffffffe9
00000006
00000004
00000003
fffffffb
00000003
00000002
fffffffe
ffffffea
ffffffe2
fffffffa
00000009
fffffff8
fffffffb
00000000
fffffff8
00000001
fffffff7
00000008
00000006
00000008
00000004
0000000b
00000000
ffffffff
00000009
fffffff5
ffffffde
00000000
ffffffef
ffffffea
ffffffe8
0000000b
ffffffea
00000007
fffffffa
ffffffe1
00000000
00000005
ffffffdc
fffffff8
fffffffc
fffffffa
fffffff0
ffffffec
00000003
fffffff8
ffffffec
00000008
00000007
ffffffe2
00000000
00000005
ffffffdb
00000004
fffffff7
ffffffe9
ffffffff
0000000a
00000009
00000005
fffffffd
00000008
ffffffff
fffffffb
00000002
00000006
00000001
ffffffff
fffffffd
ffffffe9
ffffffd9
ffffffdf
ffffffeb
fffffffa
fffffffb
00000000
fffffff9
ffffffff
fffffffc
ffffffe9
0000001e
00000005
00000007
fffffff6
00000002
ffffffed
fffffff7
ffffffee
ffffffe9
00000004
00000003
ffffffef
ffffffea
ffffffef
00000005
fffffff7
00000003
fffffffa
00000003
ffffffe8
ffffffff
fffffffc
fffffff0
ffffffe7
ffffffda
00000001
00000002
00000014
fffffffb
fffffff6
00000012
fffffffa
00000019
fffffff7
ffffffdf
00000002
fffffffd
00000001
00000001
00000001
ffffffe2
fffffff9
fffffff9
00000001
00000000
00000005
00000004
fffffffe
fffffffa
00000011
00000002
fffffff2
00000000
ffffffd6
0000000e
ffffffeb
fffffff8
ffffffec
00000003
00000008
00000000
00000018
fffffff8
fffffffc
00000000
00000000
0000000a
00000009
00000004
ffffffed
fffffff9
00000000
00000019
00000003
fffffff9
ffffffde
ffffffe8
fffffffa
00000002
fffffff5
fffffff9
00000004
fffffffe
ffffffff
00000002
fffffff9
ffffffdf
fffffff6
00000002
00000002
00000009
fffffff6
fffffff6
0000001b
00000000
ffffffec
00000004
fffffff0
00000003
fffffff1
fffffffb
ffffffe3
00000007
ffffffe2
00000002
fffffffc
ffffffec
fffffffd
ffffffee
fffffff8
00000002
fffffffb
ffffffff
fffffff2
fffffff6
00000009
fffffff7
ffffffe5
00000006
00000002
fffffffe
0000000a
0000000a
00000000
00000008
ffffffee
ffffffe6
fffffff9
fffffff6
00000004
fffffff8
ffffffd1
fffffff1
fffffff4
ffffffe1
fffffffe
fffffffb
00000003
fffffff4
0000000a
00000007
00000000
fffffffe
ffffffff
fffffffe
fffffff3
fffffff8
00000000
00000005
fffffff9
fffffffb
ffffffec
fffffff2
fffffff8
ffffffec
ffffffff
ffffffd2
ffffffe1
00000021
ffffffe7
00000006
fffffff7
00000001
00000012
ffffffe8
fffffff9
0000000e
fffffff9
fffffffb
00000002
ffffffea
00000002
ffffffdb
fffffff4
ffffffe5
00000003
00000005
ffffffee
ffffffd1
fffffff7
00000008
ffffffec
fffffffa
00000002
fffffffc
fffffff7
ffffffff
fffffffa
ffffffe2
fffffffb
00000007
00000008
0000000b
00000000
fffffffa
00000000
fffffff7
0000000d
0000000b
ffffffe9
fffffff8
00000026
ffffffd1
fffffff7
ffffffd8
ffffffe5
ffffffff
00000009
00000000
fffffff2
fffffffa
00000000
fffffff0
00000002
ffffffde
00000003
00000001
00000000
0000001c
00000006
ffffffec
fffffff8
fffffffc
00000000
00000001
00000005
fffffff9
00000001
fffffff9
fffffffa
00000003
00000000
fffffff6
00000004
fffffffa
ffffffed
fffffff8
00000005
fffffff4
ffffffda
ffffffdd
00000021
ffffffe4
00000002
fffffff8
00000004
0000000e
00000000
fffffffc
ffffffed
00000003
00000006
ffffffdd
fffffffc
00000000
00000003
00000007
00000007
fffffff9
fffffffc
ffffffd9
fffffff9
00000003
ffffffd5
00000032
fffffff8
00000000
ffffffff
00000005
fffffff6
fffffff7
fffffffe
0000000e
00000000
00000002
fffffff5
00000012
ffffffed
ffffffe5
00000007
fffffff0
00000003
00000005
00000004
fffffffa
ffffffd5
00000000
00000005
00000007
00000004
00000000
00000008
00000009
fffffff1
fffffffa
00000005
ffffffff
ffffffef
ffffffed
ffffffd8
fffffffd
fffffff1
00000016
00000006
fffffffb
ffffffec
fffffff8
fffffff7
fffffff6
fffffffc
fffffffb
fffffff2
fffffffc
fffffffb
00000002
ffffffd3
ffffffee
fffffff5
fffffffe
00000000
fffffffb
fffffffc
00000006
fffffffa
00000004
0000000a
00000003
fffffff7
ffffffe7
fffffffc
00000005
0000000e
00000000
fffffffc
fffffff9
00000000
fffffff7
00000012
fffffff9
fffffffe
0000000e
fffffff9
00000000
fffffff4
00000001
fffffffd
00000006
fffffff9
00000007
ffffffff
ffffffff
fffffff3
fffffffb
fffffff8
ffffffe6
00000003
00000004
fffffff7
fffffffe
00000006
fffffff6
fffffff3
00000009
00000001
00000007
00000001
ffffffff
ffffffeb
ffffffff
00000007
00000007
ffffffdd
fffffffb
fffffffe
ffffffd8
00000000
00000001
fffffff9
00000002
00000025
00000014
fffffffe
fffffff3
fffffffc
00000000
fffffff4
00000010
fffffff9
00000004
00000001
fffffffc
00000005
fffffffb
fffffffb
ffffffff
00000007
00000007
00000005
00000000
fffffffe
00000005
ffffffff
ffffffd6
00000006
00000021
fffffff7
ffffffef
00000006
ffffffe9
fffffff7
00000021
00000008
fffffff5
00000014
fffffffa
00000007
fffffffc
fffffff7
fffffff5
ffffffe3
00000002
fffffffe
fffffffd
00000004
00000002
fffffff1
00000003
fffffffe
ffffffec
00000001
ffffffdb
00000006
00000002
ffffffeb
fffffff7
00000002
ffffffdc
00000001
ffffffff
fffffff5
0000001b
fffffffe
00000003
00000001
fffffffd
00000004
fffffffd
00000004
00000009
fffffff9
00000004
fffffffc
00000003
00000002
fffffffe
fffffffa
ffffffd8
ffffffee
ffffffe6
00000000
ffffffe5
ffffffe9
fffffffb
fffffff4
fffffffb
00000002
fffffffa
fffffff4
fffffffe
00000006
fffffff5
ffffffe1
ffffffef
fffffff9
00000004
0000000d
fffffffd
fffffffb
ffffffe1
0000000c
00000005
ffffffce
00000002
00000003
ffffffd7
fffffff8
fffffff1
fffffffb
ffffffff
ffffffff
fffffffe
fffffff5
00000004
fffffffa
00000000
fffffff3
fffffff8
00000001
fffffffc
fffffffc
00000000
fffffff4
00000000
0000001f
fffffff4
fffffffc
00000003
00000001
fffffffe
fffffff1
00000001
ffffffec
ffffffdf
fffffffa
fffffffc
fffffffa
fffffff2
fffffff3
00000006
ffffffff
00000036
fffffffc
00000004
ffffffe3
ffffffe3
0000000a
00000000
00000002
fffffff2
00000007
fffffff5
ffffffdc
00000003
00000002
0000000c
ffffffe5
ffffffed
00000008
00000002
00000016
00000005
00000000
ffffffe6
fffffff6
fffffff1
ffffffee
fffffff3
fffffff5
00000001
00000007
00000003
00000001
ffffffd4
fffffffb
fffffffc
00000004
00000003
00000008
fffffffe
00000007
fffffffe
00000000
00000000
ffffffea
fffffff9
00000004
00000008
ffffffff
fffffffd
ffffffe2
00000002
00000005
00000003
0000001f
00000004
00000001
ffffffe8
fffffffd
00000003
00000006
fffffff8
ffffffe9
ffffffde
fffffff9
0000000e
00000003
fffffff4
ffffffe3
00000015
fffffffd
00000002
ffffffe2
ffffffd6
fffffffe
fffffffc
fffffffb
fffffff7
00000008
ffffffe4
fffffffe
ffffffee
ffffffe9
fffffff8
fffffffb
fffffff6
ffffffe1
ffffffe4
ffffffce
fffffffb
fffffffe
00000010
fffffff8
fffffffd
ffffffea
00000001
ffffffdb
fffffff6
00000001
ffffffeb
00000000
ffffffe6
00000005
00000005
fffffff9
fffffff9
ffffffe3
fffffff2
ffffffee
fffffff6
fffffff4
00000000
ffffffff
00000007
00000001
fffffffd
fffffff7
00000001
0000000f
ffffffd6
00000006
00000000
fffffffd
fffffffc
ffffffc4
fffffff0
00000006
ffffffed
fffffffa
00000000
00000000
ffffffec
00000004
00000000
fffffff8
fffffff5
00000000
fffffffc
ffffffeb
00000009
fffffffc
fffffff5
00000000
00000004
ffffffe6
fffffff1
00000001
ffffffe7
00000003
ffffffdc
ffffffde
fffffff7
ffffffd0
00000000
fffffff7
00000006
00000007
ffffffe3
ffffffe2
fffffff4
00000007
00000004
00000001
ffffffeb
0000000a
00000000
fffffff2
00000001
00000009
fffffffe
00000006
00000002
fffffff0
ffffffef
ffffffde
ffffffee
fffffffb
fffffff0
ffffffff
fffffff9
00000000
0000000f
fffffff6
00000004
fffffffc
0000000d
ffffffe3
ffffffd7
00000008
00000000
fffffff5
00000000
ffffffe8
fffffffd
0000000e
ffffffd7
fffffff7
fffffffa
ffffffe1
00000017
00000001
00000005
ffffffee
fffffff7
fffffff6
fffffff2
ffffffed
fffffff5
00000004
fffffff5
00000000
00000000
fffffffe
ffffffd7
ffffffee
00000003
fffffffe
00000005
fffffffd
fffffffa
fffffffd
00000003
00000004
fffffffc
00000015
fffffff7
fffffff4
0000001d
ffffffec
00000002
00000002
0000000c
ffffffcc
00000019
ffffffe9
ffffffd2
0000000a
00000000
ffffffff
ffffffe4
fffffff6
fffffff7
fffffff1
ffffffff
ffffffed
ffffffed
0000000e
fffffffd
fffffffd
ffffffff
0000000c
00000003
ffffffdf
fffffff0
00000007
fffffff9
ffffffe5
ffffffe5
00000007
ffffffff
ffffffe4
ffffffff
ffffffde
ffffffeb
ffffffdc
00000022
ffffffff
ffffffd0
00000003
00000015
fffffff1
ffffffee
00000002
ffffffe7
fffffff9
fffffffa
fffffff7
ffffffe8
fffffff5
fffffffe
fffffffe
00000010
00000001
00000002
fffffff9
fffffffa
00000002
00000008
fffffffb
00000006
ffffffe1
00000003
0000000d
00000001
00000018
ffffffee
fffffffe
fffffff7
0000000b
00000002
fffffff7
fffffffe
00000001
ffffffe7
ffffffdf
ffffffff
fffffffc
00000000
0000000c
00000013
fffffffc
00000009
00000006
00000021
ffffffe3
ffffffcd
00000003
ffffffff
fffffff1
00000009
fffffffd
fffffffa
fffffff9
00000000
fffffffc
fffffff8
0000000f
ffffffd6
ffffffe1
ffffffe6
ffffffed
fffffffa
fffffffd
ffffffef
fffffffe
fffffffd
fffffff1
fffffff7
fffffffe
00000002
fffffff7
fffffffa
00000000
00000005
00000008
fffffff4
00000007
00000003
ffffffd0
00000006
00000001
00000006
fffffff4
00000000
00000000
fffffff2
00000007
00000009
00000001
fffffff6
fffffffd
00000007
00000001
00000005
ffffffdd
fffffff7
00000000
fffffffa
fffffffb
00000019
fffffff8
fffffff9
ffffffd8
00000028
fffffff9
00000003
fffffffb
fffffffc
ffffffdc
fffffffb
00000005
0000000a
00000007
fffffff9
00000000
00000006
fffffffa
ffffffff
00000008
00000008
ffffffff
00000000
00000006
fffffff5
fffffffb
ffffffd5
ffffffec
00000010
fffffffd
ffffffe4
00000002
00000022
ffffffff
fffffffa
fffffffc
ffffffdf
00000006
fffffffb
fffffffe
00000003
00000000
ffffffe8
ffffffcb
00000000
fffffffc
00000003
fffffffc
00000004
ffffffea
fffffffe
00000001
ffffffea
ffffffff
0000000d
ffffffd2
00000006
ffffffe2
00000000
fffffff7
ffffffd4
00000008
00000002
ffffffe1
0000000a
fffffffb
00000007
00000007
00000004
fffffff9
fffffffb
00000000
00000023
fffffffa
00000008
fffffff6
00000008
fffffffb
fffffff9
00000005
00000000
fffffff3
ffffffd9
fffffff5
ffffffe5
ffffffea
fffffff5
ffffffd9
ffffffed
ffffffff
00000004
fffffff7
fffffff7
00000002
0000000f
fffffff6
00000018
00000000
0000000a
00000001
ffffffdc
00000004
ffffffe9
0000000c
fffffffc
ffffffde
fffffffe
fffffffc
fffffff5
00000000
fffffffd
00000000
fffffff9
fffffffe
00000007
fffffff8
00000004
0000000a
00000000
00000005
fffffffa
00000000
fffffff7
fffffffc
00000007
fffffffb
fffffff4
ffffffff
0000001f
00000003
00000000
00000006
fffffffb
ffffffea
00000002
00000028
ffffffc6
ffffffff
fffffffa
00000005
fffffffa
ffffffd4
00000000
fffffff9
ffffffee
00000005
00000005
fffffffa
fffffff9
fffffffe
00000005
00000004
00000001
fffffff7
fffffff9
fffffff6
fffffff7
00000007
ffffffc5
00000022
ffffffe6
00000004
fffffffc
00000018
fffffffa
00000003
00000001
fffffffd
00000018
00000028
ffffffe8
fffffff9
00000007
00000002
fffffffc
00000000
fffffff9
fffffff1
fffffffe
00000008
00000001
00000001
00000009
00000000
00000002
fffffff7
00000007
00000029
fffffff9
ffffffe6
fffffff0
fffffffb
ffffffe7
00000007
fffffffc
fffffffa
00000004
fffffff1
fffffffe
00000007
00000002
00000004
00000007
fffffff7
fffffffe
ffffffdd
ffffffef
00000005
ffffffe8
fffffffd
fffffffc
00000010
ffffffd4
00000003
fffffffb
fffffff3
ffffffd9
fffffffd
ffffffff
fffffff9
ffffffff
00000007
ffffffe3
0000000b
00000007
ffffffe3
00000007
fffffff7
00000005
fffffff7
ffffffe1
ffffffe5
fffffff7
ffffffde
00000009
00000005
fffffffb
00000008
fffffffc
ffffffe0
00000009
fffffff8
0000000d
00000008
ffffffe9
00000007
00000005
00000006
fffffffb
ffffffe5
00000023
fffffff0
00000007
ffffffec
fffffffd
fffffffc
00000008
ffffffeb
00000010
fffffffd
00000007
00000019
ffffffd0
fffffffc
ffffffe8
00000002
fffffff7
ffffffd4
fffffff5
00000000
ffffffec
fffffffa
00000003
ffffffff
fffffff2
fffffff6
fffffffd
00000008
fffffff3
00000002
00000007
fffffffc
fffffffd
00000007
00000008
00000000
fffffffb
00000007
fffffffb
00000010
fffffff1
ffffffe4
ffffffec
00000009
00000000
ffffffeb
00000008
fffffffa
fffffffb
fffffffd
00000025
fffffff0
fffffffb
fffffffd
fffffffd
fffffffc
fffffff3
00000004
ffffffe4
00000009
ffffffed
fffffff8
00000007
fffffff6
ffffffe5
ffffffd0
ffffffef
ffffffed
fffffffe
fffffffb
fffffff9
00000007
fffffffd
00000008
ffffffed
00000017
fffffffd
00000000
fffffff0
0000000e
fffffff7
00000009
00000001
00000002
fffffffb
ffffffeb
ffffffe8
ffffffdc
00000000
ffffffff
ffffffd8
ffffffed
fffffff4
0000000a
fffffffe
ffffffef
fffffff9
fffffff8
fffffff3
fffffff7
ffffffeb
fffffffd
ffffffe4
00000003
fffffff4
00000004
ffffffda
fffffff7
ffffffee
ffffffff
00000002
00000000
fffffffe
fffffffa
fffffff0
fffffffa
fffffffc
fffffffe
fffffffb
fffffffa
ffffffed
ffffffee
ffffffff
00000004
00000012
ffffffee
fffffff2
ffffffe7
fffffff7
fffffff0
00000012
00000004
00000000
00000008
00000002
fffffff5
00000004
0000000e
0000002e
fffffffb
fffffff9
00000001
00000007
ffffffea
00000005
00000018
ffffffd1
fffffffc
fffffff7
ffffffd8
ffffffee
00000002
00000007
00000008
ffffffff
fffffff9
ffffffe7
00000005
ffffffe0
00000001
ffffffd6
fffffff3
ffffffdf
0000000e
fffffff8
00000000
ffffffef
00000000
fffffffc
00000003
fffffff6
fffffff9
00000002
00000000
fffffffa
ffffffe9
00000000
fffffffd
00000005
00000006
fffffffd
ffffffef
fffffffd
fffffff0
0000000e
0000001b
fffffff6
ffffffe2
00000013
fffffff9
00000002
ffffffdb
00000007
ffffffe7
fffffff2
00000000
00000001
fffffff6
fffffffd
0000000a
00000008
fffffff1
00000003
00000006
fffffffe
00000000
ffffffe9
ffffffdd
ffffffe0
00000006
00000004
ffffffde
fffffff6
fffffffc
ffffffda
ffffffeb
fffffff6
fffffff2
fffffff8
00000009
ffffffed
fffffffa
fffffff4
fffffff0
00000000
fffffff6
ffffffe1
00000005
00000007
00000002
00000001
fffffffa
ffffffff
fffffff7
fffffffa
00000006
00000002
fffffff2
0000000b
00000002
00000008
0000000a
fffffff6
fffffff3
fffffffe
0000000b
ffffffff
ffffffec
00000003
00000000
fffffff8
ffffffff
fffffffe
ffffffee
fffffff7
00000006
fffffff7
fffffff4
00000005
ffffffff
fffffff0
fffffff5
ffffffe3
fffffffe
fffffffc
00000002
ffffffec
00000003
00000006
fffffffe
fffffff4
ffffffdc
00000001
00000002
00000014
00000003
ffffffff
fffffff9
00000009
00000009
00000002
00000007
00000005
fffffff8
fffffffd
00000001
00000002
fffffffc
00000000
ffffffe9
0000001c
0000001b
00000000
fffffff7
ffffffb8
00000008
fffffff5
fffffffb
fffffff5
fffffff7
00000001
fffffff9
00000003
fffffff6
00000000
ffffffed
00000005
ffffffff
00000007
00000007
fffffffd
ffffffee
00000004
fffffffd
fffffffb
0000000e
ffffffe7
00000020
00000001
fffffff8
ffffffff
00000007
ffffffdb
00000006
fffffff6
ffffffea
ffffffe4
00000003
fffffffe
fffffffc
00000007
00000005
00000002
fffffffd
00000010
fffffffc
00000000
ffffffff
00000003
fffffff8
ffffffff
ffffffe2
fffffff5
ffffffe7
00000007
fffffffc
ffffffe3
ffffffee
fffffffc
0000001e
fffffff7
00000007
00000005
ffffffe0
00000005
00000006
ffffffff
fffffffc
00000000
0000000b
00000008
ffffffef
ffffffe4
fffffff9
fffffff1
fffffffc
00000003
fffffffb
fffffffa
fffffffe
ffffffcd
00000008
fffffff9
fffffff7
0000000b
00000007
fffffff7
0000000d
fffffffe
fffffffe
00000008
00000000
fffffff8
00000007
00000009
00000007
00000000
0000000b
ffffffe7
ffffffdd
ffffffe5
00000005
fffffffb
00000008
fffffff1
0000001f
00000002
fffffff7
fffffffc
00000003
fffffffa
fffffff7
ffffffef
ffffffef
00000000
ffffffe3
ffffffe1
00000001
fffffffe
fffffff5
fffffff6
00000005
fffffff7
00000008
fffffffa
0000000f
00000008
fffffff2
fffffffc
00000005
00000005
ffffffd9
00000006
00000006
fffffffb
00000027
00000000
fffffff6
0000000e
00000001
0000000c
fffffffd
fffffff6
fffffffc
00000000
fffffffd
00000001
00000000
ffffffeb
0000000b
0000000b
00000001
fffffffb
0000000d
ffffffff
fffffffb
00000008
fffffff0
0000000a
ffffffe0
fffffffc
ffffffdf
00000021
fffffff3
fffffff5
ffffffee
00000008
fffffffd
00000005
0000000d
00000005
fffffff7
ffffffe3
fffffffd
00000000
00000007
ffffffff
ffffffe2
fffffff9
fffffff1
ffffffeb
fffffff9
00000013
ffffffeb
fffffff6
fffffffc
00000003
ffffffdd
ffffffeb
00000000
00000001
00000006
fffffffc
fffffffd
0000000e
00000005
00000004
ffffffd5
fffffff6
00000002
fffffffe
ffffffea
00000000
fffffff8
00000004
ffffffe5
00000007
fffffff8
00000001
ffffffeb
00000001
fffffff2
fffffffb
00000000
fffffffb
fffffffe
0000001d
fffffffa
00000003
00000000
00000004
ffffffeb
00000000
fffffff9
00000000
ffffffe1
fffffff7
fffffffd
00000007
ffffffed
00000007
00000007
00000004
fffffffa
fffffff1
00000002
ffffffee
00000004
fffffff8
ffffffec
ffffffee
00000002
ffffffe7
fffffff8
fffffff7
fffffff6
ffffffe6
fffffff2
fffffff9
00000004
ffffffe8
fffffff6
00000006
fffffff4
fffffffa
fffffffe
fffffff1
fffffffd
00000005
00000004
fffffff8
00000006
ffffffd4
ffffffe8
00000000
ffffffdf
fffffff0
fffffff2
fffffff7
fffffff6
fffffffa
ffffffff
0000000a
fffffffc
fffffffc
ffffffed
00000001
00000002
00000000
fffffff4
ffffffe7
00000006
ffffffd4
fffffffe
fffffffa
ffffffde
ffffffe6
fffffff2
ffffffeb
fffffffb
fffffff6
fffffffc
fffffff1
fffffffd
00000002
00000007
fffffff6
ffffffff
fffffffc
00000000
00000004
ffffffea
fffffff0
00000002
fffffffd
00000001
00000003
ffffffdb
fffffff6
fffffff2
fffffff7
00000000
ffffffde
ffffffdd
ffffffdd
fffffffa
fffffff8
ffffffed
fffffffb
ffffffff
ffffffe9
fffffff7
00000005
00000002
fffffff1
00000002
00000001
00000003
ffffffe7
00000014
ffffffdb
fffffff8
00000000
fffffff6
00000001
00000003
fffffffb
fffffffd
fffffff6
fffffff3
ffffffee
fffffff9
fffffff3
ffffffe1
00000000
00000005
ffffffea
ffffffe4
ffffffee
ffffffeb
00000013
ffffffe4
fffffff4
fffffffe
fffffff3
fffffff9
ffffffd5
fffffff8
fffffffd
00000011
ffffffe9
fffffffe
00000002
00000004
fffffff7
00000010
00000000
0000000d
ffffffef
00000003
fffffffe
ffffffe8
fffffffd
fffffff8
00000004
fffffff1
fffffff6
ffffffe6
0000001b
ffffffe6
ffffffe6
00000000
ffffffe4
fffffffe
ffffffe3
ffffffea
0000000d
00000003
00000011
fffffff9
fffffff9
00000005
ffffffef
fffffff3
00000002
00000004
fffffffd
ffffffea
fffffffc
fffffff8
fffffff7
00000003
00000002
ffffffef
00000006
00000021
00000000
fffffff3
00000002
ffffffef
00000006
fffffff8
fffffff8
fffffff5
ffffffff
ffffffdd
00000003
fffffffb
fffffffa
00000001
00000006
00000001
fffffffc
ffffffe3
00000008
fffffffe
ffffffee
00000004
ffffffd3
00000002
0000001a
fffffff9
fffffffe
00000022
fffffffa
fffffffa
ffffffd7
ffffffff
fffffffc
00000001
fffffffb
ffffffee
00000015
fffffffe
00000029
00000003
ffffffee
fffffffd
ffffffdd
fffffffc
fffffffd
fffffffe
fffffff9
fffffff9
fffffffa
fffffffc
00000007
00000000
fffffff7
ffffffec
00000003
fffffff8
ffffffdf
00000001
00000002
fffffff5
fffffff0
0000000a
fffffff7
fffffff7
fffffffd
00000000
fffffff9
00000003
00000006
00000000
fffffffe
00000006
fffffffb
ffffffdc
fffffffb
00000001
ffffffdd
00000000
ffffffe0
fffffff9
00000007
ffffffe3
00000021
fffffff5
00000002
fffffff9
ffffffee
fffffffb
fffffffa
00000007
ffffffe6
fffffff9
00000004
fffffffc
00000002
00000000
00000006
00000007
fffffffd
00000003
00000006
00000000
00000003
fffffff6
ffffffde
ffffffe3
0000001a
00000008
00000025
00000007
ffffffdd
00000009
fffffffa
00000000
fffffff9
00000001
00000003
00000006
ffffffff
00000000
ffffffec
ffffffe4
00000005
fffffffd
fffffff2
fffffff5
fffffff8
ffffffea
00000000
fffffff4
0000002e
fffffffb
ffffffe8
ffffffe7
fffffffc
ffffffdd
00000004
00000003
ffffffe7
00000001
00000003
ffffffe8
ffffffee
00000000
00000000
fffffff7
fffffffb
fffffffd
00000004
00000005
fffffff1
fffffff9
00000000
00000001
fffffff8
00000004
00000002
ffffffdd
00000006
ffffffef
fffffff3
00000005
00000000
ffffffe8
ffffffee
fffffff7
ffffffef
fffffffe
fffffff8
fffffff0
00000001
00000005
ffffffff
00000008
ffffffd9
fffffff7
ffffffdb
00000005
0000001b
fffffff9
fffffffd
00000003
00000006
ffffffea
00000000
fffffffa
fffffff1
fffffffb
fffffff6
fffffff0
00000001
00000000
00000003
fffffff9
00000003
00000003
00000003
fffffff5
fffffff5
00000001
00000000
fffffff6
00000004
00000011
fffffff5
0000000e
00000006
00000002
fffffffb
ffffffff
00000000
00000019
fffffffb
fffffff8
ffffffd8
fffffff5
00000006
ffffffff
ffffffe7
fffffff0
00000004
ffffffea
fffffffa
fffffff8
ffffffff
ffffffec
fffffffe
ffffffef
fffffffa
00000005
fffffff8
ffffffff
00000007
ffffffea
fffffffe
fffffffa
0000000b
ffffffea
ffffffe4
00000003
fffffffb
0000001f
00000001
00000004
ffffffea
00000006
fffffff5
ffffffef
00000000
fffffffd
00000007
fffffffe
fffffffe
fffffffc
ffffffdb
0000000c
fffffffc
fffffffe
fffffffb
00000000
fffffffb
00000000
00000000
00000004
00000005
fffffff6
fffffffe
fffffffc
fffffffb
ffffffec
00000000
ffffffe4
fffffff5
00000004
fffffffc
ffffffe9
00000002
fffffffe
00000009
00000000
00000006
00000000
fffffff6
ffffffed
ffffffd8
fffffff4
00000006
00000000
ffffffef
ffffffec
ffffffee
fffffffa
fffffffe
00000007
ffffffe6
fffffff8
fffffffe
fffffff9
00000001
00000006
0000001f
00000000
00000011
fffffff4
00000005
fffffff9
ffffffec
ffffffef
ffffffe5
ffffffdf
fffffff4
0000001b
fffffffa
fffffffc
ffffffff
ffffffec
00000006
fffffffa
00000005
00000008
00000001
fffffff4
00000006
00000003
00000006
fffffff6
00000007
00000000
fffffff6
ffffffe4
ffffffff
0000001a
00000002
fffffffb
fffffffe
fffffff7
fffffff8
00000003
fffffffd
fffffffb
ffffffef
00000001
fffffffb
00000000
00000006
ffffffc5
ffffffdd
00000005
00000004
fffffff7
00000004
fffffffa
00000000
00000002
00000007
00000005
00000000
00000007
fffffffd
fffffff4
00000002
00000007
fffffffb
fffffffe
fffffff9
00000004
ffffffee
0000000d
ffffffe2
fffffff1
ffffffe2
ffffffe9
fffffff0
ffffffde
fffffffc
fffffff8
00000002
fffffffc
ffffffe8
00000007
ffffffee
fffffffd
ffffffff
fffffffc
00000006
fffffff8
ffffffe9
fffffffa
ffffffea
ffffffff
fffffff6
ffffffda
ffffffdf
ffffffea
0000001b
ffffffff
00000001
ffffffff
00000000
00000004
00000007
fffffffd
ffffffeb
fffffff8
00000000
00000000
fffffffb
ffffffe8
00000013
fffffffc
fffffffb
fffffff4
fffffffa
fffffffb
fffffffc
00000002
fffffffc
fffffff9
00000002
ffffffe3
ffffffdf
00000003
00000000
ffffffee
fffffff3
fffffff3
fffffff7
fffffffa
0000000f
fffffffa
ffffffd8
ffffffff
fffffff1
ffffffff
ffffffe9
fffffff4
ffffffd7
00000003
00000007
fffffff2
00000006
fffffff8
fffffff8
fffffff7
00000007
fffffff2
ffffffed
fffffff6
fffffffb
ffffffdd
00000000
fffffff7
0000001d
ffffffe6
00000010
ffffffe6
ffffffe9
ffffffea
ffffffe3
00000001
00000002
00000003
ffffffe0
fffffff6
fffffffd
0000000d
00000006
ffffffff
fffffffd
ffffffff
fffffffc
00000011
00000003
ffffffd1
ffffffe9
00000000
fffffff6
ffffffd7
fffffff1
00000005
fffffffb
ffffffe6
00000006
00000006
00000000
fffffffa
ffffffee
00000004
ffffffd7
00000002
ffffffd8
fffffffc
0000000e
00000008
ffffffe6
00000006
fffffffb
fffffffa
fffffffb
fffffffe
00000001
fffffff8
fffffffc
00000007
fffffff7
00000000
00000009
00000000
00000000
fffffff7
00000009
fffffffc
0000002f
ffffffef
00000006
00000014
fffffff5
fffffffa
fffffffd
00000016
fffffff3
ffffffea
00000005
00000001
fffffff9
ffffffdf
00000003
00000000
fffffffb
ffffffd0
ffffffe3
ffffffef
fffffff9
00000006
ffffffd6
ffffffdf
fffffff3
ffffffff
fffffffe
fffffff2
fffffff6
00000000
ffffffe8
ffffffee
fffffffa
00000009
00000003
ffffffe9
fffffff5
ffffffd9
fffffff7
ffffffe1
00000000
00000000
fffffff0
fffffffc
00000006
ffffffe4
fffffff7
fffffffd
fffffffc
fffffffa
00000003
00000000
fffffff8
ffffffe2
00000016
00000002
ffffffe8
ffffffd6
00000003
0000000a
fffffff1
00000000
00000008
00000027
fffffff9
00000000
00000001
fffffffd
00000001
ffffffeb
fffffffc
fffffffb
00000006
ffffffe8
fffffffc
00000004
ffffffe5
00000000
ffffffe2
00000000
00000003
ffffffda
0000000c
00000004
fffffffd
fffffff9
fffffff4
ffffffef
fffffff5
fffffffd
0000000f
00000005
00000006
00000002
ffffffff
fffffffb
fffffff8
00000009
00000002
fffffff5
00000005
fffffffa
fffffff7
fffffff4
ffffffeb
ffffffe9
ffffffea
00000001
fffffffd
fffffffb
fffffffc
0000000a
00000006
00000007
fffffff0
fffffffa
fffffff7
fffffffb
00000000
fffffffe
ffffffef
ffffffeb
fffffffb
00000007
fffffff3
00000004
00000007
ffffffe4
00000001
fffffff6
ffffffec
0000000b
ffffffef
00000003
fffffff3
fffffffd
00000001
fffffff9
ffffffee
00000001
ffffffff
ffffffeb
0000000c
00000005
fffffffb
fffffff8
fffffffe
fffffffb
fffffffc
00000006
ffffffe7
fffffff1
fffffffc
ffffffeb
ffffffff
fffffffc
00000007
fffffff7
