fffffcfb
ffffff70
00000491
00000633
000014b5
fffffe5b
0000013c
000001e5
000005ea
fffffdd7
00000282
fffffecb
00000621
0000065d
0000022e
000002d4
00000b43
0000059f
ffffffc0
ffffffeb
00001851
000005b7
00000440
00000af2
00000059
00000b14
0000074b
0000144b
000002db
0000093d
00000d75
000004b1
000005f4
fffffece
00000a35
0000058c
00000442
0000029a
fffffb99
00000647
fffffddf
00000484
fffffee0
00000703
00000511
fffffe7b
00000670
000004d7
00000262
00000561
000001f7
fffffe39
ffffffa6
fffffaec
fffffd65
00000218
000002bf
00000654
ffffffe0
00000262
00000a88
00000440
00000070
000003b8
0000052a
000004f5
00000181
000007ec
0000004d
00000560
fffffcac
000004f2
00000419
ffffffc9
000005e3
00000510
0000047e
000001f6
0000069a
0000011c
0000068e
000002de
fffffeb3
fffffe48
fffffc67
fffff953
00000567
00000547
000004f9
fffff682
0000001f
0000006b
0000087a
00000c5e
00000586
ffffec52
000007d5
fffffeda
000003f8
fffffb3a
00000556
0000057e
ffffff81
000006bf
0000004e
fffffe69
000005ba
00000455
00000af1
00000289
00000652
00000857
00000bb4
00000285
00000576
0000012c
00000eea
0000023d
00000f3c
ffffffaa
00000425
fffff91b
00000aef
000003cf
000004a7
00000990
fffffbf4
000002eb
00000637
00000bb1
000002eb
00000b15
000001de
00000a68
0000020e
0000059f
fffffdaf
00000d34
00000770
00000241
00000890
000000e1
0000011f
0000027d
00000a58
00000470
000002e5
000004bf
00000409
fffffe2b
00000734
00000305
fffff81c
00000a3f
0000072f
fffffc25
ffffff15
00000e2b
ffffffc3
00000b65
00000587
00000855
00000169
000008c6
00000bb6
fffffffe
0000089a
00000442
00000d32
000000d4
000001db
00000122
00000dd8
00000048
00000446
0000058c
fffff97b
000002b2
0000023b
00000b0b
000007d6
000005f5
000004b5
fffffef9
fffffa4f
000002d9
000002dd
fffffe47
00000812
0000063c
00000323
00000163
fffff737
0000018f
000001c0
0000010f
00000635
00000764
fffffb06
fffff2f0
00000a50
00000134
00000355
000003a6
000003c8
000002ed
0000139f
000001b8
00000125
00000747
000009ad
fffffb5a
fffffffa
fffffa2a
fffffd07
00000f08
ffffffc8
00000372
000006d4
00000816
00000512
00000780
fffffb11
00000632
fffffff4
00000e4e
00000354
fffffbb5
000004a5
000003c3
00000216
fffffd1a
00000883
00000057
000007e8
00000201
0000052d
000006ca
0000034b
00000931
0000010e
0000065e
00000b71
00000436
0000045b
00000b0a
0000097b
000007c7
00000245
000001e1
0000054e
0000022a
000007ec
000001db
ffffff5d
fffffc7f
