00000000
0000000c
ffffffec
fffffff4
00000002
fffffff6
00000010
0000000b
fffffffa
fffffffe
00000000
00000001
00000000
fffffffe
ffffffe6
fffffff2
ffffffff
ffffffea
fffffffe
0000000e
0000000e
ffffffe8
00000000
fffffff7
fffffff7
ffffffff
ffffffff
fffffffa
0000001a
ffffffeb
00000006
ffffffff
00000009
00000000
00000005
00000001
0000000c
ffffffed
00000002
fffffff2
fffffffd
00000006
fffffff5
fffffffd
fffffffa
00000001
fffffffd
00000002
fffffffc
00000008
00000001
00000000
00000009
fffffff7
00000000
00000000
ffffffff
ffffffff
00000000
ffffffee
ffffffff
0000001e
fffffff9
00000006
fffffffb
fffffffb
fffffffa
fffffff3
ffffffe5
fffffff2
00000001
0000001c
00000000
fffffff8
fffffff7
00000000
00000000
00000005
ffffffee
00000001
fffffffd
00000002
00000000
00000001
0000000d
00000004
fffffff1
fffffffe
00000012
fffffff8
fffffffd
fffffff5
00000012
ffffffff
fffffff7
ffffffff
00000000
00000002
fffffffd
00000000
00000005
fffffff9
00000002
fffffffd
00000017
00000001
fffffff4
00000002
00000002
00000011
ffffffff
00000000
00000000
fffffffe
00000007
fffffff3
00000000
ffffffff
00000008
ffffffff
00000014
fffffff3
fffffffa
0000001f
0000000c
fffffffc
fffffffd
fffffff3
00000000
0000000c
ffffffe7
00000009
fffffff5
ffffffef
0000000c
ffffffee
00000007
fffffff7
fffffffd
fffffff7
fffffff2
0000007f
00000003
00000014
ffffffb4
fffffffb
ffffffd7
0000000a
ffffffde
fffffff7
fffffffb
fffffffa
ffffff96
00000027
00000001
fffffff4
00000025
fffffffb
0000002c
fffffffc
0000000d
fffffffe
ffffffeb
ffffffce
00000029
00000034
ffffffed
00000016
fffffffa
ffffffec
fffffff2
0000000e
00000019
00000001
ffffffe3
ffffffb8
ffffffe4
ffffffe9
ffffffee
0000000b
fffffff3
fffffffd
0000000b
fffffff8
00000017
0000000c
fffffff1
ffffffd2
00000015
00000000
00000000
fffffff7
00000000
ffffffe6
00000017
ffffffef
ffffffef
ffffffee
ffffffcb
0000000a
0000000f
00000003
fffffff9
ffffffce
00000017
00000002
fffffff8
0000000c
ffffffe3
ffffffcd
fffffffd
fffffffc
00000002
fffffffd
00000008
00000017
00000004
0000000b
fffffff8
00000024
00000003
fffffff2
fffffff8
ffffffda
fffffff6
00000010
fffffff5
00000016
0000001f
ffffff8e
00000000
0000000b
00000011
fffffffd
00000025
00000015
fffffffd
ffffffd0
fffffff1
00000022
ffffffdb
ffffffff
00000004
00000003
ffffffef
fffffff5
00000002
fffffff8
00000042
fffffff6
fffffffa
00000013
ffffffe2
00000009
00000000
0000000f
0000000e
00000001
00000005
0000000d
00000026
00000000
fffffff6
00000010
ffffffd3
00000004
00000007
fffffffa
00000007
00000002
fffffff4
ffffffff
00000040
fffffffe
ffffffd5
ffffffe6
0000001a
00000002
fffffffc
0000004f
ffffffe5
fffffff4
00000048
ffffffab
0000002a
00000022
0000001b
0000000c
fffffffb
00000040
ffffffff
00000010
00000007
fffffff5
0000000a
00000018
ffffffea
00000002
fffffff4
0000000b
0000000b
fffffffb
00000060
0000000d
0000000d
00000007
0000000b
0000000e
fffffff9
00000017
00000001
00000006
ffffffee
00000029
0000000e
fffffff2
fffffff9
00000001
fffffff1
00000004
00000029
ffffffe9
ffffffe2
00000020
00000001
fffffff2
00000001
ffffff90
00000000
fffffffd
00000069
00000006
ffffffef
0000000e
00000008
00000000
ffffffe7
ffffffd1
ffffffdd
ffffffe5
00000000
ffffffee
ffffffec
00000023
00000002
00000012
ffffffee
ffffffe9
fffffffe
0000000f
ffffffcd
fffffff1
00000010
ffffffec
00000002
00000034
0000003b
0000003f
00000000
0000002f
fffffff5
fffffffa
0000000a
00000001
00000022
ffffffe8
00000004
00000022
ffffffdc
00000015
ffffffab
fffffff9
ffffffd0
fffffff4
00000012
ffffffed
0000001b
00000052
ffffffeb
00000000
fffffff6
00000010
00000034
00000016
fffffffe
fffffff8
fffffffb
00000010
00000000
00000001
0000000a
00000006
0000000a
00000000
00000003
ffffffff
00000003
ffffffff
fffffff2
fffffff7
ffffffff
00000004
ffffffff
fffffffa
00000017
fffffffe
00000007
fffffff2
0000000c
fffffffc
00000000
00000000
fffffff6
fffffffa
fffffffe
fffffff9
00000005
fffffffc
00000009
00000000
00000010
ffffffff
fffffffe
00000007
00000016
00000000
fffffff9
00000001
fffffffa
fffffffb
00000007
ffffffff
00000008
ffffffff
00000002
00000002
ffffffeb
fffffff7
00000009
fffffff1
00000001
00000001
00000000
fffffffc
ffffffff
0000000c
ffffffef
fffffffe
00000000
00000006
00000006
00000002
0000001b
0000001c
fffffff6
0000000d
00000007
fffffff5
fffffffa
00000003
fffffffb
00000008
ffffffef
fffffff9
fffffff8
fffffffd
ffffffff
fffffff7
00000002
00000006
00000009
00000006
00000002
fffffffb
fffffffb
00000009
00000004
00000000
ffffffff
ffffffff
0000000f
fffffff9
fffffffe
0000000d
00000006
00000011
fffffffc
ffffffff
0000000d
00000013
fffffff8
00000000
fffffff8
00000001
fffffffb
00000002
fffffff7
fffffff9
fffffffc
00000006
00000000
00000000
00000023
fffffffe
00000000
fffffff8
00000004
00000000
ffffffed
00000000
ffffffed
00000004
fffffffe
fffffffa
fffffff9
ffffffff
fffffffc
ffffffed
00000056
fffffff9
0000000d
00000007
00000008
fffffffe
fffffff6
ffffffd9
00000017
ffffffed
0000001a
0000000e
fffffffc
0000001a
fffffff2
ffffffeb
ffffffe9
00000000
ffffffec
ffffffbf
00000023
00000003
0000002a
ffffffe7
ffffffc0
0000001f
fffffff3
00000032
00000022
fffffff7
00000006
0000000e
ffffffff
00000018
fffffffc
fffffffa
00000006
fffffffb
0000000e
fffffffb
fffffff4
ffffffea
00000035
ffffffeb
00000000
00000000
00000000
00000000
00000002
fffffff1
fffffffd
fffffff9
00000002
ffffffef
00000007
00000033
ffffffe8
0000000a
ffffffff
00000000
00000000
00000011
ffffffe7
ffffffeb
00000000
00000010
ffffffdc
fffffff3
fffffff5
0000002b
fffffff7
00000007
00000018
0000000c
00000000
fffffff9
fffffff3
ffffffeb
00000006
ffffffff
00000026
fffffff8
fffffff8
00000024
00000002
ffffffcd
fffffffe
fffffffa
0000001c
00000013
0000000d
0000006f
00000009
fffffff7
fffffff3
fffffffc
0000000a
fffffff3
fffffffd
ffffffed
00000024
fffffff8
00000005
ffffffd5
0000000b
ffffffca
ffffffff
ffffffb0
ffffffe9
00000012
00000015
0000000c
ffffffff
00000008
0000000b
00000009
00000006
00000004
fffffffe
ffffffed
00000006
00000005
fffffffc
fffffff4
00000017
ffffffff
00000039
00000006
00000008
fffffff2
0000001d
00000011
fffffffa
fffffff3
0000000d
ffffffef
00000000
ffffffeb
ffffffe1
ffffffd0
fffffffe
ffffffff
00000004
ffffffef
fffffffd
ffffffec
0000000d
00000010
00000005
00000004
00000007
fffffffa
0000000a
00000008
fffffffd
00000012
fffffff9
fffffff3
fffffffb
fffffff2
0000000a
00000015
00000018
ffffffd7
0000000c
00000004
00000016
00000000
ffffffe8
0000000b
fffffffc
fffffffa
00000017
ffffffcb
ffffffe4
ffffffeb
fffffff6
00000004
ffffffec
0000001f
0000000e
00000003
ffffffe7
00000011
00000008
ffffffff
fffffff2
fffffff9
00000001
fffffff0
fffffff3
00000001
0000002c
ffffffff
00000003
ffffffc1
fffffff7
ffffffed
00000003
0000000c
00000007
0000000f
00000000
00000006
fffffff5
00000035
ffffffd9
fffffff6
fffffff9
00000000
0000000f
00000000
fffffff7
fffffff5
0000007f
fffffffb
fffffffd
ffffffed
00000005
ffffffff
ffffffff
ffffffff
00000002
0000000a
00000008
0000000f
00000007
ffffffe1
fffffff7
fffffff6
0000000b
00000009
00000000
00000013
00000017
0000001d
ffffffbc
00000025
fffffff8
00000013
ffffffff
0000000c
00000013
0000000c
fffffff8
00000006
fffffffe
00000008
0000001b
fffffffe
00000002
00000000
0000000d
00000002
00000001
fffffff8
00000008
00000006
00000009
00000000
00000000
00000002
00000000
00000003
ffffffe2
ffffffed
00000001
fffffffa
ffffffff
00000000
00000003
0000000b
fffffffb
00000003
fffffff5
00000000
00000000
fffffffe
ffffffff
fffffff7
00000000
00000002
0000000a
00000000
00000003
00000000
ffffffec
00000001
00000002
0000000e
ffffffe8
00000000
fffffffd
00000017
fffffffc
00000000
ffffffec
00000000
fffffffb
00000000
00000000
00000001
00000006
ffffffff
0000000d
00000007
00000005
00000000
ffffffff
ffffffda
ffffffff
ffffffe4
00000010
00000004
fffffffd
00000001
00000005
fffffff8
ffffffe7
fffffff0
ffffffed
ffffffef
00000003
0000000c
00000004
fffffff8
fffffff2
fffffffc
fffffffd
00000000
ffffffec
fffffffd
00000000
fffffffa
00000003
00000003
00000003
00000001
fffffffd
fffffffc
00000000
fffffff1
00000007
ffffffff
fffffff9
00000000
fffffffc
ffffffff
00000000
00000009
00000000
00000015
00000001
00000005
fffffff8
ffffffeb
fffffff9
00000001
00000002
fffffffe
ffffffff
fffffffd
00000005
ffffffff
fffffff0
fffffffc
00000000
ffffffff
fffffffe
00000000
00000011
fffffff9
fffffffe
00000016
ffffffe8
00000000
fffffffe
fffffffc
00000002
fffffff9
fffffffe
00000002
00000003
fffffffe
00000009
00000004
fffffff0
fffffff5
00000000
fffffff1
00000002
fffffffe
00000011
00000000
ffffffec
fffffff9
00000011
fffffffb
ffffffe9
00000005
00000001
ffffffff
ffffffe7
fffffffd
ffffffff
fffffffe
00000013
0000001f
00000007
00000006
fffffffa
00000006
ffffffed
ffffffe6
ffffffe7
ffffffff
00000008
00000001
00000000
ffffffd8
ffffffff
ffffffff
fffffffd
00000004
fffffffd
0000000c
0000000c
fffffff3
fffffff8
ffffffff
00000000
fffffffc
00000003
ffffffff
fffffff7
fffffffd
ffffffff
00000000
fffffffb
00000043
fffffffc
00000005
00000005
fffffffd
00000001
fffffffc
fffffffe
00000000
fffffff7
fffffff6
0000000a
fffffffe
fffffffa
00000008
00000009
00000004
00000004
fffffff8
0000000d
fffffffe
fffffffa
00000009
ffffffee
fffffff9
00000000
ffffffff
00000002
00000000
00000004
0000000e
fffffff9
00000006
00000010
fffffffc
fffffff9
0000000e
fffffff2
0000000c
fffffff5
fffffff3
fffffff2
00000001
00000000
fffffffe
fffffffa
fffffff8
0000000f
00000008
fffffffe
00000000
0000000d
00000001
00000005
00000006
00000003
00000001
ffffffff
fffffffe
ffffffff
ffffffe7
fffffffb
00000003
fffffff6
fffffffa
00000000
fffffffa
ffffffff
0000000a
00000004
ffffffff
00000002
00000001
00000003
fffffffe
00000002
fffffffc
00000003
00000006
ffffffff
00000005
ffffffff
fffffff3
0000000e
00000000
fffffff3
ffffffbe
0000000e
00000000
fffffffc
ffffffe1
fffffffb
fffffff6
fffffff0
fffffff8
00000014
00000007
fffffff6
ffffffec
fffffffa
00000003
00000001
00000003
fffffff6
fffffffb
00000000
ffffffff
00000000
00000007
00000005
0000000c
fffffffb
00000001
fffffff5
fffffffe
00000002
00000012
fffffffe
ffffffff
00000003
00000009
00000002
00000002
00000002
00000005
00000002
ffffffff
ffffffed
0000000c
fffffff4
00000007
fffffffc
00000009
fffffff9
ffffffff
ffffffeb
00000004
fffffff7
00000003
fffffff4
00000010
fffffff2
fffffffc
fffffffd
00000003
00000004
fffffff8
fffffff2
00000000
fffffff4
fffffff6
fffffffa
fffffff7
00000004
00000002
00000003
00000002
fffffffd
00000001
0000007c
00000026
fffffffb
00000008
fffffff7
00000002
fffffff3
ffffffb8
fffffff0
fffffff6
fffffffe
fffffff8
00000000
ffffffe8
0000000b
fffffffd
ffffffff
00000002
00000000
fffffff4
00000000
00000004
fffffffa
0000002b
fffffff7
fffffffa
00000002
fffffffd
fffffffd
ffffffed
fffffffc
00000000
00000005
00000003
fffffff9
00000002
00000000
ffffffec
fffffffc
0000000c
00000001
ffffffff
fffffffc
ffffffff
fffffff6
00000001
00000003
00000000
ffffffff
00000000
00000024
0000001b
00000002
0000000f
00000003
0000000d
00000002
fffffff2
00000002
fffffff4
0000000b
00000005
00000000
00000000
00000002
00000008
ffffffff
fffffffe
00000002
00000000
00000003
00000002
0000000d
fffffff6
00000000
fffffff6
0000000e
fffffffd
00000010
ffffffe7
00000002
00000002
0000000f
00000000
fffffffd
00000002
00000000
00000004
00000001
0000000c
ffffffe2
fffffff1
fffffff9
00000000
fffffffd
00000024
fffffffd
00000030
fffffff5
fffffffd
00000007
00000006
fffffffb
0000000a
00000010
00000013
ffffffff
0000000d
fffffffa
00000002
00000002
fffffffd
0000001f
00000000
00000006
00000001
00000010
fffffffc
00000000
ffffffff
fffffffa
00000002
fffffff8
00000004
00000002
fffffff8
00000001
0000000a
00000002
00000003
00000003
00000003
fffffffc
00000003
00000005
00000000
fffffffd
ffffffed
00000000
00000000
fffffff5
fffffff8
00000005
00000000
ffffffff
fffffffd
00000000
fffffffe
0000000a
fffffffc
0000000e
0000000e
00000000
00000000
00000001
00000002
00000003
00000006
00000002
fffffff4
0000000f
fffffffe
fffffffc
00000009
ffffffff
fffffffe
00000003
00000000
00000000
ffffffff
ffffffe4
fffffffe
00000008
0000000a
00000002
00000005
fffffffd
0000000e
ffffffe7
00000003
0000000b
0000000b
fffffff3
00000001
00000016
ffffffff
00000000
00000006
00000016
00000009
fffffffd
00000002
fffffff2
00000004
ffffffea
fffffffa
0000000a
fffffffc
0000000e
0000000b
0000000c
fffffffe
fffffff1
00000000
00000001
0000001b
00000006
00000003
00000006
00000002
00000001
00000007
ffffffed
00000005
00000001
00000008
00000003
00000003
00000000
00000000
00000005
00000005
00000001
00000003
00000003
ffffffad
00000002
00000001
fffffffd
00000003
fffffffa
fffffffe
00000005
00000001
00000004
00000003
fffffff5
00000001
00000000
fffffff4
fffffff2
00000002
00000006
0000000b
fffffffc
00000001
fffffff8
fffffff9
00000015
0000000a
00000000
ffffffff
00000000
ffffffff
00000000
fffffff9
00000002
ffffffff
ffffffec
00000002
00000003
ffffffec
0000000e
fffffff0
0000000c
00000012
00000007
00000001
00000000
fffffffe
0000000a
fffffff9
fffffff5
fffffffc
00000001
fffffffc
fffffff2
00000009
00000000
00000001
00000001
fffffffd
00000007
00000002
fffffffe
00000016
00000007
00000001
00000000
00000000
00000001
00000006
00000005
fffffff2
00000000
00000005
00000005
00000005
00000007
00000005
00000000
fffffffe
fffffffd
00000002
00000002
00000000
00000001
0000000a
fffffffc
fffffffa
00000013
0000002b
fffffff6
fffffffd
00000009
00000016
00000005
00000001
00000007
00000002
fffffff7
00000005
00000005
00000009
00000000
00000002
00000008
fffffff4
0000000e
fffffff9
00000001
00000001
00000000
ffffffff
fffffffc
fffffff5
0000000a
00000005
00000007
ffffffff
00000000
fffffff0
00000005
fffffff0
fffffffa
00000008
fffffffd
00000001
00000002
00000000
fffffffe
00000000
00000013
fffffff8
00000006
fffffff8
00000008
fffffff5
00000003
fffffffd
00000011
00000001
00000007
00000007
00000005
fffffff8
0000000a
fffffffb
0000000d
fffffff8
fffffffb
00000009
0000001e
fffffffc
00000003
00000005
00000007
00000007
ffffffff
ffffffff
fffffffd
fffffffc
00000001
00000002
ffffff80
ffffffe3
00000003
fffffffb
00000006
00000000
00000005
0000004f
00000013
00000002
00000005
00000012
00000000
fffffffd
00000000
00000002
fffffffd
fffffff9
00000000
00000005
00000000
fffffffe
fffffff8
ffffffd3
00000007
00000005
fffffffd
fffffffe
00000000
00000014
00000002
00000004
fffffff8
fffffff8
00000000
00000000
ffffffdb
ffffff80
ffffffa6
ffffff80
00000004
ffffff8a
ffffff91
fffffffd
ffffff80
ffffffde
fffffff3
fffffff2
ffffffff
fffffff3
ffffffd2
ffffff80
fffffffe
ffffffad
00000002
ffffff80
ffffff80
ffffffba
00000008
ffffff80
ffffff80
ffffffc3
ffffffff
00000008
ffffff80
ffffff88
00000019
0000000c
ffffff8d
fffffffd
ffffffcc
ffffffe8
ffffff97
ffffff87
fffffff2
ffffff87
ffffff80
0000003b
ffffff97
ffffffdb
fffffff7
ffffff96
ffffff80
fffffff5
ffffff85
ffffffcc
00000003
ffffffe2
ffffff80
ffffff86
ffffffbc
00000078
00000012
00000027
00000016
ffffffc0
0000002b
ffffff80
ffffff80
00000016
ffffff80
ffffffd1
ffffffc2
ffffff80
ffffff8a
ffffffaa
00000015
ffffff9b
ffffff80
ffffff80
00000036
ffffff99
ffffff96
ffffffc1
ffffff80
00000000
ffffff80
ffffff80
fffffff4
ffffffb8
ffffff80
ffffffe2
ffffff80
ffffffdb
00000015
ffffff90
ffffffe1
ffffff94
ffffff90
fffffffd
ffffff92
ffffffe6
ffffff80
ffffffde
ffffffe3
fffffffa
00000018
00000016
0000000a
ffffff85
ffffffaa
ffffffb9
ffffffaa
fffffffa
ffffffea
ffffffb8
ffffffed
00000030
0000007f
00000016
ffffff8b
ffffff80
ffffffea
fffffffc
ffffff80
fffffff6
ffffff80
ffffffb8
ffffffe2
fffffff1
ffffff86
fffffff2
ffffff80
fffffffe
ffffffd8
ffffffc0
fffffff8
00000001
0000000f
ffffffde
ffffff80
fffffff6
ffffff9b
ffffffe2
ffffffdb
fffffffa
ffffffb2
00000054
00000022
ffffffec
00000029
ffffff80
ffffffe0
ffffffcd
ffffff8f
fffffff5
fffffff4
ffffffc4
ffffffc2
00000024
ffffffdc
fffffff5
0000003c
ffffff80
ffffff80
ffffffcd
ffffffd7
ffffffde
ffffffe9
ffffffec
ffffffef
00000024
ffffffd5
00000022
ffffffe6
ffffffe8
ffffffd4
00000009
ffffffe8
fffffff0
ffffffe9
00000047
ffffffd4
ffffffda
fffffffb
ffffff89
ffffffce
ffffffc2
ffffffd1
00000008
00000015
00000002
0000001b
ffffffc8
00000000
0000004d
ffffffea
ffffffd2
00000005
fffffff3
ffffffef
ffffffb8
ffffff9b
00000006
00000034
ffffff9f
00000038
fffffff5
00000005
ffffffd8
ffffffba
ffffffea
00000007
ffffffa5
ffffff82
ffffffd5
ffffffb1
fffffffa
ffffff9f
fffffff0
ffffffe8
ffffffc2
fffffff0
ffffffc0
ffffff96
fffffff2
ffffffd7
00000002
ffffffc5
00000005
ffffffee
0000007f
ffffffa8
fffffff0
ffffff80
ffffffe9
ffffffbd
fffffff9
ffffffd9
ffffffd0
ffffff80
fffffff1
ffffffcb
0000002b
ffffffb1
ffffffc6
0000000c
ffffff80
fffffff0
0000001b
00000022
ffffff80
ffffffc0
00000005
ffffff80
ffffff80
ffffffe0
ffffffd9
0000000b
ffffff8e
ffffffe7
ffffffcb
ffffffe1
ffffffd8
ffffffef
00000000
ffffff87
ffffffce
ffffff9b
ffffffe2
ffffffda
ffffffe2
0000000d
ffffffd2
fffffff7
ffffffdc
00000000
ffffffd0
ffffff80
ffffffc3
0000003b
ffffffa3
ffffffdd
00000000
ffffffea
0000000f
fffffffb
0000001b
ffffff80
ffffff80
ffffff84
ffffff8c
ffffffd5
ffffff80
ffffffd8
ffffff84
ffffffe4
ffffffed
ffffffba
ffffffb9
fffffffe
fffffffa
00000027
0000002b
00000011
fffffff3
fffffff4
fffffffa
0000007f
00000013
ffffffd7
ffffffac
ffffff80
00000059
ffffffd9
ffffffd7
0000001a
fffffffc
fffffffe
00000056
00000003
00000020
ffffff80
ffffff80
ffffffda
00000002
ffffffae
ffffff80
ffffffc2
fffffffa
0000000e
fffffff6
ffffffbd
00000059
ffffffe6
00000002
ffffffb7
ffffffc8
ffffff80
0000002c
ffffffc2
ffffffe4
ffffff80
ffffffb8
0000003d
ffffffed
ffffffaa
ffffff84
ffffff80
ffffffdf
fffffffb
ffffff97
fffffff7
ffffffe5
0000000e
ffffff81
fffffff1
00000032
ffffffdd
ffffffd7
ffffffb5
0000007f
00000001
fffffff2
fffffff6
ffffffd7
0000001b
ffffffbe
ffffff80
fffffff4
ffffffd8
00000004
fffffffc
0000000d
ffffffa5
ffffffde
0000007f
ffffffa1
fffffff2
ffffffd3
00000012
ffffffee
0000002a
fffffff8
ffffff93
ffffffc3
00000030
fffffffa
0000005c
00000011
ffffffee
ffffffef
00000010
ffffffec
ffffffef
fffffff1
0000000e
ffffffea
00000001
ffffffc7
00000029
ffffffdd
ffffffce
ffffffdd
ffffffee
ffffffe7
00000021
00000002
ffffffcb
0000000b
00000007
0000000f
00000015
00000000
0000000a
00000003
ffffffd3
ffffffc2
fffffffa
ffffffff
00000035
ffffffcf
fffffff7
00000020
ffffffd3
ffffffd0
fffffff8
fffffffe
ffffffd1
00000010
ffffffff
ffffffcc
0000000b
fffffff3
ffffffe1
ffffffe8
fffffff6
fffffffa
0000000d
00000010
00000000
00000028
00000010
fffffff9
ffffffed
fffffff6
fffffffc
fffffffa
ffffffc6
00000009
0000001b
ffffffed
fffffff8
ffffffbb
00000004
ffffffeb
00000011
00000010
ffffffda
ffffffe6
00000005
00000010
00000002
00000008
ffffffd7
00000007
0000000c
00000000
0000000f
ffffffe7
ffffffff
fffffffc
00000020
00000000
fffffff7
fffffffb
fffffff3
00000001
fffffff9
00000005
ffffffd3
ffffffee
fffffff3
00000044
fffffff0
fffffff0
0000000f
ffffffd6
ffffffd4
fffffff0
ffffffd5
00000002
ffffffb2
fffffff5
00000000
fffffff3
ffffffed
ffffffc1
ffffffdf
00000011
ffffffdb
ffffffd7
fffffff6
00000006
fffffff3
ffffffde
0000003a
ffffffcb
00000005
ffffffaf
fffffff4
fffffff9
fffffffd
fffffff9
fffffffe
ffffffef
fffffff7
fffffff5
00000009
fffffff3
ffffffee
fffffff9
ffffff9c
fffffffc
0000000c
fffffffb
fffffffb
ffffffec
ffffffd5
fffffff3
ffffffce
ffffffd4
ffffffeb
00000007
ffffffee
fffffffa
ffffffc3
ffffffec
ffffffe9
ffffffe3
ffffffee
ffffffcf
fffffffa
ffffffeb
00000007
ffffffd5
ffffffdf
ffffffe9
00000006
ffffffe8
00000037
ffffffe1
00000007
00000002
ffffffd9
fffffff2
fffffff5
ffffffee
00000012
ffffffef
0000000a
00000011
00000008
ffffffb8
fffffffe
ffffffed
fffffffa
00000004
ffffffce
fffffffc
ffffffe0
ffffffee
00000009
00000003
ffffffe5
ffffffe5
00000033
ffffffdb
ffffffd6
fffffff0
fffffff9
0000001a
ffffffe5
ffffffb4
ffffffee
fffffffd
00000007
fffffff6
0000000e
fffffffe
fffffff8
00000033
fffffff6
ffffffee
00000006
ffffffea
fffffff8
fffffff4
0000000d
ffffffe2
00000007
fffffff2
fffffffd
ffffffe8
fffffffd
fffffff2
fffffff0
fffffff3
ffffffed
ffffffef
ffffffea
ffffffe6
ffffffec
00000002
fffffff6
ffffffd5
ffffffef
fffffff9
00000000
ffffffe6
ffffffe9
00000045
ffffffe7
ffffffdb
ffffffec
fffffff8
ffffffed
ffffffe1
ffffffe3
ffffffee
ffffffe1
00000010
ffffffee
00000023
ffffffe6
ffffffe9
00000014
ffffffe0
ffffffff
00000005
ffffffce
fffffff5
ffffffeb
fffffffe
ffffffe9
ffffffd6
00000008
00000000
ffffffde
ffffffe5
00000002
fffffff2
00000000
0000000d
00000002
fffffff7
0000000b
ffffffd4
ffffffec
ffffffde
fffffffb
fffffff1
ffffffe9
0000001c
00000003
ffffffe3
00000002
fffffffe
ffffffd6
fffffff8
ffffffed
ffffffdd
fffffff4
00000015
ffffffe5
fffffffb
ffffffe8
ffffffe9
ffffffe1
00000008
ffffffd4
ffffffff
fffffff4
ffffffef
fffffffa
ffffffb6
fffffff1
ffffffe9
ffffffda
ffffffed
fffffffc
fffffff0
ffffffcf
ffffffd7
00000010
00000003
fffffff3
fffffff4
fffffff1
00000014
ffffffeb
ffffffd4
00000017
ffffffd5
ffffffdd
fffffffe
0000000e
fffffff8
00000000
ffffffeb
ffffffe6
00000008
00000006
fffffff2
ffffffe1
0000001d
fffffffa
ffffffd6
fffffffa
00000007
ffffffff
fffffff1
00000016
ffffffdd
fffffffb
00000012
fffffff7
00000003
fffffff1
00000019
fffffff5
00000001
ffffffef
fffffffe
ffffffd3
fffffffe
ffffffdd
ffffffe4
00000002
00000003
ffffffe8
ffffffcb
fffffff5
ffffffd4
ffffffee
ffffffe3
ffffffed
00000007
ffffffd6
ffffffea
0000000a
0000000e
fffffff1
ffffffe8
ffffffe0
fffffffc
fffffff9
00000012
fffffffb
ffffffe2
fffffff9
00000002
ffffffeb
00000004
ffffffd9
ffffffe8
ffffffe9
ffffffcd
00000004
ffffffd2
ffffffcb
fffffff0
ffffffd1
ffffffed
ffffffe7
ffffffef
fffffffa
ffffffe9
ffffffde
00000010
ffffffea
fffffff2
00000009
ffffffcc
ffffffee
ffffffd9
ffffffc6
00000004
ffffffe6
00000000
ffffffe2
0000000c
ffffffa9
fffffff5
00000005
0000000b
0000001b
ffffffe7
fffffff1
00000000
ffffffe5
ffffff8c
0000000b
fffffff2
ffffffec
ffffffe3
fffffffa
00000025
ffffffcc
ffffffe8
00000000
fffffffb
ffffffcc
fffffffa
00000005
ffffffdb
00000008
00000010
ffffffe9
0000000a
ffffffff
fffffff2
00000002
00000007
ffffffed
fffffff2
00000001
fffffff8
fffffff9
00000006
0000001d
00000018
ffffffb8
00000001
fffffff3
00000001
fffffff0
ffffffc7
fffffff5
ffffffe6
0000000c
0000000e
ffffffc7
ffffffdd
fffffffe
00000008
00000004
ffffffeb
fffffff7
fffffff3
00000013
fffffff1
00000003
fffffff5
ffffffea
fffffff7
00000006
00000005
00000006
ffffffe0
00000002
ffffffd6
ffffffdf
ffffffeb
fffffff7
00000010
00000006
ffffffcd
ffffffe7
fffffff7
fffffff3
ffffffd5
ffffffbe
fffffff6
ffffffdc
fffffff4
ffffffc0
00000009
fffffffd
00000014
ffffffea
ffffffd3
ffffffc1
00000008
ffffffe4
ffffffab
ffffffed
ffffffb8
00000011
00000006
00000026
ffffffd8
00000007
ffffffcd
00000004
ffffffe8
00000033
fffffff5
0000000f
0000004e
0000000b
fffffff1
00000006
fffffff9
ffffffe6
ffffffed
0000001b
00000000
00000010
ffffffee
00000003
00000005
00000006
00000011
fffffff8
fffffff9
ffffffe9
00000009
fffffff5
fffffff2
fffffff1
00000000
00000001
ffffffe8
00000009
0000001b
fffffff0
ffffffe8
00000006
fffffffc
ffffffd6
fffffff2
ffffffff
ffffffe8
ffffffff
ffffffe2
ffffffeb
00000006
00000000
fffffff8
fffffff1
fffffffd
ffffffd8
ffffffe9
ffffffff
0000000c
ffffffe4
00000007
ffffffee
fffffff3
00000011
fffffffe
0000000c
fffffffa
ffffffeb
ffffffe7
00000013
fffffffc
fffffffc
0000000a
ffffffe2
ffffffe4
00000012
fffffff1
fffffffc
ffffffd5
00000012
00000016
ffffffdf
fffffff9
fffffff8
ffffffd8
fffffff9
fffffff4
fffffff5
fffffffe
0000000d
00000007
fffffff6
ffffffff
fffffffd
ffffffea
0000000d
fffffff1
0000000b
ffffffe2
fffffff4
fffffff8
00000012
fffffffd
fffffff7
fffffffa
ffffffe7
00000001
fffffff2
00000043
ffffffed
fffffff9
fffffffc
ffffffea
ffffffea
ffffffe5
ffffffff
ffffffea
fffffffa
ffffffec
fffffff4
ffffffe8
fffffff3
ffffffe5
ffffffe9
fffffff0
00000002
00000000
fffffff8
fffffff7
ffffffed
ffffffc3
ffffffe8
fffffff6
00000009
00000077
0000000a
00000001
0000000a
fffffffa
ffffffe3
00000007
ffffffd4
00000002
00000000
ffffffed
ffffffe0
fffffff0
fffffff7
fffffff1
0000000c
ffffffda
00000000
fffffff1
00000018
ffffffef
ffffffee
ffffffed
00000007
ffffffe1
ffffffec
00000000
ffffffeb
00000001
ffffffe4
0000000d
fffffff9
00000006
ffffffed
ffffffdf
ffffffff
ffffffff
ffffffde
0000000c
00000001
0000000c
ffffffe9
00000009
ffffffc7
00000000
fffffffb
ffffffe1
ffffffdf
ffffffe7
fffffffb
00000001
ffffffe7
fffffffc
ffffffec
ffffffb7
00000004
0000002b
ffffffe5
00000010
00000006
fffffff6
fffffffe
fffffffa
00000000
fffffff3
ffffffff
ffffffff
ffffffee
00000014
00000009
0000000a
ffffffe7
fffffff7
0000000c
0000000b
fffffff6
fffffff1
00000003
ffffffca
00000000
ffffffe6
fffffff1
fffffff9
00000000
fffffff9
00000014
ffffffe0
fffffffd
ffffffe6
fffffffa
fffffff0
00000001
ffffffff
00000007
00000004
00000007
00000007
ffffffe8
ffffffe5
fffffffb
ffffffdf
00000009
ffffffeb
fffffff5
ffffffc6
ffffffed
ffffffff
ffffffe8
ffffffde
fffffff6
ffffffef
ffffffe1
ffffffe7
ffffffff
00000008
00000000
ffffffd6
fffffff8
ffffffee
ffffffd3
0000000f
ffffffff
0000000e
00000006
fffffff7
fffffff3
ffffffec
ffffffdb
ffffffeb
ffffffdb
ffffffef
ffffffe3
00000004
00000006
fffffff4
00000013
0000001d
ffffffff
fffffff3
fffffffa
00000012
00000002
fffffffe
ffffffe8
fffffffd
fffffff5
0000001e
0000002b
ffffffe0
ffffffc3
ffffffce
fffffffb
ffffffec
ffffffc2
00000006
ffffffcf
fffffffe
00000006
00000005
00000001
0000000b
fffffff6
00000000
fffffffb
ffffffb4
00000011
00000001
0000001e
fffffff1
ffffffef
ffffffd7
ffffffd2
ffffffe3
00000007
ffffffec
ffffffc3
00000014
00000008
fffffff1
00000000
ffffffff
fffffff4
ffffffe9
00000008
00000008
00000010
ffffffdc
00000010
fffffffc
ffffffec
0000000b
fffffffa
00000009
00000003
00000064
ffffffae
0000000a
ffffffe2
00000003
ffffffef
ffffffb6
ffffffef
ffffffb5
fffffff9
0000000d
ffffffe9
ffffffef
0000001f
ffffffe8
fffffff0
fffffffa
fffffffd
00000003
00000003
fffffff6
ffffffec
fffffff5
00000007
0000000a
ffffffd6
0000000a
0000000a
ffffffe1
fffffff3
ffffffe4
fffffffb
fffffff6
fffffff6
0000000b
fffffff2
00000033
fffffff3
ffffffca
ffffffed
ffffffed
ffffffc3
fffffff5
ffffffc0
0000000c
ffffffb9
00000007
fffffffd
ffffffef
fffffff9
ffffffb6
ffffffca
fffffff7
fffffff4
ffffff91
00000007
0000002a
0000000c
ffffffe0
0000002c
ffffff8f
fffffff4
00000042
fffffffc
00000009
fffffff4
00000000
00000005
ffffffe1
00000004
0000000b
fffffff5
fffffff4
ffffffd0
ffffffe6
ffffffe4
00000001
0000001a
ffffffff
00000009
fffffffe
00000025
fffffff7
00000015
ffffffc7
fffffff4
fffffff0
ffffffd6
ffffffee
00000024
fffffffa
fffffff3
fffffffe
0000000a
fffffff8
fffffffc
ffffffeb
ffffffe4
ffffffe1
ffffffea
ffffffec
0000000e
00000000
ffffffde
00000011
00000004
ffffffff
fffffff1
0000000f
ffffffe4
fffffff3
ffffffba
fffffffc
fffffff9
ffffffdb
ffffffd0
00000014
fffffff6
ffffffe8
0000000e
fffffff7
ffffffeb
fffffff6
00000015
ffffffeb
ffffffe4
fffffffa
ffffffe7
ffffffef
ffffff92
ffffffca
fffffffe
0000000a
fffffffe
ffffffea
ffffffd0
00000061
fffffff3
ffffffec
00000000
0000003b
00000000
ffffffe6
fffffff3
ffffffeb
ffffffe9
fffffff9
ffffffe5
fffffffc
00000001
ffffffe2
00000008
ffffffeb
fffffffb
00000043
00000009
ffffffda
fffffffe
ffffffe5
ffffffdf
00000000
fffffff2
00000002
00000002
0000001d
00000006
ffffffee
ffffffe3
fffffffb
fffffffc
00000016
fffffff6
ffffffd6
ffffffe6
ffffffec
fffffff5
ffffffd7
ffffffee
ffffffdf
0000000c
00000008
00000000
00000000
0000000d
00000001
ffffffe1
00000050
fffffffe
0000000d
ffffffec
fffffff3
fffffff7
00000004
ffffffde
ffffffed
ffffffe5
fffffff4
ffffffe7
ffffffef
00000006
00000012
fffffff6
ffffffff
fffffff0
00000010
00000003
00000000
00000001
0000000b
ffffffc2
00000010
ffffffef
ffffffe0
00000002
ffffffee
00000009
fffffffd
ffffffec
ffffffe0
0000000b
00000000
ffffffff
fffffff7
ffffffee
fffffff0
0000000b
00000007
00000011
ffffffe3
0000000f
0000000b
00000002
fffffff5
ffffffcf
fffffff3
00000008
00000003
ffffffa0
ffffffe8
fffffff7
fffffffa
ffffffd8
00000011
ffffffe0
0000004d
0000001f
00000004
ffffffeb
fffffff1
ffffffff
00000016
fffffff1
fffffffa
fffffff4
00000053
ffffffe9
00000003
0000000a
ffffffd7
ffffffed
fffffffb
ffffffd0
ffffffe4
00000001
ffffffee
ffffffed
fffffff3
00000009
ffffffba
ffffffdf
ffffffd7
00000013
fffffff7
00000009
fffffff7
fffffffd
00000014
ffffffea
ffffffe6
fffffffe
0000000c
fffffffe
ffffffeb
00000005
ffffffe9
ffffffe9
fffffff7
ffffffb3
fffffffe
ffffffd9
0000001e
fffffffa
0000000e
ffffffee
ffffff8e
fffffffa
00000003
00000000
ffffffde
ffffffd5
fffffff8
ffffffe2
ffffffe5
ffffffea
ffffffef
fffffffd
00000014
fffffffd
fffffffd
ffffffca
fffffffb
fffffffa
ffffffbc
0000001a
fffffff2
fffffff3
fffffff8
ffffffd5
ffffffee
fffffff8
00000005
00000001
ffffffe7
fffffff1
ffffffe6
fffffffb
00000001
ffffffbc
00000004
0000000f
00000001
ffffffe6
fffffff3
fffffffd
ffffffe9
00000000
ffffffd4
ffffffe7
ffffffc5
0000000b
ffffffcf
fffffffe
fffffffe
ffffffb9
fffffff0
ffffffd4
00000001
00000000
ffffffee
0000001e
fffffffe
00000014
ffffffe9
00000017
ffffffaf
ffffffed
00000004
00000002
00000010
fffffff4
ffffffe1
ffffffdd
ffffffc2
ffffffec
00000005
ffffffe0
00000004
0000000d
ffffffe0
ffffffea
00000008
fffffffe
00000001
fffffffe
fffffff2
00000006
ffffffe8
0000000d
ffffffe7
00000000
0000000e
00000000
ffffffd5
00000024
fffffff3
ffffffd7
ffffffee
0000003d
ffffffed
00000004
ffffffb1
fffffff5
ffffffe5
0000000a
fffffffc
ffffffd9
ffffffe5
ffffffcf
ffffffff
00000004
ffffffec
ffffffda
fffffffa
00000007
0000000e
00000000
ffffffe3
fffffff7
ffffffe3
00000002
0000000c
fffffff5
fffffff6
fffffff9
00000025
fffffffd
fffffff6
ffffffff
fffffffe
0000000e
ffffffdb
00000000
0000000c
0000000d
ffffffe5
ffffffe2
fffffff9
ffffffd2
00000000
ffffffb6
fffffff4
00000010
ffffffeb
0000000a
0000000e
fffffff5
fffffffb
fffffffc
ffffffc6
ffffffc4
ffffffe7
00000008
ffffffdb
00000036
ffffffc5
ffffffef
fffffff9
fffffffd
00000002
ffffffef
fffffff5
00000009
ffffffe5
00000002
0000000a
00000003
00000002
ffffffee
ffffffea
ffffffb3
ffffffe0
00000003
ffffffec
ffffffe7
fffffffd
ffffffe0
fffffff9
ffffffff
ffffffe1
fffffff9
00000006
00000012
fffffffb
00000005
fffffffe
00000004
ffffffef
fffffff3
ffffffe3
ffffffe2
ffffffef
00000012
ffffffff
ffffffee
fffffffd
00000008
ffffffeb
00000007
ffffffe6
fffffff8
ffffffed
fffffffa
ffffffe3
fffffffb
00000004
ffffffed
fffffff9
fffffffa
00000018
ffffffee
ffffffee
fffffff1
00000009
fffffff5
ffffffe9
ffffffe5
ffffffed
ffffffe8
00000000
fffffff0
fffffffd
ffffffda
00000000
00000021
fffffffd
ffffffec
ffffffe6
00000001
fffffff7
ffffffd0
ffffffdb
fffffff8
ffffffec
ffffffef
00000002
0000000b
00000000
ffffffeb
ffffffef
ffffffe6
fffffffa
ffffffe6
fffffffd
ffffffea
fffffffd
0000000d
ffffffe2
00000000
ffffffd5
00000007
00000000
fffffffe
fffffffd
fffffffc
ffffffe9
fffffff5
ffffffea
ffffffe8
fffffffa
00000000
00000008
fffffffe
ffffffd0
00000008
00000008
ffffffe3
fffffff8
00000000
ffffffe5
fffffff6
00000010
ffffffea
ffffffff
fffffff6
ffffffde
fffffff2
ffffffef
fffffff0
ffffffee
ffffffdb
ffffffda
fffffffb
00000011
ffffffe0
ffffffe8
0000000e
fffffffd
fffffff9
ffffffe8
fffffff7
fffffffe
fffffff6
ffffffe2
00000001
00000002
ffffffe4
fffffff8
fffffff4
ffffffe2
00000000
ffffffe3
0000001f
fffffff9
ffffffea
ffffffe8
00000000
ffffffff
fffffff9
fffffff9
fffffffa
00000000
ffffffcd
ffffffff
fffffffc
ffffffee
fffffff3
fffffffc
00000005
ffffffeb
00000006
fffffff5
ffffffe5
00000018
00000009
00000003
fffffff1
fffffffe
0000004d
00000000
fffffff7
ffffffea
00000040
ffffffcd
0000000a
ffffffe3
ffffffeb
fffffffb
0000003b
ffffffd3
fffffff1
ffffffe3
0000000b
00000001
ffffffee
fffffff2
fffffffe
00000016
ffffffe7
00000018
00000000
00000000
ffffffde
ffffffcd
00000006
00000011
00000007
ffffffef
fffffff7
fffffffa
fffffff6
00000000
fffffffd
0000001a
fffffffe
ffffffc6
fffffffa
00000003
fffffff4
00000016
00000010
ffffffc7
fffffff8
00000006
00000007
00000004
ffffffe9
00000014
fffffffd
00000000
fffffff3
fffffff4
fffffff0
fffffffb
00000008
ffffffeb
fffffff0
00000006
fffffff2
00000005
ffffffe5
ffffffee
fffffff8
ffffffe2
ffffffdf
00000008
ffffffda
fffffff6
0000000f
fffffff8
fffffff7
0000000b
fffffffb
00000001
0000000f
ffffffec
fffffff5
ffffffed
fffffffd
0000000e
ffffffdf
ffffffe6
ffffffdd
ffffffef
ffffffdb
ffffffd9
ffffffe5
ffffffd5
ffffffce
0000001a
fffffff5
ffffffe3
ffffffdc
fffffff6
ffffffe8
00000001
fffffff5
ffffffed
ffffffe6
fffffff5
00000000
ffffffd2
00000022
ffffffec
ffffffd4
ffffffd0
fffffff3
00000006
ffffff97
0000000f
ffffffb8
00000009
ffffffea
fffffff4
00000022
00000000
00000000
0000000f
ffffffe9
ffffff85
ffffffef
fffffffe
fffffff0
0000002c
fffffffe
ffffffbc
ffffffb7
ffffffc4
fffffff4
fffffffa
ffffffbd
0000000f
00000004
ffffffef
00000014
ffffffe8
fffffff0
ffffffed
00000007
00000002
fffffff2
00000007
0000000e
ffffffd3
00000007
00000000
0000000c
ffffffef
00000018
00000043
ffffff9e
fffffff1
ffffffd0
ffffffef
ffffffe9
ffffffc8
fffffffb
ffffffa5
00000003
00000007
00000000
00000002
00000011
fffffffd
fffffffc
ffffffff
fffffffd
fffffff1
00000007
fffffff8
fffffffd
ffffffda
0000000a
fffffff9
ffffffc7
00000001
ffffffef
ffffffcd
00000010
00000024
00000000
fffffff0
ffffffef
0000000c
ffffffff
ffffffff
00000004
00000005
ffffffe5
ffffffe6
ffffffcf
00000003
ffffffa6
fffffff3
ffffff86
fffffffc
0000000f
00000013
00000004
fffffffc
fffffff4
ffffffee
fffffff3
ffffff9f
00000012
fffffff1
00000004
0000000e
0000002c
fffffff1
fffffff9
fffffff3
0000000b
0000000a
00000030
fffffff7
fffffff9
fffffffd
fffffffb
fffffffa
fffffff8
ffffffe9
00000001
0000000c
fffffff0
00000000
ffffffed
fffffff5
00000005
00000011
ffffffb8
0000000d
ffffffdc
fffffff4
ffffffe9
fffffffc
fffffff4
00000007
ffffffeb
fffffff6
fffffff5
00000008
ffffffd3
ffffffc1
fffffffb
00000015
00000007
00000009
fffffff4
0000001e
fffffffa
00000010
0000001e
00000001
ffffffff
fffffff5
ffffffff
fffffff1
fffffff8
fffffff1
0000005d
fffffff8
00000008
ffffffca
ffffffe9
ffffffde
fffffff5
ffffffea
00000000
ffffffef
fffffff0
ffffffea
ffffffeb
ffffffda
00000007
00000000
0000000a
fffffff3
00000012
ffffffd4
ffffffbb
fffffff7
0000000c
00000000
ffffffe9
ffffffba
fffffff1
ffffffee
0000000b
ffffffdc
ffffffe0
fffffff6
ffffffee
00000011
ffffffed
ffffffe5
0000000d
00000003
ffffffee
fffffff8
00000005
00000012
00000003
00000005
fffffff8
00000012
0000001d
00000007
00000037
0000000b
00000012
ffffffde
00000007
ffffffcb
ffffffef
fffffff7
ffffffe6
0000002b
ffffffea
00000009
fffffffc
ffffffe2
fffffff4
ffffffee
00000003
fffffff3
ffffffe0
ffffffff
00000012
0000000b
00000000
fffffffa
fffffff1
fffffff8
00000001
ffffffad
ffffffee
fffffff6
ffffffe2
ffffffd4
fffffff7
00000000
fffffff4
00000002
fffffffc
ffffffe4
fffffff9
ffffffe0
00000000
fffffff2
ffffffd4
fffffff4
00000006
ffffffb6
0000000c
00000013
00000011
00000012
ffffffcc
ffffffed
0000000b
fffffff2
fffffff8
fffffff8
fffffff6
00000007
fffffff5
fffffffb
00000000
fffffff7
ffffffdd
fffffffe
00000011
ffffffe4
fffffff9
fffffff8
fffffffd
00000000
ffffffec
00000003
ffffffe6
ffffffe9
0000000b
fffffff2
00000005
00000001
ffffffbe
00000057
00000027
0000000a
ffffffc8
0000000a
ffffffbe
0000001e
fffffff5
ffffffd2
00000003
ffffffed
fffffff0
fffffffb
00000037
00000004
fffffff1
ffffffc4
fffffffd
ffffffe2
fffffff8
fffffff9
ffffffff
ffffffe5
fffffff9
00000009
fffffff0
fffffff7
ffffffec
ffffffe1
ffffffec
ffffffed
00000006
ffffffff
fffffff3
0000000b
fffffff0
fffffffa
00000000
fffffff0
ffffffea
0000001c
fffffffc
fffffff1
ffffffe1
fffffff7
0000000a
fffffffd
00000000
ffffffea
0000000e
00000000
ffffffde
ffffffda
fffffff2
00000003
ffffffec
00000067
ffffffe6
ffffffdc
fffffff8
ffffffd4
ffffffeb
fffffffe
ffffffd6
00000000
00000001
fffffffd
fffffff4
ffffffc5
00000013
fffffff2
00000031
fffffff1
fffffffa
ffffffce
fffffffe
fffffff7
00000004
ffffffef
ffffffed
fffffffd
fffffff9
ffffffd7
0000000b
ffffffdd
ffffffbf
ffffffd5
fffffffd
ffffffd4
ffffffca
00000001
ffffffe9
00000008
ffffffbe
fffffff8
fffffff7
ffffffe1
0000000f
0000000e
ffffffb7
ffffffe3
ffffffca
ffffffc6
fffffffb
fffffff4
0000000c
fffffff0
ffffffca
fffffff4
00000013
00000005
0000003a
fffffff4
0000000b
ffffffff
0000000e
ffffff96
00000001
00000007
00000036
ffffffce
ffffffed
fffffffe
fffffff4
ffffffbc
fffffff1
fffffff7
ffffffc7
ffffffee
0000000a
ffffffb5
0000000b
00000001
ffffffdf
fffffff2
00000010
0000001f
00000004
fffffff3
ffffffe0
ffffffed
fffffff9
0000000a
0000000c
fffffff5
fffffffb
ffffffde
ffffffca
00000006
fffffff1
ffffffeb
ffffffee
ffffffd0
ffffffeb
ffffffea
fffffff6
fffffff0
ffffffe0
ffffffd6
fffffff9
ffffffec
ffffffee
fffffff1
ffffffec
00000000
fffffffd
00000007
fffffffa
ffffffd3
fffffff7
fffffff3
fffffff6
00000008
fffffff9
fffffff3
ffffffec
ffffffdf
ffffffee
00000002
ffffffd7
fffffff0
0000000b
0000000e
ffffffe8
0000000e
0000000d
fffffff2
ffffffed
0000000e
ffffffad
fffffff2
ffffffb1
ffffffff
fffffff8
0000001b
ffffffeb
fffffff1
0000001b
fffffff8
00000001
ffffffd3
ffffffde
00000024
00000006
ffffffde
00000043
ffffffcd
ffffffe0
00000019
fffffff5
00000003
fffffffa
ffffffed
fffffff8
fffffffd
00000012
0000000e
fffffff1
00000009
ffffffed
00000004
ffffffdb
ffffffdf
fffffffb
ffffffff
0000000a
fffffffe
00000012
ffffffea
ffffffda
fffffff0
fffffff9
ffffffeb
0000000a
ffffffe7
ffffffd1
fffffff4
00000000
fffffff5
ffffffee
00000007
ffffffeb
fffffff1
ffffffe9
0000001c
ffffffe6
00000001
fffffff6
ffffffeb
ffffffe8
fffffffb
00000008
00000008
fffffffb
ffffffe9
fffffff3
ffffffe7
ffffffe2
00000000
00000005
fffffff4
ffffffeb
ffffffd6
ffffffe8
fffffff2
ffffffef
fffffff3
0000000f
0000000e
00000007
ffffffe1
00000004
ffffffe7
fffffffc
fffffffd
00000046
ffffffee
00000006
ffffffe9
ffffffe4
fffffff6
ffffffeb
ffffffab
ffffffff
0000000b
fffffffa
0000000a
ffffffec
ffffffff
ffffffef
ffffffd3
00000003
fffffff4
ffffffee
00000000
0000003c
fffffff6
ffffffea
00000003
fffffffa
fffffff4
ffffffe3
ffffffe1
fffffff3
fffffff3
fffffff0
0000000f
fffffffe
fffffff1
0000001a
ffffffeb
0000000c
fffffffc
fffffff2
00000015
fffffff7
ffffffea
00000000
ffffffe7
00000003
ffffffc3
fffffff0
ffffffe6
fffffff0
ffffffe7
ffffffe3
ffffffed
fffffffe
ffffffe7
fffffffc
0000000a
00000006
ffffffd1
ffffffdb
00000000
fffffff0
ffffffd5
fffffff9
ffffffed
ffffffe0
fffffff8
00000008
fffffff7
ffffffff
ffffffe0
0000000d
fffffff2
ffffffe0
ffffffe8
00000008
0000000b
fffffffd
ffffffec
ffffffed
0000000d
00000052
ffffffe6
ffffffe4
ffffffdf
fffffffa
ffffffe4
fffffff9
ffffffe0
ffffffd3
ffffffe2
00000009
fffffff9
ffffffe9
ffffffe9
ffffffef
0000000a
fffffff4
fffffffb
ffffffe9
fffffff1
ffffffeb
ffffffea
fffffff5
fffffff0
ffffffce
0000000c
0000000b
ffffffe5
ffffffe3
ffffffbf
00000036
ffffffe4
fffffff0
ffffffd3
ffffffd9
ffffffc8
ffffffe4
ffffffda
fffffff5
ffffffee
ffffffed
fffffff5
00000003
ffffffeb
ffffffe8
00000000
fffffff1
fffffffe
ffffffee
ffffffee
ffffffff
fffffff0
fffffffb
ffffffea
00000004
ffffffe9
ffffffff
fffffff7
ffffffef
00000012
fffffff6
ffffffbf
fffffff8
00000001
ffffffe8
fffffffb
fffffff1
ffffffe2
00000004
00000003
fffffff8
00000004
0000000c
ffffffea
ffffffef
00000009
00000000
ffffffeb
0000000d
0000000a
00000005
ffffffe3
ffffffea
fffffff1
fffffffe
ffffffaa
fffffffa
ffffffe7
fffffffe
00000000
00000005
ffffffef
ffffffea
fffffff8
fffffff4
00000013
00000006
ffffffe5
00000005
fffffffe
ffffffe1
00000002
fffffff3
ffffffde
0000001b
0000000a
fffffff5
ffffffeb
fffffffc
fffffffe
fffffff0
ffffffd8
00000003
ffffffe3
0000002e
00000019
ffffffef
fffffffa
ffffffcf
00000009
ffffffec
ffffffed
ffffffc7
0000000d
fffffff7
fffffffd
0000000d
ffffffe6
0000000b
ffffffcc
ffffffe4
ffffffef
00000004
fffffff4
ffffffd7
fffffff5
ffffffc3
00000005
0000000b
fffffffb
0000000b
ffffffed
00000009
fffffff8
ffffffea
ffffffe3
ffffffef
0000000c
fffffff2
ffffffee
fffffffa
ffffffef
fffffff6
ffffffdf
ffffffef
0000000c
ffffffe5
ffffffe9
ffffffec
ffffffda
ffffffef
0000000d
fffffff7
0000000b
fffffff2
00000001
fffffff4
ffffffe8
ffffffef
fffffffb
00000004
ffffffed
ffffffee
fffffffc
fffffff9
ffffffed
ffffffd4
00000005
00000009
ffffffea
ffffffef
ffffffca
00000000
ffffffe7
ffffffec
00000007
ffffffe5
fffffff8
00000006
00000000
00000000
0000000e
ffffffdd
ffffffed
00000008
00000005
00000010
ffffffd2
0000000f
fffffff3
fffffff5
00000001
00000003
ffffffe6
ffffffeb
fffffff0
ffffffe9
fffffff4
ffffffe9
00000010
00000001
fffffff1
ffffffed
ffffffe0
0000000a
ffffffe1
fffffff8
fffffff4
ffffffc0
00000000
ffffffea
00000000
00000001
fffffff9
00000006
ffffffd9
ffffffe3
00000004
fffffff8
ffffffc7
ffffffe8
fffffff4
00000003
fffffffc
fffffff7
fffffffa
fffffff4
ffffffde
00000012
ffffffec
00000005
fffffffe
fffffff8
0000000b
00000008
ffffffef
ffffffeb
00000002
fffffffb
ffffffe3
ffffffed
ffffffec
00000006
0000000b
00000008
fffffffa
ffffffe1
00000004
ffffffea
fffffffe
ffffffe6
fffffff0
00000001
00000004
ffffffee
00000004
fffffff8
fffffff0
fffffff0
ffffffe6
fffffff3
fffffffc
ffffffe8
fffffffc
fffffff6
00000005
ffffffed
00000007
fffffffb
fffffffc
00000009
00000009
ffffffe4
fffffff2
00000007
ffffffe2
ffffffe8
ffffffeb
ffffffe6
ffffffe2
ffffffd7
ffffffd2
fffffffc
ffffffec
00000006
00000006
ffffffee
fffffff1
ffffffee
ffffffe8
00000003
00000004
ffffffe6
fffffffe
ffffffe7
fffffffa
fffffff2
00000000
00000000
ffffffe7
00000002
ffffffe5
00000009
00000001
ffffffea
fffffff7
fffffffc
fffffff0
ffffffdd
fffffffb
fffffff9
ffffffea
00000001
ffffffeb
fffffff3
fffffffb
ffffffea
fffffff3
00000002
ffffffd5
fffffffe
fffffffb
ffffffeb
fffffffe
ffffffe8
00000003
fffffffb
00000000
00000000
ffffffd6
00000009
ffffffeb
ffffffea
fffffff7
00000003
fffffffd
fffffff5
ffffffe7
00000007
fffffff1
ffffffee
ffffffe3
00000002
00000000
fffffff5
fffffffd
fffffff3
fffffffa
ffffffe0
ffffffec
fffffff9
ffffffea
ffffffef
0000000c
fffffff3
ffffffe8
00000000
0000000d
ffffffef
ffffffe9
ffffffe4
ffffffee
fffffff2
fffffffc
0000000b
ffffffee
ffffffe6
ffffffed
00000001
fffffff8
ffffffec
fffffff9
ffffffef
00000006
ffffffe6
ffffffef
ffffffe5
00000001
ffffffe9
fffffff1
ffffffe9
0000000f
ffffffd2
fffffffd
00000005
00000005
ffffffe7
fffffff7
fffffffc
ffffffed
00000005
00000005
00000006
ffffffed
fffffff0
00000006
ffffffed
fffffff4
ffffffe9
ffffffe1
fffffff0
ffffffef
fffffffd
ffffffee
ffffffe7
fffffff6
ffffffd8
fffffffb
ffffffef
ffffffdb
ffffffdc
ffffffe7
ffffffe8
fffffff6
ffffffe7
00000001
ffffffe6
fffffff1
fffffff4
fffffff8
00000005
ffffffcb
fffffff8
fffffffa
fffffff1
00000008
fffffff6
fffffff4
ffffffec
00000008
fffffffb
ffffffea
ffffffe7
ffffffe7
fffffffd
ffffffe1
00000004
00000004
00000005
ffffffea
0000000d
fffffff4
fffffffe
00000008
fffffff0
00000001
00000000
ffffffef
ffffffe7
ffffffed
ffffffec
ffffffdc
ffffffed
00000004
00000004
ffffffe5
fffffff4
fffffff4
ffffffdd
0000000f
ffffffe4
fffffff6
ffffffe0
ffffffd8
ffffffe1
00000006
fffffff0
00000009
fffffff2
ffffffef
0000000f
ffffffee
ffffffdd
fffffff7
ffffffec
fffffff2
ffffffed
fffffff0
fffffffc
fffffff0
fffffff3
ffffffff
ffffffd5
ffffffee
ffffffdc
ffffffcd
ffffffef
00000002
ffffffd6
ffffffe1
00000000
ffffffef
ffffffcf
00000005
00000006
ffffffee
ffffffde
ffffffef
0000000f
ffffffd9
fffffffa
00000004
fffffffd
ffffffdf
ffffffd8
ffffffe6
0000000b
00000003
fffffff8
fffffff9
ffffffe5
0000000e
fffffff6
ffffffec
00000008
00000008
ffffffec
0000000d
ffffffff
ffffffd9
fffffff5
fffffff9
fffffff0
ffffffe5
ffffffe3
ffffffff
ffffffef
ffffffdc
00000010
fffffff9
ffffffdc
fffffff7
fffffff6
ffffffc9
0000000d
00000004
ffffffed
00000004
fffffffb
ffffffef
fffffff2
ffffffef
fffffff4
fffffff1
fffffff6
fffffff3
fffffff1
fffffff2
ffffffeb
ffffffd5
ffffffed
fffffffd
fffffff2
00000004
0000000b
ffffffcd
00000003
ffffffd8
ffffffea
00000001
ffffffed
fffffff8
00000008
0000000d
0000000d
0000000a
ffffffe6
ffffffed
fffffffe
0000000e
0000000b
ffffffea
ffffffee
ffffffee
ffffffec
fffffffb
00000006
ffffffef
0000000c
00000004
fffffffc
00000008
ffffffe4
ffffffee
00000003
ffffffed
fffffffd
ffffffe3
fffffffb
fffffff5
fffffffd
ffffffe6
ffffffcf
00000007
ffffffec
ffffffea
00000004
fffffffa
fffffff1
ffffffd7
fffffff4
ffffffea
ffffffff
ffffffdd
ffffffeb
ffffffde
ffffffe9
ffffffe3
00000003
00000002
ffffffeb
fffffff9
00000003
fffffff9
0000000b
fffffff1
00000004
00000004
00000001
ffffffe8
0000000d
fffffffc
ffffffda
ffffffe9
ffffffd8
00000000
fffffffb
0000000e
fffffffa
00000001
ffffffdd
00000005
fffffff3
ffffffcd
fffffff9
ffffffe4
fffffff8
fffffffc
ffffffe7
fffffff6
fffffff5
fffffff3
ffffffe7
00000000
00000001
fffffff7
fffffff0
ffffffee
ffffffe1
00000005
fffffff9
fffffff0
fffffff7
fffffff8
fffffff7
00000004
fffffff3
fffffff6
00000003
00000002
ffffffe3
0000000c
00000009
00000001
ffffffdb
ffffffd0
00000009
ffffffea
00000001
ffffffeb
ffffffe0
00000015
fffffff4
ffffffe2
00000011
ffffffeb
0000000e
ffffffea
ffffffdd
ffffffdd
ffffffea
00000007
fffffff1
fffffff6
fffffff0
fffffffe
ffffffef
0000000d
fffffffa
ffffffde
00000001
00000004
00000006
fffffffc
00000000
ffffffea
fffffffb
fffffff5
fffffff3
fffffff3
fffffff8
00000000
ffffffee
ffffffef
00000009
ffffffe8
00000008
00000000
ffffffe2
fffffff3
0000000c
fffffffc
fffffff0
ffffffe9
ffffffeb
00000002
00000003
ffffffe9
fffffffb
ffffffed
ffffffef
ffffffe4
0000000b
ffffffea
ffffffef
ffffffe7
fffffffc
ffffffe0
fffffffc
ffffffdd
fffffff4
ffffffe9
fffffffd
fffffffb
fffffff7
fffffff5
fffffff4
00000005
fffffffe
ffffffdc
ffffffea
fffffffb
fffffff5
fffffff2
fffffffe
00000004
ffffffe5
ffffffed
ffffffea
00000002
ffffffea
fffffff0
00000008
fffffff2
0000000c
fffffff4
00000003
fffffff2
ffffffe9
ffffffec
ffffffe7
00000006
fffffffa
ffffffed
ffffffee
fffffff8
ffffffd5
0000000f
0000000f
fffffffc
ffffffe1
ffffffea
ffffffe0
fffffff3
00000000
00000008
fffffff3
00000001
fffffff3
fffffff9
ffffffed
0000000c
ffffffee
ffffffe8
fffffff9
ffffffff
ffffffe2
ffffffe0
00000005
ffffffe4
ffffffe9
ffffffec
fffffffd
ffffffe3
ffffffef
ffffffe0
fffffff4
00000004
ffffffee
ffffffe8
fffffff4
ffffffec
fffffff7
fffffff1
00000005
fffffff1
fffffff3
ffffffe1
00000002
00000000
00000000
00000000
fffffffd
fffffff9
ffffffe7
00000006
ffffffe9
ffffffe8
ffffffe1
fffffffc
00000002
fffffffe
fffffff3
fffffffc
00000006
fffffff7
00000009
0000000b
00000000
ffffffeb
fffffff1
00000009
fffffff4
00000001
fffffffc
ffffffef
fffffff2
0000000a
ffffffeb
ffffffe0
fffffff1
0000000b
ffffffe7
fffffff2
fffffff0
ffffffe4
00000005
ffffffe9
00000007
0000000a
ffffffdf
00000001
fffffff1
00000003
ffffffed
ffffffe3
fffffff0
0000000c
ffffffce
ffffffef
ffffffe8
ffffffe6
ffffffe3
fffffff6
ffffffef
fffffff7
ffffffe1
fffffff4
ffffffde
fffffff4
ffffffe5
fffffff5
fffffff1
ffffffde
fffffffe
ffffffe9
ffffffca
fffffffd
fffffffc
fffffff7
ffffffc6
00000007
0000000d
00000001
fffffffb
fffffff6
ffffffe0
ffffffc1
ffffffac
ffffffeb
fffffff7
ffffffe8
ffffffd7
fffffff2
ffffffaf
0000000d
00000009
0000000f
fffffffc
ffffffee
00000003
00000005
00000002
ffffffb6
0000000b
00000000
00000036
ffffffae
ffffffea
ffffffc8
0000002c
ffffffb8
ffffffec
00000000
ffffffc2
00000000
00000000
ffffffbc
fffffffe
00000002
0000000f
00000000
00000005
ffffffed
ffffffeb
ffffffe5
00000000
0000000e
ffffffeb
fffffff2
ffffffe8
00000010
00000010
ffffffac
ffffffd2
00000003
00000016
ffffffee
ffffffee
ffffffc3
ffffffff
ffffffd5
ffffffef
00000001
ffffffeb
fffffff6
ffffffee
0000000f
fffffff2
00000005
ffffffdb
ffffffef
fffffffb
fffffff7
0000000e
ffffffd6
fffffffb
ffffffee
ffffffec
fffffffb
00000009
ffffffd4
fffffff6
fffffff6
ffffffed
0000000d
fffffff6
ffffffea
fffffff2
00000014
00000001
00000006
fffffffc
ffffffe9
ffffffd1
0000000a
ffffff9a
fffffffd
ffffffdb
fffffffd
fffffff2
00000004
00000006
ffffffea
00000042
fffffffe
ffffffe0
ffffffaa
fffffff1
00000005
fffffffe
fffffff6
fffffff2
0000000c
0000000b
0000000a
00000005
fffffff3
0000004d
0000000c
0000000d
ffffffe2
00000000
fffffff1
fffffff4
00000011
fffffff9
fffffff8
00000000
fffffffc
fffffff2
ffffffff
fffffff2
00000011
00000003
ffffffe6
fffffff4
00000011
ffffffe8
00000006
fffffff6
fffffff9
00000001
00000002
fffffff3
fffffff5
fffffff6
ffffffd7
00000000
fffffffa
00000003
ffffffef
fffffff2
fffffff5
ffffffe4
fffffff5
ffffffe5
ffffffec
00000009
0000000f
fffffff1
ffffffd8
ffffffff
fffffffd
ffffffd9
00000007
fffffffa
ffffffea
ffffffd5
ffffffd3
fffffff8
fffffff5
ffffffeb
ffffffea
fffffff7
fffffffe
00000000
ffffffe6
fffffffe
fffffff8
00000002
ffffffe9
00000006
fffffff0
ffffffe0
ffffffe5
ffffffff
fffffff3
ffffffd8
ffffffe4
fffffff9
fffffffa
00000001
fffffff2
fffffffe
0000000b
ffffffe3
fffffff0
00000001
00000002
00000009
ffffffe6
ffffffe4
ffffffe7
ffffffea
fffffff7
fffffffb
fffffff3
fffffff3
ffffffe4
fffffff8
ffffffdd
00000011
fffffff3
fffffffa
0000000a
ffffffff
ffffffda
fffffff9
00000000
00000002
ffffffee
fffffff1
ffffffff
ffffffed
ffffffec
fffffffd
fffffff8
ffffffee
ffffffe0
ffffffec
ffffffe8
ffffffe8
00000018
00000001
ffffffef
ffffffeb
fffffff4
ffffffe9
ffffffd3
ffffffef
00000001
fffffffd
ffffffc3
ffffffe9
fffffff7
ffffffe6
ffffffef
fffffff4
fffffffc
ffffffe8
ffffffed
00000004
00000007
00000024
0000000f
0000000c
ffffffeb
fffffff8
fffffff1
fffffffc
fffffffa
ffffffdd
fffffff3
ffffffe6
fffffffc
fffffff7
00000001
ffffffe2
fffffff4
fffffff3
fffffffa
ffffffe9
00000007
fffffff7
ffffffed
00000006
fffffffc
00000005
fffffffa
fffffff8
fffffff8
0000000b
0000000e
ffffffeb
00000004
0000000b
00000000
ffffffff
ffffffe7
0000000a
ffffffd0
00000009
fffffff9
ffffffff
ffffffea
00000000
ffffffe9
ffffffeb
ffffffe9
fffffffa
00000004
fffffffd
fffffffe
ffffffee
fffffff8
fffffffb
fffffff0
fffffff0
00000004
00000005
00000001
ffffffe5
00000003
0000000d
ffffffe2
00000000
fffffff8
ffffffe5
ffffffec
fffffffe
ffffffe9
ffffffe4
ffffffe1
0000000a
ffffffdf
fffffff3
ffffffe1
ffffffed
ffffffe5
ffffffed
fffffffc
ffffffe6
00000006
00000000
fffffff8
ffffffef
ffffffec
00000001
fffffff8
fffffffd
fffffffa
00000002
00000000
ffffffea
0000000c
ffffffe9
00000014
ffffffef
ffffffdd
ffffffe5
00000007
00000002
fffffff4
ffffffe4
fffffffb
ffffffed
fffffff0
fffffff9
00000003
fffffffe
00000000
ffffffe5
fffffffd
fffffff8
ffffffff
fffffff4
00000006
00000008
fffffff9
ffffffe0
ffffffe0
ffffffd0
ffffffe4
fffffffb
ffffffee
ffffffd9
0000000b
00000006
ffffffef
ffffffd2
00000002
00000010
fffffff7
ffffffdf
00000011
00000006
ffffffdb
fffffff9
ffffffc7
00000026
fffffff0
ffffffd6
ffffffe6
0000000d
fffffff7
00000057
00000006
ffffffdd
00000000
00000003
fffffffc
ffffffe2
00000015
fffffff1
0000000d
00000029
ffffffec
00000000
00000013
00000036
ffffffe4
fffffff7
0000002a
00000018
ffffffb5
0000000f
fffffff3
ffffffcf
fffffff2
fffffffa
ffffffdc
fffffff4
ffffffe9
fffffffb
0000000a
fffffff9
ffffffec
00000003
ffffffd9
ffffffe5
ffffffd9
00000003
0000000d
ffffffed
fffffffd
ffffffdb
ffffffc8
ffffffdc
fffffffd
0000000c
fffffff4
fffffffd
ffffffbe
fffffff8
fffffff1
00000004
fffffff0
ffffffdd
fffffff4
ffffffe7
fffffffd
00000004
fffffff7
ffffffd5
fffffff0
fffffff0
0000000d
fffffff8
fffffff0
fffffff7
ffffffe0
ffffffd3
00000009
ffffffe9
ffffffd8
fffffffc
fffffff1
ffffffe7
0000000e
ffffffd2
00000008
fffffff3
fffffffa
0000000b
ffffffdd
00000000
ffffffec
fffffffa
00000001
ffffffda
00000005
ffffffc1
fffffffb
fffffff3
00000002
00000006
ffffffd2
fffffffb
ffffffed
fffffff6
ffffffca
ffffffc5
0000000b
00000000
ffffffe6
ffffffe8
ffffffde
00000000
ffffffed
0000000d
0000000e
00000021
ffffffec
fffffffa
00000023
00000006
00000008
ffffffe4
fffffff6
ffffffee
00000003
ffffffbc
ffffffee
fffffff7
fffffffa
fffffff7
ffffffe8
ffffffec
ffffffdb
ffffffe1
ffffffd2
0000000d
ffffffff
fffffffb
fffffffa
fffffff3
ffffffe9
fffffffc
ffffffea
00000006
ffffffec
00000007
fffffff3
fffffff9
ffffffe8
fffffff5
ffffffe5
ffffffec
0000000e
0000000b
fffffff5
00000006
00000000
ffffffe7
ffffffe0
ffffffe8
fffffff6
ffffffe8
0000000d
00000003
ffffffd8
ffffffd3
ffffffcb
ffffffed
ffffffdb
0000000f
fffffff9
00000017
00000000
fffffff1
00000001
0000000c
fffffff7
fffffffb
ffffffe1
00000000
ffffffde
00000029
fffffffe
ffffffe4
fffffff8
ffffffdd
ffffffe6
fffffff4
00000002
0000000f
fffffff4
ffffffe8
ffffffee
fffffff7
00000036
fffffff7
00000002
fffffff0
fffffff8
ffffffec
fffffffb
00000009
00000000
00000001
fffffff0
fffffffc
0000000d
00000002
0000000e
ffffffe1
ffffffef
ffffffed
fffffff1
ffffffe6
ffffffc8
ffffffee
fffffff6
ffffffe6
fffffffd
00000014
ffffffe3
ffffffeb
ffffffde
fffffff1
00000000
fffffffe
ffffffeb
00000009
ffffffe9
00000006
ffffffd0
00000000
00000006
fffffff2
ffffffee
ffffffd6
00000009
ffffffe5
0000000e
fffffff2
ffffffc1
fffffff1
fffffff6
fffffffe
fffffff1
fffffffe
00000003
ffffffff
fffffffb
fffffff7
00000004
ffffffd7
00000012
00000007
00000015
fffffffe
00000012
ffffffec
fffffff0
ffffffde
ffffffec
ffffffdf
0000002a
ffffffea
ffffffea
00000010
fffffffa
00000000
fffffff6
ffffffea
ffffffee
fffffff2
ffffffff
ffffffe5
ffffffe3
00000009
00000003
00000003
00000000
fffffffe
ffffffed
ffffffe9
ffffffe9
ffffffd7
ffffffea
ffffffee
ffffffec
ffffffe8
0000004c
ffffffeb
0000000c
fffffff6
00000009
ffffffdf
00000055
fffffff3
ffffffc5
fffffff0
fffffff4
00000009
ffffffe6
00000010
ffffffec
0000000a
ffffffd4
fffffff8
ffffffe6
fffffff5
ffffffe1
ffffffeb
fffffff2
fffffff7
ffffffe8
fffffff7
00000010
fffffff6
fffffff3
ffffffef
ffffffc7
fffffffd
ffffffe8
00000008
fffffffc
fffffff2
0000000a
fffffffb
ffffffce
fffffffd
fffffff9
fffffff6
fffffff7
00000008
ffffffe1
0000000b
00000002
fffffff6
ffffffe0
ffffffe3
ffffffed
fffffff2
00000010
ffffffe8
00000007
00000003
ffffffcd
00000008
ffffffd2
0000000a
ffffffe9
fffffff1
00000005
ffffffec
0000000e
ffffffe7
00000008
00000008
ffffffe7
fffffff1
fffffff3
ffffffc4
ffffffe3
0000000e
ffffffcc
ffffffe1
00000007
0000000f
00000000
ffffffd3
ffffffd4
00000000
ffffffee
fffffffb
ffffffe9
0000002e
ffffffd0
ffffffe4
ffffffe5
ffffffc7
00000001
ffffffff
fffffff2
ffffffe1
ffffffef
ffffffef
00000004
0000000d
00000000
fffffff2
ffffffe5
ffffffda
ffffffff
00000008
fffffff6
fffffff6
ffffffed
ffffffd0
00000007
0000000d
ffffffee
00000022
00000007
00000003
fffffff7
00000004
ffffffc5
fffffff9
fffffff7
00000036
ffffffe1
00000012
ffffffef
ffffffe5
ffffffca
00000002
0000000d
ffffffdc
fffffff7
0000000a
ffffffc2
0000000d
fffffff1
fffffff9
00000003
fffffffa
ffffffe3
0000000d
00000006
ffffffde
fffffff1
00000000
fffffff5
00000001
ffffffe6
0000000c
ffffffd7
ffffffdb
0000000d
fffffff4
fffffff6
fffffff5
ffffffce
fffffff3
ffffffee
0000000b
0000000a
0000000c
fffffff6
ffffffeb
ffffffff
ffffffee
fffffff1
ffffffe1
fffffff2
0000000d
00000013
fffffff0
ffffffe8
fffffff3
fffffff8
00000004
00000006
0000000e
ffffffff
00000011
0000000d
ffffffe0
00000004
ffffffed
00000006
fffffffa
00000021
ffffffed
ffffffed
fffffffe
00000005
ffffffdb
fffffff4
ffffffe1
00000004
ffffffe3
0000000e
00000001
fffffff0
ffffffec
00000000
00000000
ffffffec
ffffffe7
ffffffd1
fffffff8
ffffffde
fffffff1
ffffffeb
ffffffe4
fffffffe
ffffffea
ffffffed
00000009
fffffffc
ffffffee
fffffff1
0000000a
ffffffed
0000000f
ffffffe9
ffffffee
ffffffee
fffffff8
ffffffe8
00000000
fffffffc
0000000c
fffffff4
fffffff0
00000012
fffffff1
fffffff5
ffffffef
ffffffe2
00000013
00000008
00000004
ffffffe8
fffffff0
fffffff2
fffffff0
00000001
fffffffb
fffffff3
ffffffe8
ffffffee
0000000a
00000001
fffffffd
fffffff8
0000000c
fffffff1
fffffffa
fffffff3
ffffffef
fffffff2
ffffffe7
ffffffdf
fffffff2
ffffffea
ffffffd7
0000000a
00000003
ffffffe6
ffffffe1
fffffffa
ffffffe9
ffffffcf
00000004
00000008
ffffffea
00000011
00000000
00000009
00000003
00000000
00000003
00000009
ffffffce
fffffff0
ffffffee
fffffff6
ffffffff
ffffffde
fffffff1
fffffff6
fffffff6
00000000
00000011
ffffffea
00000005
00000011
ffffffe4
fffffff4
ffffffe8
fffffff0
fffffff5
fffffff1
ffffffde
ffffffec
0000000f
00000008
00000007
ffffffe1
0000000d
00000008
ffffffeb
0000000a
ffffffe0
fffffffb
0000000d
00000001
00000011
00000004
0000000d
fffffff7
fffffffb
ffffffd7
0000000a
fffffff8
fffffff6
fffffff3
fffffffe
fffffff6
fffffff4
fffffffe
ffffffe7
fffffffe
00000007
ffffffea
fffffffa
00000010
ffffffe8
fffffffb
00000000
ffffffc9
ffffffe6
00000002
00000000
fffffff1
fffffff2
fffffffc
fffffffa
ffffffe8
ffffffed
00000000
00000008
ffffffff
00000003
00000005
ffffffdf
ffffffe3
fffffff7
00000000
00000013
fffffff1
fffffffc
00000015
ffffffdb
fffffff2
fffffff8
fffffffa
fffffff0
fffffffd
ffffffe0
00000014
fffffff2
ffffffef
fffffffe
fffffff3
0000000a
00000013
00000000
fffffffe
fffffff3
ffffffee
ffffffe8
0000000c
0000000e
0000000a
00000001
fffffff0
ffffffde
ffffffde
fffffff8
ffffffe8
ffffffec
fffffff2
00000002
fffffff9
fffffff0
ffffffe8
ffffffdd
ffffffe6
ffffffdc
ffffffe4
fffffff6
0000000a
fffffffa
0000000e
fffffff2
fffffff7
00000001
ffffffe8
ffffffde
ffffffd4
fffffff1
ffffffe5
ffffffec
fffffff9
00000010
fffffff9
00000005
00000012
fffffffe
00000000
00000016
ffffffdd
ffffffe8
fffffff0
ffffffe7
00000009
fffffff6
fffffff5
fffffff8
fffffffc
fffffffd
00000003
fffffffb
ffffffeb
0000000d
fffffffb
fffffffe
00000009
00000010
fffffffa
ffffffff
fffffffb
00000000
fffffff0
00000006
fffffffc
fffffffa
ffffffe0
fffffffe
ffffffef
fffffffb
fffffffe
00000000
00000010
00000001
0000000d
ffffffef
0000000f
ffffffe8
ffffffec
ffffffdd
fffffffa
ffffffd9
00000002
fffffffd
ffffffe1
ffffffed
ffffffed
00000004
ffffffec
fffffff4
fffffffe
ffffffe2
fffffff3
fffffffb
fffffff2
ffffffe7
ffffffef
ffffffe6
fffffffe
ffffffcf
fffffffc
ffffffec
00000000
fffffff0
ffffffff
fffffff1
ffffffde
fffffffc
ffffffea
00000003
ffffffd6
ffffffd6
00000024
fffffff8
fffffff7
00000000
00000002
ffffffb2
00000005
fffffff0
ffffffee
00000000
0000000e
00000006
ffffffed
00000033
ffffffbe
fffffffa
00000002
0000002f
ffffffd6
ffffffff
ffffffdf
fffffffe
ffffffbf
00000001
00000006
ffffffdc
ffffffeb
00000011
fffffffb
00000012
00000002
fffffff2
fffffff4
ffffffe9
ffffffc7
ffffffe8
ffffffde
ffffffff
ffffffe5
fffffffc
ffffffec
ffffffe3
00000008
fffffff1
ffffffe7
ffffffc2
0000000c
0000000a
fffffffa
00000000
ffffffb3
0000000e
ffffffc2
00000012
ffffffff
ffffffed
00000006
ffffffe9
0000000a
fffffff5
fffffff8
ffffffd7
fffffffd
ffffffff
fffffffd
00000001
ffffffd8
00000011
ffffffe4
0000000d
fffffff9
ffffffff
fffffff0
fffffff3
ffffffdc
fffffffc
fffffff6
ffffffcd
00000006
fffffff4
00000048
ffffffe4
ffffffcc
00000007
ffffffdb
0000003a
fffffffc
ffffffd2
ffffffed
ffffffc0
ffffffea
00000004
00000007
00000003
ffffffdd
ffffffd7
fffffffa
fffffff5
ffffffea
ffffffe3
00000012
00000004
fffffff0
ffffffd5
00000025
00000008
00000020
fffffff2
fffffff0
ffffffde
fffffffb
ffffffe4
00000009
00000002
00000007
00000013
ffffffff
ffffffec
00000000
ffffffd7
fffffffc
0000000a
ffffffef
00000008
00000006
ffffffe2
ffffffe2
ffffffea
ffffffde
fffffff5
fffffffd
00000000
fffffff5
00000021
0000000b
ffffffeb
00000005
ffffffff
ffffffeb
fffffffe
fffffff6
0000000a
0000001d
fffffff0
fffffffd
00000009
00000004
ffffffd2
fffffff0
fffffffc
00000006
ffffffef
0000002a
ffffffeb
00000005
ffffffda
00000000
ffffffec
00000018
ffffffeb
0000000d
ffffffe8
ffffffe4
00000000
00000005
fffffff6
00000007
ffffffed
ffffffe6
00000018
ffffffef
fffffffe
fffffff0
ffffffaf
ffffffc9
ffffffdf
00000002
fffffffd
ffffffde
ffffffdc
ffffffdb
ffffffe8
fffffffa
fffffffa
ffffffea
fffffffb
fffffff7
ffffffe2
ffffffee
00000006
fffffffd
00000009
ffffffe9
ffffffc8
ffffffff
0000000f
00000000
00000000
ffffffc6
fffffff0
ffffffe8
fffffffa
fffffffb
ffffffb1
fffffff7
0000000d
00000003
fffffff0
ffffffba
0000000b
00000008
00000002
ffffffd3
ffffffec
00000003
fffffff2
ffffffe8
00000003
ffffffee
ffffffea
fffffffc
fffffff2
0000000b
00000003
fffffff1
fffffffc
fffffff8
ffffffe0
00000007
0000001c
00000015
ffffffdb
0000000a
ffffffe2
ffffffec
fffffff8
ffffffe9
ffffffec
ffffffef
00000003
fffffffc
fffffffe
ffffffe3
00000006
00000007
ffffffda
ffffffd3
fffffff8
fffffff9
00000002
fffffff1
00000012
00000007
ffffffd2
00000010
0000000a
0000001d
00000008
fffffff0
0000000e
00000009
ffffffe4
00000012
00000001
00000003
fffffffa
ffffffeb
00000024
fffffffb
00000010
fffffffe
fffffff4
00000003
00000009
0000000b
ffffffea
ffffffff
00000028
00000004
0000000b
fffffffc
ffffffcd
00000021
ffffffec
00000004
ffffffea
fffffff3
fffffff3
fffffff2
0000000c
fffffff2
fffffff9
fffffff0
fffffffa
ffffffe5
ffffffe1
fffffff7
fffffffe
ffffffcd
ffffffe9
ffffffcc
fffffff6
ffffffe4
00000000
00000004
fffffff1
00000000
fffffff5
fffffff0
fffffff8
fffffff0
fffffffe
ffffffd6
ffffffff
00000007
fffffff4
fffffff6
fffffff1
00000010
0000001a
fffffff5
fffffff4
fffffffd
ffffffe8
0000000e
fffffffa
00000004
fffffff2
ffffffef
fffffff5
fffffff5
ffffffd1
ffffffeb
fffffffe
00000022
fffffffb
fffffff3
00000000
ffffffbc
fffffff7
ffffffe3
ffffffda
ffffffc4
00000010
00000000
ffffffd9
fffffff2
00000025
fffffff2
fffffff1
ffffffeb
ffffffd7
fffffff9
0000000d
fffffff5
ffffffee
ffffffef
fffffffb
fffffff7
fffffff7
fffffffe
ffffffd6
fffffff1
ffffffe7
0000000b
fffffffe
ffffffd8
ffffffc5
ffffffed
fffffff7
ffffffe9
ffffffd3
00000003
00000003
00000003
ffffffcf
00000003
00000009
ffffffda
00000011
00000001
00000007
ffffffc3
ffffffbe
ffffffe1
ffffffec
fffffffe
00000022
fffffff0
ffffffc1
fffffff1
ffffffed
0000000b
0000000f
00000007
0000000d
00000002
00000007
00000004
0000000d
0000000d
00000008
ffffffdc
fffffff4
ffffffec
00000011
ffffffc0
00000006
0000000b
ffffffb7
00000005
00000009
ffffffe6
00000008
ffffffe9
ffffffe7
0000000c
00000002
ffffffe7
fffffff4
ffffffde
00000001
0000001e
fffffff5
00000010
ffffffe7
0000001c
fffffffc
ffffffb1
ffffffe0
fffffffb
00000015
ffffffe6
00000009
ffffffbf
ffffffe9
ffffffda
00000001
00000008
ffffffe8
00000015
fffffff3
fffffff8
00000008
ffffffed
ffffffd5
0000000e
ffffffe9
ffffffea
00000007
ffffffd9
fffffffc
fffffff8
00000014
00000009
00000009
ffffffe5
00000009
ffffffd2
fffffff0
fffffffd
ffffffd5
00000004
fffffffe
00000025
fffffff5
00000008
fffffff0
ffffffd3
fffffff1
00000004
ffffffcb
fffffffc
ffffffc6
00000002
0000000b
0000000b
00000000
ffffffde
00000012
fffffff9
ffffffd7
fffffff4
ffffffe0
ffffffe0
ffffffe7
00000008
0000001b
00000029
fffffff3
ffffffec
fffffff2
fffffffe
00000001
ffffffff
ffffffe8
00000018
fffffff0
ffffffee
fffffff9
fffffffd
ffffffd9
ffffffea
ffffffe9
ffffffe4
00000011
ffffffe8
00000008
00000000
0000000a
ffffffeb
fffffff6
ffffffec
00000001
0000000a
fffffff4
00000001
ffffffeb
ffffffe7
fffffff7
fffffffc
ffffffee
ffffffeb
fffffff6
ffffffdb
fffffff2
fffffff4
fffffff0
fffffff5
00000001
00000010
ffffffec
fffffff6
fffffff0
fffffff8
ffffffff
ffffffe3
fffffffe
fffffff0
ffffffe2
fffffffa
ffffffeb
fffffffd
ffffffec
ffffffd1
fffffff4
ffffffeb
fffffff4
00000007
0000000e
0000000b
ffffffee
ffffffe5
00000000
00000000
fffffff2
fffffff6
fffffffe
ffffffe6
fffffff8
fffffffc
0000000f
00000000
ffffffde
ffffffcd
ffffffe7
00000013
fffffff3
00000001
fffffff0
00000011
ffffffec
fffffff9
fffffff7
00000009
ffffffec
fffffffe
fffffff6
00000002
00000000
fffffffb
fffffff8
ffffffe4
ffffffe5
00000003
00000002
ffffffec
fffffff9
ffffffff
fffffffe
fffffffa
fffffff2
ffffffdc
ffffffed
fffffffd
ffffffff
ffffffd4
00000001
00000008
fffffff5
ffffffe5
0000000e
ffffffe6
ffffffeb
ffffffea
fffffffb
00000001
00000005
ffffffdc
ffffffff
fffffffa
fffffff3
0000000f
fffffffa
ffffffe3
fffffff4
ffffffec
ffffffec
ffffffe5
00000005
0000000b
fffffff5
ffffffe5
ffffffed
00000006
00000002
fffffff7
ffffffea
ffffffff
00000003
ffffffd2
fffffffc
fffffffe
00000004
ffffffe2
00000005
ffffffe5
fffffff3
ffffffff
ffffffdd
fffffffc
fffffff8
ffffffec
ffffffee
00000004
ffffffff
fffffff1
00000002
ffffffe6
fffffffa
00000003
00000005
00000003
0000000b
fffffffa
0000000a
00000004
fffffff3
ffffffe9
ffffffec
ffffffe5
0000000e
00000003
00000002
0000000b
0000002a
ffffffe2
ffffffcd
fffffff1
ffffffee
ffffffe2
fffffff4
ffffffea
ffffffd2
ffffffe8
fffffff6
fffffff5
ffffffef
ffffffea
fffffff9
fffffffe
0000000f
ffffffee
00000003
ffffffdd
fffffff2
ffffffff
fffffffd
00000000
00000009
ffffffe9
00000001
fffffff3
fffffffd
ffffffe8
fffffff5
00000009
fffffff8
ffffffd5
fffffffc
ffffffe7
fffffff8
ffffffe5
0000000f
fffffff5
fffffff0
ffffffec
fffffff2
fffffffc
ffffffeb
0000000c
ffffffee
fffffff5
00000004
ffffffe3
00000009
ffffffeb
ffffffe2
ffffffdf
fffffff9
ffffffe7
fffffff0
ffffffbb
fffffff1
ffffffea
00000000
fffffff2
00000007
fffffff5
00000003
fffffff2
ffffffdf
fffffff0
fffffff8
00000005
ffffffdd
fffffffd
ffffffef
fffffff7
ffffffe8
00000000
ffffffe3
fffffff5
fffffff1
00000000
ffffffe5
ffffffe9
ffffffdf
ffffffea
00000000
ffffffda
ffffffec
00000006
fffffff8
ffffffec
ffffffc9
fffffff6
00000004
00000011
ffffffd8
fffffffd
fffffff1
00000001
00000008
fffffffd
fffffff6
ffffffdc
ffffffc9
fffffff1
fffffff3
fffffff1
fffffff6
fffffff1
ffffffd1
0000000a
ffffffed
ffffffef
fffffffc
0000000d
0000000c
00000008
ffffffff
ffffffdc
fffffffe
ffffffeb
0000001d
ffffffe5
fffffff1
fffffff6
00000005
ffffffdc
00000011
00000009
ffffffe0
00000007
fffffff5
ffffffb7
00000002
fffffff9
00000004
00000006
00000003
ffffffe8
ffffffec
ffffffe5
ffffffd9
fffffff5
fffffff0
ffffffee
ffffffe6
00000002
0000000a
ffffffd4
ffffffe2
00000000
00000003
fffffff3
ffffffe9
ffffffd2
00000005
ffffffde
00000004
00000003
ffffffe4
00000001
ffffffee
00000001
ffffffff
00000010
ffffffc4
fffffff0
00000003
00000000
fffffffc
ffffffe8
00000009
fffffffb
00000021
0000000b
00000009
fffffff4
0000000a
00000005
ffffffe8
fffffff2
ffffffec
00000003
fffffffb
ffffffef
fffffff2
ffffffe4
00000006
fffffffe
fffffff9
ffffffeb
ffffffcd
ffffffe9
ffffffe2
0000000f
ffffffea
00000000
fffffff0
ffffffe4
00000001
00000005
fffffff5
ffffffcf
ffffffe0
ffffffe2
0000000d
ffffffde
ffffffeb
00000003
00000007
ffffffe6
0000000b
0000000b
fffffffe
fffffff0
ffffffea
fffffff8
fffffffb
00000007
ffffffff
ffffffee
00000008
00000002
fffffff3
fffffff5
0000000d
fffffff8
ffffffef
ffffffe8
ffffffdd
fffffff6
00000006
fffffff7
00000002
00000010
ffffffe4
00000002
ffffffde
ffffffea
fffffff0
00000002
fffffff6
ffffffda
00000003
fffffff9
fffffff6
fffffff8
ffffffe2
00000000
fffffffe
00000004
ffffffe8
fffffff1
fffffffe
fffffff8
00000006
ffffffef
00000007
ffffffec
fffffff0
0000000c
0000000d
ffffffe5
fffffff5
ffffffe0
fffffff3
ffffffe8
fffffff0
fffffff2
fffffff9
fffffffd
ffffffe7
fffffffa
00000005
00000000
fffffffc
ffffffe2
fffffffb
ffffffff
00000006
ffffffe1
fffffff1
ffffffe5
ffffffe5
fffffff6
fffffff5
fffffff5
fffffffa
ffffffe6
00000007
ffffffe8
ffffffef
fffffff7
fffffff1
0000000a
ffffffe9
00000000
ffffffe5
fffffff9
0000000d
fffffff4
0000000a
ffffffca
0000000b
fffffff9
00000003
fffffff2
fffffff6
ffffffee
0000000d
00000000
fffffff0
ffffffdd
00000005
00000001
ffffffe4
ffffffd9
ffffffe6
00000000
fffffffe
fffffff7
00000002
fffffffb
ffffffe6
00000008
00000006
fffffff0
fffffffa
ffffffe6
fffffffe
fffffffc
fffffff4
ffffffff
fffffffd
ffffffe5
ffffffdb
fffffff6
00000002
ffffffe9
00000000
00000008
ffffffed
ffffffff
ffffffe7
ffffffed
fffffff3
fffffffa
fffffff1
fffffffa
00000014
fffffff4
ffffffec
fffffffc
00000004
ffffffed
fffffff6
fffffff7
ffffffec
ffffffde
ffffffed
ffffffe3
fffffffb
ffffffe9
00000000
fffffff1
fffffff2
0000000b
fffffff7
fffffffa
fffffff6
ffffffe9
fffffffa
ffffffdf
0000000a
fffffffc
ffffffee
fffffff3
00000004
fffffffd
00000001
00000000
ffffffe7
00000007
ffffffee
ffffffe3
fffffff4
fffffff7
ffffffeb
00000005
00000000
00000001
ffffffda
ffffffe2
ffffffdb
00000000
fffffffc
0000000a
00000001
00000000
fffffff5
fffffff2
00000007
fffffff6
fffffff2
ffffffe9
ffffffed
fffffff1
ffffffea
ffffffeb
ffffffe6
fffffffd
00000005
fffffffd
00000007
00000009
fffffffa
ffffffe9
fffffff1
fffffff0
0000000e
fffffff2
00000006
ffffffe3
00000001
fffffff7
00000008
ffffffed
00000008
00000000
00000008
ffffffed
0000000e
00000007
ffffffe9
fffffff4
fffffff5
fffffff9
0000000e
ffffffed
fffffff5
ffffffe7
fffffff6
ffffffee
fffffff6
ffffffed
ffffffe5
ffffffe3
fffffff0
00000003
00000006
fffffff4
ffffffda
00000004
fffffff3
fffffff5
fffffff3
ffffffea
ffffffe5
fffffff8
00000006
fffffff5
fffffffc
00000003
fffffff3
00000001
ffffffd3
ffffffd3
ffffffd6
ffffffd9
fffffffa
fffffff3
ffffffda
ffffffe3
00000008
fffffff9
ffffffe7
ffffffea
00000004
00000004
00000010
00000004
0000000f
0000001f
fffffff3
fffffff6
ffffffd6
00000009
ffffffcf
ffffffd5
fffffff8
fffffff0
ffffffe3
fffffff4
ffffffa5
fffffff9
00000007
0000000e
ffffffdb
0000000b
00000002
0000001f
fffffff6
ffffffbd
ffffffe8
00000000
fffffff3
fffffff7
fffffffe
ffffffc1
ffffffbe
ffffffce
00000009
00000011
ffffffbe
fffffff5
ffffffef
ffffffd3
ffffffeb
00000009
0000000f
fffffff6
00000006
ffffffc3
00000001
00000005
0000000b
ffffffdb
fffffffd
ffffffeb
fffffff5
fffffff1
00000027
fffffffe
ffffffbc
ffffffdf
ffffffe0
ffffffe3
fffffff8
ffffffad
fffffffa
ffffffdf
0000000d
fffffffa
0000000e
ffffffe8
fffffff5
fffffffc
00000000
00000008
ffffffe9
00000010
fffffff3
ffffffea
fffffff2
ffffffea
00000005
00000004
0000000f
00000011
0000000d
ffffffdf
fffffff4
0000002a
ffffffe1
00000005
00000001
ffffffff
0000000a
00000025
00000000
ffffffff
00000002
00000044
ffffffe0
fffffff2
ffffffe7
ffffffff
fffffff3
0000000a
00000012
00000012
00000007
0000001b
ffffffec
0000000c
00000006
ffffffe6
00000000
fffffff9
00000000
00000000
ffffffd4
00000019
00000007
00000025
ffffffff
00000006
ffffffc8
fffffff9
00000012
ffffffd5
00000002
fffffffe
ffffffea
ffffffee
00000019
ffffffed
ffffffee
ffffffeb
00000016
fffffffd
fffffff7
0000000a
0000000e
ffffffef
00000008
ffffffb4
00000014
ffffffee
ffffffef
fffffff7
ffffffe4
00000001
ffffffff
0000002e
0000001c
ffffffe0
fffffffe
ffffffec
ffffffef
ffffffe3
0000000e
00000003
ffffffee
00000008
00000003
00000006
00000011
fffffff5
fffffff1
00000005
fffffffc
0000000b
fffffff4
ffffffeb
ffffffe6
ffffffdd
00000005
ffffffcd
fffffff6
fffffff9
00000006
00000003
00000008
ffffffeb
00000009
fffffff2
ffffffe4
ffffffeb
ffffffe5
ffffffe4
00000000
ffffffdb
00000004
ffffffe0
fffffff6
00000015
fffffff5
ffffffe6
ffffffec
ffffffec
fffffff7
fffffff2
00000000
00000004
fffffff9
ffffffe5
fffffffc
00000004
fffffff8
0000000b
00000011
00000008
fffffffc
fffffff5
00000004
00000026
fffffff4
fffffffe
fffffffd
fffffff0
fffffff1
00000008
fffffff9
ffffffe2
00000009
ffffffff
fffffff1
0000000e
ffffffe1
fffffff2
ffffffe5
fffffff5
0000000b
ffffffcb
ffffffed
fffffff5
ffffffdd
ffffffdb
fffffffc
fffffff0
00000015
ffffffed
ffffffe5
fffffff6
00000013
ffffffe8
00000029
00000034
00000007
00000000
0000001b
ffffffb9
fffffffc
00000014
ffffffd9
fffffffa
fffffffc
00000003
fffffffd
fffffffb
ffffffff
fffffffd
ffffffc5
ffffffe0
fffffffe
00000018
00000006
fffffff9
0000000b
00000004
00000017
0000000e
ffffffee
0000000b
fffffffd
fffffff0
0000000b
fffffff5
ffffffd5
fffffffc
ffffffea
fffffff6
ffffffc9
fffffff9
ffffffeb
fffffff2
fffffff0
00000010
fffffff1
fffffffb
00000000
0000000e
fffffff7
00000010
ffffffd3
fffffffa
fffffffe
00000004
ffffffdf
ffffffe4
ffffffe5
00000000
fffffff2
fffffff4
ffffffe3
ffffffe1
00000009
ffffffe2
00000028
fffffff4
fffffff3
ffffffef
00000020
00000001
ffffffec
00000021
ffffffe3
fffffff9
ffffffe4
0000000d
ffffffec
00000012
fffffff0
00000021
00000005
00000006
ffffffea
ffffffdf
ffffffe6
00000016
ffffffee
ffffffb8
fffffffe
ffffffe9
00000010
ffffffef
fffffff5
00000012
fffffff9
ffffffd9
0000000a
00000008
fffffff3
ffffffff
fffffff3
fffffff6
0000000a
ffffffe8
fffffffe
00000013
fffffffd
fffffff4
00000003
00000002
ffffffdf
ffffffa5
fffffff2
ffffffee
0000000f
ffffffbb
ffffffd9
ffffffe6
fffffffe
00000005
ffffffc4
fffffff5
0000000a
fffffffe
0000000c
fffffff6
ffffffe9
00000011
0000000b
ffffffbc
fffffff4
ffffffec
fffffffd
ffffffee
0000003e
0000001d
fffffffb
00000000
0000000a
ffffffef
00000032
fffffff3
00000012
00000014
ffffffd3
0000000c
00000000
ffffffff
ffffffd3
fffffff5
fffffff5
ffffffe1
00000002
00000000
ffffffee
ffffffdd
ffffffe3
00000000
fffffff5
fffffffa
00000014
00000006
ffffffb8
ffffffee
00000010
0000000f
fffffff4
ffffffeb
0000000b
00000015
00000026
ffffffb1
00000005
ffffffe9
0000000d
ffffffe2
0000000d
fffffff5
ffffffec
0000000f
fffffff3
0000000d
ffffffc8
0000000e
ffffffeb
fffffff6
00000003
fffffffd
00000009
ffffffe8
ffffffea
ffffffd5
00000008
0000000a
ffffffff
ffffffeb
00000000
fffffff8
00000006
ffffffe8
fffffff6
00000006
ffffffdb
00000009
00000010
ffffffda
0000000e
ffffffcb
0000000f
ffffffd7
00000006
fffffff2
ffffffdb
00000000
ffffffe0
fffffff8
0000000a
00000008
ffffffdb
00000005
00000008
ffffffe8
ffffffeb
ffffffe1
00000006
fffffff4
00000002
fffffff5
ffffffe9
ffffffdc
00000006
fffffffa
ffffffe7
fffffffc
ffffffd8
00000010
fffffffe
ffffffe0
00000000
ffffffec
fffffffc
0000000c
fffffffa
00000008
fffffff6
0000000a
ffffffd1
ffffffe9
00000007
ffffffee
00000009
ffffffd7
fffffff0
0000000b
ffffffe3
ffffffba
ffffffe7
ffffffcc
fffffff9
fffffff1
ffffffb6
00000003
00000003
00000021
00000001
ffffffea
fffffff6
ffffffea
ffffffef
ffffffe2
00000003
00000005
fffffff5
fffffff9
ffffffe7
ffffffff
ffffffcd
ffffffff
00000008
ffffffe9
ffffffea
00000000
fffffff2
0000000c
fffffff3
fffffff1
00000000
ffffffe2
fffffffa
ffffffe8
ffffffff
fffffffd
ffffffee
fffffffc
fffffffb
00000007
fffffff1
ffffffea
00000009
00000009
ffffffe6
0000000a
fffffff6
0000000a
ffffffe3
00000003
fffffffd
fffffff7
00000002
ffffffdf
fffffff7
0000000b
ffffffdc
ffffffe5
fffffff7
00000020
0000000a
fffffff1
fffffffb
00000006
ffffffe3
ffffffe8
00000000
ffffffed
fffffff2
fffffff7
ffffffe9
0000000c
fffffffe
00000005
ffffffdf
ffffffe1
0000000a
fffffffd
00000009
00000008
fffffffd
00000016
ffffffe0
fffffff2
0000000b
0000000c
fffffff0
00000007
00000000
00000021
fffffff7
fffffff9
fffffff4
00000010
00000017
fffffffc
ffffffec
fffffff5
ffffffff
00000000
00000007
ffffffef
00000005
ffffffef
ffffffe4
ffffffe4
00000001
fffffff6
00000004
0000003c
ffffffe8
ffffffff
0000002d
ffffffdb
0000000b
00000009
fffffff9
ffffffdf
00000001
ffffffe9
ffffffea
ffffffd7
00000002
ffffffda
00000013
0000000a
00000001
ffffffe5
ffffffe6
fffffff6
ffffffe8
ffffffee
00000010
ffffffef
ffffffff
0000000c
ffffffee
ffffffed
ffffffd4
fffffff3
fffffffe
ffffffec
fffffff2
fffffff4
ffffffed
fffffffd
ffffffce
0000000d
00000005
fffffffc
0000000d
00000005
fffffff4
fffffffa
00000009
ffffffe4
ffffffdc
ffffffea
fffffff8
ffffffee
ffffffef
00000009
fffffffd
ffffffef
ffffffe6
ffffffde
fffffffe
fffffff1
ffffffd2
ffffffdf
fffffff8
0000000d
ffffffe7
ffffffed
00000002
fffffff5
fffffffa
fffffff0
ffffffc0
ffffffea
fffffff2
ffffffe4
ffffffd4
ffffffe0
00000002
ffffffe1
ffffffeb
00000000
ffffffdd
ffffffd5
ffffffff
ffffffef
0000000c
ffffffea
00000006
ffffffdf
fffffff1
00000017
fffffff8
fffffff0
fffffff5
fffffffd
fffffff7
ffffffe7
00000004
0000000c
fffffffc
ffffffe7
ffffffea
00000003
fffffff6
ffffffec
00000000
ffffffd1
00000010
ffffffdd
ffffffea
fffffffe
ffffffed
fffffff4
00000003
ffffffef
00000005
fffffff5
00000004
fffffffb
00000001
0000000d
fffffffa
0000000d
ffffffee
0000002d
ffffffdb
fffffffe
fffffffc
ffffffec
ffffffed
fffffff2
fffffffc
ffffffb8
0000000c
fffffffa
0000000a
ffffffea
ffffffed
00000009
ffffffed
ffffffff
00000003
ffffffe5
0000000b
fffffff0
fffffff9
fffffff6
ffffffde
fffffff4
fffffff3
ffffffe6
ffffffef
00000002
00000001
fffffff1
ffffffd6
ffffffe5
0000000e
ffffffee
00000002
ffffffe4
ffffffdf
ffffffeb
0000000c
fffffff8
ffffffd1
0000000b
00000009
ffffffef
00000005
00000006
00000006
ffffffec
00000004
ffffffe5
0000000d
ffffffd9
ffffffd0
ffffffdb
00000006
fffffff3
ffffffd4
0000000b
ffffffb2
00000004
fffffff7
fffffff6
fffffff1
fffffff5
ffffffed
00000001
00000013
ffffffba
fffffff2
00000004
00000009
ffffffc6
fffffffa
ffffffd6
ffffffe8
ffffffba
fffffff3
0000000e
ffffffe0
0000000b
fffffffd
ffffffdd
fffffff1
0000000b
0000001e
ffffffed
ffffffee
00000002
ffffffe8
fffffffa
00000005
fffffffa
fffffffa
00000004
00000004
fffffff9
00000010
ffffffdb
ffffffc6
00000000
00000004
00000002
00000008
ffffffc4
fffffffb
ffffffdb
ffffffeb
00000004
00000001
fffffff1
00000000
fffffffb
0000000e
0000000a
ffffffce
00000006
00000011
fffffff1
00000004
ffffffd5
fffffff8
ffffffec
00000025
00000008
ffffffeb
ffffffe6
fffffffc
0000003b
fffffffc
00000006
0000000d
0000000e
00000001
00000008
00000000
ffffffd8
ffffffee
0000000f
00000003
ffffffed
ffffffec
fffffff5
ffffffdc
fffffff1
fffffff3
fffffffb
00000010
ffffffe6
fffffff0
ffffffff
ffffffd8
ffffffe3
ffffffdc
ffffffca
ffffffec
ffffffd9
ffffffb0
00000036
00000008
ffffffe5
fffffff6
ffffffed
ffffffd2
0000000a
fffffffd
ffffffdd
ffffffea
00000006
fffffff8
00000009
00000013
ffffffea
ffffffe1
ffffffe9
00000003
fffffff9
ffffffe8
00000005
ffffffdf
0000000b
fffffff2
ffffffe4
ffffffef
fffffff3
0000000c
fffffff5
00000009
00000003
0000000d
fffffff0
fffffff2
ffffffe0
fffffff8
fffffffc
fffffff9
ffffffd3
ffffffe7
00000000
ffffffeb
00000000
ffffffea
00000009
ffffffe9
fffffffe
fffffff1
fffffff2
00000008
fffffff9
fffffffc
ffffffff
fffffff0
ffffffe7
fffffff6
00000015
ffffffe4
fffffffa
00000003
fffffff8
ffffffd8
00000007
ffffffeb
fffffffc
ffffffed
00000003
fffffff0
fffffff1
ffffffeb
fffffffd
fffffff9
ffffffe8
ffffffea
fffffff4
00000009
ffffffe3
ffffffec
fffffff6
ffffffee
ffffffdc
fffffff6
fffffff3
00000004
fffffffe
ffffffe1
fffffffb
fffffff8
ffffffed
fffffff1
ffffffe4
00000004
ffffffe9
00000009
fffffff4
00000009
00000016
0000000d
00000001
ffffffc7
ffffffe7
fffffffd
fffffff2
fffffff0
ffffffee
ffffffee
fffffffe
ffffffeb
fffffff3
00000009
fffffffe
00000001
00000005
00000008
00000054
00000010
00000008
fffffff9
ffffffec
fffffffe
fffffffc
0000000c
fffffff6
fffffff1
00000007
ffffffef
ffffffc8
0000000a
fffffff9
fffffff3
ffffffd0
fffffff7
ffffffec
ffffffe9
fffffff7
ffffffec
ffffffff
ffffffdf
fffffffa
ffffffed
fffffff1
fffffffc
fffffff1
0000000d
fffffff4
ffffffeb
fffffff5
fffffff8
fffffffc
ffffffdb
ffffffe8
ffffffeb
ffffffde
00000011
ffffffed
00000011
fffffff6
ffffffe7
fffffffe
00000003
00000009
00000000
ffffffee
fffffff0
00000000
ffffffe9
ffffffed
fffffffb
fffffff1
fffffffb
00000001
00000000
00000001
00000018
fffffffb
fffffff4
00000001
0000000e
ffffffe4
00000003
fffffffa
ffffffef
ffffffe4
00000009
ffffffcb
ffffffe9
ffffffdc
fffffff7
fffffff5
ffffffe5
ffffffec
fffffffc
0000001b
fffffff1
ffffffd5
00000006
ffffffe3
fffffffc
0000003d
ffffffeb
fffffff6
0000000b
fffffff8
0000000e
00000003
fffffff8
ffffffe5
fffffff9
fffffff8
00000012
fffffffb
ffffffeb
00000007
fffffff0
00000006
00000009
ffffffd7
fffffff1
00000000
00000002
fffffff0
00000001
00000001
fffffff0
fffffffb
ffffffeb
00000001
ffffffbb
00000004
ffffffe0
ffffffd7
00000008
ffffffea
ffffffdf
00000047
00000004
fffffff9
ffffffe6
ffffffe0
fffffff1
00000006
ffffffee
00000003
0000001b
fffffffc
fffffffc
ffffffcd
ffffffe8
ffffffff
ffffffea
fffffff5
ffffffef
0000000c
fffffff2
fffffff4
fffffff9
00000012
ffffffd6
ffffffda
ffffffd8
ffffffe2
00000004
ffffffed
ffffffdb
fffffff6
fffffff0
fffffff7
ffffffd9
ffffffef
00000011
fffffff1
ffffffd6
ffffffee
00000008
fffffff7
00000003
0000001b
ffffffe6
ffffffce
ffffffd3
ffffffe8
00000000
fffffff8
00000011
00000011
ffffffc4
ffffffeb
00000000
0000000e
ffffffea
00000002
fffffffc
fffffff1
00000037
ffffffb4
ffffffee
0000000c
00000009
ffffffdf
00000013
ffffffe4
0000000f
ffffffdc
00000011
00000000
ffffffe2
fffffffc
00000010
ffffffd6
0000000c
0000000b
00000000
00000000
fffffff0
00000000
fffffff9
fffffff8
00000018
ffffffea
00000003
fffffffd
fffffff5
00000003
fffffff6
ffffffde
ffffffc0
00000012
00000023
00000008
fffffffc
ffffffd5
00000003
ffffffd2
0000000e
00000002
fffffff1
fffffff8
ffffffe0
00000001
00000012
00000009
ffffffde
ffffffeb
fffffff3
00000000
00000010
ffffffef
fffffffb
00000003
fffffff9
0000000a
fffffffc
fffffff2
00000008
fffffffb
ffffffe7
0000000a
ffffffc8
ffffffec
00000002
00000002
0000000d
ffffffe8
00000008
0000000a
00000005
fffffff8
ffffffed
00000002
ffffffeb
fffffff6
00000002
fffffff5
fffffff8
fffffffb
ffffffd3
fffffffc
fffffff0
ffffffda
ffffffe1
ffffffd7
ffffffeb
fffffffe
ffffffe7
00000015
ffffffe1
00000019
00000000
ffffffe8
ffffffe2
ffffffee
00000002
ffffffcf
00000000
fffffff5
00000002
fffffff5
fffffff9
ffffffe6
ffffffc6
fffffff7
00000004
fffffffd
ffffffec
ffffffe8
00000019
ffffffe1
ffffffee
ffffffdf
fffffff2
00000003
ffffffed
fffffffb
ffffffea
ffffffe6
fffffff5
fffffffa
fffffff3
fffffffe
00000003
ffffffe0
ffffffe9
ffffffff
ffffffde
fffffff6
fffffff8
fffffff5
00000010
ffffffe0
00000003
00000004
0000000d
ffffffee
fffffff8
00000004
ffffffe4
ffffffe7
0000000a
00000012
ffffffeb
ffffffdf
fffffff0
ffffffe4
fffffffd
ffffffff
ffffffef
0000000b
ffffffe5
fffffff6
00000000
00000003
0000000e
fffffffc
0000000d
ffffffe9
fffffff3
ffffffe1
00000002
fffffff9
ffffffe8
ffffffec
ffffffe6
0000000e
ffffffff
00000009
00000009
0000000a
ffffffef
fffffffe
fffffffa
00000006
00000001
00000008
fffffffb
fffffff5
fffffff8
fffffff7
ffffffe6
ffffffee
fffffff2
fffffff7
fffffffd
ffffffed
fffffff7
ffffffeb
fffffffa
00000000
fffffff9
ffffffe2
0000000b
00000006
00000000
00000002
00000007
ffffffe7
fffffff7
fffffff0
00000007
ffffffed
ffffffd0
fffffff8
00000010
fffffffc
0000000b
ffffffe0
ffffffe4
fffffff9
ffffffec
ffffffef
ffffffe0
00000012
00000002
fffffffc
ffffffff
ffffffd5
00000006
00000001
ffffffda
fffffff1
00000002
ffffffe9
ffffffea
ffffffea
0000000d
0000000b
ffffffdf
fffffff4
fffffff9
ffffffff
00000000
fffffff6
fffffff5
fffffffd
fffffff9
fffffff0
fffffff3
ffffffe5
00000000
ffffffe6
fffffff2
00000012
ffffffec
ffffffee
ffffffec
fffffff2
fffffff6
ffffffe8
ffffffd9
00000002
fffffff9
00000008
00000004
fffffff8
ffffffe6
0000000a
ffffffed
fffffff4
ffffffe2
00000001
fffffff4
0000000d
ffffffe7
ffffffe7
00000002
fffffffa
fffffff6
ffffffe5
00000000
fffffff6
fffffff4
ffffffe6
00000004
00000004
fffffff3
fffffffa
ffffffed
ffffffe4
00000003
ffffffea
0000000d
ffffffe7
00000002
fffffff1
00000000
0000000c
fffffff9
00000000
fffffff2
00000008
00000008
fffffffb
0000000b
00000018
fffffff6
ffffffda
fffffffb
ffffffe9
fffffff9
ffffffef
0000000f
fffffff8
ffffffee
fffffff3
fffffffc
00000005
ffffffe9
00000003
00000002
0000000b
00000000
fffffff1
ffffffe3
ffffffff
ffffffe6
00000013
fffffff1
fffffff6
fffffff4
ffffffd5
fffffffa
ffffffed
00000001
ffffffdc
fffffff2
fffffffc
ffffffdd
0000000b
fffffff8
fffffffc
00000010
0000000c
ffffffed
ffffffe5
0000000a
fffffffd
00000004
ffffffd0
ffffffee
fffffff4
ffffffee
fffffffd
fffffff9
ffffffdc
fffffff6
fffffffd
0000000e
fffffff3
ffffffe1
fffffffa
fffffffb
fffffff5
ffffffd4
00000001
fffffffc
00000004
ffffffc2
00000000
fffffffb
fffffff8
ffffffee
00000025
fffffff4
ffffffcf
ffffffc4
ffffffd4
00000009
fffffff8
00000001
00000009
ffffffe2
fffffffa
0000000d
fffffffc
ffffffd8
0000000e
fffffff4
fffffff2
ffffffe4
ffffffbf
fffffffe
00000011
fffffffc
ffffffe7
fffffff5
00000000
00000016
ffffffe1
ffffffeb
00000004
ffffffd6
ffffffed
fffffff5
ffffffe1
00000004
00000004
0000001f
fffffff6
fffffff1
fffffff3
fffffff2
00000035
00000026
00000028
fffffffc
fffffff9
00000002
00000018
ffffffd9
ffffffa9
ffffffe8
fffffffc
00000027
00000009
ffffffee
ffffffa9
ffffffeb
ffffffc9
00000006
fffffff0
ffffffda
ffffffe0
fffffffb
fffffff0
00000009
00000001
00000000
00000005
0000000d
ffffffea
ffffffe9
ffffffdb
ffffffe9
fffffffe
ffffffeb
fffffff8
fffffff5
fffffff1
0000000e
ffffffde
ffffffe9
00000007
fffffff3
0000000f
fffffffb
ffffffd3
0000000b
ffffffd8
fffffffa
0000000b
ffffffe6
fffffff4
fffffff9
00000000
ffffffc2
fffffff8
fffffffb
00000000
ffffffee
ffffffd3
ffffffd8
fffffff2
ffffffea
ffffffcc
00000012
ffffffd0
ffffffe9
fffffff2
ffffffc6
00000058
0000000a
fffffff1
00000003
fffffffa
00000021
ffffffe6
00000002
00000004
fffffffe
ffffffec
fffffffa
ffffffeb
ffffffdb
ffffffef
ffffffb9
ffffffe8
00000004
fffffff0
fffffff7
0000000e
ffffffda
ffffffe0
ffffffdc
00000003
fffffffc
fffffff1
ffffffea
00000001
00000004
00000002
fffffffb
00000000
ffffffda
ffffffd5
fffffff6
ffffffdd
00000000
00000036
ffffffdd
ffffffd8
fffffff0
0000000a
fffffff9
fffffffb
ffffffea
ffffffeb
00000002
ffffffe2
00000000
ffffffeb
fffffff0
fffffff9
fffffff7
ffffffe2
ffffffd5
fffffff3
ffffffe7
ffffffee
00000003
fffffff8
ffffffeb
fffffffa
fffffffe
ffffffdd
00000006
ffffffe3
fffffff9
00000009
ffffffcc
0000001f
ffffffbd
fffffff3
fffffff5
ffffffe9
ffffffe4
00000015
ffffffec
fffffff2
00000000
fffffff5
00000001
fffffffe
00000000
00000030
00000008
ffffffe9
00000005
00000006
ffffffd6
fffffff8
fffffff3
fffffff2
ffffffe9
ffffffd8
fffffff9
fffffff5
fffffff6
00000007
00000030
fffffff3
fffffff6
ffffffe4
00000010
fffffffe
fffffff9
fffffff9
fffffffa
0000001f
00000001
ffffffe7
ffffffff
ffffffee
ffffffff
fffffffc
ffffffef
fffffffb
fffffff8
fffffffa
ffffffec
0000000e
fffffff4
00000006
fffffff2
00000001
ffffffc8
ffffffc9
fffffff6
ffffffff
fffffff1
ffffffde
ffffffff
fffffff2
ffffffd9
fffffff5
ffffffe9
fffffffc
ffffffd3
0000000a
0000000a
ffffffff
00000005
00000018
0000000a
ffffffcb
00000004
00000008
00000005
ffffffeb
fffffff9
ffffffea
0000000d
fffffffd
0000000c
fffffffc
fffffffc
ffffffe4
ffffffec
0000000c
00000002
0000000a
ffffffe3
fffffff1
ffffffd4
fffffff1
00000008
fffffffa
0000000d
0000000e
ffffffe9
fffffffe
00000000
fffffffe
ffffffef
ffffffe6
00000005
fffffff3
ffffffd8
ffffffd9
0000000b
00000003
ffffffec
ffffffe6
00000002
00000014
00000017
ffffffe6
ffffffe5
ffffffe7
fffffff9
fffffffe
ffffffe9
fffffff4
0000002c
fffffff6
ffffffe1
0000001f
ffffffe5
ffffffee
00000007
ffffffe9
fffffff1
ffffffe7
00000009
fffffff1
00000007
00000007
00000000
ffffffb9
ffffffee
00000017
00000000
00000004
00000003
00000002
00000001
ffffffe9
fffffff5
ffffffe9
00000006
ffffffe4
fffffff7
0000000f
00000001
fffffff4
fffffff2
0000001b
ffffffbb
fffffff7
fffffff2
fffffff9
fffffff1
ffffffe9
0000000a
fffffffb
ffffffef
00000019
ffffffec
ffffffeb
fffffff9
fffffff4
ffffffda
fffffff7
ffffffde
fffffff5
fffffff3
ffffffdf
fffffff7
ffffffff
ffffffda
ffffffd5
00000006
00000022
00000015
fffffffd
00000003
fffffff4
ffffffee
ffffffea
fffffffa
fffffff0
ffffffff
fffffff8
ffffffde
ffffffe2
00000005
ffffffff
fffffff0
00000013
0000000f
00000000
ffffffe1
fffffff9
00000012
fffffff2
0000000a
ffffffee
ffffffed
ffffffc9
ffffffcb
fffffffa
ffffffea
0000000a
00000000
0000000c
ffffffde
fffffff1
fffffff3
00000007
fffffff7
0000000b
0000000f
ffffffff
ffffffe7
ffffffd3
ffffffea
0000000b
ffffffd3
fffffff7
00000005
00000002
fffffffc
ffffffd5
fffffff9
fffffffc
fffffff9
fffffff1
00000008
ffffffd3
fffffff5
00000006
ffffffee
fffffff6
00000000
ffffffe4
fffffff5
00000000
ffffffe6
fffffff6
00000005
ffffffef
fffffff4
fffffff2
fffffff3
ffffffde
ffffffec
0000000d
ffffffe8
00000000
00000009
ffffffc7
00000008
ffffffdd
fffffffb
ffffffef
fffffff2
fffffff1
ffffffef
fffffffa
00000008
00000000
ffffffcd
00000012
0000000d
00000004
ffffffee
ffffffd9
00000000
fffffff4
ffffffff
fffffff4
00000004
ffffffd9
0000000c
ffffffeb
fffffffa
00000002
ffffffdd
00000010
fffffff9
ffffffdb
ffffffe4
ffffffdd
fffffff4
ffffffec
fffffff2
0000000b
ffffffee
fffffffc
ffffffd7
fffffffc
ffffffef
fffffffb
00000000
ffffffca
ffffffdc
00000003
ffffffe7
fffffff5
ffffffd5
ffffffd5
ffffffed
00000001
ffffffdc
00000003
ffffffef
fffffff8
00000000
fffffffa
fffffffe
0000000b
fffffffd
fffffff9
ffffffeb
00000006
fffffff0
fffffff7
fffffff6
0000000a
fffffff0
ffffffd8
fffffffe
ffffffe8
ffffffff
ffffffea
ffffffdf
00000000
ffffffef
ffffffd6
fffffffe
00000001
fffffffb
00000007
fffffff5
fffffffe
00000001
00000000
fffffff8
ffffffde
ffffffe7
ffffffec
ffffffed
fffffff5
ffffffe2
ffffffec
fffffffb
fffffff8
fffffffa
ffffffe6
fffffff6
ffffffff
ffffffe6
00000001
00000001
00000006
fffffff4
00000008
ffffffff
ffffffee
ffffffe0
ffffffd7
ffffffed
fffffff4
0000000a
00000000
ffffffef
fffffffe
fffffff4
ffffffe2
00000007
fffffffd
fffffff8
fffffffd
ffffffd1
ffffffed
ffffffe5
fffffff8
0000000e
fffffffa
fffffff7
ffffffdf
fffffff0
0000000f
ffffffed
ffffffdc
ffffffff
00000012
00000005
ffffffed
fffffff8
ffffffee
fffffff4
00000000
00000000
fffffff1
fffffff6
fffffff5
00000003
ffffffe9
ffffffff
ffffffed
ffffffef
ffffffe0
ffffffda
fffffff4
00000008
fffffff4
00000007
fffffff0
ffffffeb
00000002
ffffffdf
ffffffe6
00000002
fffffff3
fffffff2
ffffffe5
fffffff5
ffffffe2
ffffffeb
fffffff8
fffffffa
fffffff9
fffffff5
ffffffe6
ffffffe9
00000006
00000002
00000004
ffffffe7
ffffffea
ffffffdf
00000003
fffffffd
ffffffe2
ffffffea
00000000
fffffff1
00000005
fffffff1
00000005
fffffff8
ffffffec
ffffffed
fffffff5
ffffffea
ffffffee
00000000
ffffffff
00000008
ffffffe2
00000000
ffffffed
fffffff5
ffffffdc
fffffff0
00000007
00000006
fffffff8
fffffffd
fffffff3
ffffffd1
00000007
0000000a
00000000
ffffffe4
0000000c
ffffffed
fffffff7
0000000f
00000003
fffffff8
00000000
ffffffe9
00000001
00000005
00000007
ffffffd7
fffffff8
00000003
00000007
ffffffe7
ffffffe7
ffffffe5
fffffff8
ffffffe7
fffffff6
ffffffef
ffffffde
ffffffdd
ffffffd9
fffffff7
fffffff2
00000007
ffffffea
ffffffe4
00000004
ffffffee
ffffffee
fffffff8
ffffffd5
ffffffe7
ffffffff
00000004
fffffff0
fffffff8
fffffff1
00000014
00000001
00000011
fffffffc
fffffff8
ffffffe9
00000008
ffffffde
ffffffec
fffffff0
ffffffeb
fffffffa
fffffffe
ffffffda
00000001
fffffffd
fffffffb
fffffff9
ffffffdf
fffffffb
fffffff3
fffffff0
00000010
00000000
ffffffdf
ffffffec
fffffffc
fffffff7
ffffffed
fffffff6
fffffff1
ffffffdb
00000005
ffffffed
00000007
ffffffe9
0000000b
00000009
fffffff6
ffffffed
ffffffe5
0000000f
00000001
fffffff2
ffffffe4
ffffffe9
ffffffde
00000001
00000000
ffffffe9
ffffffea
0000000e
fffffff9
ffffffec
ffffffee
fffffff5
ffffffdb
ffffffe6
00000002
fffffff1
ffffffcf
ffffffdb
00000007
00000005
00000054
00000008
fffffff7
fffffffe
00000016
fffffff1
00000002
0000000d
ffffffeb
ffffffc4
00000022
fffffff0
ffffffd1
ffffffe4
ffffffec
0000000e
ffffffc6
fffffff1
ffffffb4
0000000b
ffffffff
00000005
ffffffb0
00000008
fffffff5
fffffff9
fffffffe
fffffff5
00000000
fffffffe
ffffffde
00000018
ffffffed
ffffffde
ffffffce
ffffff80
0000000f
fffffff2
ffffffb1
ffffffea
fffffff7
00000000
fffffffc
0000000a
00000002
fffffffa
00000005
ffffffe7
00000009
fffffffb
00000016
ffffffcd
fffffff7
00000000
ffffffef
00000017
ffffffda
00000016
ffffff8e
00000004
ffffffe2
ffffffef
00000009
ffffff97
ffffffe6
00000029
0000000e
0000000f
00000005
fffffff0
00000001
fffffff0
00000009
ffffffff
00000002
fffffffc
ffffffee
00000001
fffffffe
ffffffc4
fffffff6
fffffffb
ffffffe7
00000003
ffffffe9
fffffff4
fffffff7
ffffffe2
fffffff9
fffffffb
ffffffde
ffffffeb
00000008
fffffff7
00000009
ffffffd7
ffffffea
0000000b
fffffffa
00000014
00000060
00000009
0000002b
fffffffe
fffffffb
0000000a
ffffffeb
ffffffd3
ffffffc1
00000001
00000023
ffffffcd
00000018
ffffffa6
00000009
ffffffec
ffffff9f
fffffff1
0000001c
ffffffa3
00000004
ffffffed
ffffffea
fffffffa
0000000e
ffffffe0
fffffff3
fffffff4
ffffffea
fffffffd
00000012
fffffff9
ffffffe9
ffffffed
00000019
fffffffc
ffffffff
00000008
ffffffdf
fffffff7
ffffffe1
ffffffdc
fffffff4
fffffffd
ffffffd3
fffffff2
0000001e
ffffffdf
fffffffb
ffffffe7
fffffffb
ffffffe1
fffffff4
0000000a
0000000d
00000015
ffffffe3
ffffffea
00000017
00000005
00000030
00000007
00000010
fffffffd
ffffffec
fffffff8
fffffff1
ffffffe9
ffffffd3
fffffff3
0000000a
ffffffc6
ffffffbd
fffffff9
0000000a
fffffff7
fffffffc
fffffff4
ffffffe5
ffffffe7
ffffffe8
ffffffeb
fffffff2
fffffff7
00000005
00000025
ffffffb5
ffffffea
ffffffdf
00000012
00000024
ffffffff
00000029
fffffff3
ffffffdf
00000012
fffffff0
ffffffe2
ffffffe1
ffffffea
fffffff9
00000008
ffffffe7
fffffff5
0000000d
fffffffa
ffffffcd
fffffff3
ffffffe6
ffffffdc
00000001
ffffffda
fffffff9
00000009
00000007
ffffffd9
fffffff3
00000005
fffffffd
ffffffed
0000000a
ffffffe3
ffffffea
ffffffea
fffffff3
00000008
fffffff2
00000004
00000008
fffffffe
ffffffe7
00000001
00000001
fffffff6
0000000a
ffffffe2
00000004
00000018
0000000d
00000000
ffffffe5
00000000
ffffffdf
ffffffce
fffffff4
00000011
fffffffa
fffffff3
fffffffa
0000000a
fffffffe
ffffffee
fffffff6
fffffffb
ffffffe7
fffffff9
ffffffe2
00000003
0000004e
00000013
0000000e
ffffffd4
ffffffff
ffffffe6
fffffff7
ffffffed
ffffffe8
ffffffd5
00000022
ffffffed
00000004
ffffffef
fffffffb
ffffffe4
ffffffde
fffffff2
ffffffdc
00000000
fffffffc
00000000
ffffffe7
ffffffea
00000009
fffffff5
00000011
fffffff8
ffffffe5
0000000e
fffffff9
fffffff4
0000003a
00000000
fffffff2
fffffffd
00000001
ffffffef
ffffffea
00000007
fffffff9
00000042
ffffffee
ffffffcd
fffffff5
fffffffb
00000006
0000000c
fffffff3
fffffff7
ffffffe7
ffffffde
00000019
ffffffd3
ffffffe8
ffffffff
ffffffdd
ffffffdb
ffffffe6
fffffffc
fffffff4
00000017
fffffffa
ffffffee
fffffff1
00000004
0000000d
0000000e
fffffff5
00000000
ffffffea
fffffffc
00000006
00000006
00000001
ffffffd9
fffffffe
00000011
0000000a
00000008
fffffffb
ffffffd4
00000012
fffffffa
ffffffeb
ffffffd0
ffffffce
fffffff5
00000006
ffffffdb
00000000
0000001a
fffffff7
0000001e
ffffffea
fffffff3
fffffff8
fffffffa
fffffffa
ffffffeb
0000000e
ffffffeb
fffffffc
ffffffe1
ffffffec
00000016
ffffffe8
0000000b
ffffffca
00000013
0000000a
0000000d
ffffffea
00000003
fffffff8
ffffffe0
ffffffeb
fffffffd
ffffffe8
ffffffe9
00000004
0000001b
ffffffd0
ffffffd6
fffffffc
fffffff5
ffffffed
ffffffee
fffffffe
00000008
00000008
ffffffed
ffffffef
fffffffb
fffffff0
ffffffc7
ffffffd7
ffffffd1
ffffffd9
ffffffee
ffffffef
0000000d
ffffffd6
ffffffef
ffffffc9
0000000a
fffffffa
fffffff9
ffffffc4
ffffffeb
00000006
ffffffec
00000004
ffffffe3
00000003
fffffff1
ffffffbf
ffffffa9
00000000
ffffffda
0000002a
fffffff8
00000009
fffffff3
ffffffa8
00000010
fffffff9
ffffffd9
ffffffef
fffffffd
fffffff5
fffffff6
fffffff5
ffffffe8
00000006
ffffffe9
0000000a
ffffffe2
ffffffec
ffffffec
fffffff0
ffffffe4
ffffffe5
ffffffc6
ffffffb3
ffffffe5
00000010
fffffff3
00000005
ffffff80
fffffff7
ffffffde
0000000b
fffffff0
ffffffe8
00000001
ffffffe8
fffffffe
fffffffa
fffffffe
ffffffdc
0000000f
00000012
fffffff3
00000000
ffffffe2
0000000f
ffffffed
0000002e
ffffffec
fffffff1
ffffffde
ffffffec
ffffffc6
fffffff2
00000000
ffffffa0
00000004
fffffff1
ffffffd3
0000000f
0000001b
fffffffe
00000000
fffffffe
00000007
0000005b
ffffffeb
00000007
ffffffeb
fffffffe
fffffff8
0000000f
ffffffe5
00000032
fffffff8
ffffffc6
00000005
00000011
ffffffae
00000003
fffffff8
ffffffa1
0000002b
00000001
00000001
fffffff6
00000006
ffffffea
00000000
fffffffa
ffffffba
ffffffec
ffffffe8
ffffffe0
00000010
fffffffc
00000008
ffffffea
00000006
00000005
fffffff8
00000000
0000000b
fffffff4
ffffffe6
fffffffb
00000028
0000000a
ffffffee
0000001b
fffffffc
fffffff0
00000008
ffffffed
fffffffd
fffffff2
00000019
ffffffe8
00000005
ffffffe5
00000015
ffffffe7
00000000
0000000a
fffffffa
ffffffe8
0000000a
00000007
fffffff0
00000006
fffffff0
00000005
fffffff9
ffffffbb
00000006
fffffffc
fffffff4
fffffff8
fffffff0
fffffff2
00000000
00000002
fffffff6
00000008
0000000d
ffffffdd
fffffff5
fffffff6
00000000
00000003
ffffffe3
ffffffe2
fffffff8
ffffffe7
fffffffc
0000000a
fffffff4
ffffffc7
ffffffcc
fffffff3
00000008
fffffffe
ffffffe8
ffffffe2
00000000
fffffff3
fffffffa
fffffff1
00000008
ffffffea
00000008
ffffffd2
00000001
ffffffff
fffffffb
0000001a
fffffff0
fffffff0
ffffffd1
00000000
ffffffd8
ffffffed
00000002
fffffffc
ffffffe8
ffffffeb
ffffffe5
fffffff3
fffffff0
00000003
ffffffd8
ffffffe8
fffffff7
fffffff9
00000006
ffffffea
ffffffb9
fffffff0
ffffffee
ffffffe4
fffffff5
ffffffe9
00000000
fffffff5
00000000
ffffffec
00000015
fffffffb
ffffffcb
0000000a
fffffffc
00000000
ffffffe7
fffffff7
ffffffef
fffffffa
ffffffec
00000011
00000002
0000001f
00000009
ffffffeb
00000000
00000016
00000010
ffffffe8
fffffff1
fffffff9
fffffff0
00000007
fffffff8
00000020
fffffff9
ffffffe0
00000001
00000006
ffffffe0
00000001
0000002c
ffffffda
fffffffd
fffffffd
fffffff1
fffffff3
00000001
ffffffde
fffffff1
fffffff3
fffffff2
fffffff5
0000000d
fffffff1
fffffff2
fffffff5
00000001
0000001b
fffffff0
0000000f
ffffffee
00000031
ffffffbb
ffffffe5
0000000e
00000000
ffffffe7
fffffff9
ffffffc4
0000000b
00000043
ffffffe4
fffffffb
fffffff1
fffffff4
00000004
fffffffd
fffffff4
ffffffe7
00000000
00000013
fffffff2
fffffff1
00000002
fffffff6
ffffffef
ffffffe5
00000007
00000008
ffffffff
fffffffe
00000005
0000002a
0000000e
0000000e
00000009
ffffffe6
0000000b
ffffffff
fffffff4
fffffffe
ffffffed
ffffffef
fffffff8
fffffff8
fffffff0
0000002f
fffffffe
fffffff2
00000008
ffffffd7
ffffffc3
0000000f
fffffff7
ffffffe8
fffffffa
fffffff0
fffffffb
00000017
ffffffe6
ffffffed
00000001
fffffff6
fffffff2
fffffff7
0000002e
fffffff6
0000001d
ffffffee
0000000e
00000037
ffffffe6
fffffff7
ffffffce
0000001d
fffffffb
00000007
00000005
ffffffec
fffffff1
fffffff2
ffffffc8
ffffffe6
ffffffd1
ffffffe4
0000000a
fffffff6
ffffffce
00000000
00000009
ffffffef
ffffffe7
0000000c
ffffffff
ffffffe9
ffffffee
0000000f
fffffffe
0000001c
ffffffec
ffffffea
ffffffee
ffffffee
ffffffe4
ffffffed
00000015
00000014
fffffffa
fffffffc
ffffffb2
00000012
0000000d
fffffff6
ffffffc4
fffffff3
00000001
ffffffef
ffffffeb
ffffffc5
0000000a
0000000b
ffffffdd
ffffffdd
fffffffd
ffffffe2
ffffffd3
ffffffeb
fffffff0
00000005
00000004
fffffff5
00000010
ffffffc3
00000002
fffffffd
fffffff4
fffffffc
fffffff9
ffffffd3
ffffffe9
fffffff4
00000004
fffffff2
00000005
fffffffb
fffffff7
ffffffdf
ffffffe8
ffffffde
ffffffc8
fffffff8
fffffffb
ffffffeb
00000003
ffffffd9
00000000
00000008
fffffffe
0000000b
0000000f
ffffffec
ffffffe1
fffffffd
ffffffea
00000009
ffffffe0
00000000
fffffff6
fffffff0
00000008
ffffffe3
00000002
00000018
00000003
fffffff4
fffffff6
ffffffd9
00000000
00000005
fffffff2
ffffffee
ffffffd2
fffffff8
fffffffa
00000012
00000008
ffffffef
00000002
00000020
0000000c
fffffff8
00000032
0000001b
ffffffde
00000009
00000004
fffffffb
fffffff4
ffffffea
00000000
00000010
ffffffff
fffffff4
fffffff4
ffffffc7
00000005
ffffffe9
ffffffdb
fffffff5
ffffffe8
ffffffc5
fffffffa
fffffffb
ffffffe9
0000000d
ffffffef
ffffffe9
0000000e
00000004
fffffffe
00000006
fffffff3
fffffff0
ffffffee
00000000
ffffffea
fffffff7
fffffff3
fffffff5
ffffffdf
ffffffdf
ffffffec
ffffffdd
00000000
ffffffe9
fffffff8
ffffffec
ffffffed
ffffffea
fffffffc
fffffff6
fffffff0
00000000
00000002
fffffff1
00000000
ffffffec
00000000
fffffff1
0000000a
fffffffd
ffffffea
0000000a
00000002
0000000b
fffffffb
fffffff9
fffffff8
fffffffa
ffffffe0
fffffff8
00000009
ffffffe5
fffffff4
ffffffdb
fffffffb
ffffffd7
fffffffd
ffffffeb
ffffffee
00000010
00000003
00000006
0000000c
fffffffc
00000006
fffffffc
fffffff4
00000006
ffffffe2
fffffffe
ffffffe7
ffffffee
fffffff2
00000001
ffffffee
0000000a
00000001
ffffffea
00000003
00000004
00000000
fffffff5
ffffffe9
fffffff6
00000001
00000000
ffffffe9
fffffff5
00000003
fffffffd
ffffffef
ffffffe0
fffffffc
fffffff5
ffffffe3
00000013
fffffffc
fffffffa
fffffff8
fffffffd
ffffffee
ffffffed
00000014
fffffff3
ffffffe0
ffffffd3
ffffffed
00000003
fffffff4
fffffff7
fffffffb
ffffffef
ffffffe7
fffffffb
fffffffe
0000000d
ffffffe7
ffffffec
ffffffed
0000000e
fffffff5
fffffffa
ffffffef
ffffffef
fffffff0
fffffff6
fffffffe
ffffffe0
0000000b
ffffffec
00000008
ffffffe2
fffffffe
0000000a
fffffffd
0000000a
00000009
00000000
ffffffe9
ffffffea
fffffff2
ffffffd4
00000002
fffffff1
fffffffd
ffffffef
ffffffe2
fffffff3
fffffff7
fffffff0
00000000
fffffff0
00000000
0000000d
ffffffe1
ffffffee
ffffffee
ffffffec
ffffffee
fffffff4
ffffffef
ffffffee
fffffff5
ffffffe5
0000000d
00000006
00000010
0000000e
ffffffff
fffffff2
ffffffea
fffffff7
fffffff8
00000007
ffffffe2
00000002
ffffffe5
fffffff0
00000005
fffffffa
fffffffc
ffffffe5
ffffffdc
fffffff1
ffffffee
00000000
ffffffe8
fffffff8
ffffffff
fffffffc
00000005
ffffffec
fffffff9
ffffffdf
ffffffea
fffffffa
0000000a
ffffffeb
fffffffa
ffffffe5
fffffff7
0000000f
00000007
fffffffc
00000009
fffffffc
fffffff4
fffffff2
fffffff2
fffffff0
00000004
ffffffe8
fffffffd
00000012
00000007
ffffffff
00000000
00000006
fffffffa
ffffffe9
fffffff2
00000008
fffffffe
ffffffe1
00000006
00000006
00000009
ffffffee
00000006
ffffffef
00000002
fffffff2
ffffffea
fffffffb
ffffffed
ffffffd9
fffffffb
00000006
0000000e
0000000a
ffffffd3
00000007
00000009
ffffffec
00000004
00000007
ffffffd5
fffffff2
fffffffb
ffffffe7
fffffffc
0000000e
ffffffea
ffffffe3
fffffffc
ffffffe3
ffffffe7
fffffff4
00000000
fffffff9
ffffffdf
fffffffe
00000009
ffffffe9
0000000e
0000000f
ffffffec
00000011
ffffffe5
ffffffe9
0000000b
ffffffed
0000000c
0000000e
ffffffa9
ffffffdd
ffffffcf
ffffffc8
00000015
00000013
00000043
fffffffa
ffffffd9
00000009
0000000f
fffffffe
ffffffbe
0000000b
ffffffee
fffffff9
fffffff3
0000003b
fffffff2
fffffffe
ffffffc3
fffffff9
ffffffec
ffffffee
00000009
ffffff8f
ffffffec
fffffff8
ffffffde
0000000f
ffffffed
ffffffe3
00000002
fffffff6
fffffff1
00000001
fffffff8
ffffffdf
fffffff1
fffffff3
0000003e
ffffffcf
fffffffc
fffffffd
00000005
fffffff9
ffffffb7
ffffffa6
ffffffa5
fffffff3
00000016
ffffffec
0000000b
ffffffa7
fffffff2
ffffffbb
fffffff5
fffffff5
ffffffed
00000007
ffffffec
00000009
0000000c
00000008
ffffffd3
ffffffef
fffffff1
fffffffc
ffffffec
ffffffd8
fffffff9
fffffff1
ffffffee
0000000c
fffffff7
ffffffe6
fffffff4
ffffffc8
00000000
ffffffff
ffffffc9
00000000
00000006
00000000
00000005
00000039
00000010
00000006
ffffffe4
fffffffb
ffffffe5
ffffffee
ffffffb0
00000008
ffffffec
00000014
0000000f
ffffffca
00000018
ffffffed
ffffffe8
0000005d
fffffff9
ffffffd4
fffffff5
ffffffee
00000012
fffffff8
ffffffe6
ffffffe1
ffffffec
ffffffef
ffffffda
00000007
fffffffe
ffffffdf
00000001
fffffffb
fffffff2
00000009
fffffff8
fffffffc
ffffffa4
ffffffd2
fffffff3
ffffffeb
00000007
fffffff1
fffffff9
ffffffe3
ffffffc4
fffffff2
fffffff9
fffffff5
fffffff5
0000000b
ffffffdc
ffffffe4
fffffff4
0000000e
fffffffe
ffffffe0
0000000b
ffffffe4
fffffff9
fffffff0
fffffff7
00000006
00000009
fffffffb
00000013
fffffffd
fffffffa
0000000c
ffffffde
ffffffe5
ffffffee
00000009
fffffff0
00000009
fffffff0
00000032
ffffffef
ffffffcc
ffffffea
0000000c
fffffff5
ffffffef
fffffffc
00000008
ffffffe9
0000000b
ffffffe0
0000000d
ffffffec
fffffff1
0000002d
ffffffe7
ffffffe8
ffffffe9
ffffffee
00000003
fffffff7
ffffffc5
0000000e
ffffffe9
fffffffb
fffffffe
0000000a
fffffff5
fffffff1
00000000
fffffff0
ffffffec
fffffff1
ffffffee
00000003
0000000c
fffffffe
ffffffff
fffffff9
ffffffe3
ffffffee
ffffffea
ffffffec
fffffffa
00000041
ffffffe7
ffffffef
ffffffe7
fffffff8
ffffffd8
ffffffea
fffffffb
00000007
00000000
fffffff8
fffffff3
fffffff4
fffffff4
fffffffd
ffffffd3
ffffffd4
00000007
fffffff8
00000005
ffffffdf
ffffffe8
00000000
00000007
fffffff8
fffffff0
0000000e
fffffff7
ffffffe5
ffffffe9
fffffff1
ffffffe3
ffffffea
0000000a
ffffffeb
ffffffec
ffffffe9
fffffff8
fffffff8
ffffffe5
fffffffd
ffffffea
ffffffc9
00000005
fffffff9
ffffffe9
00000009
00000007
fffffff7
ffffffe8
00000003
ffffffea
fffffffd
fffffff8
00000008
ffffffed
ffffffcd
fffffff1
ffffffe8
00000000
ffffffef
fffffff9
fffffff2
ffffffff
fffffff8
fffffff6
00000010
00000004
ffffffea
00000004
00000002
00000001
fffffffa
00000003
0000000a
ffffffe3
fffffff2
0000000c
0000001d
ffffffc6
fffffff3
ffffffdf
ffffffd7
ffffffd7
0000001a
ffffffce
ffffffcc
ffffffcf
fffffffe
fffffffb
00000003
00000000
ffffffd4
00000000
fffffff5
00000042
0000001a
ffffffe6
fffffffc
ffffffdd
00000003
ffffffe6
ffffffe6
ffffffea
00000005
fffffff6
00000002
0000000e
fffffffa
00000040
00000005
ffffffc0
ffffffef
00000005
fffffffa
ffffffe7
fffffff8
ffffffce
fffffff5
00000012
00000000
ffffffea
ffffffd7
00000013
0000000d
ffffffff
ffffffe9
ffffffef
fffffff0
fffffffb
fffffffe
ffffffe7
fffffff1
ffffffff
fffffffd
fffffffc
ffffffe9
fffffff1
0000000e
fffffff8
fffffffa
ffffffed
ffffffd6
