00ede1f6
fc07eee6
f7f8f700
fbfbf5f3
040000ea
01fe070c
f4f5ff00
00f5ff02
fc0600f8
fa00eff7
fa02f7ed
00f2fafe
fcfcebf6
04faf9f6
110afe18
ed05fff3
f7ec0400
fcfc09f9
00fdf707
fefc0bf9
f5f6f6ff
01f7f900
f9fa0500
06fa0105
0002f5fd
f70902f3
02080df8
000d0400
f90600f0
f0f10cfb
0eeff40a
02feebf8
fdfcfd05
f5030506
0cf9040f
0e04f406
0bfffb00
070d00f3
03fdfc08
00010204
0603040c
00000e06
08040602
f701050b
fee902ff
0403ff05
f80b0201
0101f5fb
0400fcfc
01f80607
0814fe01
060d0df5
fd09f5fb
fc0103f2
00fdff07
fbf802fa
eef00006
feede7f9
f708ecf2
01090602
f2080806
f3f101ef
f9f0fffd
00e7e5f2
f907eae2
f1e8f6fc
08f4e3f4
03f900fa
fefaf3fa
0500fff8
fa0503f8
fd00fbfd
10fe0f0a
e9f5040e
00150802
fbfc0405
15f9f2f2
02fcfe03
09f3ee02
0c0dfc0e
f7fcff03
fff8f8f7
f8000506
fffc06fd
fefcf3fc
04fd071e
01040102
0001fc00
fa00fe00
fafa00fa
0efd1110
fffa0400
01e6e608
130906fb
f9fafb1a
0af8ff0d
f502fc08
fe02fcf1
04010600
0001ebf2
0c140501
efe506fb
00f8e7ea
05fe090e
07fa0301
f700fbfc
0907fbf3
f70e0503
fc07f8f9
f4eb0dfa
f907fd02
fb00f9f7
07f8fcf2
08050107
fff9fb01
0000fffa
00fbff02
f7f7f0f5
f900f5f4
fffff8f9
0508ff00
f8f7fbff
0100f7fd
0cf80800
04140710
efe1ecf7
0cfef6ff
f90003fd
f9faf7fc
fffdfefd
06000000
fbf70001
fefde5f0
fff3fc07
fe00ff04
00fdfcfe
020409fa
fe000702
fbfafd02
ff0103fd
fdf00000
f102f9fa
ff00fdfe
0300fd00
fef90003
0909fff1
fe00ff01
f000fbf7
fbf401ff
01f8fbfc
0001fc01
fffcfcf9
f9fefef8
f1070b03
02fc00f8
04fe03ff
01fe0c01
0602fc04
fe05fd04
01ff1a07
faedfcf9
f6fcf3f4
0a000c03
06f80308
faf80006
02fa0605
0d0001ff
1214060e
01081008
f7000a07
fe010005
fc0108fc
fefa0301
0000f800
060b070c
f4f10407
fbf8fffb
faf3f700
11fef503
fb14faf6
fdfc00fb
05020102
fcfbfbfd
f5f8e6ee
07faf4f2
fc000103
f0fefd04
0300fcf7
00faf1fe
f902e8ea
f5ef03f7
fafdf6fa
02000503
03f5fe00
fcfa07ff
03f50c07
fcff0000
08040401
f5fdf2ff
03f6fefd
efeaf107
d9eee1d7
f3fff0e5
fcfbf5fc
e8f7f8f6
f3f300f2
fef6e800
ebfcf1fb
faf2f6ea
00080404
effaeee8
0c1303f8
ff040004
f6010600
ff04060a
04fc0008
ef00fbf3
02f906fa
f8fc030f
fff1f9fb
0804ff01
06040304
07fcfdfc
f0f3f9ff
09fd02ed
0802000b
00ffff04
f9ffee02
f2fc00f5
0905fa03
0d060314
f708ff00
f9fa06fb
04fa03fd
0301fd06
fffefdfe
02fc020a
05000007
fffe01fd
01ff0104
0204f9fd
f3f700f6
07fd07f5
0203fe01
fd020602
fff90004
06ff0102
07fa0409
1104fd0e
ec0200ff
d5e4e8dd
faea07e3
f3fceef2
0a060303
f1f1f010
f4eff0f1
f0ebf1ea
f6efea00
06f3f605
0104fb06
fffafdff
fb0600f4
fafbfd00
f3eefbf6
12f60005
f9fa070a
fef5f505
0105f7f2
00fd0bfe
09040403
f2faf8f2
fbf0f4fb
08f8fdf9
fb06f6fb
f6f508ea
050104fb
04fc02ff
07050304
05f8fd04
fefef200
f1f8fafa
fef002f3
02f4f1fa
060afdf8
ff040afa
f4f2f0f0
e2eef9e5
fee5f0fa
f3f5ffff
f9f2fe00
fbf80a00
fb110609
e8f8fe01
eef9f1ff
09fa0001
06060c02
00fcf807
fd03090b
f2f40b0c
150202fc
0ef9f9f7
000af60c
0b08fffd
080e02fa
fe010a01
f900fc02
e9e4ede3
02f7e7ef
040300fe
fa08fc03
f4ed00ff
fe00f2f6
fe0b0904
fb050606
07070b04
0205ffff
00061004
00000306
fc04fffd
fd0af603
0200050c
f901fd02
0600fcfc
0304fb06
ee0106f6
fcf2fdf5
090607fe
020c040a
0307fa07
fe040005
d3fef80b
e1e6dbd7
001204e1
e9eceada
0101f4f1
0004fd00
fcfc06f5
040c0309
140c01f7
030cfdf3
fa040400
05010006
e708f8f6
05f600f5
e8e8f002
eee6f1ea
0000f3f5
00fcffff
dffcf903
e2e9e2e6
f3f202ee
02020403
f3f602fd
f7fa09f8
ed040005
fb06fa00
fbfdfc01
e8f7f8f9
faf5eeec
000800e7
fefaffff
03f8ff09
0b17fbf9
fef30801
0515efe9
07f8080b
f6f4fff1
02fa0f05
f00308f7
f1f6e4f3
1cff0bf1
0804fd17
030001fe
dee80000
08f900ee
ec262718
0a020bed
f60c0403
040dfd01
f6000601
02ff00f9
03fdff03
140d060d
010206fe
05faf4fb
fc01f6f7
0e090206
f5fdfd12
02faf7f0
f2050c0c
f6f1f3f9
02fe07f4
fb070700
f9f80001
f6ffe5ef
10070002
00030404
02010505
fef7fafe
02000007
0202fdff
eefafcfa
03f0fafc
0206fe01
f0f2e801
fdf70405
f8f700f6
00030909
f9fbfafa
f0ff03ff
f3e2f1e1
fc1b0202
03fc0601
f904fb08
fffb0001
0007fef0
09f30907
f5000107
06030514
04000a04
06f1fe08
f405000d
02e9f4fe
f8eafafe
f6fef5f5
fa220f00
f4e70000
fef9ffcf
fd0bff01
faf2fa08
03fbfbea
000b0101
02fc00f5
0005fd06
f1000dfc
0aec000c
0001fd0b
00ff0500
03020706
f90600f9
06000a00
fc0607f7
f9fd0000
f90ceafb
f11125e2
0deffb01
f304f600
fdf600f9
04fc0006
04fefdfc
fdfb0001
0000f9fd
fc1df402
000a1af0
f510e6ed
f5eb0afe
00030109
0302faff
f6fd01f7
f60517f5
eded0f1b
0c07e2f7
e6250ddc
fcfff8f6
f9f4feff
07fffa01
0004f6fd
0000fefa
fef2f604
fc02f3ef
060601fc
0003fd06
fc000200
01fa0500
04070103
fc010002
ff0204fd
00fcf904
01fe00fe
f4ff0004
fffe0206
05fafcff
00ff0010
12fbf9fe
f50cf3fc
ff0013f0
0600ff05
fd01fbfc
fdfc02fe
fefd0000
f60804fe
effa06eb
fbfafd07
00fcf5f9
000b0afb
f905fdf9
fefc07fd
0707fa01
f60800fb
f804fdf6
0801fb00
08040005
0002fdfe
fcfa00f6
06fdfdf0
06fbfd20
0b1709f8
f5011804
0605fcfc
01000103
ff000102
0f0afcfb
fa08fc01
0a05000a
fd020400
02f2f9fb
02fce3ef
f7fb0300
0afffc00
f3f5fffe
0816fce6
f8fc0304
f405f7ff
f3f902ea
01fefa02
f80bfefe
fffc00fe
0201fffb
fcfd0905
0506f604
f204fc00
ed04eafc
fa00fee3
f6f90002
02f9f902
1106f9fd
0b120511
fcfbf8f6
0404f70b
eafff4f7
fb06fe00
02000803
ff02fe07
fb050306
ecf4fb04
fce4f800
fcf8f001
fef0f902
0bfdfa02
07000601
fd0406ff
f7ff0108
03010100
f9f50109
0000fbf7
fd000901
03f7fcff
ff01fafe
fefff9f9
0000faf4
061208f9
04100b02
f6fd000a
faf6f1f8
0bf5fbfa
f4060000
00fbfdfb
06f7ff04
0008040a
000bfd01
f4f41108
ff01f8f6
fd0800f6
f7060c01
f4fb06f8
f8f7fb02
fdf4daf4
0dffeeeb
040b03fe
fcfcf8fd
0503fffc
0607fcfb
04f3f5fa
0001faf8
fbfefff6
0706e9fe
15ff07fe
ffff0409
0b031ffa
faf603f9
fbf6fc00
fc011603
08f90902
f908010d
f8f7e5f8
01fdfaf8
01fffefb
000105ff
0401f8fe
fffeff00
0af4fd00
1803eff5
f606f7f6
f3faf5fa
0909fef2
0908010e
01f4eeff
000602fd
fc0a0504
fcf7fdfe
0000ec02
e9f600fb
fc00fa01
fd00fdf9
03130603
ff05fcff
f2f90302
f8eaf7fe
f2fcf6fc
00fef3f0
07fc00fb
00f9f9fd
00060000
f8fafd03
f6fffdfe
02fff8fb
09ed080e
00fd0706
fa00f7f9
04fe01f9
05fef9fc
fc01fcfb
0706fd02
fa0709ff
f40000fe
fefa02fb
0b00f9ff
1c03f2f6
fe15f400
08000504
f4000705
010e00f7
f6fff6f9
f203f1f3
02fc03fb
ff02fcff
0cfd0002
fef9060a
0403fcf7
01fd0708
04f1fbfa
0d170803
00fe1217
fbfe01f1
00030909
030e0b11
f0f8fffa
f90c00ee
09f60e07
0102fd0b
0af9fb09
ece51107
060600f8
f5090d02
0c040400
ff0b0105
00000006
fcfafafa
faf1e7fb
02140ef8
0109000f
f5f904fc
02f8fc03
ff030003
0201fcf8
eef6f9f5
0e0008ff
f6f6f910
01fdf7f7
07ff1010
030d0606
09f9f9fc
f600f202
f1f700ea
03fb0107
0100f201
eee9f6f9
fcfae5f2
f400fff9
f4eefcf1
05fde9f4
fcf91001
130b06fb
f7f8f0fc
fef700ef
0000000d
01fffa04
f3f2fdfb
1303faf9
08090aff
09010f17
fbfcfdfd
fd0506fb
00030405
01f8f9ff
08fcfefd
060e060b
090a0a00
ff060a0f
f6fde9f0
010400fa
fb020205
010503f5
0b06fa04
fe0b0bfd
f8f8ff09
040c0403
01fffd05
09080209
ff0606fe
fb10fffb
06fd142d
f904040c
0f122516
f8041e2a
02f705f2
070b001f
fbfd120f
110cf607
0efd281a
c9ebfc12
e9f4f7d9
f9eff2fe
ebf9e1d0
fee1f1e6
01ffe9fa
1012f004
071407f0
00040b02
fef8f803
0408fc0f
f2000906
0705fbf3
f5ecf201
f604dc03
d9ffe6e8
040605e4
ee150d04
d8f90aef
010811fd
00fffa08
0002f8f5
faf3e3fb
07f4e5de
d2f6e7e5
f4f3f3e0
f41be5f5
ec00fce5
fefefcf4
16fff506
0f0d0419
0e11051d
ff00fa10
f207ffe2
08f80a02
07ffe80a
f500ebf2
f8fd00f8
01edf4ff
0606f7fe
02f4f9fd
1905dded
d9fbfe05
e8daf0e6
06050308
e1fff0f6
061700fc
00062301
d704121b
f2f401f9
f2080e04
18f20219
081a0d13
f5fbfbf9
e109efe1
0afdfe00
1301200f
0fff1623
fbf20007
040a0705
e9fff509
05fd02f8
01f0f4fe
05050c00
f4f30000
fbfff800
09050905
07f2f501
fdfaf804
0df50604
04000000
f7fff2ec
0b0d0307
fcf9f506
0d030606
f5f20202
0500f4fa
ff0508fd
0d010e03
fb01fa0d
10fa0607
fb0bfc0d
fafafbf1
ff08fbf3
03040e0f
0400010a
00f9f905
0a060603
f6fb0101
f1fefbfe
01fafbfb
f4fb0000
fff3fc03
02020801
06fbfb08
fb00fcf6
fefbf4f9
fcf8fcf9
05f5efff
fa0201fe
0b040300
f80d0000
f2f509fe
0ff4e709
0202f6f3
fd11fb03
f7f60eff
faeaecf6
f4f3ede7
00f700f6
0005fd08
fcfdfff8
faf3fefb
fe090e03
1a010406
100f0212
0efe0109
0b14f817
0105f2fb
02f703f6
0bfdf8fa
1009fa15
fb02f900
fbf50809
f800eb00
faeef6f3
fef6fcf8
fafbfafa
01fafbf7
0e05ff05
12130713
f4fd04fe
03fe04fd
f9f509fb
e8fdf6f7
e3e6f1e5
020402f1
f40b00f7
03010804
01fdfe06
0efaf7ff
ff050105
fefe03ff
f9050007
f4fdfdef
0002fe04
0704100e
eef6ff05
fa0500f3
fcf200f4
fff9ff03
0600fafe
00fd0001
00fc02f8
fbfef904
fffe120b
0000fe09
03030102
00fe0100
01fff9fd
00fc0100
ec070f00
e4f003e9
09020102
fefcf901
06fcf3ee
0203fc01
00f7fcfd
0806f800
fb020000
fcff0dfe
03000308
06080809
0202fe08
09ff0005
0501fd08
ff00fbff
f8fd02fc
fffefdfe
fe02fe00
faff0401
fefdfb00
fafef5fb
f0f8fcf9
fb1b0dee
0e012005
f6ff0901
03fa0501
05fe060e
03fe03fd
ff01ff07
fefefbfb
fe000200
fff9f803
fe05fefc
fefa06f8
0200fe07
fdfc0003
00fd03fa
04fe0304
f5fef2ee
fc0402f8
f3f1fcf7
00fcf6fb
fdff03fa
0100fd03
04f8fa07
000df9f9
fdf60cfc
09f8fc03
18fefff9
0a100518
07050400
180c0408
04020101
03fef8ff
00030806
0914fc06
fe031f07
fe0002fc
f5fefefa
04f5effe
0005040e
fdf4f5fd
01effe08
f7faf8fe
081a07fc
fcfe06ff
e0ef01f8
00f500f4
0b0f010e
fc00020b
fefbfcfc
fff60e09
fc00fe01
0a13f4f5
fa070c00
f6fdf5eb
0301fe00
fc010701
f4fafff2
07fe03f9
0803f900
00020cff
0d19040d
ef00fcf2
05fcf3f2
040bfb09
fdfcfcfa
020100f6
08080305
03fbf1f8
0609ff02
f9fd02fd
05000501
1a19fc04
eef913ff
02eff303
0e060000
1712030d
09f3ff02
fefbfc02
ebdaf8fc
fdfbeffb
00fa11fe
0a0dfcf9
e7021105
edf0f2e7
eff706ed
fc06fcf8
03fb0401
07ff01fd
000b0002
02fe01fe
f4f0f0fd
fcfd0207
f100f6f5
0ef8fbfb
02040100
fcfeff04
060302fa
000805ff
07000200
0207fe02
000600fd
03ff0005
fe0306fd
0000fbfc
09040002
fbfe0907
02020a01
02030103
00fb0206
05fbfc00
0005f806
fdf803fb
04081000
0500090a
00020009
05000000
07ff0502
060efefd
03020d01
07000202
0301fa04
fffc0100
0100f900
f5f8fc02
fefafcfb
0000fe00
020602fe
f0fdff00
fdf2fd00
ff00fffe
03fdff00
04fe0108
fc0403ff
04ff00fc
0f070000
0707060c
ff05050a
01fd05f7
0401f902
fc01fb00
00fcff01
fffff800
fa020000
f7fa00fc
f6f600fb
fffbfffc
05fff6f8
fc0000fc
ffff03fe
00ff0302
fafbfb02
fe0302fd
07000206
060c0002
0901fffb
0f0a0806
040eff04
fd060804
0dff0c0d
0205fa05
09ff00fe
060303fe
06070404
01060500
05030907
0308020a
04f7fd0d
eefef3ef
0004f100
f50005f8
00f8fc0c
fdfcf300
050104fc
060e00f7
f9001000
fafeee0a
fd0202ec
0806fc0c
fcfafbfb
020efcf6
0500050a
f108fefd
deed17e0
1ee8f516
ee07fef3
0eff0103
01fe0503
0202fb02
fcfb0afc
0a05fd0c
fffd03fd
fe000000
fa0002fd
1209f31a
e20700e6
f9fd1309
10f2f510
fcfcf9f6
0705f6f8
f70609fe
f6f9fff3
f4f5feff
fefb05fa
06f7f6fe
f6fdfd03
fb02fdf7
01fd0a02
fdfdfcf9
ea04fffc
03f101ff
ff17f8f8
f9f904f6
0afcfe00
fef3f702
fc00f8f6
030f05fe
fcf50202
0afff301
0203fdfe
fefd01fe
f803faff
0805fef6
0902f3ff
fb0307f3
01f20b10
0702f401
080306ff
0c00f60d
000dfff9
fcfdfafe
000301ff
00020301
fefbf7ff
f8130001
fff70aea
f7f60211
fdf708f9
0201fb03
01fafe05
fa00fc02
090604fa
f608f8f1
030104f2
02f3f906
fb040001
fefa0000
01f9fa04
00040203
0006fe05
f3d9dc01
0ef30032
04fcf617
03fef401
fefef5e5
fbf80100
01f8f601
fa000002
fefb01fc
e4dee100
15ea204f
fefde610
fefbf9fd
01fefd00
f9020000
04fa0702
020601fe
00e9fcf8
f0e0ebfd
f3eb1110
ff00f026
010104fd
fe0703fe
03fe0503
ff03f704
08fefc07
00000107
05f8f800
0203fe00
01010004
0301fd01
010300fa
00060000
fe040600
f4050a06
fdff02ff
ff020003
0101fa03
fffb0100
fc000df3
03faed08
f7f20a07
0af8ef09
fb050201
fb0003ff
ff000402
0001f9fd
050205fa
0001fffa
03050501
f8fdfc02
fdf7fe00
ee020401
03fd0200
08000401
fd01fff9
00fa0602
fb000203
05ff0303
fe050103
00fc0afe
010101fe
00020202
00f90000
05fdf6fd
f0f404fe
faf2f5f9
fcf6f0f2
fbfaf9fa
ff03fcfb
03040b00
fa000506
fcfa0203
fe02f203
fbffff10
0000fe00
000701ff
ff00fcfd
feff03fa
fef2f4fa
f5f6f5f3
f9fd00f8
000103fc
fef80505
fe00fdf7
f60005fc
faff02ff
010003fd
03000804
fbfb0500
060000fd
02050100
feff020a
ff000200
04020408
07050207
0f0b0506
f903fefe
fcfd02fa
040001fe
03000004
f8fafe03
f7f600fe
f4f6fc01
fcfcfaf5
fef8fcfb
040006ff
ff010201
fdf7f801
f9fbf6f4
fcfd00fa
f80300fb
0308fd05
01010007
ff010000
fd010300
fffd0200
fcfe0303
05050303
fcfc0301
fbf7fbfc
f4fcffff
fbfd01fe
01fa0201
02030506
fe00ffff
fafefe02
fffafefe
000000fe
fafafdf9
08f9fc01
0a020302
06040104
f70800f7
fd050605
02fe03fe
f50f0d07
0805f6f2
02f6f50c
05f8effd
0500fd08
000800fc
0af4f3fe
0913f1f6
04f50001
04faf303
f0f101ff
faed02f8
ed040b12
1c0af6f3
0d02fe0b
fc05060b
f9f3fbfe
03fbfb01
04fafe00
f7fefcfc
00040702
fb0202fc
fe04f4eb
fa0303fc
01fffdf7
0d0bf1f7
f7f1f903
0ef1f502
00ff0510
0000f4f8
ecf9f2fa
0603f1ef
fdfafb05
05080308
fcfa0706
ecee01f2
ff060804
fc010f0b
fc00f705
0400fb02
060cfff9
fbf9fb0b
04f3fe02
0d080409
080d030e
fe0905fe
f500fefb
f3f005fc
06f30110
07050002
02f9ff09
f40504fd
040cfaf9
f600fe02
ff0805fd
0f080b09
07fcfb11
0900f2f8
061104ff
07110303
f0f5f6f4
fffaf1f6
06fd00f9
f70204fd
00f603f2
f9effb06
f0060101
f4fcf9ea
0200fef8
ff05f4fb
e9f900f3
ff0000fd
0bf9ff0b
0e0afd0b
fc08fef9
f0ff0404
f0fb09f2
01f700fb
f80e05fa
f90000f6
fd070203
fd000902
fef40002
00f50008
01040110
03070102
05090dfd
f7fefe02
fef50002
0500f900
fc0605f9
00f900f9
00fafc0e
00f4fa02
fa16f9ef
fd0415f3
f8ff08fe
fff90401
0c07fbfe
fd0afcfa
fffefcf0
f4f8f9f7
f7f7f700
ecff0ff0
f9fa1100
ff0d0cfb
00fe0d00
0bf6ee04
fcf9e5f6
0808e6f4
0407060b
00010a02
f8f9fdf1
04fa0100
00fdf904
11010005
0c030007
fd03fef5
fcff06fb
09f3fc12
eef8f503
fcf40405
fc01f100
f20600f8
fa00fcf7
fcfa05fb
000902fb
ff0308fd
fffdfc06
faf8fdf9
faf9f7fb
fc0d09f1
0701f200
fd06fdf7
f20005f7
0af50108
f5f9fb0f
00ecf009
f8f7f201
fcfa0201
0503f8fe
f1fbf9fb
fff703ef
f9090705
f8fafc01
fefdf600
fbfcfafc
0201f7f3
f9f8f8fa
fcf5fbfa
e407f1e4
0bf514fb
01fa0515
09020100
0002fe05
0bfff904
040707f9
fffc02fe
0306fb00
0303fbff
00fefcff
f8ff11fe
02f5f903
070cf8f7
00000802
edfe0608
fbefffed
04080304
f106f9eb
00f00cf7
f6f1fe13
f4f4eff4
01fef8f1
fefbfafd
05fbff00
0c0bf90b
f10309f6
04020500
ff0201fe
fc0403fc
fbfb0007
fef80bfe
04030304
fdfc0104
07000100
02010301
0502fd00
010301fd
fbfbfa01
fefbf7fa
fcfdf9fb
f1f10ced
00fce6fa
f500ff00
faf7f6fd
00080000
06060902
fc02000d
fa0301fc
04ff00fc
fdfc0400
f9000306
f9f9f7fd
f7fefcf9
f0f6faff
02f800f4
fff9f401
f105f8ed
00020b04
fe0304fa
00020805
fefaf7f4
fe0800fe
f9ebdfe5
0509efed
fff9fdf9
0cff0806
07ff010c
f80a0cff
f708feff
f6f3e8ea
0afffe06
0afe02fb
06fe0019
03f9fee9
fe040bfc
17eff700
ef08fffe
fbf1db00
f4f4f3ec
03f9f20d
03060005
fa000d08
f8110900
f9f5e6f9
f20014ee
09f50006
ecfbf8f9
e201ecec
fbfcfef1
0df9eee9
0ffdfd17
101f0bea
02fb08ff
0100f4ec
eef7fc02
e6fef3fa
fbe6ee00
edebeedd
f0f6d8ea
0a00fdf0
05e7060c
0904fc03
f904f60d
f2081604
fffa020a
f3fd04ef
00f1ec08
0b00fa05
f906f5f9
fcf1fbee
f4fdfaea
1d080ffe
01181104
f5faf706
0807d9e1
202f2611
0206090e
1b060f15
f9f500fc
ff06ffff
cde70117
02e2f2ec
e507010a
000210e9
05130d03
0ffde9fd
141101f6
f7fb0204
07070702
f8f9f800
fefcedf6
09fc00f6
0afefdff
090cf60a
ff10fc04
f3f80af6
090d06fa
01000302
f3f3fc05
f7fdf6ed
070300f4
02fbf8ff
ff010201
01f9ff0e
f5f7fbf8
fcfcfffb
ebfee9f4
fa02f6e7
07f3f90f
02ffebf1
f2f3f2f4
fdf1f6ed
f90002fd
f5fafcfa
f3f8f6f3
fcfd0bf7
ff03ff03
00fcfdf3
fd13130d
e7f0f0ee
f5f2fde8
00f2ff02
0805fbfe
0a1314ff
f9000000
f7f5f7f3
fff6f5f5
ff08fcf4
f5f7fdf6
fbf1fff9
fb0df907
eff80700
f9f4fff3
e3e8e3ef
0401efea
08010005
ffff00fb
0400050c
08fdf900
f6fbf4fd
eaf7faf3
03060cf4
fdfbfbfd
ff05f6f8
f5f0f8f9
0cf6f4f8
fcfa0004
00ffff03
fc000206
fbfcfff7
fd011502
f8f9fb06
f7f7fcf1
f5f1f2fa
05fc0d02
04090304
09010606
fef7fb01
fafc04f8
f8fcf005
00000002
0b00ff09
eff50700
fefe0105
f300fcfe
fcf2f8fd
02000205
0000fdf8
fcfb04fe
fbf8f605
fafdfffd
02fafafd
080804fa
00000303
0306f5fb
f8070806
f9f500f2
f4f901fa
faf4ffff
00fb05ff
0ffcfb02
fc110203
fb0b040d
fcec01ef
00f808fd
ff0af709
00040805
05f90004
00000005
f3f401fe
fff8f1fb
fb050000
fa0003f6
f604f9f5
0afc00fc
04050c09
fc000102
fb01fcf7
fdf2fef9
f5fe00fe
f9fcf2ed
faf8f9fd
00faf9fd
fe04f8f5
0b120a04
03060609
f80008f6
09050002
fd060f01
e6f8f0f0
f8f6fdef
00080301
0a0100fe
f9f2fafe
fcf9f6fc
06fc0200
01060a05
05fe0108
02000002
f2f905ed
03fe0700
0b0d0012
050b080c
03f5f906
04ffefee
eefc04ff
faeff101
ebed01fb
01f7ef00
03f8f8fd
f902f8f6
fd0609fe
f8f7e9f8
ff04fcfb
f7fcfc06
fafbf8f6
07fc0105
fffbfe00
fa060302
f1f80101
0603fefc
010212ff
fefcfbff
fb01fffa
01fe0002
ed00050d
fef9ff00
00fd0904
0504fbff
000d0402
fe00020e
26fbfdff
021bf300
07f1ece6
fb01fa0a
fbfbfff3
fdfefbfe
01ff0106
011a0005
f5001400
fbfaf7f7
fe0000ff
0100fe00
f405f1f0
05000202
f700eef0
0303fdf0
f6fe0102
fefefefa
0a00ff02
0000fc00
0100fafe
0400fff6
fffffd03
fc03fbfc
fefd00f3
03f80503
02fa06fc
02000000
04fffd03
01020102
000702fd
02000000
0103fefd
fd0103ff
00fc04fc
fefdfa00
23030000
0c2af109
08f5f5f4
fa010000
fffefefd
fffbfe00
fe0302f6
fcfffb02
fafe00fd
f60100fb
f9f8ff01
fcfcfa02
fefa0105
fffe0000
f600f9fd
fcfcfcf9
ff0506fe
fdfe0700
00010605
fefc0006
0803ffff
f90bf200
030002f8
000d0302
06fa00fa
fa020e01
fb00000a
0afc0304
f601fdfd
fd0105fc
0b090206
0a070a03
08fe0400
fb00fc08
f9f2faf9
00f7fafa
fc0003fe
010401f2
0df6fa00
05fc150b
140a1306
ff03fcf9
f400fafd
030007fa
0df9fc04
edf601ff
f9f3fbfc
04f6ecf5
fd00f6fd
fe0007f4
0603fe07
fd01fc01
0bff07f7
ff08f603
0cfffff7
0200f817
00070701
f500ebed
fbf812f0
ff05fa07
f5f9f7f5
030108fb
10f8f9ff
03050701
f4f8fb0f
04f6fc0a
fdfb0b0c
00f9fa02
07e7f105
ee03e4e4
010802df
04000302
fc01020a
f7f9fe02
0e01f802
0403000b
020f04f5
f5f3f6f9
f0f2f2f8
020700f2
fb08f1fb
0108f8e2
f601fbf1
01f707f9
f4fff7ff
f0ec01ec
0600fb10
fa020503
f9ef12fa
0c05f60f
050904fb
061507f7
0e020af7
ccebe1d9
d5ccf4d4
fcfcf9fd
00f804fc
fefc0501
fa01fcfd
0608f5f9
0207ff05
fd040804
f5fefff3
f3eaf4fb
fa0203fa
fdef0900
060c0701
07050203
fe02f900
02fdfd02
fd0700fc
05fc08fe
0301fe06
08fe0910
040fff0c
fdfbfffb
0900fe08
02fafcfe
fcfcfd02
fffefbfc
f801fffb
02f7fffe
fd0403fe
0100fb04
fef5fdfd
03fdfdfc
f6f70100
05fcfffc
f100f9f5
d4eee4d3
decff2e2
050304ff
00000408
01f2f102
e205f3ee
f5f2fbeb
0cf9f3fe
03fef0f1
00fbff02
05000000
05000101
040efd03
00ff00ff
01030001
000effff
00fe06fe
fc00f902
00fdfafa
fafaf9ff
fef9f9fe
0201fafe
000602fc
00000100
fbfa0508
fbfffff8
0e090200
09050b10
fc000807
000306fd
ffff0003
0002f9fb
fe00fcfb
f104ff00
fcf3f8f6
09faf4f0
040c0a00
00000706
fc0206ff
fafdfffc
02fdfdfa
00040300
fd000900
fefa00ff
fb0001fd
0000fefa
f9f6fa00
fa070f03
00fb0100
ffff02fc
fffcfffe
0d08ff01
0704fe08
02080602
01fffc00
fd01fdfe
fe010600
ff000000
ff0207ff
01000407
00fb0406
030400ff
fb0104fd
00fc0603
0102fe02
fd010405
fefffc02
070904fa
fe040402
ff000906
06050705
00070406
03fc0103
0100fc05
00fd0106
ff030000
fefcfa00
fcfcf6fa
0607f9f8
00050101
04ff0300
0402060c
01000501
ff03fe04
fc00fcff
00010000
fefffeff
07fbfd00
0300f80b
05fdfcfc
03050404
fafd0200
ff00feff
fb0001fa
ff0100fd
fd00fefb
0205fdff
00000001
fbfdfe01
ffff0900
06000202
ff060400
01fd0002
00040204
f8ff01fc
fcf900fe
fffdfcfb
00fdfc00
00ff0400
01fd0000
01070700
fd020601
f3fe00fd
faf1f6f5
f4f9fdfb
06f7fdfe
0302fcfc
04fdf5f5
010900fe
02040308
f4f7fffb
08fc03f6
fe000cff
01f90b04
02f3f807
fafe0000
f9f8f7ee
f9f80303
fffdfbff
040001fe
00fdfe0a
0901fdff
efee060c
f1f3f2eb
08f1f7f8
080300fe
fe0503fe
fd0505ff
fe000400
03040100
02fff2fe
0c02fcf9
0600050c
11f9fbfe
fd00000e
f80105fe
f4f8ecec
f4f0fdf5
fc00f7f8
f8f8fbf6
f1ecf8f6
f8f6fa0a
edf2f700
f2f000e0
0cf3f602
0202fafc
f1fefaf9
fa0000f8
fcfdff02
0a07fbff
fefb0010
fa000300
ff02f5f8
000803f5
02f4ff0c
02fafd06
faf700ff
fa0afdf8
eff10801
f3f2eeed
fefaf3f0
f2f8f9ed
fff5f7fa
0406090a
00ff0002
f8fb00ff
0502fd03
fc0602f8
f500fcf1
0bfffbf7
01f4fefc
06f7f805
08ff00fe
fc03fdff
0200fcf6
fcfe00fa
02fcf8f8
fc0a0700
fcfafdfe
0202f8f9
000004fd
0efb08fb
0607021b
010ffff9
f8faf803
02fafffe
fa1405f8
f8fa0805
f8f2f6f5
00fffb00
fcfffc00
00fe05ff
00ff0406
fbffe5fd
fb0005fb
020001fc
f1fdfc06
14fef805
f80a0004
09f9f9fe
0b0ef907
f5f0fff6
07f3f105
f7f8f4f8
f6f2faf5
fefb00fb
fdfff4f4
fe0000f6
f5fdf7fa
f5f9fff1
faf0ff00
fdf6effb
fe03f4ed
00fc0400
f9ffff00
f8fdfdf9
01f6fdfe
01fcfd00
f3fcfaf6
fcf90100
fe07fc04
ff0205f9
0b09fdf8
fa0905ff
f2fcf3f5
f5fcfff0
ff010900
04020003
04060600
0000fe00
ec03fcf7
fef001f8
00fdeefb
f7060804
00020000
fef8fcfa
fcfaf900
fbfffbf2
fafd0203
0500f6f3
fdfc08fd
0201f6f9
f3fffa00
06fe0000
04f6ef04
05f901ff
fbfeff04
020606f9
0c090306
0502fef7
f100fc06
f901fffa
05ff00f9
00030a00
fe02f9f9
0dfff4f8
f4f8eff4
0e01f7ef
0502000b
fe01fcfb
0808f6f3
fe0503f3
0000f9fb
f8ff0204
06faf9f9
f9fdfbf7
fcf3fef5
f9e9ef0d
f2fbecfb
eafb0bf6
fffb02f2
010c0601
f60101f8
160c0000
00fcf8fe
0304eefa
fe0dfcf0
f00503fb
f0fd1900
01fe09fd
03090809
fffa0a02
fff6f608
06f2f503
0202fbff
01080704
0305ffff
fefcfd00
f4f8fb00
ff090301
04f5ff0a
100b00fe
02070200
15fffffd
0605f111
05fcf1f3
0102fbff
0006fcfd
fa060401
f0f80104
061507fe
020b0c02
fb0805fc
faf8fdfe
f301fe00
f3fe0afa
f600f5f3
f903f7ee
f705faed
fce3fef9
10fb0b01
01fe0316
09fdfa00
01fefbfe
fef90e11
02fafc07
fb02f0ed
03fa090b
0104fee5
05fc0b04
ef07f405
0a00f405
020c15fa
05fc0903
0608080c
0205080d
00040007
f6eaeb03
f4f1dce4
f3f603f8
faf0f7f4
f707f5fa
00f7fefe
0201f809
0004fe01
06fe0dfc
f7fe000a
fcfef502
f6f90af6
fff3f5f9
ff0bf600
f604eeef
08000afc
00f6fb00
fefe0400
eafb0e05
07f6f70b
01fc05fa
09070109
14f502fc
f510f7f8
03f30f08
eaf5eeea
05faf8f8
03fb05f8
0406f4f2
f9fb07f7
ecf7fdef
02eff90a
eafbf7f7
04f7f9f9
f7ef0506
f603f5ec
fefd0507
ff000400
f413ff0a
f8e103f0
fb07eefc
0dfd00fe
fe0a08f9
03050103
0d05fdfe
18040700
050409fe
f1f30816
000803fa
15041311
f6f5f40f
03fef6f9
fff4fc03
fa01eef6
f81dfefd
07f20f13
05f7fa03
f605f900
fef503fc
ebfcfefc
0df6f107
0002f7ff
fc10f6ef
000505f7
f4050dfe
030503ff
f2030408
08f60400
01ff070c
fdf80000
00070005
f908f9f6
ebe8f5fc
f8f1e5f4
f8f9ede7
f9f3f1fd
eef1eaee
faf20004
0002f9fe
07020606
00000405
f6f9fe02
00000200
00020409
04000303
0004fefc
ff06fd00
f8000bfd
f4fff7f7
f400fbf2
f7ee03fb
09edea03
08feedf1
f7feff07
fafa04f8
0af70d18
0004ee08
00fdfe05
0006f5f4
0002f600
06fdfcfa
07000001
0003000f
02020505
ff01fdf9
04ffff01
09010107
00050304
feff00fd
0003f7fe
fa0006ff
fbf5fff8
04f3f0ff
f3fbfc00
f5f708f2
0406100b
fc010001
020103ff
f800f903
ff0901ff
fbf90cff
04fafc0a
fd09f7fe
f50300fd
00010302
f8fef4fc
fafefdf4
00f7f7f1
0200fdfe
00fc0105
00090300
ff06ff03
fefefe05
0004f6fd
000604fe
f8040102
01fd01fd
f7f60109
08f5ed0a
150a00f3
f318e3fe
05e904ed
0dedfc16
f600effb
080ef1f3
fb0607f9
04030312
f00707ef
0ef70307
f010e9f6
f9f709ed
eb0305da
07ec0dfc
fefe0816
0af90609
faf5f2fa
0af0f10e
0c0af4fe
0208fc12
f40309f4
0103010c
0000fafe
ee0003fd
0af40704
f70cee06
f5030d02
0900f603
fe0de007
f7fe09e5
040803fb
13030a09
f101150a
05e1f81a
03f9faf3
fefbf609
02fe03ed
f0fafc08
000200fa
f82202f0
00f90a00
fcff0b0c
0bf9f306
1106f9fe
fe0cfcf1
0f030dfd
f90d0afc
10f3110b
06eaf0f3
08060106
fbf9e711
fffbfbfc
f5fc0000
05f70105
f809030a
f1ef1407
04fbe102
01f0050a
fe06f907
03040400
00f90001
fb0f02fb
d8070ee0
ebe9fe13
fbf70e00
0d03fb01
0302fa00
0102fef2
faf5f904
fbf5f2f8
fb0afbf8
f3fc00f4
00fafc01
f4f8f8f8
f8faf5f4
02ffeefa
0304fcf4
08070802
000a1300
fe0403ff
02f9ff03
f7020200
fcfef9f6
020403fa
0005f3fe
f3fdfbf3
000601fc
fd000400
04050002
0c060907
00090607
08000006
0105f903
fdff0902
02fbfffe
fbfa02fb
fefe00fe
fefafefc
04faff05
fcfafb01
07f50c11
020af702
fc01fb01
fbfd00f7
f8faf8fd
02f8f6fd
f8fafbfb
f8f3fa00
fef7fd00
f9f803f9
05f8fb01
02f6fc04
0009fe00
00fa00f9
01f9f6fe
030102f9
ff0006fa
fefd01fc
fc00feff
fcfaffff
faf2f1fa
f5fafbf3
f7f7f5f8
f3f8f9f6
fdfffdfd
fd00fb00
00fcfcfe
fa05f7fb
fdff01fb
05fefe06
03010000
0200fe00
0200f2fc
fcf50100
f6fcf5f3
010100fb
fc03fe01
fa00fc03
010003fe
04f6080d
fd06000d
fd010bfd
0701ff04
0a00fd13
fcffff00
f9fdf5f9
fef6fe01
01fd07ff
fff20108
fbfe01fb
fffffcf5
fef9f2f3
020dfcf6
f6110bf6
03f303fc
0df8f012
fafef900
f0fff4f0
090001f5
fb0301fe
00fefcfd
00fafd07
02fbfb00
0602fe02
0904fb03
06060708
00000aff
ff00fe00
fd0002fc
ff01f4ff
0809fffe
0109f806
ff12f7f8
f5f806ec
06feff00
fd06f9fc
f5fe04f8
05f4060b
f1030206
f6f7fef7
fe00f6fd
f2f8f803
fefb01fc
08010705
0505030a
f700f812
fff9fbfa
f8f8fe01
03f4fffd
fdfcf1fc
0003fd00
01020700
02f7fffb
0000f4fa
05060afa
0507fafe
fc0605fc
fbff11fa
0001060e
0c00030b
0d050003
02f30005
f902f8fe
fa0d06f5
f4071bff
f1fdfcfd
fbf902f5
05fdf200
f70000fa
f8fa00f7
02f6fb0b
fe02f1ff
f7f70400
0206fdfc
fc000702
07040100
f4fefe01
f4f40408
fefc060a
f1110bf6
f4fd05f8
f9f501f5
030cfd04
18eafefb
3122d702
f21df5d3
ffea0608
06f1f608
07effc04
010200f8
030af000
ef1408eb
fb040bfb
faf806ff
ebfefdfb
f0f21503
faf80605
0109f8f8
00fdfef5
01f90000
eb0af6f1
fefe01ef
010000fe
f5030401
fdf505f1
0ffcfa08
0708fc06
030b00f9
fbf2fbf8
06ff01fe
fb010008
faf50402
04000507
ff020003
fc0106fe
fefd00f8
000203f9
020001fe
f9fb00ff
fee80709
250de0fa
0805f0ec
0202f904
f7000af3
02fe110e
fdf1070b
f9040d02
00f80107
01060003
f70303fb
01000002
f805f9fb
f80c0ef9
0b03ff08
0112f0f7
020309f0
00fd0301
fc06ff00
fdf807fd
00feff05
0504f8fd
f90002f6
00fef6fd
00faf8ed
ff190bfa
fdf3fa0a
0202fbf7
fff804fb
fefdff02
03ff0b04
0305f706
05fdf80c
f906ffec
07070203
01091403
fa070a09
f6d4f9fd
ff06eb00
06f807ff
000dfa02
fbfdf7fa
f4fbf8f2
0bee0efe
03fccdee
fff50ff4
0000fffe
fd040401
f500e7ea
f80709f1
08f505f5
f7f1f411
09fd17ec
fde5d401
0600f4e2
00fffd0a
fd000800
09000706
0202fe02
02080707
00030200
0205f501
00030a00
fffa0605
00faf700
fcfcfbfe
f7fb0001
02f5fafe
06ff0701
0206fffd
0102ff00
fe03ff02
121101fd
02fb1304
f606f80f
f2f0fffc
fdf8f2ff
05000102
0006fe02
040401fe
010604f9
0200fd0a
faf70001
05fe02fd
000afb02
fdfd0cfd
01fe0a04
08fa071d
fafdfd00
fc00f8f9
fdfc03fc
f2f5f6f5
06f6fbf6
07fef9fc
fd06fc00
fbf2fd09
fefdecec
fe00fd00
00fef800
f8ff01fe
01f802fe
00020302
0600050a
0407fa08
faf1edf6
fd00f5f6
00f70300
fd030000
eef3fff7
feedf9fb
010700ff
01000303
fc0208fe
fffe060b
050104fe
fbf8fa06
06fdf6ff
f8fa0507
f5f1fdfe
fc000003
0500f5f5
07080306
f7ff06fe
fef7f900
00faf8fc
02ff0200
f2f80607
00f8f9f7
f9000500
09000a0b
ff020007
00faf90c
fbfff6ef
0a0e0106
feff02fe
00fdfe04
ff040403
0a0002fe
fb000001
030000ff
03fcfd00
0100fc01
070c0300
010105ff
120b0106
faff0806
08030105
e8f9f901
fff6f3ec
0703090b
09030703
fb020005
00fbfdfc
f6070005
f5f6fff3
f6070500
f4fcfbf6
00fd00f9
fef7f8fb
f4fbfcf8
f9f2faf9
02fbfbf4
05000406
fe000003
0101fd01
fa0000fc
faf7fefe
ff130d04
f5f30800
fc0005f2
fb0800fb
f8ff0a09
02fefb04
f9010003
f1ebf3ed
f800f2e9
fa00ff05
f5f300f3
eedaf4fb
eaf8e8ed
1014f4ed
01f7031f
02eff3ed
0301fa03
fefafef8
fcf8f50a
f3f202ef
f400000b
fd00f802
fcfd03fb
fef6fcfe
0609fe08
fd02fef9
040900fb
0d0e0b08
f3030501
fbf20000
0900fd00
00f70401
f4f6f505
01f7fd02
f8030100
0c100cfa
0ffffafd
0c0f0604
fefefb04
06f6f5fa
fcf5fe00
ebedf303
00f4f4f8
f4fe02fb
01fcf00b
fd00ecf0
f3fbfbf1
00fdfefa
030000fb
05070305
0af9fc0a
030afdee
f70000f5
04fe01fc
f900f306
f7f604f4
f2040f02
fdf502ff
06010100
030a0600
00050a0a
06ff0714
f3fafcf9
fefdff05
f803faff
02090706
0802060c
0b09fd05
faf7f407
0603fbfa
e3f7f9f3
04efeef8
fffffa00
f9000cfd
eff30a00
07fd0007
0517f300
ffff00fd
e8fafa12
fcfc08f8
1100fb07
fbfd00f2
02fb06ff
10060600
00fcff00
12000b0a
0506f6fc
e8fb06fb
0bf40700
01fdf013
03feff10
fb06fffe
03fffafb
fdf3fe01
fefc0807
f7fa0107
f403f807
02f8030c
f904f8fc
fd000df5
1300ec00
00faf502
fbf1f7f8
07f90401
00fefa00
f6000102
fb0cf8eb
00f8fa03
f900eef9
f9f900f2
faf6e3fd
f8f8ece9
f60204ec
0c0107fe
07040607
000002fb
05fe0404
0300060c
130c0605
0c0205fe
08080b04
00f80c02
0401f90a
ff040100
f700f5f0
fff6ff01
02fdf803
0109fcfd
00fffdfe
f4f9f9f5
f206f0fa
f5f40aec
01f3f40e
0702f0fc
f70402ff
fe03f5f8
00fffd00
f3fcff03
f7fb02fc
f603ee01
ffdeff1a
f40af90e
f2fdf6f1
f3f3f9fd
00070003
f9f0060a
0102f9f3
f400fdf7
0600f3fb
09080000
03fd02ff
07010107
0000fc03
01fbfb02
ff0700f8
0100f805
fb0705fb
03fb0601
0209fefd
fdfe08f5
0d07ff00
fb05feff
f4f8faf6
f9f4f5fa
000a01fb
f6011806
f7f0f606
faf5f6fa
f6fbfcfd
fd01f0f5
020509fb
00faf8fa
030900fc
020f0c00
fafb0f05
0c0afb07
05100a02
fcff0700
f704ebf4
000102f5
f6fd00f9
faf70200
fafbfa00
01fffc00
fa000502
fcfdfaf9
fafaf5f6
f9fcfaf5
060d03f5
fb02fb00
060300fe
f9000001
05fdffff
04fb0000
000805f7
f9f90300
fef500fe
f9f7f7fe
fef8fcfb
f9f9fdf8
020b03ff
08070afb
f7f70b0e
fffb0000
01f6f6fb
0004ff03
07070bf6
0000f8ff
fa0004fb
fc0a0200
01f60e0b
fdfff305
04010000
04fbf8f8
f701fcfb
f9fbfff4
f3fdeaf0
faf5f9e7
f6040001
fc090cff
00000e0b
fb0103fd
00fb0102
00000001
0204fd03
04f6fc02
0608fffe
f7ebf502
f5f0e7ee
faedf4ed
0a0cfffc
fb0d1408
f706f800
fb0202f5
faf5effc
f9f6f6f0
f805fefe
fd010e00
fbfb000c
fa01fcfb
00f60200
0106f9fc
040c0900
f2fbebf9
f3faf8e0
eceb0007
01f3edfc
04f900fb
06040406
0bfd0205
11020512
fe06fc00
00060200
03ff0700
0100ff07
ff01fe02
eff8fe01
f8eff6f9
00f8f5fe
0206fbfc
02fd0200
090a0805
050d0709
fe0504fb
fe020405
fefd0004
081203fb
fa010af8
f9f801f9
faf5f6ff
fd01fd01
fafd03fa
050b0303
00050b07
0003090d
02000401
03020000
fefe00fc
fdfcfd01
f8f8fb00
f3f9fbfb
fcf3fafb
0208f9fa
f7000000
fdf5fff9
09fd00fe
02010000
fb0001fb
0203fff9
0f00fdfd
03fff900
faf9f8f8
02fdeff7
020f0b03
f10a16f9
fde8f8fd
ff02f9ff
f003eaed
020903ee
05030b11
0afafefe
00030007
f8eff516
ea01fa02
f8f2f7f9
f2fd0306
09f2f411
1410e901
0af9fcea
0005fafd
04fa00f0
f2faebf7
fdfafeef
e406ece7
fff20ff3
ea0d0cf8
f2e504fb
14e70309
15f7d5fe
13f600e2
080ff40b
f6fe12f2
0303fdfe
04f90c01
02f7f2f1
080fedf6
010a01ff
fa0209f5
09fb0708
0009fefe
fd00fffe
fe0bf7fe
f1fc08f7
04eafb00
0102f5f8
00fafb08
0100fbff
f3040001
f8ed0303
f900000e
18f8081b
0610ee07
eff300fb
0108f6f9
0c0cf403
00f8faf9
04edf901
000ceff4
fb040aec
0100fcf5
061b05f4
0007f6f3
fdfe0bfd
02ecfb06
fef5eaf6
1607f1f4
0e0ce800
f401feea
feeefdfd
070ffb05
00ff0201
00fe0002
feff0100
00fffafc
0203fe00
02030402
f9000002
070202ff
05010303
02010304
fcfbfc04
020500fb
03fe0702
050e0400
02060b03
00010809
0500ff00
0001fcfd
02030300
04040103
fe0000fe
01010000
fffe00fe
01010001
05020501
0d070b09
06030202
07030703
06030207
fe00fe05
010000ff
fafd0203
000103fb
01010400
fe0000fc
01ff0100
fe0000fd
02ff0103
00ff0202
ff01ff01
01020003
030201fe
ff070500
0001ff04
ff02feff
fefdfcff
fffbfdfb
fd00fc00
00fdfefd
0400ff00
03030201
f8040903
fefbfefc
00ffff00
fd0100f9
ff000304
01ff0302
01ff0000
fdf9fe00
02fd00fe
fa040200
fd00fdfc
fd0000fa
000001fd
00fe0303
0001fe00
00ff0300
fcfdfe02
0200fdff
fe0100ff
0200ff02
000105fe
04fb01fd
0f0bf7fd
090e0503
01ecf80b
0000eee9
fc040400
fffcfafc
fe040100
fffe00fe
f7f7f9f2
f5f30404
f2f3feea
fc121efd
0afc0314
f4fa0706
fcfb0212
fbfcf5f0
1012fc02
fc070200
fe05f5f8
10eb08ff
03deabeb
0e0cfec9
f0dc000d
f7f7e201
0df9fbf9
fa00ee07
07f4fce5
24e80c54
160a03f8
01f4f6fb
fdfbf2fb
f5e8fc00
05f8f3fd
f409fdef
fcf205f9
00080905
ff000a03
0405fe08
030b1702
02020700
fcfd0000
03fefb04
f9fb0003
00f8ff05
09fafd04
01fef8ff
fafdff05
fffff5fb
fef802f5
070005fa
faf9f101
03fa040c
fc00f707
060003f6
0308040d
03010102
0205fffd
f7010003
f1ee01f3
04f3f2fe
050000f7
0d0600fa
04f5ff02
1afe112d
fc02f904
f90d1003
0306fb00
0000fc05
f8fbfc00
f8f3fffb
0a04f90c
fffefa00
080afdf8
fc070206
02f8f500
06020c04
f70003fb
01fe0100
fcfdff01
fffd00fc
fd0404fa
00fe0305
fefbfbfe
02fdfd00
00fb0000
fcf500ff
fe020004
fd0400f7
00060505
00000004
ff00fef9
f5ed0001
0200ecff
03010509
04070300
f4030006
15ee1e1d
f4f9ec13
04010f00
fbfe0001
f6f9fffd
0af0ef08
01030000
02ff06fd
fe010603
0404040a
010203fd
04090101
000108fd
f9f6fc07
00faf5ff
fafcfff6
faf900ff
02fefa00
01fc0803
05ff0100
04fc0005
0102fafe
01fc0301
0004fe01
f8f503fe
00f90003
01000602
00fc01fd
f8fbfafd
fbfbf900
fdfcfdfc
fd020004
02fcf6fb
00020000
fffefc01
04fafcf9
ff04fb02
060002fc
07060d00
07040407
fceff004
f9f8e7f3
0700faec
0103fd00
01060200
01f80cfd
03070110
01000100
f60d00ef
ff0700fd
fb04fa02
010000fa
f9edfb04
fbf9f600
eff9f5fb
fcf9fff9
00090802
fdfe01fe
fffbfefe
f4fa07f7
f7e5fe05
06d9df04
fe02edf7
f0f2feff
fef7f4f9
07fb0000
ffff02fa
0001ff00
fcfaf5f3
06fe0401
0aee000b
ed04f8fa
eefce7e4
fd0807f1
04f60001
00f7ef0e
030b07e9
fbf80401
0100f5f8
ff03fdfa
fbfff9fa
1506f20d
fb10f500
e511faf6
dff60ce0
03060505
0107fc04
00fd01fb
01fc0308
fc02fc07
f30300fb
00f7fc02
0503ff03
fe0a03f3
fafff803
f503f6f6
0905fffb
f9fe0cfd
08f3fb09
dffa0afe
00e508ff
00020300
040104fc
0008ff09
fffc0404
edfa0206
fadef001
fe04f100
06fc000a
00010001
00fbf7fe
0100fefa
0004fafd
f600f8f6
000301f8
f6fd00ff
fbfc01fd
00ff0104
0a02ff04
ff0200fe
02000305
1210030d
f001f8fe
0dfef1ee
00f2f5ff
0dfdf3fd
00fe03fd
06fef908
06f0f7f0
1312f901
0907020d
fff8fd04
faf7fbf8
fbf5fdfa
0efafd00
010904fe
000202fe
ed0302f9
e5f1f3e1
fdfefbe9
ff010007
09f8ff03
01f0f507
04fffe00
050afbfc
06070002
04f3f7ee
0e0efc06
f3f4ec04
0cf90006
02100303
070409fb
09020205
0a080206
03070002
f804f9fa
fcfe00f8
00021600
00080808
10070504
1006080d
fc04060a
ebe40414
eee3effb
f90102fd
fc09fff7
0200fbf7
fdfdfaf8
faf9fffd
f5f7f9f7
030002ff
01040b01
00040201
e9fef9f2
f0f2f3e9
fe0903f4
fffaf7f0
0708f6f4
fefcff07
01f9f800
f9f70709
fe0009ff
03fcfbfc
000bfffa
f9f2f704
fcfafd00
ff05fe00
fffb00fe
f9fdfefa
f4fd0402
fdf703fd
fb0404fe
ff0002f3
0300fd0a
01f8f4fc
fcff00ff
f80000f8
01fd0200
f70101ff
fffefefa
00fe0102
fc00ff00
0200fdfd
fefaf8fa
f5f6fe03
0401fff8
02040008
01000400
f9f5ff03
0000fafb
0400fd00
0200fefc
f9fefcfb
090501fa
04060207
00060905
ff02fafe
00010300
0000f600
0503fbfe
f9f8fe00
fdfaf3fb
0f09ffff
09fe0009
0401fc01
08020309
f8fff704
000504fe
000103ff
060d0504
01071809
ffff01fc
05fdfe04
00000600
00010202
04040401
03010405
060c0407
03ffff05
ffff00fe
fbfd0000
fefefdfc
ff00fbfd
f6fafffc
fafcf9fa
08050b0d
0d0a0706
01fb0005
fd0001fa
f9ff00f5
f9f5fb01
01fafcfa
fefbfcfd
fefbf700
03000303
f8fffdff
fc0701fa
0804f6fa
ff010505
fcfdfb04
00fef6f7
fcfefe00
00fbfaf7
f70fff00
00fc0bfe
f2ff1703
05f1fe13
f5fffaf9
f1f5f9f3
00fafdf8
ff09f8fd
030206fb
000f0601
0b011016
fefc0804
faf6fdf8
f9f3f8fc
fc0200fa
15f9ff0d
0d03f1f6
f41cfff9
fffdf707
11001709
01f5fc1d
07fceefa
fcfd05f3
fcf6f106
f5fffbef
0703f1ff
fa00f5f3
fa08fafe
ff000509
0ef6fefe
0412fc06
03f700fe
f5fe0008
edfafb0c
01fbf3fa
f10602f2
f401eff6
faf402f7
04030501
010a00f6
08010400
0a0b080e
0002fa01
d3f4eae1
ffdce5f2
01080200
ff010a06
f8f90001
0303f300
fc0900fc
0803f0fd
effdfcf5
edf1fcfb
0e010002
010e0b07
0c0112fa
f4010307
f3fcf701
f3f804f7
fcf0eefd
f8fcf8f8
edf8f3e1
f5e9f7f1
00fb0001
0300fb00
faeffc09
fffefcfe
09050801
f9fd05fe
12f2fffe
fdfc0004
00fdf800
0001ee00
1206f9f6
ff0004f8
fefa01fa
fe0d03f3
fcfd0005
f8ff04fb
e70200fb
06040cf3
00fbfefc
12080100
07020502
fd030201
100bfffe
0402020c
f9f4f6fb
f8f30608
0bf00205
080b0903
fbfe1102
09160d06
f30209f8
0109f4eb
00ff0403
0006f6f4
f6fffdfc
040600fc
0efe0506
f8f0010e
fd04fdfb
00010afa
0302faf0
fe1402fb
ed00190b
fcf3f8f7
07f2fbfd
f8fff1f2
121efbef
f9f7f900
10fbfd06
f4fc0018
f7f40bf7
03030c0d
08fa030c
f3d9ff04
00090901
f307fa02
fdf6fef0
0701fcfe
03fa0b05
0301fb00
fdfdf7f4
f800edec
011612f3
f4fc0000
fcf5f9f3
02fe0004
f500fcf8
f3f800e5
f90c02f0
111014ef
ff010f0f
effffc04
fa00fefb
f90f00fb
00070305
f90700f9
00fb00f1
fb10fbf8
031914f4
fd0300fa
f9fef9f5
10f50a12
f80deffe
0afdf6f2
0a020802
05f5f909
fbfb0103
03fffbfb
fc12fc06
f4f904fd
fbfbfbf4
f4f8f9f9
020b0a00
09f1fe0d
00fbfbf8
f900ff03
0afe03ff
f10bf4f9
00fbfaff
020208fd
00fffe0a
0003fcfb
fd0103fb
fb010505
00f9fd00
f304fd02
fbfd05fd
0c03f701
fe00fd01
f6f402fb
ff07f904
f9000104
ee070b01
04f0f8f9
ef06f7f6
06fc01fb
0903fb06
10fc120c
010df800
f4fb0e06
05f9f30a
e5fe01f3
e5cff4dd
03fde8e8
fc05ff04
f7010bf7
f3faf701
0af7f5f7
fc02f601
00fcff05
f701fafb
fff9fdfe
1506f200
fa19040d
fee90ef7
0d071cf4
11110a15
0501f303
0b0b02fc
0d12000a
fafb12f5
f700f708
03fc0108
fbfc01f6
fe01f6f9
01070503
00fb0200
00fe0cfb
fb090606
f7f814f8
fcf4f40d
05fd0a01
fd01fcff
fb040602
f600f5fc
0000f3fe
02fbf702
04000d05
f8fdfc00
fdfbf8f7
0a01fdfb
10020d0e
fa060506
01ff00fa
0205ff00
f9fbf901
0e14fffd
edf7f60a
faf3f0f6
fe02fbfa
00fc07fc
f1fcfdf9
f8f4fffd
00fd0000
04020300
00f70102
000000fc
f9fd01f9
fcfaf7f6
010a0afd
fd0c0d03
f6f3f7fa
0e080afc
fcf5f8fa
1100f2f7
0a081009
000d0311
0707fbfc
00010600
fcfd0402
01fdfe01
0cfafefb
0c000c09
fcfd0000
f4fd09fd
fd03ff01
e9ebfbff
02f7eaf4
f7fefdf5
f5faf2f1
ff0afef9
01000b01
020c0205
01fd0105
f5fefdf8
090202f7
0700fe05
fffe050b
08010c05
fdfe0001
040704f3
fbfc0c09
f6f6fa00
f200f7f7
e9e7f6ed
fdfcf4f3
0b060704
08010bff
0204fe05
0a010913
fe0b00fe
0b040f08
0c05fc08
f402ff07
05fefbfe
0500fe1c
040a05fc
fdf9030f
fafef8ff
fdfbf6f2
f4fffefc
fffaf6f9
f5020301
fdf6fbfc
03060006
04060804
0c0c000d
0708100d
eaf70200
f0e2eeef
04f7eeef
fd060604
fa0000fe
01fe0205
0000ff03
030efc00
fffafd08
ff00fefe
010403fc
f7ff0004
f9fafef7
fffdf7fe
f6fcfaf2
fbfa00ee
fefaf903
00fa0004
faf7fe02
fdf903fc
fbfbfcf7
03fefd00
060b0206
f9fc060a
fbf6fefc
faf7f9f6
f8f9f5fa
f102f6f3
00fef2f8
fc00fefe
0803000b
05030f04
fefcfbf7
f8fdfcfc
000607fb
01000000
09040301
f5f900f8
07fefa00
f300fbfd
fef6f8f9
f7fafcfe
fefffef7
04fbfe00
0200fe03
fd07fefa
fbfefe01
08f9f8f9
0007fc06
0601050a
05110d07
07010004
fb000105
fd01fefa
ff040106
04070809
fe06fc00
0507060f
0b070f01
fafef6f1
fb02f9f1
f4fb07f5
07f9ff0b
fd04f903
fdfe02fc
ebfd0602
f4f7feed
04f8fdfa
ff00fffc
fefffdf7
fe0603f9
04fe0006
05060202
03fe090a
fc010003
ff0006ff
f9fbfbfa
05fbff09
f6fcfc01
0702f8ff
0003fcfd
01000400
0506ff05
0003fefc
00000001
f900ffff
00010603
fbfdfe01
06000002
03fbf6f8
faf1fdf9
fbf50005
effc0406
f0f3f9f2
faf3f3f8
f6f9f6f7
f0f8fdfb
fa0a04f7
0efffd0b
0103f8f8
ffff0401
00fb0b07
000302fc
05ff0507
0000ff01
09080000
fdf2f701
fbfcf0f8
f9f7f3ee
fcf60000
fffffd01
0000fe03
fdfc04fd
fc00fcf4
fcfe07ff
fcfefe07
fbfbfcfd
f1f7fbfe
f4f7fef5
00fbfb09
ff0500fe
fd0507fb
03f5f8fb
f700f3f8
fffd00f8
00f8fdfe
f8f1f6fb
00effc00
09f5f0fb
09050209
0606040b
04ff0503
13f80513
f9f6fe05
f6fe00f4
01f6ff08
0100f3fc
03100702
03f5f9ff
17feebfe
0ff0e301
0106f7f5
00f706fd
fcff0005
eff6fb05
f5e700fa
fdf7f515
00fc05ff
08f3f40c
ff06fd0e
faf20d0a
04000102
f903fdfe
060a00fe
0600ff00
0d07f6f1
fb0bfff2
f30213fe
0105e9fd
fe0807f3
faecfd0b
10f8f50b
03f7f806
060ffc01
fd150ef9
f804ece6
09f81300
0df1f411
1200fe07
fdfafe02
f2f8fff9
eb16f7fe
f91012ea
fb06190c
02040000
fc0a0601
04f8faff
060900fb
f2000800
00090707
e8fb030d
f4f406f8
14fe0305
0ff50317
1108f108
fd02fffe
fdf70101
fe04f109
06f9fcf8
1dfffcf4
160ae80d
020cf6eb
04000003
0417ffff
00fcf7f4
f904f7ee
f90006f4
f2ff02f8
11f10505
0f1ceb00
0301eeea
fdfbf8f2
03fefcfd
fdfcfeff
fbfdfbfd
0504fefb
0000fef7
0205fc02
070a0800
fbfd1006
0105fbfb
fc010400
f40a02f7
00070800
fafcf309
0201fbf0
fff0060a
00ede304
0504fdf4
fb06f200
fe0004f8
f600fbf6
fdf7f8ff
0202fffc
01010cfe
070df404
fc040303
fdfbff00
ef03f8f5
07071600
fc010406
0004fd00
0400fffd
fafffe00
06fffeff
000706fe
01fa060d
fe04f600
f4faf7f4
ff080eff
0bfa0909
02fffd07
f806fff8
faf609fd
fff6f2fb
0afef1ea
ff01000b
060800f7
02080f0b
05050d0c
fd010309
fffffc02
0503f7fe
f9effb02
fefef500
00000700
0503fc04
010603f3
f1fd0a04
0608fffb
060a0811
fdfc090f
00fcf9ff
0102f7fe
fef9fafe
f90003fd
0101080b
1107070a
fe01fa06
0b020601
f2f40102
fcf1f3f3
0004ff00
00fefefd
04fdf7fa
f6fafbfd
fcfff8e9
fc14fafb
03021411
00f9fffd
fdf6fd00
fff9fefa
01020004
fffc01ff
faff0003
0400fdfa
fcfd04fe
f7fcfef3
0504ff00
04070301
00010b05
05e300f4
0811f60c
05fe0000
0205f806
00020305
03f8fd05
f5fff9f6
f9ecec06
fcf7ecef
0bfd0000
ff06f801
fc0000fe
02f70503
00fa0306
00f7f4ff
f8f8f9fa
00030000
f8fc0913
06fa0800
fa03f504
fb030605
effb02f6
0006fdfc
070405fe
06fd0305
fd030101
f4fcfe04
fa00fdfb
01f7fdfb
0100fffe
05060403
00faf301
f801f5f5
03ff00fb
00f9f6fd
0803fdea
f4000102
f7f5fcfc
05060409
fefe0500
00000000
01010efc
f4020006
f9f5fdff
fffdf6fc
fc160109
01ff0704
feff03fe
000305f9
00010107
f5fcfd00
000dfbf6
00fd0100
f9fcf6fd
03f4fefc
00020302
09ee0306
0502ee0b
fe08fbf2
03f80a07
0502fd02
04ff07ff
fcfffe03
fbf6fbf6
09f7ea08
0405f2fe
fefe09f9
eef90e02
04f8f502
fd1702fa
e5041ded
07ec0412
fb06f0f9
fffefa00
fa01f901
f7fff5f5
ddfd0ef7
0ae10016
fdfef6ff
fd000101
eefd0107
f9f311f4
0502ff0d
e80b0bec
08eb0410
01fbff00
0007fc01
000a06f9
fd050ef9
fcfe00fe
000503f8
05f80107
00000302
02fe04fe
03fdf500
fe05fafd
fbfe07fc
0508fd00
040006fc
f800ff04
fdfe0801
ff020706
05080304
fafdfe05
fa00fefe
ef09fafb
e60019ed
00ee030d
ff000bfb
01f70207
fafffafb
fefa08f5
000508ff
08feff06
0200fcfd
020208fb
0b050304
0007f6f2
fffffd04
f40400fd
f9f301ff
04fd0500
01fef506
f8f505f8
0efcfa0e
100cf2f9
e207fcf3
ffed0300
f703f2fd
0f03f6ed
00fa0209
00030cfe
e604f901
081202ea
011b1efd
e30404f2
f3fceef9
fe082311
e1eb06f0
fdf50003
f4fbfcfe
2416fdfd
04fbf707
0100d8e9
00fe00f7
0005faf6
02faf4f7
0c0ff4fc
02000203
f900fdfb
faf8faf8
fafcf4f4
fe00ff00
f7fd1118
e0d7f504
fc061312
f1f701f9
040500fd
fdfa0302
fc02fdfd
0208fcfd
070617fb
fa00070e
f1d8f700
00f7e8f0
111403fc
fff0000b
05fa00ff
fef9000b
08fdf408
f0020003
fe01fff7
030b0ff5
fe01f9f5
0406fafe
f4f4fb00
020100fd
1d00020c
0d04fe0a
03efe708
fcfc02f3
0508fafc
fef6f2fa
00fcf5f6
f8f90100
fb00f8fc
f2fb0704
000804fa
faff0e04
fbfffd07
02000d00
00080a13
f8fffd06
02f8fdfe
05f90805
0006fd0a
f202feff
05eefff4
0008000a
02f6ff05
f5fcf6fe
06ff01fa
0df8f701
100b05f8
fbfffd13
fdeef9f9
ff02fdf0
f904f8f3
fff804fe
00eefb0b
f8f7f0f0
0907fafe
03040904
0515f5fc
f3fb09fa
f9f1f3fe
fffcfcfe
020f0900
ff1101fe
17fe1105
fd030713
fffdfe0c
f800faf1
0af0f704
0a04fcf7
f608fc06
f9f902f6
00f60410
e8f3f5f1
fa090bfd
00f300ff
fdf8edf7
0507fc01
ff000007
eb00f5fc
fdf903ee
f303faf3
0700fdfa
00fa0002
fb05fbfb
f7f8fd0f
f4eef8f7
06f9f0f4
fdf80000
04fbf9ff
02090304
f6fbff02
fbf9fcfc
f8f7f9f7
06050b08
00040606
fef9fc04
f9ff06f9
0f050105
05000203
1709070a
fcff0801
ff00f600
fdfd010d
14030506
fa081d12
fb0005fa
00fef102
00fcfe01
ffff00fc
0304050b
fefe01fc
fc0003f7
0204fffd
04f90d0b
06000d08
0001040c
13eee2f4
1ffdfd0d
f0f1f8fe
faf7f4f7
ff000409
00fcf906
f8f9ff00
05f90001
fdfa0302
0500effa
1415f9eb
04040305
ea0107ef
b5def3f8
fe080ed6
0c083207
0100fbf8
00f7eb09
fd000200
01f20600
f8e8fa02
f6001206
e2f5ff09
fbed00f2
f904fc06
0f03f3f9
000cfa03
ea041b0f
e7e5eae8
00fb02f4
03fcf3fd
0006f9fb
080d1603
f80316ff
07fe050d
f8eff707
fffef0ec
11160807
fb04f80a
0500f4f3
fe030903
f9fef7fa
10fcf1f6
01ff09fe
02f9f200
01f40110
04f40a0b
00fefd05
0400fe00
e9090002
f6ef07ee
ec0208f7
f8ffece9
15151104
fd010a05
f0fe0400
fc04fafa
fb02f8fa
ebfa060b
070108f3
0105040d
fe0909ff
f6f904ff
01071301
e902fbfa
faf8ecfa
11faf2fe
f9f50006
03ecf6fb
feff0105
00030df8
f5000805
000f0109
00080bfe
fdfc0009
f9fefefe
0300fffb
f6fc00f8
08020002
fa07f800
fffb02f9
f9f9f7ef
fdfff4ff
fdf8f2fa
fd05fef5
f2f60200
00f6f800
fdfef6fb
f5fc0af6
01050907
00000203
05000400
fe05080a
fe02ff04
06fa0300
000d0001
f3f5fff8
fdf9f6f5
f1fafdf6
0ffc0501
0910010a
0405fefe
020603ff
0e0c0403
02130708
f8fa0504
13fd091b
f801f203
ff010100
02ff0002
fe04fffa
fffc00f9
0af9fb00
0808050b
fffe0304
fe00fbfb
06ff0000
0500fdff
ff00fb00
000100f9
01010402
effe0207
eeedf7ec
00f0effd
fcfd01fd
00fef900
02fe0200
0100fc04
03ff0300
fbfe0002
040001fe
05010103
fc0001fc
020afe03
fcfb06fd
070305fd
0806010e
0c000400
0506fa00
f9ffff02
06f9fd02
00000c01
ffff0000
00fafa04
