0e22ffa3
0f3c07fb
0889eebc
21b72fe9
03c71de4
0e000151
15d9167e
eee038be
f75617b5
198a25a6
2003fa4c
163322b8
1a1b1c06
10dd0782
1749110e
e2a604e0
0e0531d4
f9c30092
fb050171
f82812bb
0d8f2791
18571c2f
184f15bf
2ce60889
eecb1237
2e6114cd
20261247
0bf21ae1
f5003bfb
f64e00ee
29252121
08d0002c
1f1510e7
089f0042
28c3f1f3
24a605c3
0b57f469
095a11b0
0bbb1d47
f7e6ff7c
01cae1f3
f300e6a3
00ff14cf
d8001024
ffd51e9b
4bfe1763
159a20e6
1bff0ef5
0999354a
11fef8ab
0d0d1f64
39650397
0b6c0c61
34ce16a9
2fefe180
2d34064e
1ca02ad7
142cf296
ea54f445
125afadd
206433e4
01bc2138
16ab05bd
2ae5fc1f
0730fefe
fd9a1b3b
2158ffcd
01281fc5
07270931
fa1916af
ddb32c32
1f010ee7
df2319bd
f9631fd2
2e831f1c
c689fc7c
28b6208f
df29f5bb
2a810cb5
0c291a44
01b618e2
0b2a03fb
054029fd
037a049e
1967fe61
1ed71bbe
f8c3fcf0
310d152d
34873ad0
28914668
35512ba8
123333a5
16a10562
e1e714c8
246e0177
0efe1647
e7f12673
03af2793
08711c5a
20fa3d59
2788190b
1ffd1b26
118fe1ec
23a3116f
fc23f4b5
03edfd34
1a4e0d8c
06470884
2d720221
234fed45
03110147
f8c51439
10a74a02
05a618f4
18481fe4
03ad0285
265f0d8c
f9c22cb1
2027de56
025ce869
01361d47
3773298d
07261de2
0ce4efa7
f7f5f745
09fc143c
13d9250a
158e0aec
b9082320
f6e4ff1d
2ea5311a
1721ecd8
0b39f523
19d703b7
1086f387
4c6ff115
1aae0978
230d1538
e548f046
dba84e64
01982571
351dfe9a
ec2c125d
1222fc60
05240d2f
09e31ee6
f72803f6
2b7114c4
f5a6fd67
055e1e0e
0f1bffae
0ec432e1
eb5a1654
f45a108a
001d1828
05cc0bb7
ef551c5f
da7e28cc
e5f01002
1152fa1d
e9ba1da1
f9c80a5b
0016f771
161c264c
fa7408f7
e93212c1
102f0836
0451dbf8
0a1afc1a
0c3b1b91
fcda1200
f6480ffa
17ad0659
19fc2b3b
08890bd9
3969292c
1bbb0d2e
fdbe2900
dd26fb63
1daa19c3
db6dfe63
d6ac2525
18941537
1030dfb1
07b80436
fe21d4f2
ee3d0ed8
1b252e70
e3bd28b1
0b850246
c8031220
1a073b61
1798e609
0f9000b8
1ba50688
1635f72f
407bf012
1d5618ff
1b781f56
1ccff798
fc2a131f
1b6ff7d4
ffe00f14
0ca82794
21c8e987
03f90ddb
f50f1059
dab0fdaf
fd1f1c91
00e614fa
04772314
4d7341c8
00670189
dc6ee732
0b1d0308
f79626f8
02801a34
2130f04c
fe1cf918
06c9e93d
05aa12d7
1f7410aa
19b219f5
f6fc080c
d0f71acb
1c62fe10
24af1893
079a1ad2
f4ac1898
041112de
164b1e35
065f124e
19d815f2
0eea12b9
0b48e7ec
084833d2
fb544682
3de20498
f37216eb
fde810e1
0dca22e4
2ffc0aa3
ee13fd58
1bbe2cc4
32f50671
e7191764
f50210e7
f54ef95a
225e05ff
ed4f1b9b
11760bc9
155909af
340501eb
08a61402
f7ef20ad
ef300aac
