10150109
0900fa07
feef17fa
01f9f8fe
02000009
0efced0a
04f1ff07
08f91308
10091bea
1b09f7eb
17e806fe
00f30cfe
fbeafdfc
0303fb01
f905f3fe
f5eb02f1
0af40dfd
fa06f5ef
fe0c0502
f7f3ff03
161204f5
fe060005
ec02ff1b
fdfaf904
fce60810
fadf0afd
12f10a07
0cf701f9
fd0f0006
f11001f5
f80507fd
0f04fe07
f505fafe
0518f607
05f2e801
fa070002
f1f2fcfe
fdf509ed
0c05fcff
0700f607
1d0213f2
fe130af8
04fc09fb
f400fdf8
09fffd07
19fc0603
f80afdf0
0b0e0107
0a0b18fb
0fe8fafd
e6fb0002
f0e50cf4
17090801
1ff2f5f5
10fefc05
0907fcf8
03fb0507
f701f100
09fd00ff
0408f61d
0b070014
0403f711
08fd0405
fcfbfd00
06f3f8e9
fafc2209
02050bf7
f705fdf5
ebe606f6
0606f30c
e30103ed
f007fbfa
00fc01fe
fb0cee0f
12fefb00
0106fef0
0ffb0cfb
030af90c
ea00f901
ee02fe18
f8020815
f10ffe08
fe10fef9
240904fa
0afdff10
05fdf6f5
fe0c0bf3
f20d0c04
0df50805
fef5f310
0af71bee
032306fd
0603fd01
1917fbf1
070701e9
f9fd09fc
f8ffe8fb
03f905f9
0bf3f5f4
01fa0afc
040506e8
faf107fb
000bedee
fcfcf3f7
f20300fc
01fa1af6
07020707
00fe11fc
03010518
fb05f7fd
eb080710
ee0404f9
10ff09fa
f3f1fef8
f8020c0e
05f709fb
fa00fef9
0001feed
fcf3fcfa
fc000cf0
24f6fdfe
f8f709ed
04030701
16f500fb
04f4ed0b
1202fa0d
03ebfd07
0d0214f1
07fbfdf6
000601f9
1af5fbf4
0f0ffe10
f704f80e
f7fc0208
050f03f4
10060400
f1fbf500
01f106f6
f40805ee
fefdf6f2
05f1f90c
000801fc
09060a00
06ff030b
f9030006
f4000cf4
fdf9fb04
faff16f1
0004ff07
fefcfdf3
fb16fc04
090600fe
00f9040a
01fdf908
f40104fb
cd000b0a
fafe00fa
0bfc0206
0b07ff01
0004f5ff
02f214f3
0011f5fd
eceaf9f7
f6fef704
10fa0406
ea05fcf9
11031410
ff0511f7
0af91504
01f6000d
fc0a01fc
05ff0805
0411000b
f30209f9
060511f6
f605fb09
fdfef5fc
f5050601
08fd02fc
f9051a0b
f90800fa
f9080107
00f7f407
09f007f6
f300fef6
00090209
faf0fef4
01fe020e
faf70106
f9fa0100
f9f802ea
f6f7fd11
f8fdfe02
00ff07f3
0200fa04
fafcfbf9
0101130d
f3f7f5fc
f10002fe
f4f30302
f4f6fbfc
0e09eb00
0103f202
030af808
09000909
0507f901
02f90400
0a0d090a
0203f9fa
0000f900
fb0bed03
f703f7fe
0a03fe00
fb000506
fd0311f6
12fdfff2
031000f8
05fbfb00
0300f111
fe00f501
05fb110f
f4f4f7ff
e60805fb
000a0f0e
0f0007f1
080bf5fe
00f1051c
ff00fe08
0701fa11
06f8f8f4
000af8f6
0400fefe
0d0200f4
fb04fe16
ff00fb0c
f9f1fd13
0801faf5
fb06e605
fd051af6
fa0602fb
000e1104
f10513f9
0ef20800
fb13f702
f802fc0b
f901f409
00fdfffc
05fdfb06
00fffa0a
f50bfef2
02fef5fb
03f1f703
f50e04fa
09f3f904
0101fdf9
0009fe0f
fc0c02f9
001707f0
1000fef4
01e706f1
08ec040d
fbfdfe0b
fffdfa00
f9f2f901
f9120003
eff913f4
f711fe00
00fdfaf5
08f8ee01
f7f7e40d
fff9f800
f2fbdef4
fef2f219
0bedf3f4
fd00eef6
e8fceb00
05fdff03
08e70eee
e716f00e
12fd0010
0a000416
f3fe0207
0fe80eff
13f2fa0a
f1f70def
f900f9f8
0406fbfc
fcf8f910
f3f2f300
000c0002
07f5edfa
0cfd0413
01ebf1f5
0501030c
16fbfff7
fd030a23
ff05f907
0afe1005
f3080406
13f30513
faf3ff06
f0df00fe
eff2feec
07f3fe06
fb12f001
fc0000f9
0ef802fb
ea070df9
f7fbf60a
fe0207f4
f701fa0a
f615e4f4
0cfc0ffd
e8fafd08
e50d03ef
13fff801
000008f7
ff0700f3
00020c16
000cf20b
0b0ef7fd
03f6ff0e
1affeef8
fdf2f605
f6f11008
fd051a13
0605faf4
03100910
01f90804
070cfa05
05fc000a
f00efaf8
06f5fff5
f0fdfeeb
010ef501
15f3fb0f
f904fcff
06fc1207
ebf4fef0
fdf0fc29
fdecf601
09f7f4fd
f61efafc
ff14f7eb
0803fb09
fd02f301
02fb1b05
fefef60a
0efc00fd
1efbfa16
f2f0fa09
f302ec09
ea0f06fe
f0f60b06
f4f9fc02
f3f80000
050e1108
fb211af5
f50b02ff
f8ee06fd
09fd0c04
0cf60508
fe08f10c
04ef01ff
f80307f7
15e7080a
f3fdf308
08f2f6fc
f8ee1000
00ec07f6
0800fefb
010d0407
080918fc
01ffee05
070901e6
0406140c
17eb0200
0bfe11f2
12f5f80a
09f6f5fd
fcfe091a
0efe14ff
f802f1f1
f00502fa
0100fe03
f9edf807
030cf8ef
0eed00fb
03f9fafd
070100ff
19fb0108
ef010dfd
fe06ff14
081300fd
f7eaff0d
0cf200f1
00fb0106
0906eafe
0afcfef1
f60f0000
01fff600
060202f7
f60506f9
fb020606
0ffd06f7
0900eb01
010607f0
f900ff00
070af806
00060cfe
f5f8f2fc
ec01e8fb
ea04f80a
f0fa0bf8
00080411
150702f7
05fd070c
07fcfb0b
0104f2f7
e8e70918
ff1100ff
04f80003
f800e1fb
050001ff
fb03eb18
03fc00ff
fafe0dec
eb04fdfe
0a050400
fd0203fc
00fe0dfe
f300fbfd
1ff6f907
0209fdf5
000bf508
fbfdfde6
f7040bf6
0afff702
0506fa00
01fc0610
fefdf3f6
f9f80b00
01fef400
01f0f702
0f0026f5
04f600e9
07fc0403
eeff13f2
fd05fdf1
ff09f000
09e502fd
fb06fefa
def41112
080a06fe
fdf4fa01
f5f7ee0a
fafa01fe
ff0ef1fd
050a14eb
02f40002
f9f813f0
0a0e04fd
000900f7
fbf2f808
00fa09fc
fd0f07f5
fcf3e9fd
f8021107
0801f7f6
0cedf2f7
09e800f5
fbf60bfa
081300f5
09f50202
ff010602
fd0411ed
fc03ee06
0309f7fe
fb060601
05fbee04
e8fd0e03
fdeff4f5
fff3faf9
fbfaff04
fb18f402
110013f5
f806f2f8
000b11ff
050910fe
f6001200
fb00fd05
00fcffff
0004f80d
fc06f10c
f50b020e
0e0b0def
ec05fef6
03f7f1eb
ecfa1ffd
f4f1080a
0402f200
0a031104
04020c16
1100000c
fb0312f3
0100e608
050d0a02
f2fc0200
f904f9e3
121508ef
04020411
00f8f00f
f6fc0bfc
ee0e0305
0ee707fd
0c000305
00ff08ef
00fdfdfc
efe509ee
f8f8f9fe
0009f5e2
0df9eafb
f0070d0a
03060ef4
edf71402
fef21eea
ec01fb0d
090509d6
05001a14
03f2fdfe
f6f3f20b
fcf20903
f40b0111
07f50010
fdff05f1
eb14f6ff
eb090cf2
1cf4140e
fc000bf4
eefe0ffb
19f50607
02f7fcfc
fa000300
ff07e7f3
e800000b
12efdfef
0b0def00
d909ec00
0201eff9
f8e8fd00
f7f7e909
0905f9e7
0b16f4f2
f9f1e8e5
0406ea09
f40aeae9
0c05eb00
130206f6
e500fc03
fe07f80e
0c03f502
07fd05ef
f4fffb1c
0af80008
fd0405f7
f7e8f0fc
0500f0fb
efec0d00
f5f2fd17
f4140201
08fe1000
0301fc1b
0408fe13
07f7f8f8
2228e4fb
f507f700
e406f104
f5fcf9ed
fefb11f6
11fa00ee
00f7ecf6
fd080111
eb0a1bff
f4f209ef
08f500f5
f4081414
e7f309fb
fbfff1fc
1a0ef600
f63010fb
09010a0f
f1f9f90f
e8eff801
0afb0e0b
0c01f6ec
260612f1
fc09f4f2
f0100bee
fe00fef1
f702ff23
f4f1f400
ffe0f801
0bf612fc
eff20001
0a04ef07
f507fe10
070a01ec
fcd6fcf2
03f8f902
ff11020b
edfffa17
eef410f4
f7f7f6f9
020ff206
e91ff300
0601fff7
e9e607f3
fcf409f0
edf507e4
f2fcef01
e0f603ff
f6fef3ef
0110f9fe
fc0015f1
0afffa08
eeedf9f0
f0020df4
e6e1ec11
0a0401fa
f800fcef
0106f7f1
f4f6fa06
06f9fb05
13f0e813
ed000001
faf81704
00f2f107
fb27f42c
fffa0107
070d1700
0ffb0d04
00fa05fd
ee0314f9
f5f10606
090505f2
06fe000b
ecf80ff5
ffee0efa
faf1f80e
f604000b
f5f2f9f4
0df8fc06
0202040b
ff07f500
fefdfd0e
fe060005
070a1000
0504fefd
fc010a0b
0ef906ec
08000b01
16fbf9f8
00f90404
0d0ef4f6
f8fe0406
0606f1f2
0cf4f309
020af2f9
fb0afcff
fff71403
0709fc03
01070100
0000efff
f7e9fef5
14f0eb0e
060c0bf9
fa00fbfa
0a040bfc
0701faf2
fef9f6f0
fc05edf1
0aff0800
fa00f705
04000201
0c06f1ff
f206fd0e
110df211
f3fe00f1
f807ef04
0207f60d
080df2fe
15050000
02010000
0b07fa09
fb070705
000aecee
f105fbf7
0906fc00
04020801
00fcfff4
0afaf705
07010d01
10000000
00fdf3f5
0d00f305
09fef6f6
10fbfa06
00000503
000000ed
00010a03
f4f814f0
030c0bf3
08010103
0505f50f
f002f2ff
f300fd03
060102f1
00fcf300
fc0dfffa
081410f3
f00002f7
fa0ef902
fdf6feff
0dfe0602
0e0b1302
f6fd06f1
f60200f2
f41306f9
0efc09f3
01e8fbf1
fa050305
07f8f0f4
f306090b
0001f3fa
0a0cfdff
f8fa0d06
00f20604
080fed0e
090c0406
fe000b0a
06030bf9
000701f5
03010302
f90606fd
f6090bf6
0009fff0
f7f60dfc
fb0c0b0d
0af70601
05fceff5
f7000902
0405fff8
ff18f6fa
0a0e0bf7
f510f507
0002070d
01f3f205
0dfc00fb
fef901f9
f4fd0408
f901ecf0
0609fc0c
f6070dfa
f50007f9
f704050c
00f408f0
0811f704
f904f40d
f3fdf80f
0001e9fa
fb00f8f6
e7f90cfc
0cfff908
07f1fbf2
0109f2fa
f311ec03
03f903f9
ecf312f9
f000fd18
0c04fb05
02e90500
ee0108fb
0e0016fc
00120e12
0e11f90d
fe0e0bf1
e7f1fc03
f4fd0f0a
fee90712
0e2403ef
14f806fd
f4f4f90d
0dfa11fc
fcf9f504
f606eafd
f5081607
02051805
033805e2
f40c01f8
fbfb00fd
efff0209
faec02f2
ed0607fe
060410ff
fa03fbf8
f8fcfc12
e800fe01
04fbedfb
030de8f6
f90afdfe
fffe0200
0311130a
0fe7ffe9
0000ff08
020108fe
fdf500fc
fb020204
13fdfe02
fa07f9f5
f2eb0908
fdee12fb
f8eb0cf6
f4f60cf3
09f31de3
00f7fe12
f50efff5
fe0d1107
f9fa0eec
1015ec01
f3f418eb
0103fb18
f50d02ea
05fd01f0
f9f90811
0700ebf8
0eeb05fc
0103fdf6
0611ecec
0a051712
1d0d0afc
0d030f06
0a010109
10060614
0c060f09
fe00f61b
f30311fd
0a0104f5
0a041806
f313ecfd
fd170e0d
ff12f3fa
04011bf6
f5f51111
0305f8ea
f2f0020e
f603eefd
fcf60400
ee0bf207
0c05eff5
110700f0
f80c0bf5
04f3fbfd
fdfbf7fc
fbf701fe
06f3edf0
fc11f906
00fffae4
17e300fd
02f60812
f501db18
06f4f3f9
000af10c
fd00de08
090ef3f5
0cee1cfb
f5fb05fc
01fafcf9
f2f5e91b
0a041e10
11040ee8
2306000c
fa0b0205
28f8f4ed
1502f71a
f5fce903
fb11f6f5
0d021415
f000f600
f60cf208
02f00511
05f1f6fd
03f001f4
fef10c00
04ecedfa
00ef0303
f50c130f
17ff04ed
f80bfb14
f20e0000
fa0200f5
0d03f204
15ff1003
eff60001
fb0506f0
fcf6f0f2
0cf7eff6
030af9fb
01120709
f7000107
f7fc0004
f3f9f917
fcfaf4f5
0b0200f3
f3f9ff00
0905fff3
09f801ed
fff400fc
1502040f
f9f0f7ec
060ffdfd
f7f7fc05
f7fd05f5
0e0fed05
f50be80c
0411f202
07031006
0cf401fd
05f4010a
efef00f2
f2effaed
f7f5f300
0bfa08fc
04fa04f4
13060b0b
eefffef7
fb0701fe
02fe00f9
05050af6
000505f3
fef11208
08fcfe0e
fb06f1f6
f506f60d
f1060105
0714ed05
ee0004f7
ee04f708
141000f3
fb04fef6
010cf902
f606fafc
fe0cf5f0
fff40404
0c0002fb
0f110c05
050e0e00
0d0ef9f1
eefb0e07
070113f7
0111f3f2
f40afa0c
0802fe02
ebf910f9
f504f805
fb15fc00
0efff5fc
08f91008
0700f6f0
f2ef04f6
0009f10e
04ffef0b
f609fafb
f801030e
0cfb0603
1412fc16
fd08fcfb
01040e08
18f8f714
05030af9
1011060b
faf4f9f8
f011f4f2
03ee02f9
08f40df9
0b01070c
f3fc1108
0409fa04
fcfbf713
0d04fcfa
040b0300
03f40cf6
00f5f600
f9f30b08
fe05060c
f9fcf8fc
f2f9fd02
f4080801
fa10f7f2
0203f5f4
fdf70cfe
fe0ef90a
fceffbf0
f308f600
f3f51301
0efb0a14
00f8f6f8
0a0f05fc
00f01109
f0110bf9
0901f0fc
06fff503
00f2020d
f2fe01fb
fc070b0a
f6fcfaff
f903f3fb
fd07ffee
11fcf109
f60a00f5
fa0ff70a
0805fe05
030df4ff
f415f305
fa0403f3
fb0ae8f0
03160ff4
02020afc
02150903
f9e5e700
f9f2e905
fa1111f1
04fbf409
0900f02b
00f4f7f3
0014fd02
f700f3ff
f60afb02
00e9fafd
f40a02f8
0a11fdf8
ed07ffe1
fff6f905
15faf5e6
f70cfffa
f5fa1233
f20005f7
26f4fd09
ecf0f0f2
f8f4f715
eefbfaf7
fa1bf00b
0c00f3d1
0705fcfb
0af1f6fb
fef3f6f6
eefcea0f
e526ccf2
08fee906
0508ea04
e62002ff
ecfb010b
1edfebf1
fd1106f4
0c13f408
f9fcfef8
12f215f3
00d9f4ee
fbfeeff7
00f4f113
19e8e7f9
10dbf204
22f8ef0c
f3fe07f0
f80629fa
0cfd00fb
03fef500
0701f807
fcf6f903
e1f4f1f9
08fef2fc
dff911f4
e5012712
0200000c
fdf312f3
05f40cfd
e003ee0e
f9fcfbe6
000aebe9
04040101
05fe1307
1af40013
defcf201
03e9f715
09f70b09
101cf605
00f901f3
140b0120
00fef30d
0e09f205
edfaf80a
200801f9
01061503
020bfd0f
0007120b
00011304
1415f0ee
e404f81c
0101fbf8
00f204f1
f61c14f5
010105fd
001bf5f1
1ae9010d
031004f7
0afd0bf8
fcfa031f
fdfa0b07
020a0c01
f90707eb
191710fa
09f40405
270300f8
17f0f200
eb11001a
fef408f2
081a0714
2afcfa0a
0206e1dc
0bf9eae8
3015f1fe
0afc0cf8
0415fffc
0900f208
dcd2f9f2
000af305
f2fe04f6
06cefbfd
f4030bf4
ef0aecfe
faecf113
0608fa04
01130b00
0206edf7
07d3f7f6
07fbfcfe
fa0bf8e0
f31cfdfe
000f0712
04f1f505
07ef1302
00fb1202
0fef0af9
15fe09fe
f700f406
0b06fd0b
0904f3fd
000001fc
f9fd0203
f70500fc
fffaff0a
0d04fcfd
0a05ebf7
f8fd0007
f6fa06fe
04fcf904
07040304
051f0802
fbfb07f4
f60106fe
07f9f907
0705fa08
11f909f4
0f0b07e9
fa070101
fc0400ef
00fbf915
ff0bfb0d
f9fefc10
ff060cfe
0ff1f902
f600fcfb
0204f90a
fcf904f8
f500fa04
07fd0bff
fa0c03f8
040605fc
fcffec02
fb090907
f8f5f3ff
01fafe09
00fe0ef7
fe03040d
f9ee010c
f7ff0cf1
0c01fbf7
04ffebfb
07fb0bf2
f610fb01
04140002
08fe0009
fe10fafa
09f702f0
090bedfb
03fd03ec
f2fc00fc
00fbfdff
f605fd00
00fd0a02
f50a0c09
07f00212
00f8fcfa
fbf80213
f307f105
ebf8010e
fcfd14ff
0b090001
00080703
f9060206
fa00080d
0700fe06
faf903fb
fffeef07
0ef5fa03
ee06faeb
f30611fc
0000fff7
f202f500
0909fffd
13ff0cfb
00fdfcfb
03040400
0c0302ff
001200ec
f8ef01f7
ff050f0a
000f0300
ff0400fe
f7f6fb08
fef11301
fafb00fd
0d01020b
ffe80506
f2f80504
08f9e9fd
fefdfc02
04f2fbfb
0709fa05
08fa0301
09f50509
fefd0101
fa001004
00fdf5ef
09f50e09
00fffc02
05f9f800
fdf504fd
fb0f0501
0408fb0d
1408e603
f4f3fe0c
f9f800f7
ffff0ff9
06fffae9
fefe04f6
fcfc070a
10f605fc
f5070014
ff0afe0a
0005fc0a
010409fe
11fcf4ff
0a04f9fa
f3f80cfa
02000509
f705f902
0505eef3
04060b00
fd000200
08f80010
09fc10e8
051f0e08
fffffefe
00dd0401
f90ff5fd
eff80a12
ef02f200
04f60c04
000a00f3
01fe05e8
fffef1fd
efedf600
11d9ff01
0c071e00
fefdff05
0505fef6
fefe0ef6
fd0904ec
0011e3dd
eff2f202
0909f2e1
03000411
0604f6f5
eb04fdea
0700f710
fb08f50b
04ff0507
fa06faf0
0206f609
fe090cfe
f6ff11ff
0cfff3f8
edff1100
0204ec07
05f9f800
01f7f1ed
03071108
f8fdf508
17020b04
fa001a0f
f9f6fff8
080e0d04
01000ff5
12faf00a
01fff003
f7010005
e8f5f6f7
0afa00f7
fc0b04f4
f800f909
f40500f9
fa03f204
0804040e
0a0cec00
ed01f2fe
ff0005f8
fafe0cf6
f400f70d
fc0208f4
f40bf809
0b0a1200
070d0934
fef304e5
ef09fb05
070705f4
f8fb030e
f9f7faf9
f6f4f4ef
0cf90002
f2eceb10
040403fd
fafe0917
f8020af8
0805f2fa
00ff0814
0af0f5f0
13001c0c
fcf607f6
f8040af8
f7000400
0df9fcfb
fe0c07fa
f9120e06
0bedf703
1503f400
fcff06e6
f8f200ff
000efa05
f8fff407
f00afa0d
f10e001a
08fbe410
040dfd04
0009fc01
030dfe10
eaf6fa0a
ebde0aeb
fff9fe02
ebf200fc
06f0fcea
f30af500
00e90a0e
0ef8100d
fdf9090e
0403ee0a
020000f4
030e1302
f9fd0a0e
ede70a0c
f3010602
fd0809f8
0c0affe8
fcecfe18
0705f7ff
0e08fd0f
f0fafcfd
17f30819
eff90603
dfec120b
130ff00f
10f5fd13
1601f900
ff090c01
02f811fb
f617070d
f4f308f9
07f4e309
d9fcfe0a
ff1300fe
0bfeeb00
f40de2ed
fbe6f0e8
faf00410
130e0303
f8f7fd00
ec0af6f2
011efef4
0000eef7
fff01400
19fbea07
f7010cf3
f23409de
06f80002
f9e4f8d5
f3fdf5ee
29fb0409
faff2801
e6f3020a
0c01eeea
e6f6f81a
ff131d00
fddc05f5
f816fbeb
1bf8180a
f100f71d
0ce9030d
04030aff
ea0ee1fb
eb00fa04
1adc10d0
0ee70cfb
fd132a03
0ff7f0f1
f21fe819
0901040c
e7f2fbf2
ef0ced0a
0900faee
eb07fb10
02f60501
0000e7ec
f8e300fe
080ef7fb
060302ff
0017d3ef
01faf500
fe0f07fb
f807060a
fb05f304
08ef00fe
1809e7fa
0208ed0a
f9f50f20
0bf7f300
f50bfef1
f8e7e9f3
00fbe228
210c11f7
07f112e0
00f2fd08
e5f5f6ff
11dc09ea
ec30f9f0
f6e2f605
0aed04f1
e545f5fe
030d1114
fb100119
01fe0108
0003df08
010ade07
f70b1d1f
f8060a06
0309fa03
fd08fdfe
1d0108f0
f61700f6
170a0407
e90d02ff
e6f50ef1
eff6e722
0cf63803
fefe1828
d2f4f91b
e51318fe
040117fb
000b15f9
fffcfbf2
e6ef0508
02060808
ea03f8fc
2d0411fb
fbfc0cfc
100e0bf8
09140f02
f5ee0006
08112efe
13f0edfe
f2dffc19
f0f708fe
f1fb18fa
fde1f106
e6ed1e00
feeeef11
fbf703ee
0202f800
20f700f9
200f00fd
1804fc1b
1414fcf7
faf3fa01
fde1030c
e9e51305
ebfb050f
fa2205f2
0c12f812
011de525
1a15faf6
fafa1f01
0df800ee
01d8ff11
e40630fd
ecfdea0b
f519f0fd
f6160b06
e726fd12
f10604e8
1110080f
00f812ff
0d02faf0
030d05f5
0a150702
f10b0000
f4f805f0
fcfc0be4
fdf9eff9
01ec04ea
fdf1fd04
11fb040e
0c0407fa
fbfc030d
01f1fcf0
00f2fce7
f9f900f7
04f7f5fc
f5f7f7fe
0a090ad8
07e3080b
eefae9fb
f12305f0
f8fff014
fafcf905
000618f1
010300fc
fe06ff00
e7f4f403
0f0412f9
fdfcf9f5
000009fb
fe13f5f0
fafcfc00
06050400
f1eefb0a
10fdfcfa
00080207
07fdf8fb
09f1fa00
0301fef7
080b00f3
fbf401f1
0a000806
e50ef702
ec090709
f902f600
fa120109
1105f80a
f6ebfaf1
05140a00
040004fb
090306f4
ed0701ed
001a0802
09090bf2
faf60a0a
0aee0304
010a0900
05fc0a08
fcffffff
06f3ffef
0004f6e5
0ff907e5
f6001502
f7e60510
f4ff05f1
09fff0fb
07f91011
06faf6fd
010c0dfa
f8fbf2f8
0213030a
f7f7f31d
040c05fc
f90c01f6
00ff00f3
f404f608
f8fff200
fbf601fd
07fd00eb
eb05ec05
1101040a
07e2faf8
f7fa1900
0c00f4f4
ef0a050c
f604fbf1
06f6ee00
fbfff7e1
fe02f620
f61e0c00
0a15000e
01fffef7
000ff100
0e01f704
0ff7fafc
e90003f4
f605fbe1
f8fe01f3
fd11f703
ef0d09f2
0e08ed0c
000efbfe
fbfe0b06
fc060d25
1a100402
01ffffff
02f7fc06
020907fa
f20d1017
f9f5fc0b
e9fb1207
f9070019
faf805fa
eff8f203
fdf905f2
f5f5eaf4
fe040115
11010bf7
fef7fff0
190414f9
fd00f0fc
f102fa03
08fff6f9
fef50008
0df8fcfb
00fefcfc
05f5020b
ec001c05
11fcf3fd
0e0a0beb
0502f813
ebf30213
13ef10e1
1700f2fb
0e05f814
fa1d0bfb
08000605
ee0800f3
f7f8ef04
faf40114
0402fcd9
fcfa0bf4
f4010be4
fdee0a0f
f511f501
fb0fe9f1
fb00fe04
fce9e114
0705f1f1
15ecf600
00fe010b
0cf60518
fbf6fa0e
1e06000f
eff0f502
0922fee3
040e0f0f
1d18fcf2
21f9f3fd
151000f1
e908eb06
f9faf00e
15fa08fd
fcfefdf8
fafa0a15
06f1f902
fd0b0501
01071105
fe010a10
fce9f20b
1cfaf71c
06f800ff
020e2911
f51cfbeb
f7f50ff3
070df317
0406faf7
0af8faed
13f60108
0e071700
f6050df1
1cfe02f4
f6f50003
f7fd01fb
0819eb09
f400f3fb
060c2efb
ff0ddb12
e8fceb17
fe0dfc12
0bf604d9
da16fceb
ea0cfaed
f20af8e6
09f304fd
0afcfced
f6160909
02f80301
fd02f30a
eafef910
fdf90c05
0e150b04
00ef02fd
f10f02fb
efe60305
efed16f5
ed1207fb
000c0df8
01eff5ff
020b11eb
fc0de702
fd01f6d8
fa10230b
0f01fffe
f3f6e4fa
081a0d01
0005f00e
f204fb0a
fffefa01
05f5eff7
f9de1103
f508f60d
0300fcf4
db0a01fa
fd0c0724
ef0bf2f9
0b060000
0327fff1
ebe8ffec
00fbeef5
dbf1fee3
e718edec
0d00fb0e
df02110a
04060b10
06ec13fa
f3e615ec
fffc0e10
fb0502f5
f5e6e6f8
00f802fa
fff801ef
efddf011
0dfcf4e8
e90eef11
2aec08ff
06ffff1c
f6ec0dee
03e40b06
0204f800
f6ec16f7
eef2f905
1dfdfad7
fc080af6
fefb0604
f9f8fb09
fd14f7fd
f71500e0
19effeec
effb0418
0404e0f8
fdfa00fc
fdf00b0f
021104db
edfbf60a
10100b04
ef0100f0
030a0304
23fa09dd
ef0909f2
ee09f405
fc0b2b0c
03fdf608
0607f80e
faf9edfb
05e7f212
f7f1fcf0
0303f205
11edecec
0505110c
04ff0cf1
fc000a12
edf6f506
02f9ff0d
050101e6
ffe8f6ff
f103fe05
1103eb0e
fc23f8ff
fe080afa
faf80ef7
f61610f5
0108ffcf
29050d07
faf0f9f7
f502f206
0cf4f517
fe050208
f8fc18f5
1913e603
fd0b1cfa
fff518fc
f30a08f7
0d0bfbf5
29fe0800
03fcf908
f406051a
0503ffe0
1ef903e8
fffc08f2
04f0f5fb
00f200fc
031e0ceb
0604fa02
f6060bf7
f2f5fffc
08ecf7fa
03fcfe0e
f0030dc3
fbf1f8f9
df01f613
00f3f200
1402fd01
0cf0f00d
000cf1f3
02e7fa0f
fb080007
090000f9
f5f1f1fd
00f9f0f1
00010906
01f3020a
0cfe09ee
00020cf8
ec01ed02
eff9f2f9
05fbff0b
fd0c070b
effb030a
0cf90bfa
f7f9fdfc
0c1b00f2
08f9fd01
00fa0407
0001fa1c
fd02fdf0
f30b15f6
f50503ed
160611ed
f40a1000
0fede103
000805f4
f600ed07
effdffff
faf1091f
09fd1d08
f000fc06
fb08f9f3
de12fc08
0a0a1ff0
ff1d04f4
03fded0c
fd13e300
f5080bfb
190cff0f
01ff1b09
e0ef1b0e
eeeefd09
06f902f3
11fff4ed
02f007e5
f80def08
0808f4f4
07090ee8
ec00f410
04ec230d
f9ec0d0a
080700f5
f41102f2
eb02150d
fef50df9
f0f804f5
07000af4
03f5f9dd
02f5f9ff
f9e8f515
f402fb0d
000ef711
e6210dff
041204f4
020407f5
04fefb06
e6f7fdf0
f9fc0108
f90a0302
07f80708
f90507ff
fc0bf3f0
ff0609f4
0df1f9d5
fd021000
05170ce7
f7f90004
0d18fdf2
f71501f4
fb09f61a
f7f6f9f8
fd07f304
0a00f1dc
edfd020b
f2f60005
09f803e8
06fa0113
fd0310f8
ff05080c
01fcfffe
0005f9f3
f3030714
02fefcea
120301f9
0211fc02
070d01f7
f2fe04fe
fcfe05fd
fd070306
f5f0f1fa
0f0006f4
fbeff8fd
0101080f
0dfb13ee
f6ff0c0d
010a050f
14f90f02
f6f7fbfc
fefd1310
0203f7f7
f2f603f5
eff9ff01
fd000bff
f809f603
fffaf907
000b07f8
12fdf80c
00f2f3f4
f7f6050c
0019ff0d
f304040b
13fdfff9
f7fafbff
f7f90d00
0b05fb0c
08ea01fa
04f30613
10fa0e0e
030004f5
06080816
f6090306
03f01a00
020e02eb
fa06fa04
fd02ec05
04ebf30f
010103fe
ff06fcfe
0ef901fd
03f803f9
efe906fb
000101f8
e108fffe
f8f3f8e8
ee16020a
fc06f1ef
f907f21d
faffff04
0c1d00ff
fc02ec02
fe070f03
f6ebf4fc
11f8ed02
f207fb01
fefbfe00
fbf5f3ec
04170b09
fdff1200
03faf6f1
fd0afaf7
fd09f40e
08fe0510
07200008
f7e8f9fe
05eb0100
06060206
000d0004
1bebf4fc
04fa0eff
02faff0e
ea060205
15eef613
e1f916fd
e9ff00f4
0c04fd0a
00e40002
040c0103
fc041106
f901f611
fa00f205
09f9fc12
fbfbf001
00f806f5
f0fe08f9
f2011300
060500ff
0c00ffff
ef04fbff
0004f6f7
070df8fe
0c0d03f2
fe0ffc16
faf4f500
fa08feeb
01f8fbfb
00e709f3
0002ed09
fd10150a
0ffa001a
f707f500
040307f2
faf001fa
f40202fb
15080811
060800f9
01f809f5
111d0201
0b06fa12
08edf310
f0020a20
ed03e80d
fbf6ede8
fa0c0c0b
f411f3f3
040cf7fe
f00509f6
0cf117ed
f6fbfa0e
f800f8f8
f0e700ef
fb1000ed
00fff800
10fdf800
03fe0700
fdf6ee02
01f2fa01
0b0bf701
09f50516
1801f7fe
0900fef9
180204f5
f90ceaf5
0cf50305
0813f5ea
09fb1000
f80f18ff
0af806fe
0008f900
fbe90302
160009f9
0c00f402
ed07f7ff
150b03f6
05fd04fb
01e3f7f1
020004e0
fff505f3
ecf0f9e2
0401fbfe
f4090006
fdf5f6ed
ecf20115
0000f900
0a0cf9f9
f402fc10
00f9f9ed
00e80c01
15effa01
fef3f2f7
fcf6f400
eb071600
0b01fdf3
000cf9f7
090804f7
f7f8fdef
00fcfbfe
f70905f8
fbea080c
02fffefc
21f70dfc
f0f909f3
fbf61201
e600f4f5
0801f5d5
05fa080e
05f6fef1
04f5fe0e
ef0804fd
ef0008f5
faee0109
ef09f006
0004f617
f8f7fd01
f01f09f7
f904fd05
06f807fc
0004f3f5
edf6fdfa
fcef0e00
fe09fb0a
fd04f613
0c18fbf3
13050017
03f40508
0400f302
ff0a13f5
f2030004
03f5f607
f6fbed07
06fbf3fa
08fbef0a
0301fb00
0610e302
0dfdfefa
fa05f9fe
11fa0216
03f0f8fd
f7f4f109
f0f30ef9
05edfefd
ee06fdf9
071dfffd
fefd0afa
fcef0000
ff02faf5
0b06fcf8
fff6f3f9
f7040009
f7f600f4
0708f90d
f4fced02
f200fde5
fdff0900
fcf0fcfb
0a06feee
f5050200
fdfb04f1
160008ea
06fe0002
0d02f102
fafa02f1
fe00fe09
fe07ec00
00f501f5
fefd0600
f10402fe
06fffc0e
f8fa09e3
0108f705
f40af40e
fb15000c
f7faf706
03fe00fd
05030000
10f7fff5
03000313
f504faf3
fb030404
fcf8090b
0102fefd
00010105
fc0a05ef
08f6e902
f9050713
02f500fd
07fc0005
ff0214fe
f509020e
0007f607
05faf9f9
010c0104
00fefffa
f102f7eb
0c0006fa
0606fffb
03fc00fa
070aff07
11ff000c
07f60200
09fb0c07
160ef305
0102edef
f0fb0003
0f00080a
00f8fe00
f802fa06
09fe04ef
fcef05fd
08fbf7ee
e80700fb
00060500
fbf9edec
0a05fcf3
03fcf5fc
fd03030b
0b1007fa
fe140100
f7000009
0014fdf2
04fe0000
f7fb06f5
f7f9fc0d
0c040a05
f802f3fd
1509050a
0203f6f4
e00102f5
02f708ee
050d0d04
030701f8
f2feed05
09faf800
fd06fa02
ffffedfa
08ff0800
12f2150a
f8ff05f7
f6fafe06
0000fc04
f0fa0602
00f313f8
f70df8fe
fff0f9fc
070afaf2
fff8fb0a
0205080b
09eef903
070d0aff
0cf2fcf0
e7ff0c1a
0001f806
ff08f3fc
fcfaf305
02f20bfe
08090302
faf70901
eeee07f8
f6f9f600
00eefef3
000aed01
10030ffa
01f9fc00
0bfbf30a
f9f8060d
010007fc
f506f701
090ef100
f5f70c0e
f4090304
220c0000
020b060b
f90311fc
e30af4fc
fbf0170e
fb0110fe
e40801fc
fffbeefc
f80cfc02
fbfcfde6
f1f5e805
15061014
13010800
fe00f40e
fd07f905
f6fe00f9
0bf8fdf7
0602eb0c
0bf3f30e
f2f4fe09
e4e806fc
080019f5
f9f204f4
fb0100ff
f5eafd00
0106f109
1c0411fd
05f00f07
13021a05
ff0cf8e5
f3f400eb
0cfc020d
eeed02f5
f9040d06
10fa08ff
0010f8ef
130afdf9
f7fceff8
1100fcf4
04fffe0c
0a010c0d
fb0e110d
00eef8fa
0bf11800
00f7f1f3
03f8f602
de00f9ed
0d0005ee
02faea00
0009fdf6
09100c00
1307020e
f9f4050b
030706f0
f800f610
eb0af502
06fc0904
0901fa14
040cf321
f3020706
0008121a
ee03f500
0403040d
090af206
f70b0cfe
f5fbfef9
0d00fe05
e8f7f900
01fb05ea
0d06f9f5
e30204fb
f30e050e
0312f900
fcff20fb
ee00f70e
f90a01f6
0bf3f20a
fdfaf6e2
040dfb16
07ed0418
f8fdf516
0b050704
fdfd1c0b
0cfc0120
0afdfb21
14f60807
fa020dff
fa0802f0
061005fa
f1f6ed0d
f6000108
fb0e1afb
fafd05f5
f8f50804
1403faf0
0a0af4f6
03ef00fa
edf503f5
07f2fffd
ed06f40e
e8f10b07
02fdfd05
00f409f5
f0fafa04
ec0307fb
f2f8030b
0c14f802
fd12fb00
eaf5ef05
05f308fb
fbfdfafb
e81301f0
06f205fa
090127f6
ea06f1fa
fef212fa
0700f9f6
0305f303
f71010f5
0b1e03e4
000afc0f
17f8fef9
f9f6010a
01f904f1
09000400
f30714fa
fdfdfffe
f1110801
fff80afb
fc051afb
0411f2fc
03ff01ef
04040b09
f5fbfa0d
f5ff01f1
0705f8e2
edff03f8
02ed0f04
f905f4f6
fc0efe00
04ff01fa
0404030c
0af314fd
f903f302
fefefdf6
170205fb
101514fc
f0f6fcfb
00d8ffea
fa031ef9
0100f90f
0002fbe9
06e7ff00
f5f5020f
00fbf60d
e1ff06fd
1ef8e9f5
00f10be8
00000cf9
f90ddff8
040809f1
0a0dfa08
0cf8eef0
020706fe
f9f60802
f8ff01fb
0114050c
0bf70000
04f90ae5
f91e170b
01f011eb
15f7f3ff
eb09f501
ea00fa06
fffd06fb
ebe2fdfa
00fd0007
0ae507f9
edfc0eeb
002c2218
1006f605
050101ff
f9000000
eb200a07
f001f1f8
ed06edef
f7060202
10141414
0409ee00
fe01f5f0
fbf202f2
1800cef9
eeeffaf8
ebf910fd
14f2f815
dbfb0eff
100407fb
06050007
ff090dfe
000bfc11
0509f7f7
0002f1f8
fe1a060e
0c060810
06f3ecfb
f3eefcfb
00fcfa09
ef030304
fbfc020b
f30303ed
ef07f908
fcfff7f2
f9ebfd21
f4f727ed
f30d0a07
fc05f7f4
0e07fff0
06001308
0108f5f6
f3080803
0f031ff7
0012fcfe
f9030607
080f000c
12f0f80c
fc04fbfe
02ff05fd
0d08f0f6
f5fc1a00
fd160af1
fefe06f2
1c01f6e1
eafdf7fb
f1fbe713
00f60d08
1b150a06
fc18ff09
0b00ef02
fc0ae422
fe09fffe
0f0dfffa
f5f21901
fafef505
f8f4ff16
f6050618
ee01f6f3
0ffcfcf3
fffe00fe
07000801
fe0f0100
22fef6f3
f1fdf806
00fa12f6
220307fd
f6fb1407
01ff03fb
1b080df5
e2e81916
dbe0fe13
36fdf0f4
1ff3f9f2
14fe01fc
f50bebed
17030704
d9dd2208
fdfcddfc
facaf9e8
16360e0b
f31f10f6
f7f707a9
dcf60526
f917f3f7
04e7f1ea
ff0af605
f902f804
fb1700f1
d607e1fa
f3b71408
f3d214ee
de012af9
feea05c0
010b0f0f
00fd15e5
89f7f0eb
2c16e60e
f8f0faf9
14070ddf
ec0adce2
eb010009
f99b06c5
0322fb11
fa181bfe
fc11c1ff
fbf6fd06
cefef2e4
faeefe0f
06cdf4ee
eafd10d1
070502fa
dcfdf6f5
e1ef00f4
fb0c07fd
ececfa02
bb08d1de
e613de23
e1fb0014
024c0522
1a0aedf1
e213bc1c
1a02f827
002c03fc
f8f0f4f8
07f6b03e
00d5fd17
f007fff1
062400e3
12f3f013
069738f6
11f810f1
2329fd04
d9ffe5f4
19ebfff1
12f809ed
def1f9e7
0bf8091a
11dd060d
08f804eb
f905e90c
170415f0
fef6ed00
f711ea00
eefcfe03
141cf304
01e3fe08
0f1e0c18
0fe205f4
0adf00e2
1008fe04
14ef3805
de05fc01
2be8f219
fef4e613
0ffae924
fe10e40c
0506f6ff
28e3270d
da06d5dd
19e0f42f
f4fcf5f2
f2f4082c
00ec09ff
f4bbfce1
00c80bda
ff0303fc
00fae831
fd0e040c
e90510e7
f129fb11
f81d1815
1109f801
03e7f81b
1e07ec05
1af1f6b5
dae61ae4
11fd0c15
040af1eb
2b16041e
1b114c24
e70c0e02
ecfe20db
f90deb00
08f617f5
100df4f9
f50706e9
fceeeffb
f1fd1d16
fb07fc05
f427dbf1
c519ef27
27f608fd
13311405
cfd911fc
00feeb22
ee0613fb
faf9f9e3
0af2f50a
0508000b
fd0e020b
05f8f813
fdfef902
00fd10fb
00fcf90a
04fefa12
0cf2edf7
000401fe
150119f2
fbfd0301
09fbfa00
fe0e0a01
f2fe0001
f70402e0
0c00ef00
11fff2fa
dc011408
fd0c0509
f500f50b
0c130a00
0401f607
03fe08fe
e320f0f4
1817f804
f6080209
ef0cf20f
02ec02f3
f504f4fb
e500060a
ea1dfd05
fdf7f305
fb0ae8f9
f3f90a03
f707030f
10f501ef
f200e8fb
ef01f9ec
0efef709
eff9f006
f6f6f205
f8e50a03
020bfd09
faf8cd00
f104f809
ffedfd01
08f8f606
0e09f706
fffe0c0f
0bfaf2ff
f4000602
000902ee
eb09000e
0ef7fb02
ed0dfef8
fdf70906
f80af7f8
ee0615f3
fff51110
10040300
f5f3f700
00fefafe
070cfcfd
f8020602
f9fe0504
090f00ee
0a010000
00ec070a
061bfff6
00fa0508
01030513
11fcf3ef
04fbe4ee
f5f8ee02
f210fdff
0304fc02
0aff0508
f2e9f40d
02f40c00
030200f3
f7f8f60f
f0fafb01
081403f7
083b0cf7
04dafcef
f7170703
ff05fd09
10140ef7
0806fd07
fef00be9
f80803e9
eff30100
021107e6
fd09f7fd
02e5120d
06f8191d
0702040c
0d04f400
1dfbf604
0c1afa02
1dfcf8fe
fe0801ed
07010201
17060b00
0b03f9f7
eff8ebfd
04fcf3fd
fbdc0dff
f100fe05
fa02f9ff
04dffcf9
f8faf3fe
eb02fafa
faf2fffa
0500fcff
12fb0803
f90de1da
0202f5fb
faf6f816
070be700
f60bf8f3
f21ef5f6
00fdff07
04f9f9ef
14ff0803
0410feec
020c01f2
fdf0fd01
f9fb09fd
f21509fb
0afaf6f1
010cf8f8
ef2200f5
f50102fe
f80afbfb
fef707fc
030f0a01
faf3f603
04f7ff04
02f30f00
0306fafb
fff609f1
01140709
f6f4060e
11f003fc
ff0102fc
ff00fffa
0d0cf905
12f807f8
040c0afa
f705f308
00f7f1ec
f20b0afa
1908faed
fa06f807
edfc0707
110afb01
f50707f7
0305fc05
eefbfffe
fa0f0e00
f800faf6
f0fb00fe
fcf0060d
14020c03
f50c04fc
050ff1f4
fff7f812
02f2f8fe
07fdf501
fe13fb06
f8070402
0004ebf9
0807f612
08f5fe03
ec13f80d
fbfd0fe7
0709efed
ee11fe07
07fe0007
11fdf900
12fc0e12
fe0d13fa
15f7040e
f8020eeb
0018f9ff
07f1f903
15fb09ff
0bfcfdf1
fffc15ed
f8fbfb04
02fe05f5
000602fe
080df805
07f8ebfb
efffff08
0dfe00fa
0102f8ef
fd0a0109
fa01f1fe
fbf4f305
07f000f7
08ffec01
060ae500
1300ff0f
f40400f1
02f6faf6
fbff0602
0208f511
03070d1a
01f505f9
faf30a01
08fbf100
020906fe
02fa0af8
ed0ef7ef
13f602f9
f5ec09fe
05fff1fd
0109f8e6
f8f1fc07
09ff0212
eefa0900
fd0100f4
f41cfa1a
0efbfc15
f60e09f7
fffd00f5
ff0aff04
f7fc0cfd
0e070308
0ff3fbf8
f70715f9
f1ff0205
fe01fd07
13fb0805
06faf9e8
06fdf508
f7f201fc
00fafe0d
07f9ed04
00080aef
fff60d0a
f6faf9fa
060407fd
f8fb09ea
0cfc05f7
0ff30002
e5fd0700
eb0100f2
020b05f7
ea08ed00
01010900
effc00fa
0c1afcf8
f300f9ec
f7000908
0ffbf410
f40001ee
fcfcf112
0400f606
05fb01f4
f4fdf700
05f900f4
f704f6f4
fdfbfbfb
f0fc09fa
020c00fa
eb030002
f00301ea
ff0d07f8
0116f40b
02f80afc
f2fcf804
faf60801
f805f1f9
fff1f4f5
ff04f5fa
f901f909
130e0201
f7f70aef
ee07f300
fffbfb0e
f3020805
08f70a0d
1102fdf7
02000005
01ecf3f0
ff090107
f801f802
02f206ff
fffd0903
05f6eb05
f91405fa
f80609f2
000000f3
f807f4ff
09011bfe
f8f4fb09
021a00fe
e8fd0a14
09f5fbf6
00f80612
f3010309
f7080212
0f06f5fb
faf1fff5
ef070f15
02f5f80c
0103f206
04f80305
04ff1001
fe06fcf3
00fd0400
fef3f0f8
f0f000fc
0a1305f6
fcf5ee07
00f40606
00fef9fb
00fcfdf6
02e20dfb
f6f604f9
08040001
f7eefaf0
f60af601
0d0407fa
f3010b0e
0f01fcff
f70006f8
fc111002
0f11fcf5
0807fd08
f70302f9
f5f30304
000dfcfa
030811ff
f9fc03fb
ff0000f4
ebf80003
fa03f401
f4f9fc06
091601f9
fcf7010c
0aed0801
0aecee0d
f4fcf807
e9f3090d
f1f80e08
fafb02f4
f3fc0303
04fff8f5
050006f6
0102020a
f606f7f2
fefc1602
060208fc
fdf21508
ff0504fc
0feaf8fc
f7080cf0
08fcfafc
fb03fc02
020f030b
0600ed01
00f2fdfd
faf00cfb
fefafcf4
f4f7f0fa
f6011001
f509f7fc
f7000cf6
fd06f0f7
fef20007
02faf305
0e1100f4
0300f7fd
f60012f0
08f20005
0610f3f7
06f908f9
fef1fa10
0907fc07
060ee7ff
f4f5fbfd
fbeb00fa
0efbf4fb
0f00fdf0
040608ff
1df80c09
040200ed
0e0dfa06
000813f1
19ff02fa
f7fde9fa
f4071005
faf3faf5
04ea030d
040a07f8
fdf002fc
00020b05
01f60704
0ff20003
f8100509
fcf703ff
ede803ee
f8fef1fe
eef9f1f2
0ef306f6
04fffd02
130ede12
e1f9080b
fe070004
fd011cf6
fcf20107
f0fcf5fa
fa0bf4f1
02fffe03
04200506
f4070600
09fefd08
0bf2f304
f5050a01
f6022400
f40a03fd
fcfe0005
e806f7f6
00ef150a
ed0406f0
000009f7
ed060205
10fbfff7
020dedf5
05fc090c
0c05070b
0600fd17
1bfb0004
fcf104fc
10f41fe4
00f9f002
070a12f1
fbeafdfa
f4e8fff0
21f1fc1d
f3fc0303
ed00f203
f8fefe08
f80af604
03f5080f
04fefe13
fcf704ef
f606030b
0bf4fefb
1605efef
05ececeb
f8fdf400
090d00f1
0406fce7
00fcf20b
fe0c000b
010b0a02
f10afa04
0514ed14
f9f60516
fce6feeb
000d0cfc
fffc0119
02faedfd
fefa000e
fcf01405
07f60ee7
f0160810
ebf811ef
fd0913ea
fa0df0f3
00fff100
090103f3
050f00fb
0405040c
fde91e06
12000bfd
12fafa0b
fffb03f0
08f5110e
00eeff07
01f51501
0f0617fa
0600f918
f3100c0e
06fffff9
0adde711
f8fe00fe
f3fd000c
ebf6000c
07010000
00f0fe0b
f7fe0d02
050cfaf5
fc1209eb
0ef500f9
1609fb00
1209f9eb
fc0ffcfb
0303e808
1208f407
effa07f9
f2fd0f01
f501f6fb
f8f0040f
ff020410
0400f8fb
02f508ff
f803fe00
04060df5
f2f705f6
05fef00b
00ff050d
fff500ff
f303fc0c
f60107fc
02fdfc01
0d03f60a
02070200
0b00fdf6
f10afffc
fa0605f6
fc00f2fd
0112f3f9
0401fdf6
0003fffa
00f909fe
f807f6fa
0dfa02f4
00fbfd06
f80e0701
ff000804
ecfffbf8
0104020d
f000fafd
0ffe05f6
0408f800
06000910
f9fdfdfc
06fa0eed
020dfaff
0ef802ff
feefff04
0af6f100
eff8f300
000f070c
f716070b
fefced05
fef5fe06
1b0bfbf6
10fc1309
ef0bfdfd
fb040d06
fc00f5f8
00fbe8fb
0900ecf6
f5fe0310
000afffe
f2ff12fc
f2030dff
fa01f2fc
00030b02
f90ef207
05110bf2
f9020907
0d0a06f7
f2f105ff
f3fa00fb
0e0609ff
15fbf700
0f01f9f0
f80d04ff
0304fa08
f802fdf7
faf5f9fe
fe13fdfe
fd02f7fa
fafe0001
fb030404
f5fafcfa
ef07f103
08fef804
04fbf901
080ceff9
04fbfcfe
fef207f1
0cf6fdf8
ebf303f4
f40c16fa
00eafd01
0700fbfd
f30ef6f0
11f4fe00
020306f5
fd1300fb
ecfdf5f5
0cfb0000
00fa0dfd
0900f8f0
00f40408
0102fbfa
f9f5f3f7
f9fffd0e
f51114f5
f9f2f6fc
f8fb04f2
11fc0506
050500f6
0cf401f8
0bf9f612
02f5fd0d
13fd0306
0609fd02
00f904e2
fdfc00fb
00f30008
00f6feee
01f6fa02
00fe00ff
f5f3f3fd
0c05fd05
f001e702
fcf90d11
00f7f8ee
0502fe05
fafd0600
00e9effa
fdf902fd
f805f7f0
f905fdfb
010cf9f6
f421fb00
fe14fdf3
04faf304
fe1bfa00
f80bfb08
f1f0170b
ff160909
1606f6fb
f2f1f7e8
fe050511
09040af3
01eb0701
29f30fdc
e8fc1ae9
020aee10
0cfaf2fb
0803e4ec
000d100d
fefe01da
020917f4
0d09fff3
f40ffb04
07fc0b15
e70009e6
f1fa000f
ffe80cf9
1111010b
f3fffe01
09ea09f7
0400e5ef
0f09de11
ef0d16f7
eef9fcfa
0d0e13e7
f5fe0205
ebf2fafd
fbf9e1f5
0bfdf80d
f51918fe
fef6f61f
05fd07ec
f5e5e401
fb1226ef
09f6f717
04fbee04
08f0eaf3
f9010ce3
f4ebff11
ee000001
e7fafa02
edfa02ff
fe31eb05
f4110ffe
01f90de2
fe010202
fd0203ed
fe0407fd
130907fa
0107ede6
f01500f5
fa110e01
efeff9f1
0a122203
05f9fa07
02f31310
090d0107
00f8f400
f41cf7fb
ffe9fd1a
f4ff1000
f10005fa
f5eb02ef
14f60fff
04fb00f3
140e0f12
fee3fef7
0d09030f
0a04e2ee
fd0afbf3
01ed0503
11f00000
f0fd1df7
fe01061c
db0b02f3
e80b0309
08f8fef9
07fa09f8
04fd0df2
11e10203
09e10613
f2240900
0ffd0c0a
1be5f9e7
f9fe03f0
02031512
02e40c19
e7fa06fe
00f90711
efe1f212
0c0c01f0
f3f6f70f
cef5efe6
f7f7fef6
e804f3f7
f212f9f0
f01000f3
05f6edee
fa03ef02
f80202f1
06100203
f3f3fd0a
faf8070a
fcf40ffd
121b0f02
f00a1a12
06051210
ea1205f2
f509d902
09f31106
f401ea02
f70f02fb
06e003fb
0419ebf2
eaf5f017
0bfc04e6
0619ff09
0818ee07
f1fcf412
f407150a
f4f8060e
ed15f6f7
ee03f501
0c08e7f6
fef70cf1
ebef0bee
f9fb05ff
f913fae8
eb160d02
fdfd0400
e3f1fe09
09f0e916
e613f903
f514f5fd
08280402
03fcf9fd
fff7fa06
21f10303
f3f7f506
10f8dbe9
f604fe09
01fcfa15
dacdfa09
faf5fb03
00f6fe0b
df09f701
0ef2fd00
f6f12109
05f401f8
13fcfdfd
0204f8f8
0b03fbe6
0a0205e3
fe1612eb
f505f9f8
fcfc03fc
14ebfd09
ff0df620
09060fea
04f9edfe
e708e0ff
120a090c
0602fadd
e901ff00
fef3fefd
2207e5ef
00e9f90c
f2ef0303
f30efdff
0bcbf3f8
05fde0fe
f508ff02
00f8f7f1
00111e02
fbfcf90d
0ff5e80d
03f20df3
f4f6faf1
02fe0101
e1070406
de0710f5
fb120402
fb06f2ff
02f507f8
0012fd10
f4fbdc04
09ff000b
ee00f607
10e2eafe
ed06f709
00f70004
11f80fee
f10918ea
0305fefe
f718fa02
0e0319f6
f000efee
f10d041b
f002d7d8
d2e8e0eb
010b0c17
0ffffaf5
0800fff8
fc0013f3
ff0c03ee
fbf91205
eff9f6fd
fef9f4f2
fcedf615
f603f50a
06fffafd
f003000a
01ec0c06
04ef12f1
050404fc
eeeefef9
01040208
0a04e9e6
00f406fc
ddfe00ff
f8ebfe08
07e9ee06
f4fef5ee
fa0810f7
1dfc0ff5
1002fd06
faeefb02
f70be9f8
02fbf9f4
03fd00ec
0711fff9
090311fb
0702ef00
080a12fa
fe070cfe
faf90b01
010bf602
11f9f1ff
05faf7f4
fdf10cea
06020afa
0303f1e3
070d0cef
fe19f1ef
12f2010d
f405f716
1725060a
ffe928f4
e2fc07f2
05f1091d
0805ff03
0eff03f9
fcfe00ee
ef1c10fc
fc020ffe
0310eef7
fe000003
eef2f606
f5ef10ff
00fa0d01
13fbfdf7
f3f60508
1612f602
000807e9
0a0afdff
00f0f5fd
01f6f718
f607ff0a
14e600ef
0af2ef07
000300fe
0f01fe01
eb030810
08070d07
09ed0010
03efefec
f401ef06
f9fbfcf5
f4120004
f3f41408
0a04fa13
1307f905
01f80606
fff51302
04ff06f9
00f401fd
0beaf4fa
09f9001a
fd09ecfe
06f8eefa
fdf1ec08
000bf304
0f00f50e
f712fbf8
02090501
f5f81411
000809f7
07f2ef02
04f8eef7
05fc0f03
f4f9f708
01000400
0614fc0a
f7f601f6
ee0a04f4
ea0f1110
f4fcfefc
fe0ef70c
f904f30c
f900f006
0505ffff
07f4f402
0ff00a07
e7fa0a0d
13fa1310
0800e7f2
03050701
00fdde14
eaf3f9fa
ff0afefb
e3f915ea
df0b0115
000f0705
f3f5080a
03000400
fbf4f90b
f8f7060d
03140df0
050ffd00
0d00f40a
14f500ef
0a02fb13
0709f30d
0415ef05
fb0909ec
03e91103
03fa12f3
eb07fcf0
00ee10fc
00f31007
0dfc0b04
f2fefeee
f7ff07f6
f50ff4f2
13fef7fb
f3ee03f9
fd060401
03f5f2f7
fdfe0a00
fbf70708
f2030ceb
fef9fcf8
f9ff0d0c
f203ffff
020cfc0a
04f3fc00
0609fb02
f60e02f5
0afef807
fb10fefc
09fb21ee
0efe0efd
0900f6ef
fef9fdf5
0901fb0a
f7fdf903
f8ecf400
f6f300f3
10ee131c
02fff9ff
02fffbf6
0b04100e
0f0cfcf3
f8070007
07fdf703
050bf705
faf5f80e
f6fe02fc
1e1706ff
0603fd18
01fbfff5
08f204e7
eb03e401
0e06fe0d
0b07fff5
1305f6f6
fdfffbfa
22f0ebf2
f7e5e6e9
f9fd0608
0001fa07
09010bfb
f7fd00f4
000302f7
0eef06ee
e5f4f3e2
fd00f200
0504030e
ebfbf80e
02030904
05faf5f9
ecf1f4f9
ed070406
fcf4ff18
fc0110f4
f6f904fd
fa0a13f7
000c0908
0000fbfe
faf9f80e
0a06010a
fbf4eff6
e602080c
f1fff3fc
00f90efd
fefefefa
070ae005
f703fff1
02fc09ff
f713f1f4
f6fcfc06
f408080f
f9f1fbfb
f909fdfb
f9fffeff
03fe0006
0b0b0ffc
f703eff9
f9f00802
e90005f8
05fdff00
19feeaed
12fb06f8
fa03f900
fa00f0e5
05f703f0
0bf60611
ecfbe405
071d0c24
0bf60008
0d050107
17f80015
02f302e2
f0fbfaf4
05030c04
fc0824ed
ea0be2fe
0007f4fe
f906f2e5
f9050bf2
09070c04
f7f40108
06fc0804
f30a0706
02ee0b0c
e51af6e7
fc06f00f
f3001aff
e104110b
0d0c1200
03fe1dfd
1f0d170b
0402050b
ff03fdff
fe00f8ff
080404ed
06dd0707
eb0bee08
0118fffe
04070300
25ffef04
01060cfc
0c01fedc
f8fe08df
f20bdef2
00060afc
fe08fced
f9fa0bee
ecfe0608
05faf704
0d00fbf6
fafa14f9
fffaf4f5
f9e719e2
11f303f0
f800f7fe
fbfaf726
ee091101
f70407f9
e7eef7ff
fd02f719
000605fa
0c0b1609
060601f7
f1fbfa01
08f6ee00
0000fef8
f71103f0
0b0a0302
ebf3fbf7
ef0af30c
07f41cf2
10fdeff3
fa17ff09
fafa04f8
0df8120d
f90301ff
f8f3e3fd
10fc030b
06fb06fe
f0fdfa07
00f7fbf8
df0cf20d
faee0105
0af7020a
f3f9f600
0210fce4
000bf908
0019fdf1
fefffd01
0008f707
00fdfeed
fb10feeb
03f9e908
0d00f90e
0e0fee11
0b050302
faf1e2f2
f7e60100
f90501ff
080cf319
fffdfdfa
fdf6fa06
f700000a
0ffdfbee
0bf6f711
0efafeee
00031714
02f9fdf9
fafb0100
05ed160d
fdfdeefe
00f3fcfc
06ff01f8
12fc06f7
f4f30c07
fa01ed06
fff8ea00
e9f0faf3
0704ebff
fcedf205
02fffb00
0512fcf6
fe0afcff
0f0000f9
00fef001
f10a00f2
06180bf2
ebf2fb04
07f3f7ea
040f09f4
f1e203fe
100010fd
05fb01fd
f20802fd
04f9fbfd
070bf3fc
14fd0117
f203f700
f9ef06fd
0f150f00
09fb0bfc
fb00f1ef
f605f010
f90a0208
f908fa0b
fbf00d07
080a0506
0604fcfd
10fbe9ed
0300eb01
f3fded02
f609fcec
000800f8
07fb0af5
f7fdf8fe
ee0701ef
020a0c06
fcf4fce7
ebf3fc21
1f16f9fe
11f1f90a
01fafcfb
f3eaf60a
080505e8
050404f4
02fcfe11
0df223fe
09fd0706
00060bda
09090503
f31af101
f60d0502
01f8f1f9
fce1f409
0000e701
f701f9fc
f7f90604
12f503fb
00f8f6eb
00fdf20a
0a06faf4
e50ee80c
e3f70ee9
000300eb
ff0b03fc
0f0519f9
0002f3f3
1ae8f801
0af7f803
1202ed05
130401e3
00f00cf2
f602000d
fd0603e8
fe0afaff
e90605f0
ff001407
fef10f13
f5030c02
ff20fb0b
eceb0ffb
f6f4f8e6
f910e610
f70efd11
f400f4ec
0f0cfd08
00e60af6
fff8fe08
f13b03f5
0003fa03
f50f1802
f50c06f0
0509ed02
fbdcf7f7
10f8f2fe
ff070bf3
05fc11f1
0cf9fcfc
fa17ecf2
e5e8e6f4
0dfbe70e
0010f3e9
e7fc06ee
fe0003ea
f1f4fb18
f00aff0b
06d003f9
f9f00afb
f7fdfb06
ef06f8f5
180201f6
e0f616f6
14fbeef0
0ded12ed
eb06fa1a
06f71901
1211f2ff
fa0b09f1
f5fbfa0c
00f7001c
fdf6da0b
0906f516
0d19f3ef
f813f3f2
11efdf00
f3ee0f08
09fa01f3
05e402fe
1403edfe
0ef406e7
00e3f103
1c0bf6ef
05f3f1fe
0c040015
f6fb0df6
09eaf008
0b000f00
d800fa00
dc2f010b
07f70821
dffb05ee
d50d0bfd
12f7f613
f3f2010a
e9fdeaf4
f4000e02
fd12fdd2
003000f5
0efb0600
1902f703
1200ef06
fdfe14d7
0df7fd0d
f917ec14
0dece6d6
011ef7e8
00102206
0302e929
fb07f7f5
0f0df2f0
1fe3fee6
f60406f1
d201f2ff
0904fe11
f500050b
ef0c0cf4
030417ef
f6fa00e5
fc1bd7fd
0622e92e
12f20507
01ee01f2
f915fefc
1700f4f7
00ef04f7
ff00f919
f1110ef3
f4fa0beb
00fefa09
16fee7f8
072211fd
12fcfc0c
0bea08f2
1deb01fc
18de01fe
fb1600ff
08fc0307
0beefe08
1e0602fa
0b05f9ee
1b130b08
f10000f7
022404f6
2ffdecff
021c00f5
06ee00ee
ebfb0f08
0000f30e
eefdf505
18fcfb0e
0b28fd06
1613dad5
f8d3fdf6
0704ed01
ff0ffde1
08ff0000
ec21ef0c
0d03ff00
0f02fa12
13040002
e914f503
fe11f6f5
010704f4
f6f30801
0bf7f713
fa03e6f7
f102eefe
0a0afb04
02030101
ef0000f9
f5e7fcfc
000ef0ff
02020108
f0f4f707
0300f1fe
03eff2fb
02ff08ee
ff160dff
f803f610
ff02f702
02fc0002
12ed0102
00f60d0d
f6ecf2f6
09020afe
f8fcfc00
0402f5ee
f1051802
fa05010a
0afc0afd
0209f907
00fd09f3
06f60004
faf6fffd
fcf70305
00fb0d02
0a110a0e
fffcf5f8
ecf4ff06
f6fe04f7
fb120308
ff050304
00f4eaff
040b0407
040403fb
f30b0713
f701fef3
ea020809
ec0af1f3
050bf913
ed08f3fa
f6000300
0c0407f5
f2f8fdfd
02f00006
fd0b0405
fff5fbfd
fd0405f0
03f9f2fd
f704fbf6
0006160d
0006f60f
08f70603
02fdfff2
fffefcf6
f91705f8
050afd04
f5f8fffa
f6faf6f7
f20400ec
feff07fe
f7ef110e
00fcf6ff
fd02f500
09faf500
ef09fafe
08fbf601
160a0100
09070201
fc080611
0206eb04
fdfb06f8
09fb05fb
08fefd01
ff01050b
f2ff0df0
02050200
02090311
fffafc0b
0a180ef6
020200fa
000301f8
02eefcfb
faf908f6
0901fd0a
f6f60500
ff110009
0000fc01
080c0006
f2080a05
f9f80001
f3f9f901
f8030a05
fbfc1004
09fc06fa
fd0208f5
08fcfafb
f6050209
00f80002
fd03f9f7
090704f0
140efaf4
05fdf609
eb04000b
f802f7f9
f113f9f7
f60af8f8
ffff0103
f7050808
080ef4f5
fc0002ff
ecf80206
f90600f9
f3030808
05f3fbf1
f80505f6
f0f8ff0b
f1050003
fc06fa00
070111ff
fb0aff03
f9fe0106
ffeff313
05fdf9fd
0af204f1
e80ef513
03f6f207
00000802
f2020ed9
060bffed
f1fff801
0b06fd06
01f61502
0400fafd
f9020406
f40205fc
0fff0d09
fcf90ef3
07f5fc0f
10ff02f7
070af7fe
160ff006
fbeef6db
fb02f612
eefcf50d
09f8f900
0eff14df
e60bfa0e
070507fa
02f703f5
f2fd0708
f4eeeb09
e406f502
1af2fc02
fcf5fafa
0cfa0e03
fcf60cfe
0ff7ed04
fd0a09f5
18ff15fb
02020504
eaf32210
1306eef7
f9f90012
ebf80204
1bf4fafb
0b03f811
16fc11fc
05f5150b
090a0afe
f20807fc
07eafe04
00fbfffa
ff06f301
f81c0818
f9ecf406
fdecf70c
f211fa00
0b05fe00
02f6e6ff
160304f6
fef602f2
d6faff07
0bf40004
f900020a
1f00fbf6
02f4fe08
00eb0803
0602faec
03fff1ec
fcf302ff
04f4fa02
fa03fcfa
fcf1f50c
fb08fcf2
0ef60ffa
010912fe
ff04f4f5
06fce713
fb04fb07
f4080403
fe0c1508
f4f4f81a
fafd0809
0400faf8
f601091d
f1000405
f2fee2f2
09090d0b
1400fa06
fefd00fe
f80e00ef
f8180f00
fefcf305
10f719fd
fdfdf5fa
faf90703
0800fa05
03080505
10fcfaf2
f10b13f7
0d05f5ee
0aeb10f1
16f8ec02
0d1a00fd
16e3fafd
030cf3fb
03fc0a09
f3f102fa
e80b1900
04ee12ee
f8faf7fb
03021206
0bf4f6fc
0dff02f2
11f80bf6
fa08fdf5
f9fe080f
f3f4fb13
101008fa
14f80807
0a03fc03
f9f8fa08
f0f6ff1b
0e021dfe
eef11707
02120009
02f905e8
ff080df7
0008fc05
fff1ff0a
f3f7f0fc
0702f2fd
f801effd
f80002fb
eef70f00
05f809f6
01ef0800
0b04f9fc
fff9fff1
0c09f701
0defec0b
f0fef905
f6130301
04f50600
17030dfe
0800f90b
0b0c0008
fb02f206
ffe4ebfd
180a06f6
01ff00f8
fc04fafe
eefb0105
ec000d06
1cebf9fc
00f8fa10
f60af506
0004e30a
0dfdeff8
ff0e07f7
f9080301
0a06f9fb
05e9f6f5
faff0700
f6051602
050003fc
ecf5f900
00fefef5
f1f9f700
070504fe
fd010c16
e709fff8
07f7fcf8
d1ff06f5
00000308
f4fe13f3
fae5fff1
04130105
f7fffcff
fef10a09
edf4f800
fcfe07f4
fafcea01
0b010106
0103f7e3
000c0ef6
010de6fb
05f60aed
0af7f4f9
f7fcf8f6
040009ec
0e02f4fb
070900ff
00fbf605
14fdfcfb
0c0cf008
ef0e08fd
f607fcf5
02070206
fbffe100
f1f9f6ff
0200090d
061202f8
1909010a
1106f501
11ebfc00
f606f1f2
0a0600fb
f8080ffd
fa02fc03
ef06f9f4
f00c1208
fa12f304
f4f3f504
0407020a
02ff050d
f70600ed
0bf7fe15
05060600
f3fa0112
eff2f30e
001bf600
06ee0cfd
0a07f104
02fafb15
030cffeb
08f509ff
fd080400
07ff0e15
0ef900ef
fb05ff00
fcebfdff
02030d26
0bf9f722
f1f905f8
020a0903
0204f5fe
0b09ff13
f106fbf6
010bfb0f
ee06faf5
fef8e0ff
fd0604ff
09fdf804
f6fff2f8
fd00f105
e2fdf5f5
fa00f00c
07ef00e5
0cf4f704
0c02f904
10fde5ff
f90002fe
fc00f3f9
050200ee
03060a06
fd070a01
0dffff10
0e01f2fc
08f101fc
03f70bf7
0600fee3
040700f5
fbff020b
f107fce7
04fcf509
04ed0701
0310020f
feedf1f5
0508fa0a
f4ef0bef
01f50bfb
fefe01fb
f304f1fe
f2f0fa02
f710f4ff
00ff14f3
0901fdfc
ff0ffcf7
fe03f3fa
f1f2f901
f7fef103
f306f502
f8f904fc
03070104
fc040cf4
f713f6ef
0d0201fd
0e0ff604
0ceff4f8
08080805
0ff70b03
0f0feffe
01fc05f9
f100f901
fef7ff09
0e0104f6
01e704ed
fe0108f4
04020512
0b00f709
000703fb
04f1f210
fef4f8fc
f8f6fff3
f009fbf8
f405f7f7
0cfd160a
fa09fb01
00050200
00fb0d03
f401fafe
f5060af5
00fe02ee
0000f5f9
1bfaf402
ff021405
fe07ebf7
f9fe0004
10fe05fc
120cf70d
fcf8f200
f40400ee
eff5ec01
040a03f0
04f70006
0502f5f1
ecfc01fa
f2020409
0a000f08
1af3f101
03faf606
0afdf2f9
f0130217
0901f40c
18f3f702
06f6f800
0003f913
f6e90003
f0ee0005
ff1b0506
07f7fdf0
140bfe07
000e090b
1006fbf1
f6fbfffe
0beeea05
f4010201
0a020003
fe02fa10
eef6fa04
00fafbf2
0efa09f9
f2ed0216
080cf8f9
15e910f5
fa0c03fb
f901fc0a
f5000c0d
0cf800f7
070010fe
0bf707f4
000707fb
00f008ff
fe03efff
f9f7fffc
000010f7
000a01f6
06f8f9f7
e8f30910
04fe0d05
fb080106
f800fe06
09f400f8
03faf607
0d090dfb
f4fce9f8
00eb0aed
0000fc05
090818fb
f8f4fff5
011510fb
f1010af2
fb080b03
13040a23
f1f3f7f9
03f0f4ff
0bf9f8fc
f502f00b
05e70510
00f11cf7
130512f3
0213e7ee
03ef1afa
04ec0413
0afe0907
f00ce8f7
e50509fe
f4fa0300
1f0bf605
f7e40fff
e90008fd
f4f0fbf4
0303f5ef
260c0303
faed04fc
df0eed09
f0faf9fc
0f000714
0104ebf3
13ff06fc
0ff70200
0cfc2905
f0fa02ff
fedef407
ef04fe05
04fe08f0
14e6fbff
0a06140c
f2f80cf4
edf619f8
02e10402
27f7fff6
05fa0f14
f1f12312
fcf3ff06
f9fd06f9
fbfde908
091bfaee
0afbedf8
09220302
f9fe06ff
18001dfc
0609fd02
09df15e2
eeee05ee
1b03f710
0700041a
11fd0101
f3ebfede
f5070d08
18effb00
f0ebedf9
e3fce4e3
fdf606fc
010af60c
fbefedf9
080a0610
ef0000fb
f5040702
e3ff00f4
09fc2704
06ffedee
1801fcff
000002df
f50a0005
05fa020c
010fe9fd
0f001000
0cfc0a07
06f1d6e9
000b00f9
00090d06
090200ec
e80b0c09
f00bfed1
e215fc0e
02eafb04
fbfefc28
e6f41903
0b09e4fa
14fafff3
220ce405
fbf90504
00040c02
e4e6f600
03f1e900
faf80af6
00ecf8fa
0ef5fdfc
28eef508
0a08ebfa
18ff18ee
17010312
05ff07fc
00021203
26fc00f3
1b0114f4
e8e2f8ff
fffaf904
eef91f0a
fbed0ffd
edfd0ffb
01ecf6e7
e4f40a04
09090f0c
f8fb0efd
1a15fc04
fbf40a10
ef16e017
04f600e7
05e9e610
fc0bf6ff
edf613f5
0311e0fc
fce6ea17
f1f4f511
02f917f5
f0e20709
1322fc0a
f0f403ec
030509ea
02f9fd03
fef70a08
f7fff4eb
f9fef507
ed070e0b
f213fff5
1b05fffc
00edf70b
01220ef9
0200f9fa
01f5f302
130afc00
f500f2fb
04f10af8
1311f909
fcf9fff6
f100f3ff
f7ef000f
01fdfff0
fdf901ff
190604fa
051413fe
ed1d0102
04f009fc
e50f1cfa
12fff70d
0ae7fa0c
05f403fd
040006f6
00f9fbf6
0a0ff8fd
f9fffbf6
09fdf4fe
04f3f8ef
1400f90e
02000cfd
0f0718f1
0209fc1b
08f80708
fdf602f9
f906f0fc
0305ff00
05ff0005
150df5f5
fd01f407
100800f4
f0fbf7fc
0326020c
f4e705e9
f8e90a07
fffbfd00
fff30510
01f80002
e9010612
f60207ff
0af307f8
fb02fef1
fbfa0fff
f9fa070f
0df21208
0d070afe
16031500
ea0df3d0
0300f507
ff01e805
e400fd0b
fffdfc00
f709001a
090c1102
0af60800
060ff401
f7f7fa00
ed00ff03
0702fbfc
fd1009fd
19fa0006
fb00fafe
fd20fdd9
dff60500
0bffffee
05fbf800
13fef0f5
eae813fa
e9fd00fc
0410060f
08f609f6
ff0203f9
0f09fa02
fddf04fe
f1eb000a
0bddf8fa
0d07fb0f
fef8f00c
050afdf3
f304ed05
0306fa02
f5080510
09040314
000df3f9
07010200
f5f00710
ee001401
fb0102f7
02eff2fb
f4f90111
050af602
e9f9fbfc
09ff0a09
fdf0e100
00fefefb
ed000af7
fefd090b
0000f300
f401f213
040800fa
06f8f5f8
0503fffb
ef0d06f9
0aea0500
fff8fc19
fffa0017
09f3f410
100d0d05
f7fcf50c
fd070cfd
fc040700
fcf9faf9
04f2fbf6
f804fc03
0afc04f5
09ff0e05
f602fafe
0c00f802
fd0a0610
0207ed0a
f9fd0c14
0ce1fd1a
f609000d
02f20010
0801f7fa
0600fe00
fe0c0c0e
fdffff07
00fa0115
fb010d05
0b04f6fc
04ff0000
0004f300
fef3ec01
0300f809
03000c01
010ffcf5
02fe0603
f7fb0dfd
d5000706
fc0efefe
0000fb07
0000fdff
ff000003
fbfd0b0c
f60e0ffe
11f71200
f600fe03
fefc0110
fdf9de06
04fc04f4
fcf4fd01
05f5fa05
fef9021a
f502ffff
fdfb08fc
02ff0af8
fe080703
f71008ff
0cfaf5f7
08fbff04
08020805
07000500
fc08fb01
f400fd05
f0fc0009
f70ff9fa
f9f70104
00fe0404
090b08fe
0304fef2
faf2f907
0000fe06
fc00ff0c
f80300e7
0602110e
060e0000
fb0d0900
22f5fa00
0afdffee
f60600ff
fffcf20b
fe00ff00
f808070a
000706fc
fefbfa07
fb01f2eb
f303f00a
fc02f803
fffd0b01
00effc0d
130c0503
fef10307
f40009fb
0008fa04
000507f6
0a080900
05ee00ee
f507f202
01ecfa03
0e06fc05
0903ff00
fbf8fef0
fd1bfd14
0306f9f7
16f305fe
faeefcff
fc011105
0703fafc
03fe090a
f8e9f4eb
0708f603
f2f900f7
0104f4f1
06fef506
00080504
05060309
01050af9
0ff902f7
0f1600fe
f30e0600
fffdfdf1
03fa0c07
0bf9f001
04f8f107
0dfcfa02
fb141103
000a00ef
f6f909fa
ecffff07
02f408fb
060007fd
0506030a
fb09fb07
fe1201f4
f2ff0efa
010403f6
12100afc
080905e6
0712f3f8
ed00fcff
f8fe0003
fafc03f4
0b02fb06
faf6f9fa
ff00f401
f9faf2f5
0011eef2
f702fcfb
fdfd09e9
f405fc06
0609f705
fafffaf8
010404fb
0705fe04
0f0c05f3
f7fcfefa
060409f0
040007ee
0cfa05f6
060afb01
f2f103fa
fafdf20a
010b0801
0902fb07
fbfe05f2
0104f4ff
f4080a06
0c130205
f7f1f902
0bfafffb
06ff0606
f0fc08f9
fe0dfb0c
06010100
06ef11f5
0306f4f9
f705f0fb
fafb03f9
faff0aef
00eff2fe
0d05f202
f006f301
031610fb
f2010d05
fc000b17
0210000c
f9f3f000
fe09fffb
f2fe0607
09fff608
f20008fb
f9f2fdf7
f302fafa
ec13020b
07faf504
fbfc1406
f2050501
fd0afcf7
0cf8f501
0bf5fb03
0b1309f6
f40612f9
000106ed
0704f8ef
f7fafaf6
11f1faf7
0107f80d
f80d1000
f0effdf8
00f90807
f8f5fbfa
fb0df0fc
0b05faf3
f412f20e
f2f60803
011102f8
03f6ff02
050a08ff
f5eef910
090b08f7
f7f906ef
0303f709
fefdff03
eb00f9f7
f5f9fc04
0803fcf8
0d000e00
f000f804
00fc0309
0403fef5
fdfdfa07
f0ff0a00
01fc0bfa
fdf5f5f4
0605fdfd
fff90afe
080b0a06
f8020100
f70a0af0
0604f608
11f50904
f6fef9f7
fdf70207
11f5f6f4
000d00f3
fbf401f5
fc090501
06fcfb08
0309f3fa
f707f9ff
13f60aff
060308fb
00f00703
f9fdfef7
fefa02f8
ff000af5
f500f300
fdf8f800
faf8020c
1602eefe
09fe0003
08fdff09
f50cf606
0a1af904
fb110a04
0901f314
dde7fbff
0dff05f9
cef9fce0
ede30605
04ee0817
ff19f6fc
fde8f716
f1fdf90f
e7fe00ee
f9000814
f0190afb
f6f00008
f4f10bf9
061003ee
09f71708
0f05f5ef
0a000bf0
07021106
0bfcfbfd
eee81007
1115f500
fc05fce2
0510fc11
f4fa0101
00000ff6
fe030aff
0ff6fd1f
06ff0d12
f000f200
01e6f90f
f9ff1905
0cee1003
14000522
0a0800f5
0e07fe03
0110fbf7
03fc0218
08eb05f0
14f80009
fcfe0a0a
0005e903
0efffe09
fffcef0b
0601fbf6
fb0900fd
04060110
10fce304
fe10fe05
fc07f70c
0214f8f9
ca10faf7
f5fdff12
ea05ec08
f2ff00f5
07000611
38061020
0100f50d
0ff9e7f8
190ce30a
181e0019
090ef10b
27110e2a
f4f3f70e
12090efe
fdf4e519
041ce910
f21906e1
fd0400ee
fcf1f4ff
ee08e016
080608ef
f40305f9
1e14f4f6
fefc0200
edf3fef3
0c0bed00
f3e40cf5
14001fee
f8fbf8f4
f2f5f3fa
fff8f6f2
edf62dfe
fe0908dc
0008efed
0206effc
ee08f9fe
17f0f214
0511f502
0000faf6
fe0ffff9
fc070af4
f40afc10
f30d0506
ec101de8
fb09eaf4
e500eb03
0ed221f6
efedec07
ff091804
12ff11f8
fa1b14f9
f009e8f5
fd070aff
03f60f26
080308eb
f906f0f4
01fd0af9
1708faf8
f9ec0eee
17eefe00
14f10700
2c0cec10
09f80bfc
210dfef9
eefaf80a
06cdd405
19ee020b
f0ecfff2
f9fe000f
ed19f4f0
08fcfa0d
13f912f2
08da1600
1702f306
0a16f1fa
09f3f5fc
05f6fd05
e600e9fb
0e020314
030103f9
0c06f90e
ff00f701
f5000005
f701feee
1303fd02
0f050002
02fe0df2
fd10f911
04ff0afd
030802fc
faf7fffc
f20f0100
020a0d06
f500f1f3
fff209fb
ff070c05
f818f908
fdf20513
00f2fbfe
f4fd0001
0000f7f1
f9fdfc00
06fd00f7
00011008
fe0107fa
f8f5fbfb
0102f510
00fff6fc
fa030e0d
05ec00f2
10ea0c04
fd0d1100
05150bf4
02fbf2fc
07ffff0a
07fee907
fcf50b00
ff00fa0d
0bf41001
02070cfa
fb00fbfc
01fe0d03
fe13fdf7
02faff06
060efaee
0805f108
0404fd01
06011af5
ecf5eefe
f804f4ff
000f0403
e7f4eced
0003090e
f9f2f713
f3fef5f2
0002000a
02fc0307
0a03fdf0
f000fb0a
02ecfd12
f1faf7fd
fbfa03f9
03110c04
ee0618fe
0dfd0003
f4040d04
f0f30800
f600110d
e8fcff00
05fdf8f6
0002f7f7
f305edf7
08061ef9
03ebf4fe
f3fffdf3
16f908e8
ff000ff7
0b060103
f0fbf401
f5f60902
fdf400ef
fbe6f90f
0504f903
06f5fffe
f0edf4ef
02f9120a
f70bffef
1afc0010
f0f8f706
ff0dfbf8
fa040011
130df3f5
0000f6f7
080308f8
0aff18ff
fef3f208
05fbfdf2
030af1fa
f2fefc07
e7fd0004
f4fbfffd
0a02f301
0407f508
faec00ec
eff4f60f
0df9fdf8
0dfc0405
02fefa00
00ff0902
ea06f202
08faf9ff
13fcf809
faf50000
0a0113f2
03fffe00
fdfc0103
fc001208
0e00eff2
12f50302
01fbfcfa
03000202
f10a03f2
04fe0d06
0fff000d
f8000009
12070df7
faf90ff6
fe0601ef
090309f1
f70c05ed
100214f2
060e11fb
00160a12
0b0b0800
f7fe0900
0ef400fe
ebf7fe00
f7000d03
fe270903
e9f71ef9
0cf7f900
fdf8fb00
0002e7f2
f5fcfff1
0af2f40b
00030c0b
120bf4f4
f924f4fe
0ef8f3f6
f9000007
f5efff25
00f6ff09
ff00f4f2
2b10e802
00090e05
f8f90005
fcf8fef2
080afd0a
1005fa00
fe1e00ec
fff5190d
fbe9effb
04030e02
0b090000
eefef6f4
e908f8f9
0005fef8
00ff03ed
fe090d00
0f08fafc
e7dcd700
eb00fff3
f016040b
e7ecfbf0
f908f8f8
0e00000e
ff0ee811
060d00f8
fe0d0800
040dfa0f
000a01f3
f80aff16
fef20008
eaf7f100
0cfaf703
03fdf2fa
0800fbf1
0411fc0e
0401fefe
00070201
0700ef1c
0209fe06
01f4f2f1
f5fef323
f6eb060f
0c0405fc
051006fb
f3010ff5
060bfd02
16fe04ff
edf0f410
f4fc0701
fafff4fe
ea001cff
e9130b10
f1dd00ee
fd0c0507
03f9f603
050d01ec
0d0c0901
14f7f4ff
fe090e12
0100fb03
e603ef01
03fa0001
e7040a0e
03010b12
f4060afe
0306ff00
f0000001
03f6fc11
030203eb
f3f7f2f1
f8fceefa
04edff06
08ff07ea
020407ef
fffaf817
f7f31009
fc0d051b
fb07ee04
fdfefbf0
01f1f60a
0416080b
030407f7
fe001208
fcf730f3
1200fadf
0500fafa
00f7f600
210bfd0d
f2090508
0a0309f8
070af6fa
fc070712
0202f7fe
f11211f1
070122fa
26f500db
fa040cf7
05f6e50e
05e71b02
fef5f3f7
0200fb0c
00f7fe0c
11fcfdec
fbfa0713
0bf9fcf6
2600ff22
fdf9020b
e00d0e06
02effcf2
f51d00f6
00e9f4e5
f3f808e2
0716fd08
0606e121
fdf00d0a
0717150c
1aef1416
faf4eff0
e7160dec
f304f2f1
f20502f1
1e0c0405
fe0f0200
fafaeff9
ec0306f0
f30900f1
f30719f7
14fe0600
f108faec
f210ed18
09fbea0f
000509f0
04171500
e00104ee
f307f000
05fa0602
edf403fc
0b06feec
ebf8f6f7
fcfb0208
fce90a17
12fe06fb
fbfcff0c
00ee20e3
02111509
ed00f201
f9f2ff14
ebf802ed
1302d7f4
f4001503
13fd0904
f9f723ed
07fafa08
0707f3fa
0a1a1301
0afa0902
03ea04eb
ff0c16f5
f8e6e91b
e6050de9
0b1309fc
070100f6
0cff05f3
fef00106
f4f902f0
fdec07f0
0404021b
1bf706fd
eefc00fb
fd00f7ed
02f20afa
16f4fdef
ff0102fa
0dfbf2ff
05fde8fb
06f60204
0517efef
0919f9f6
0408fae6
f808f1fb
0efa0d0e
e9fd1017
edf012f8
f8030a0a
f0fb00fc
0606f905
f5ef0201
f9f60f15
d3f60d0a
01f301f4
010bfe09
ea0dfb0f
060801e5
fdf708dd
0e00fbfd
f001faf9
0c01fc0e
000001ee
fcf5fff4
11ec05fb
00f1ea07
f90cedf5
10e6fc08
f8f311ee
fdfb0200
1105061e
19f2f205
10f7f803
ed04f6f0
110d04fa
01f8fcf7
f2000500
0be50ff2
fb010a09
f4ef0002
f9fff305
07fc19fe
f30df3fa
f705f7f7
0a1def07
fc0d1c02
ffe80efa
0001f0e4
f60ade0c
0002f5fb
f2fd050b
f5f51a04
ff07f80b
0511e810
06e7f2e7
11f40df3
f6edfce9
080de4fb
faed0cec
07f2f7f3
01f6e60a
2908ed03
08fb12dd
f6fff708
0d25edf3
f2f103fb
06e1f807
ef0e0612
08131501
0e02e3ff
08040407
000c1705
06f8f6fc
f6e5f901
00fa03e2
0300faf9
070004d8
f707fbf8
e5fc0301
fe02dcf9
06201401
11f8fa05
0806f21b
f1fbfa16
07f22c0b
fd250b02
ef0efe0c
f809ed00
0804f102
fa000aec
000405f9
0afe1bfd
05e90e05
01f813fd
22092bf8
f5f80ff2
f8f60300
fb0b0203
ff05f502
0002fcf9
07ec110c
190110ff
09ff021d
fdfef506
fcf90d0d
07fbfdf6
fc0a0cfc
fa0e1b02
07fdf4fa
e7082c01
f2e9f1f4
0dfa0c14
12010b0b
e7fd0200
f50ae907
f3fe0709
f3fdf40b
12051409
08eeeefd
fc0802f8
f1f7fa00
e8f5e4f6
1002d5e7
f609ea01
ffee1512
fcf00eec
1bf4edf7
fbfdef11
fef801f9
04f8f2e9
fbf61616
0b061218
00000702
04faf600
03f9ff05
0de312fa
f727f50b
000cebe0
0901f103
f1041913
07f7f206
e5ff02fa
f7f8f2f4
f105020e
fcf904fd
f800f003
261302e9
faeffbe6
e91509fd
f5080505
08f4ff00
f7e3fcf1
0803f612
1b020503
fc2315f9
0ffb0414
03f1f927
fff60002
f807ef19
03fb02fe
fd071005
fbfeffec
ebeb0711
10e0ef00
f7ed00f5
11f1f0f7
f1f60bfd
0d080cf7
0bf5f204
ee0bfeef
0b000818
e1f2fafa
09ecf700
f7eb0611
170ef41a
ea032109
f109ee11
faf0eaed
f6ffeef6
05f8f602
00e50407
e8eb0500
fb00fee0
fd030b04
f9f406ed
fd0bf607
f002fd05
fffa0c1b
01f9f3ff
f4110a04
fdfcfd00
05fa0913
e800f20c
f8fff602
fc1714fe
eb0b1711
fd00f508
f80609f6
ff0201f7
1300ebfc
00070506
0dfeff06
04e8fd05
052005f7
fb1d0403
eb13040e
07fc04fc
00fa1309
0109fb00
22fffa07
f9000d00
f904f6f0
f6f912f7
08e30607
08fe03fe
fc040ff3
02f6fb04
f00d0002
fe0b0bfb
13f20ce7
f2fa030a
03fbfdfb
ee0bfafb
06fffd06
0c0d05fd
fc0800f8
0ae30102
0f0d00f8
011cf2ff
0bf40504
faea0d0b
05f9f6f6
0cf5fa00
0afa0711
f501f2fb
fdf905fd
0b10040d
faf80f14
fdf602fd
f503f5ed
0501ed1f
0603090d
fb0aebef
0a030008
fff80200
1df50001
eb05fbf8
09fcfa0a
f807f5f0
f0f6f7fe
0f020305
09fe0009
fdec00f6
f9ee0804
0205fb0a
12fc1503
f00b0015
fdf80502
05f50014
fef50006
06000713
f31204fe
16f8fffe
fc0d03fa
00fffd09
040108f9
04f0fb06
02fe04f8
f004010a
f4ff0507
0cf5fcf7
e90207f6
fd0500ef
02f503f8
fef80afb
1811e907
f40d08fa
0dfb0800
fc06fbfb
ffe9effb
f7f9f50a
0a06fa0c
f2020ff6
ea1e07f1
f3060fea
fcf8ff0e
fd0104f1
f20ae800
fffbfff1
0c06e60b
05faf7ec
04f0fbf8
01fa0d0a
0908f6fe
0f15ec03
ed0a18f5
04fef201
f0edef17
0a060d11
06fdf5f7
000a0008
ef050400
feef000a
f8081d06
fef7f804
05f8091d
fbeffffe
ea0001fc
fe0cfaf1
0608f00a
f308fcfe
03fbe602
0902fbf5
06e50c08
fb12f5d9
f609f9f4
e6fd04ff
fe06f400
00fafdeb
09f4fc0c
000400f2
0d06fbfe
e6ebf908
fa0000fe
fdfc00fc
14ebf9ea
f5121412
070dfa03
eff4f70e
f60a1400
f5ebfa04
18fbff06
f008e412
f1f709f7
e3101709
01fe2400
04fdf5fa
11faf50a
14fdef02
00ffed00
f8fb06ef
0110f3e6
f800050c
f8fce209
140200fe
fcfaedfa
08fe03ff
f2ffe909
f5fe16ed
e9ec040e
0111f6ff
0b04fb04
e810f604
0009f7fe
0bedeb04
0908f20a
f90b0209
f713e3fb
0e09f8fb
f70707f6
0df4001f
f9070513
fdf10ae4
f706f30c
f8f00e0e
ebfdfa04
2001f012
04090106
ea140bfa
07effdf9
f20e010c
effd1100
0b1bfe0c
0911f5eb
0306ed0d
ecfdf703
efed02f2
f0fbed04
fcf0ec0a
01060501
f60d0102
f41909ed
faff0508
0405f3fc
06041400
fc1ee2f2
06faee0e
13f7fffc
f70ff321
0e0ceffc
fa142afd
f7120304
010209f9
06f4fdf5
f7220bf6
03f3080f
f61b1017
00fbf608
08fe0307
05100f01
f4030815
030000fb
fb0209f4
facffa10
10f6f507
f0eb06fa
fd05ef05
08fd06f7
0d01f705
00ff041a
f3ee00e5
1af9ed27
f1ea05fa
fdf41003
f50afdf7
0102eeeb
fdf1f701
e318f200
e6e9edf1
020600f2
f505f8fa
16f508e2
ea1ffc00
fe141300
0b0af200
05f5ff0e
ee170400
f800e6fd
0109f909
fb0afff4
0702ee14
f202e717
02000603
05f600f4
f319f7f2
06000e0f
fbfb05ef
060b0003
f702f50b
f9f1ff03
f8f803f3
f406000c
fbeffaec
fd0ff806
eb11060b
0b10eced
20060800
eaf8fff9
ee1cf6fe
100afdf9
060af6fe
ff041914
030eea00
fff2ff00
0303f608
0108f21a
00ecfcf3
fdf4f809
f10400f8
eaf20504
090408fb
f01003f4
fd0700fe
03f7fbfe
fd0f11fa
f9fd0803
1c00f2ff
04f6f4f3
fdf600ef
f7fe00f4
ef01f5ee
02e1f508
fbf805f9
fd1deafc
10f3fa06
05030401
0002feed
160709f1
e3290303
0eeb070e
f6eeed04
fa0a00ef
13effafb
2416f500
1702fa0a
3007f9fb
f500160c
f907f50d
09f80311
0fd4e514
f0fdf10c
0deff803
fb170bfe
fa010105
00170e0e
e6fc040f
03effafe
f1f707fb
01ee0400
fcebeff2
ebfa06f5
f1f71c07
fe02f0f6
0202f6f2
06030cf7
f0f9f501
fa2af303
13fdfbfa
000b0300
0904e9fa
f60fed15
eef514fa
ecf8f7fe
0af009f8
0b0d1ff4
1706f3f3
1e08fc12
09110b0a
f1eb0303
150cf2fb
ec082715
f706fc06
0000fef5
fbf7e8fd
f903000d
08f70be8
fdfc00f4
01fdf70d
f7f503ec
04fa0904
f5fa0009
ef04f50a
0505190c
0ff7eaf5
090a090e
f808f309
0ef60411
fcfff612
ef0712fb
091910f3
0205130c
020203f3
0b0bf90e
00f9ed0f
14fbf6c0
f802fe08
fdfaedfd
f2faf5e6
1306df0c
f2fd1407
fb090eef
f00611dd
fa01f0f9
f20b05ee
ee06fdfb
020a0a03
f903fb09
0cf9fb05
0bfe00fe
13fafaef
e30403fe
f1f40703
fe08120e
e9ff18f7
f40005fa
f8f60bff
f9fef1f1
0dfcf509
05f8f808
001cf5fc
fe08faee
01071508
06fc0701
0508ef07
ebeffe01
f5f10a0d
f70dec06
03f70306
e3f40b07
efebfcf7
06fefd0f
f6fdf616
03fc0e02
fd00f9f2
0009fbee
ef01f008
0d0500f3
020d0804
05fcfaf4
fffdfe10
fb13f709
15fdedf5
f50cfd07
f406fb0c
f9f4f0fb
02f5fdf1
0b1512f3
17000703
03f8f805
f9fa10f9
0003f3fe
0efe07f2
f60200fa
06060004
0211f9f1
02ecf6f4
09f6fcf4
f50cfb00
12f8f5f3
f5050617
fbf5f4f6
0212fbfa
1a140912
f811f511
f101ec05
0af0fa04
f1fd0303
02050cfe
fe080cf7
f50013e5
f8fdf410
f4010400
0ffdfb05
09fcfdfb
1efa010c
06050403
1806ed03
ef041513
00001fe8
0c0203f6
f4ffff00
14f900ed
1b04fb03
f0f4f9fe
fdf403fc
f3fd1608
0aedf4f9
21f1f9f4
fbf0fcf6
e702fd00
0f14ed18
0dfd12f9
f405f700
08fefcfa
0d12010e
fd0205e9
00f20607
040cf002
13f30205
020e060a
08e00706
00070116
00140007
fafbfcf2
09ee05ef
f0041114
0508eef8
00fb05f0
00ea0fff
02eef500
ec0419f5
ff0a10ee
eee304ff
10f1fdec
1d14f310
fb0bea08
010402fc
0ef304ef
fa0ffe0b
1000f10b
fbedfcf1
0aeeed0f
f7000df8
04130704
e6fb0f02
f0faef06
00f5f301
f5ef0613
fef5eff4
06000804
1500f100
fefde922
f80200fb
fa03ee05
0807f809
edeff31b
0deefcfe
0e07fc13
13fe07f6
00fbfc06
130701f9
f10c18ff
05ee070f
1711ee04
0601eb03
02e90c0c
0f06fb1a
edf8f605
fa12fee7
110ffa04
f009fcf9
fcf004ec
ff03fd02
001a0800
13f705f8
f0fdfb02
fbfa07ff
0d1707ea
fffd1313
1bfb10ef
131406ee
f9f8fc0c
f8f615ef
1e000c07
e417f221
f8eb0507
02070b1b
09ebf5fa
0cf91503
f4f82700
e305fb00
fae8f1de
0a0006ea
f3f6f8fc
f402fc0f
f4070107
0cf105f2
0aecfffb
f0fee9f6
fafafbfa
fbf30818
06ee0510
ee2006fd
efed07f9
0810e504
ff00f9fc
f411f807
0a160bfa
04efff10
19fcfffa
0005ef04
01fc0ce4
f5f1f80d
010ef409
20fa03fd
04f81008
06fc0101
05fbfc0b
09fffe0d
040107ec
10fd0616
f7f40000
f5fa0900
14f8f60b
0aff05f2
daf4f9f3
070a0703
00f2fff7
f50c11f3
fb05f2f5
0d0f09ed
fefbdbf5
f300f0f2
f3fdfcfc
fafef4ff
f91ee80a
f7f9f1f7
0bee1003
f30a0c0c
f713f004
13000d03
0bfa0604
0afde306
1d09fd03
f9041507
f4e2ef03
fff40ef1
08ea1101
ebe90e18
e9e9fc08
1d170604
fff101ed
0ef9fafa
eaefecf7
f2fafcf1
ff00f0ff
fb09f609
f7f511fc
00f306f4
f3e70e02
0eeefffe
15fefa12
07ff00fc
f9fff303
ecf003f9
fdf9f918
06190ff1
08f5f3fa
00020811
ff030e08
040011f0
00080f06
fd0efb05
fffff106
14070100
0810f2e7
fe090d09
eafb07fd
0df0fe0b
f40200f5
070d04f1
fb000dff
0510f002
0601f4ec
0707f906
f7f7f504
0dedfbf4
f212f9ee
04fef903
000bf20e
faf6fcfb
ff06f310
1604f5f1
f20106fb
fcfcf611
f80d0dfa
0005faf6
0dfafe0c
e8ff0d09
eefbe906
f7f5ff02
f2dff1fd
0009e7e4
01000401
060510fa
070009fb
0100f5ec
05010204
faf4f90b
00eedb02
06f50917
03eef7f8
fdecf008
f800faf2
060aecfe
000b01fe
f50008f6
0317fef8
f81c1bee
02fdf901
1b0b01f1
fb0608ff
0f0d0600
05fefcfc
0418f908
010006f3
0313f402
06f3f300
05fd07fa
f20700f5
140c0401
0cf9020e
f9efef0b
fd05fdf2
fbf3fe03
08f6f804
0000f5fc
0611e1fb
f608040f
141200f7
f416f3f9
140d00fe
08fceaf6
fd110bf0
fdf20bf4
0807000d
0d030319
f60306e5
3c020903
0507f703
f206eaf3
0b0612e9
0f05edf9
ee0901ef
fbfe0608
0609f204
f4f2ee0d
fbfafffc
ef0009f4
09f2fd0e
0006f0ef
07f0180d
ff1bf9f6
f90100fb
10f807ff
f2fa0109
f5f4fa15
fc010306
1900000b
10040af6
0708f3f5
19f5f4f7
00090b14
030718fa
ee1bf403
0703f0ff
ef01f306
f4e7faf4
0309fd00
e90702f9
fc0f0cfa
10fa0406
f9fe13f1
fff3fff3
02ff0cff
07dcf817
f70601f4
f4ff0606
f7f3fc0f
efe20af7
0bfffdf8
04ee000b
f50e0efc
002406eb
0009f9fc
fc05fa09
f50806f5
1204f8ed
0406fc03
f80e0c0d
fafb1a11
00061114
040bf7f5
f7f615e5
021bfefd
fd080809
f4ef0404
f8f9e7f0
f8130715
ec0ef6f6
e90dfdf6
f827f311
f3f5f902
0cfde4fd
04e906fa
020713ed
0af3fdfd
03020000
0404000a
0ee7f0ff
03110511
0cf9f404
02000c13
ebf10007
0a0b01fe
f8031209
f7fb0af4
00f2f5f4
0a070b00
1403f703
0103ede8
0a12fd04
0a0900f5
f701f701
fbf203ee
eff10a07
f904f1eb
faf1f2fa
16fb04fc
0b080002
f7f9fe05
fa01071f
050105e6
0b151900
f20c0008
fc080522
0018f9ff
0507f1ff
f6fcf703
12ff1305
0e10fbfa
fff90107
fd08f109
fdfff8fd
f5f20f16
090014ff
08050019
120a17f3
e4ffebf8
00120b03
0efefb0e
0002ed0e
11010e00
07e50510
fdfa0fef
f0f7ea06
02080e00
0006eef9
0213f704
0416ee0f
f4e7fe04
f603f101
fdea0502
140afbf4
08f800ee
f50ce9f3
101f0421
fa161004
fd09ef0a
fa0c0307
fa03ed05
f2f21301
02fb0104
f6000506
fdeff9f9
0a040d16
fdfcf9e8
ff0af50a
df0efff7
fafe0bee
10060ef3
07fef9fd
f5fffefc
fe020df9
0401fde3
03fa02fc
00060b0e
00fbf700
f210f80b
f40c01f1
f4ffecf8
f10c050f
1400f310
1301ff13
f2fcf8f8
011b00f3
05fafe01
fb030704
06f50b10
041715f4
0009f80b
0c00ffec
fdfb06f3
f1fafbfb
030e0905
0507f601
1110fe08
ef0efd06
f0070317
ef170a0c
0dfcef02
fa06fff3
03fc00fe
060ce9fd
effdff01
f0f6f3e8
f7020400
edf0eff7
fa1306fe
02030ef7
eefbfb08
0212f7e8
0e000407
0b08edfc
fd03ebff
060002f0
0af8fbfc
fcffee08
ff070cf8
f507000d
f2f7f0fe
1ef5fbfe
fbf6f9ff
0ff8f0eb
e900f60b
f306f1ef
00edfb11
f80cfb0a
150a0000
f0050dec
f7f70cf8
fde0f503
011622ec
f4120006
f8031102
26fbf700
f50416f0
020b0f13
0704f701
f2fbf8fd
04100613
f803e8ff
0df90303
0f03f40f
ee03edfc
fc200710
f4fb14f4
def1edf1
e9f3f80b
fee00218
f5e1e709
f70700ef
f6e408f9
eded1ef9
f9fd0e0d
15f3e4f3
2008f000
0ee7ebec
180208f8
040ef4f0
10f20003
fc00e801
0cf711f6
0dfbf015
fbe8f90e
1bf8f2fd
00fd13fe
dbf70405
19fb05f8
fbfa0c01
00fd0008
13fbf6f9
fbf2ea00
f4060000
f70e00ec
f606fae5
0907edf4
0c2103f5
1510ec16
051105ff
0800fff5
0f130806
09f80bf9
0201e9fc
2af2eb0a
f60ae808
fb0419fe
140a090f
edfaf00a
05fafbfe
f6f7000b
1204f4e0
05eaf810
f708f3ff
f3f40bf2
0204f4fd
f4e6fcf4
11f50ef6
0d09fc00
f70ce0fd
0fefe909
faff1d11
fde500fe
051becec
05ede709
fcf2e90a
f70afa11
01051ddf
02101e05
fefbf605
05090817
04fe00fb
0c040607
fb080114
06faf000
f507f9f6
f9ff1802
f712fa03
eff2041f
f4fb17f6
0f0423fb
f1f60113
01ee0807
fc140408
0907f7f7
0e16f9e6
0cecf706
f6f80515
f10308e6
fd08fe04
f9f41df9
1af1fe20
eaf30108
00fa0a15
0707f210
1a0501fd
0e1010fa
05030000
f414fbec
01fbf9f5
ef132417
05f82c00
10fcf7f4
0dfffaf6
e8f40212
11fc11fb
03fdf606
fbfb01f2
1801f700
0000f9e1
0d05ebe0
e6fff3e5
1410ff05
f5f72ff3
f6f8fa0c
f0f8ef02
f3f90000
0302f9f8
0d04f700
e900f9ec
030802f5
f9edfcf2
02f406f5
0202ecf5
fd0000ef
f607f700
071c10fa
04f200ff
ff0a110b
04fc20f9
00020004
eff40b02
fe01fcf8
0ffdfef5
10ff0709
fbf50b04
0705fdf7
fd121cf9
000b0208
f003ecfe
fdeef312
0000fc09
ff040407
18fcf608
07f8f9f6
fff606f1
00f40013
f70410f8
fc0504fa
f8020cf9
11fcfe01
f6010002
f7fefdfb
0000fef9
06ffec18
070601ee
f303f5f2
f51617f3
fef707e9
09fe0400
fef6f6e4
050ffa02
11ffe300
11f60e00
ee08fef7
ffedee00
f0ebf505
0fff0f11
0202fefc
020304ef
00f5040a
faf7f104
13f914fa
0309fff5
f308fbee
f5060301
fe0500fe
040ff319
030509f6
00fbf1fc
e10bfa0d
fde709f8
fff2fdf3
f7fb1400
23fb1001
ec0af103
00060bf8
0900fdfe
fc03f500
170113f8
fc1a00f1
0b0307ff
fafffd15
fa0a0d02
fbeff60e
f7060bf7
03fe040a
0a050007
ff0deefb
030fff04
00fcfe1e
fa191208
fb040cfc
10000004
070b0008
000b03f8
fcfbf70a
f107f3f7
01040ffc
f8faffee
08060bfd
030bf905
fe07e80a
f1f7f7fd
08f8efed
0b16f7f9
f4fc0008
07fff30d
fb03f5fd
f9f70106
06fbed01
f2fefefb
f6faf713
08f91600
fc01f800
0a00fb00
04f80a16
0117f900
1f09ea00
09ff08fa
ea18000c
10f904ff
0cf51906
f7030801
07f1fffc
02030206
1906fafe
08041ffc
1ff4fc03
f7f50312
08f32412
0d080704
07ee12fd
0b09fe13
0106fd0b
f7f3fef6
faf1f700
edfaf512
12070e18
f80003f8
06050400
04fcfd04
00f4f216
03f802fd
fb11fbf4
faeffaef
01050c04
f9f6fafb
08fdff00
09fe1101
f8f5ee03
0613fb0c
0006f0fe
0703fef5
f0fd001d
f909ff05
09ef0d0c
0d10fa05
f5080a09
fffbebfc
05100007
fcfcfbfa
f4fa0b05
0c05edfa
030afd0e
06020717
fd011205
06060005
f5021600
f8fdf0f9
f5fb02f7
120205ef
09100305
0608f915
0f0bfc01
0705fb00
fde80713
01e60df7
080d0012
02f3e40b
0afd0203
0002050a
0406fffe
fa080b00
f4fef100
f112fe01
0a04f8ef
0a01f2ef
ec0e17f4
0c0ff7ff
0d08fe04
0cfb0202
0d0700f9
07060000
0019fbf8
0fff0700
f7fdf50b
ff02060e
f3d40103
0d0a0b0e
f20f01fd
11f5fdfa
f9f7ea19
fdfa01f5
0400f4f3
0219f1f4
f60f000c
0b000a05
0a02eae8
00f4f0ee
faf40909
f7060405
fb09f802
fbe6fd00
09f9f00b
f8fffb03
f607040c
f206ee05
0ae601f5
0cf805fa
261112ff
1e120708
05fdfb0d
fdf4f0f3
00fbfc03
0201ed0f
02eafef8
01e30102
fafb03fe
e1f70300
f5f9f300
0008fe05
edf102fa
fb0b0112
fa1307fb
16ffe004
1108f203
f3f1ed10
f5fe0307
0e090bf0
fc0e0b00
fa1004fa
f10912f6
05010f03
05f61700
f11ffe17
01e80b0b
0013fdf7
000bf9ff
07f8f7f6
05eaf3fc
fef7ed0e
e4fc04eb
f4fef903
16ec0d1c
00f709ed
fff50f03
06fd0206
e1fe0807
0ae60012
03f5f011
f0f0f1f6
03f2fef5
0918dafe
0af207fd
fff60309
030104ec
f7ecf4ef
e31bef01
18f9f5fe
fef6f9fc
0301f0f6
f81117f2
001604fe
2809eef7
0202fded
f7f1130f
01f4fbf7
f00400f0
e8230b16
f2f506ec
f200eef6
0deeeafa
060cee03
e7feeffd
e90e03fd
f504f105
2608fff4
0d1ff101
df080213
0bf9e8ff
00170705
fef8e3f7
ff1208e1
000605ea
02f6f305
f2fb17f4
02051401
f1030903
de10fdfd
080015fc
fa0c020e
ee120007
02f10902
effbe2f8
11f6eafb
f50003fc
03f1fc0e
14050cf4
f1190de1
ec05fd02
01000901
0302f403
fc01020b
020608f9
f20afa0b
f4f7090e
fbeef603
0e0d15f7
0e080209
f818e7f4
f5fa00e8
0af9f70d
0af8012e
0bf900ee
ec0605f9
031911fb
0913fbeb
f1f511fe
fffa08f9
12f3e804
fafd08fa
12f70505
02f4f816
fc00edfd
f113ebfb
edf1e2e3
08f6f601
fefbfef0
fb0101fc
000d1209
fd0a10e9
f4fd090e
0109fb0f
fef916e4
ef1509e5
160701f9
1a19f2ff
faf6160e
efe1eff9
08031206
0315fe03
00fcf51c
0afd0905
1f081dff
fdece4fc
f6041df7
f005defe
f10f03fa
fdfb10f7
0f03011c
1ffaf207
f7fe0d06
28dafd1d
09fd14fd
f70209f4
f8040a04
f1f9ef02
f815fff4
effc06fc
00f2fafd
f20cf8f3
02f40feb
0df90116
0203f701
170313e2
0203fbf8
00ff00fa
fefaf520
0903f7fb
fcea0906
1e08fdf3
ff00f700
f601fc0e
f7000e01
faf929f2
fc1d1af9
f1111b07
13f501ff
f4faf602
e5fcfe02
0507f8f0
fe010111
02f7f2fe
0705f9f4
0007fb07
f5fe0400
09e405ed
f8e90df6
04f2ff07
f3e704ec
fafaf4fe
17f30506
04fb0312
faff1c05
f100f9fd
f805f109
0b17fdff
040b0909
00f3f9fc
13230001
fdef0df8
f8f704fb
f5000ff1
e40f0508
0bfcfdf5
f60a1cf9
fff3feff
09f4fcfa
f0e8ff03
100b060f
f904faf0
04fc0a01
f81310fb
17f80003
eef60cf7
ef13fcff
010507f6
0fed1405
0afdf3f9
0000020b
f60617f8
03081706
faf8fe0a
08ffecfd
050cf4e6
ed0aedff
0b1ffbff
ef0011f8
04030004
fcf6e90f
0027fcfc
04fd0501
0e00150b
f30cfae7
fbfafbfe
18ff00fe
16fafcfe
fe030005
ea03fa09
f403f9fd
0208ff03
050a0d02
24fd2407
fbf201e8
fe0603ee
1a05fbf6
daf906ff
00fdfe08
fc080417
1b00f402
ff0400f2
faf1fe03
00fc15f2
e71bfcfc
0e0504f8
02081001
1ff7ed03
fbf2fc00
f21111ed
03f9f60b
ff01fe00
04120d08
fefbf9f9
0afb0710
f7fbfb08
0c01f020
01f4fffa
0c02fbf4
05fcff0f
f9fdf613
f505f807
11f5e000
f701f104
fbe5020b
fdf911fb
f905f6eb
140deef8
04f101fc
0812edfa
ffeb1305
f80ce700
f9ea02fc
0013030f
05fc00f6
faf809ff
00fc0010
0c0a00f9
00fb0c07
f30300fa
0df0f407
1500fb06
e8eafff4
f201110b
daf0fffd
00fcfcfd
ef0c0a00
00faf5f1
ff010403
f7fef606
fef5f1dc
f9060313
1200f9f5
f4fb09fe
0a04dcfb
e8fb1a03
060a0dfd
fe0eee00
0df2fbf9
050a0215
00fbf1f0
09010d1b
ff1700ff
1af50100
fd1302f4
19f7f1fc
0b00fc00
e714f4e4
feffebf0
04f900f6
0af00f06
21f10206
051df207
1200fbe6
040507f9
fef6050d
ed0bf80c
13fd02f7
f01215f6
f00af3f6
fef10bee
19fa0915
fb0df702
f0ede306
f60e0205
00ee10f8
06eb0001
ebef0102
e9e5e903
042a0cf8
f2e6eb0d
0b0006f2
f300fced
0b05f7ec
f6010403
f406f707
00fc14f8
f4faf705
fff30500
ee040300
fbfce3fc
f601e9f7
0dfef6f8
110f29ec
ec100008
12fa05f6
f20eff11
0edfef00
1d0cff07
0cfb0004
ffeff9f1
f8ef06ef
f0fbfee7
fd0511eb
fef50d1c
fbe3f811
0cf009fb
f2f8f605
faf20508
d51401ff
fa07fbff
f60204f6
08fdfb03
fd0016e6
f3fd01f0
fcf2d9f1
010cecce
f911ee10
ee00f600
19fe1aff
03fc06ff
1100f7fd
fbfee1ff
0dec03fd
fef3faf2
0dfdfee3
fefdfd02
0200f508
fd080b08
15fdff0d
ef040209
09f9fdf9
1211f705
19ebfafb
fff11414
0ff60bff
03ef040a
0006fd09
00fefdf3
0e010bfe
0afa01f3
ebef05e8
02fa0304
fb02fb0f
fbec0106
03f209f1
0ff2f704
02110d0e
fc010008
24f60120
1700ebf5
0ef3f3f9
0d01f9f4
ed03fd13
0621f418
050901f2
f001f916
e6f0eef4
fd110113
010f06f9
1a170afa
d8fa1c01
ec07f6fc
0e0cfffa
f40f101a
f008faf1
1f04ee0e
060f00f2
0d1ed9e1
030b0603
0eed1602
00fbffed
fee2f1f7
0102f811
ee17f300
05fb000f
f80f1712
fcf8ef02
f2fb02f7
01000700
fafdff09
fef8f1f7
f10900f5
fffa0702
110af807
fff01507
fd1d0a00
f609ee03
f9fcf30d
00fc1fe3
f104fdf4
02fbffee
f3fe00fb
16f3130f
03f9f805
f7ef1000
e500fb16
f8140200
f5030cf5
07f3fc16
00180805
fafc0900
02f00e06
f3f4fbf9
0300f9ff
f7f503ea
f70efe0c
faec0afe
ebf8ed00
f2f40ffd
fbfb06fc
090bff0c
fdf9f800
06f7f803
fffb12fe
fef3070e
0ff8f014
0000f9f4
ea0f0008
04fe200b
f509090e
09030305
f422eaff
0d081803
e7f404fa
f507e605
0dfb0204
07f205fc
ecf8fe01
fcfe0bfa
00f5090a
0709fafd
0cfdfc02
e711f9f0
11fafb0a
14f40cea
f7fe2808
ff0d09f3
ff090305
0ef60d0f
f0fc0103
faef00ef
040b0c11
f3fb0100
07100af6
0f0df7fa
08fbf4ee
02ff0bfb
f606080f
f4080901
fefff60d
f51ef412
080b0302
0d0e0eeb
ff0303fa
0e06e8f8
f6f3f50a
07f80700
eaf9fb01
fafc0011
0001f6ff
fdedfc00
fa0bff02
f50c070a
f7000002
17140102
f6f704fc
ff02f204
10fdfcfb
15f90d06
ffedf7f3
fcf404fa
0113ea01
0cf91700
faf7fc0b
01f3010b
f6020820
0713f604
f9e8fef5
fbfa0c03
09080ff2
fb04f6f4
1d08ec06
01ffe9f8
f802f7fa
0bfb17f7
fbfa00ff
efff0005
18f0fbee
fc0af6f7
02f8e2f6
ffe81500
fa0d0f02
fdf6f704
000bfff4
f60b0602
15f40003
01f91005
100204fc
00ef0d0c
e1f51bf7
0300f6ff
f407f8f5
fc0613f5
fcfc0000
eff60dfd
effb0af9
ff0afdfd
01fdfa03
f6ff01fc
03060cff
fa19fb02
00f4fcfd
f7f100f9
f7ed0406
f8f7fbfc
02fcfdf5
ff0205f9
0afee9f5
0e030808
0a06fb14
04f0fe00
070702f9
020505fe
ff000a06
0712fd08
0af9ff01
09fd0800
07030b06
f5fe00fd
fc07f60a
06ff0af2
eb0205f5
edfe05f5
fdea02fd
0d0200f4
fff50a07
00010001
05fffefb
f9040a07
faf205f6
f5010d09
0806f8fb
fd0b01ff
f709fcff
0102fbff
0f00f60a
f1fde400
0f04fafe
f7fd15f0
fb070509
f0fc0b10
13f3f415
fb031304
0c0c00fd
00010001
fbf9fbf5
fa0001fd
0000fc02
211b0ef9
08fef5fb
01f7fbff
fe000804
0a0af707
070606fe
03f208fe
04ff0804
190cf9f7
fff8f2fe
f8fe06eb
f00cfc0f
030df3ef
0d00fafb
ec09f70e
fdee0001
05f2f80c
04f60a06
fd01efff
0710ebfe
04fb08fd
fbfa05f7
f6fe0b07
040012f8
f8fe02f8
1008f9fc
fc0e04fa
fcffeb1e
0506f7f1
00f802fc
01e0f6f7
08f0fff3
110401fc
0002fa03
f40703fc
fd010110
fc01000c
0aff0df9
f20f0cf4
f5fb04fd
e9fb02fc
fee305fc
05fe01f0
0000f901
03101601
f814fefc
00fffef7
07030909
f909fc00
0808faf5
fc00e415
020604f8
f709f8f7
0b00feff
07eaea06
0a030407
0508fe00
0005f306
fb08f502
f209ff02
0206ff0a
04fb0500
f7f7f1fb
100ffd30
f7fff802
05ffef08
010c03fb
fc040ffc
0cebf601
0bfdfc06
06faed0a
fd000104
f9f3020b
0208001d
f401f3ff
fff524f5
00fdfbf4
f9f50500
f501f010
e8081305
fd0a09de
fdf606d0
f6f80500
f219feef
fcf504f5
f1e7060b
e6171dfd
08e90805
fadb0507
03ff1bf4
011010fb
ea050c09
f4f702f8
dfe9fcee
0800f61f
f5fe0f0d
02f0f5f5
071705f9
f8fefa08
f0eb0e0f
03f5eded
1606eefc
e10c0408
f8fb0df5
f3e6070d
0cfe1df0
02e40b05
090600fb
240c05f8
fcf9e9f3
13fde2fa
0a030f02
06e90bd8
100d01ec
f704fd00
eff70a00
fe061c11
f2f2ffde
f1fe0728
1af105ef
000324fe
000bf2fa
f6faf202
00f315f3
0509fd03
1ff6f903
00e3fce2
f3f12109
fbe80809
d220dc0b
d4feea0a
fd2005fa
f20b10fc
00160ae9
15f2ffff
f8fdf0f3
fc06f0f0
04e412ee
04ebefd9
f50bf2f0
09f8ff16
fdef0019
07f7fbf8
e22109fc
fdffe6f6
03f5f0ff
ff07071e
f1ff0a16
ecfa1114
1bfb0107
f4f4f5fd
f81bf413
ef0c1607
f4f400ea
130410ea
fb0b0f01
0f080df7
06f2fbf4
f715ece2
e9021202
200910f8
02071efb
ef04fe16
ea01e8f9
f923ffe6
e900f411
02020103
fef306ec
ee2206eb
032afb00
fb07f2d8
1600030e
09ec0b01
ec0fffea
160a06f5
f5f30a01
0b02ef0b
faeff1f0
07e5fcfd
0ee501ec
f6e500fd
11fb2416
00001d01
f41aef03
030b13fd
f8e7220b
eff8000b
06e300fc
f9fdf504
f4d709ef
1b09ed08
fbed0000
0bf6e60d
f904102d
faf3130f
ffe0eff7
e6f8ff0c
f011efe3
fe000de8
f2091e0d
0504f7fc
fd0010f3
000c01ec
f5001107
00f8fef6
fcef0002
080d020d
e70b0afc
faece301
0b0706ec
ddef0403
00e8f2f1
edfa1404
17f6fb0e
eff90b02
0b281407
0400fee2
03030208
07080509
f41402f9
000104ff
fd10fce6
05eefde6
eef0f209
0d2000fa
fef6fa0a
f4f7f90b
e90603fd
0009f4fe
ef0c0b07
f102080a
fc0b15fa
0afefb0c
02e5f0fb
0008000e
16161408
000113fc
14f011f8
f50aeef9
07f50a12
fc131801
02fd20f5
fefc0005
e7ffcf15
0efefbf6
f9ed0714
03fafaff
0b09fb0f
0becfff1
091100fc
0715fa0a
19fe0e05
0600f6ec
f61103f6
f901f9fe
dc0bfafc
f80e02f0
e8010015
080005ff
f80503fd
07fbfdf4
fbf5f00e
f90a0efa
fd0307ed
fbf812ec
02f107f7
00f314fe
f20e02ff
11f2ed0c
fd06f006
0bf80001
0200f5f3
02060400
01ff06f4
f8130d01
040005fd
fbe0fcea
0e0614f7
0cfcf3ef
10e501f3
0e12f5ff
f1020a0f
1c0303fa
07fc020c
12f7ea14
0a0004f0
06f30008
ff0bf500
f2dbfafa
0f010600
00040d06
00fee3f9
0501000f
23f508f8
fb12eefe
08f4ff02
eef6e501
fe00f8ff
1404eb00
03f20d14
0aff02ff
f70ffc03
08f705fa
ef11f2e7
f6f0e401
0700ee00
140000ef
0aed0500
0afeebfb
ef0dfcf0
17080008
f002fc0f
0deef0f7
f6f904fc
0700f40f
03f6ed0b
00fb0d05
f4d9f600
fd04f206
fdfa03f1
07f3fa0e
0bed0104
fd030bfa
f3e7fef4
05f80104
07fef400
0712010f
f2ffe5fa
fb0a1402
faf3f817
fef90006
f7fa0007
f3edfaef
07fbfbfc
0301f2fa
eb09fc00
09030aed
00f7f40f
03f204f9
03e9f2ed
1106fcfe
21051001
fef5fbf9
0c0ffbfe
fa020cf4
09010afb
040cfd03
f5fc0b0d
05f6f20f
e8f809eb
fff7ff06
f3e4fcfe
00050008
f006f8f6
f716fa17
ee0ff4f6
02030103
f9fd05fd
f507fc09
00140408
050c09fd
0200f601
ff07fdff
13ff0c05
fff915fa
fbfe1708
0302fefd
edfa0318
08050df7
eff9ee16
fb060b0e
01fc09f4
f6ecfc07
17030801
0800fbf1
07f30907
fb1108fa
070d0700
03fef10a
f60c0802
f20102fe
03f20a05
04041200
03ff0f01
05fa0bfe
0a05f610
0df31108
05f1100b
07ef0604
06f5f2f9
0bfe03f8
f009ff07
ff08f502
f6f70405
fdf3fdfd
f600f3fa
06030104
f2020bf4
0df510f7
020d0bf8
02fefdfe
ef0909fe
000600f4
f31bec08
fbf80108
03e8fefa
fcfe05f6
0500f5f9
01f2f807
ee010e0a
0008fc05
11f9fff8
f509f3f4
070bf806
08fcfbfa
f8f103fe
f1040007
f308fef3
ea100401
13f3090e
01000c0b
f900f5f1
0700f9fc
e90000fa
f000f610
090af618
fa020004
f8f306ee
0e04f1fc
f9ffeffb
eff805ff
0ff30a03
f3f808ee
f101130d
04f1f7f6
0103ed0a
06020bff
fbfcfd12
fe01f9fd
f8fd06f3
f3f602f5
f5f204fb
09f8eefd
0efff6ff
08060716
08f3150d
f4050af6
110000ef
01f701f9
f904f107
0f04f9ff
0901f8fe
f8060601
f90cfc00
0d08fffc
f71afbf7
08f904fe
f501fc1a
f9f800f7
06feff00
0df20f02
0f030f07
09f90115
f9ee06f4
05e40e00
05fe0bfd
10eb0afb
00f3ed01
f1f00af6
feec05fe
f108f30c
ed000eff
00fced07
0206f9fc
1001fbfd
feff020b
e8f701fe
05130006
ff01f118
ff0319fa
07eafefe
0100080c
f9f1eaf1
1003fffb
fcff0608
effbf202
0504f80a
ef0cfffc
faf70002
fef50703
ff060116
05ffedf3
fbf3feff
f51007f9
1405ff01
01fef408
ff0602f4
fe120006
f8fafb0c
fdf8fbff
ebf805f8
0803fd00
f7fc01ef
feff01fd
01f5fd06
06f3f507
fcfcfe04
f9071400
03fe00fc
000608f4
000701e8
050a00fa
0906ef08
fbfff109
f909e9f6
00010312
08100014
00000000
fee7f7f0
f7010204
06f60700
08e90100
ff07f301
fc0e0003
f2eb0003
fa0817fd
0b03fafb
0c03f9f8
fb0805fe
0e0304fe
07f70109
0a00ffed
f1fdf304
00060b0f
01020bfe
060a0efb
0105f70d
0f01070f
f8070000
fff50216
0201e8fc
02f8f7ee
f2fe09f0
07f2f8ef
01081dfa
fdf4f806
050cfa01
08faf7f2
060600ed
f705fbe6
f0f22408
ec08f911
f60800fb
08190f0a
f30e0a11
f5fa1c01
fa0ff6f4
12040bef
fe0413fb
04fd001f
f5fa08e8
f7f6ff00
fe04fc06
0bf503f6
f5120003
05130ffe
02fc0b0a
050007fc
f900f6ef
eff00a02
f205f500
02fbfafe
07fdf708
f301f9fb
1400e6f1
0202f3f3
0104ff02
fbf7fef8
09fdfaf3
05f8f813
05f1fef6
f3f4e6f3
031304f5
19fa0211
0d020801
000710ef
faed0501
f0f9fb0a
07ef0e08
f8eef2f4
020e1008
f4000402
fefef6f7
03100af5
01f20bfb
0e0501f3
f90c09f8
0af506ee
ff09fa0e
fc010d11
fd00f2f6
05f604f2
07f7edf8
08ff1102
0a0bf907
ee0302f3
0af7f907
ff08f2ed
f71201f6
fb0b11f2
fff4f1f3
06fa08e5
fd08f2fa
00ff0502
f2f40f03
1404100b
feeef6fe
fdf0f2fc
ed01f0f4
0d0ef414
07f90201
0ff8faf9
150efef8
0008f8f3
f4f1f412
f400f2f5
f8f5f7fa
16f9f4ff
f302fb10
f5f3f404
02f3f000
f30c0d0b
e9010aee
0cf7ec04
f1170305
0408f510
fcf90600
01fcf7f7
0906fcf8
f6fafefc
01ff05fa
0000070d
0006fafe
04fa03fa
000900fb
05f8f801
040015fd
13100bfe
00f7fbfb
020c0cf2
fa09fb0d
0305f9f3
f7f5fefb
f20cf109
010afdf0
f4f70e04
fa0a05f7
f40e0dfd
fc010aff
fdfafbec
0900f912
0406f706
0008fff7
061304fd
07120df8
f1030205
0b09f708
03f60c02
0bf90903
0d11f6f8
f1f7f702
f900f60c
02100bf9
010c0f03
ff0408ef
0afbfafa
fe0704f6
0000fc03
060d0aff
010b09f4
f4fe03ff
04f3f107
f500f709
090f0800
06f500f3
fd020506
0dfffbfe
03effaf2
0700f9ef
f30207fc
0af607ec
0902f9ff
000a0807
f4f7fbff
0a090009
00f7e806
0f0407f4
0008ed00
03f7ed11
f30000ff
fc07f7f8
fafcf207
faf9fc03
08f805fe
000101f1
fff5fd02
13faf605
01f50402
00f41005
081003f8
fbf4f3f5
f101f806
ff050c0e
fef50700
fb160b05
f2fbfa03
f2d4f9f0
efe9f0f9
0500140a
ee0004f2
f7f8dfe3
0c0911f3
0012fff8
fcf501f1
1df0f4fe
f7f3fc0d
fc0000f2
03f2ef04
f9040008
fa03f803
14e7e6f6
fd04f11c
0c020f03
f7f6f6f3
f407f8f7
f70b1a03
0d1f040a
fcfb09ff
1707ff02
f2fd0b0f
fcf3f713
f2f3eff1
fe04fcfb
f6fafef8
0c05140d
1703eff6
0cf70a0a
0909fafb
15030bfe
0cf7fe25
f8f703fd
f2f9f3f9
fef61bf3
d709f1fc
fc0107fe
f4fcf20b
faf021f8
0e00f900
040006f7
150b03f5
0a0007f7
000205f3
fdf80f07
000a13fa
020b0213
0df006e6
07f00c00
f5f4030d
e8040f07
0403fe08
0c0004f5
eff60106
05000b00
f40104ff
06030715
eff80906
0ffa0d13
020300f9
f8faf1ee
f607ffdf
f917f0f1
0a16f7f6
fbe9fef7
ecfb08f5
1cfef10d
fdebf3ee
00f91800
fff5fafe
00eefc04
11070afd
130b0ce6
f6eef6f8
fd000904
14ffea01
0503f608
fb0e0105
01f909ec
03fe050c
00fd0d0d
010517fe
1ffc0f0a
0ff4f616
111600ec
0a00f9f8
07f70001
fdecef21
f6e800f5
03f90805
ed08dbf9
ed12fd00
f4eefcfa
06f6f50d
10eefc05
f100e9f5
12ef00dc
0c15fff2
f4f9fc09
0ff502fc
00e8ff15
f500f70d
06ebf704
effaedfe
f01bf3fe
1af50300
f6f702fe
0ae40dfe
09ff09f2
0400f3f0
0a0cfbee
01ee041a
fc0e0610
fffb05f7
0107ecf8
24f7d40c
12fc1c0e
13fb1a0d
f6141702
ebfafc08
10f2f700
effefcfd
f7ed1112
100808e0
f907ff0e
0ef4eb08
130709f0
0e0103f9
14fd0606
fdfe0607
1103f208
fbfdef01
021904f5
fee6e811
06ef0f10
edf5e80b
fd0af5e6
09020124
00fa130a
001615e9
01110306
0be90323
ed0817fa
e4f4e8f0
f8121bfa
fddefaf9
f5f1f4ff
fd0603e7
0110feed
120b0a03
fbebf90f
1e14f5f3
f8f50ef5
0ff40615
fdf50402
00f406f6
eaf9f9ef
e812f5ee
fa020f07
f90ae701
fdf8f70e
f606ea07
fefe03f6
eedefe05
04fd120c
0d0fe9f4
f2f402ec
04060ff4
00021cf7
f9f2030a
fa1202f2
f41e00ff
f8ff0cfa
fcf51c0d
fc200002
f204e7ff
0c0bec0f
101309fe
03f9f7fc
eaeaf415
fefcfff8
f6f907ea
f8fa0bf5
0105f000
f3e6ee00
0af914fb
f001fff2
f4fd0bf9
0c001004
09e50cee
f50e070a
181af602
f00405f6
f2f90206
fb0404ef
0f0d18f1
f410eefb
fc000800
081106ef
00fbef01
fd0cf3fd
0a0610f6
00fb0cf0
09f406fe
19000b0d
0bf7050d
1a09fff8
f9ee1008
0114f315
00f2ea07
08f7f600
fcf907f2
1aecf4fc
040005ef
eb090f18
07070a13
0d12fff1
fefb00fa
03f1f7f8
e7131404
02f0fe1c
08fb0009
f908f900
f4f9f0f7
05130806
fa00000f
06f605f7
e4fb0aee
110f00e4
f009f105
df10fafe
f7edfe12
f508f3f2
0e08e301
e9e70a09
f6fafa10
fcf518fe
e8fef811
f8f41604
f7ec06e6
fd052606
0c0df4ee
fe13f117
fc0d0001
1314ec08
f010f103
13270b17
0b1311f1
fe0dfb02
170109fb
f700fd0a
013902f7
ff12fb0c
fdfa0afd
0301ed16
fd15f8f9
fdfaffeb
f3020a19
1900f5fa
08fbfef4
09fcf8f1
110911eb
0400ff05
eded070d
03ecfff2
0fed0b00
faef0acf
fb1d34eb
030ff5f0
00fdf303
01eefd0e
fc0d30e8
0cf50001
fcfb0602
fbfef109
fbfc0a03
fb0cf405
ea0903ef
0513e5fd
e3070b05
11f3f00a
f2f119f5
ec030900
fbf5f912
02e8d801
19020107
ec23ec07
07fe12fb
fafff4fa
f6f7db06
04f509fd
fef5f904
f6fdee0a
12fff2f9
00fa02ef
00fffe07
f10cfffe
d7f3fd08
eef5010a
0f03011b
031afdfd
0de50bfe
13f4faec
01f01ff9
f5fbe1f3
0e09f717
ffed0701
f90304fd
0f0c0500
0fe6faf8
f7152d00
16fdff05
f8f50cf8
0e0be9fd
0609f2f9
fafd04fb
fdff0000
f5f613f7
f603e204
0ef702fc
00e502f7
f0ed13f0
f9000506
e7ec11f4
0c01ec0f
0b0400e8
09ed10fc
0cff00f8
06f011f8
f3041402
04ee0dfe
f3070507
fc0bf300
f9e6f300
07040013
00ff0205
fcfc13f0
fdf106f7
06fa1401
ef0a2300
fefb0cf4
0008030d
07fcff09
01030109
ee010f04
090533fd
00f00401
fc03fbfb
0300fbfa
e1060ef8
ff05eefa
0007f7eb
010bf3fb
f10bee05
0902f700
0403f6fb
03f3fcdf
0b05ff07
f3f4f107
f7eef70c
fbfff700
0a25ff08
fe0cfff6
01f41313
00fc0404
fb13f8e4
fdfde4fe
f7020602
fa06fff4
fdfbf808
f0e900e6
d4f1e405
f8f2f10c
050e03f4
fcfbff07
f303faec
0a06fa0e
04ff09fa
0702f0f6
0003fc0a
070fe7fb
1afd050c
02f40600
ff0a13ea
07f8f10e
f3f40403
00f0eb02
13f6fb0f
0bfe01fb
0405f8ff
00f4fb0d
e00414f9
0beefcfa
f90aedef
01070bfb
01f3081a
00fbe2ea
0914140e
190be009
f8f9fc14
000811f8
00f2f70c
f50a0a12
f9f8effc
fc0bf508
0c0e1b15
0cf6fc11
1cfbf707
0efcf7fa
fbff0e07
e600fefd
f712e100
08f90e0b
0e00effd
0206f0fa
10f4fff2
05fef6f9
fe00e7f5
02ee080e
01eff0f1
fb0802f5
ff0012f4
f60af8fd
0efefffd
1df3fbfc
1dfdf9fe
16fa1006
f608f2ef
03070809
0504fe06
06fe06f5
ff0a02f3
0e0204ff
fe00f4f4
eb01f405
1007fc0d
eff501f8
f000000a
eb0501fd
fcef00eb
f6fe01f3
04fcf5f3
07fe0e03
f303f8f6
05f50fec
0c0cf0fc
f7ef0114
ef01fd0d
22f80bf9
f61402f8
08091107
00000000
04f80efc
0ffa010a
fe100521
09060003
fafefd11
01fcf6fa
20f10efd
0b0712fb
13fe07fb
041509fb
f9f916fc
ecfcfa04
1200060d
e80b1602
f6f204f9
0af2f413
fdd4f8f9
0400feff
faeb0f15
06fbf506
0cca0009
14f40e0b
1cfc08f7
0707f900
f5fd0600
07fc01f8
ed0ff101
ed00f7f1
00f706eb
0803f0eb
08fa0803
f5fd00fb
f20700f6
00f4ef00
00fdec04
ed0f06f5
fb0f0703
fff5fe05
f200faf5
001500fb
00070207
fdf3f5ea
fff20407
f1140df1
f2180cfb
ef00fdea
18f7f0f8
090402fa
f6f91317
09eeea01
f7fd0b0d
ee02f900
fc0f1de3
f8fa0cfe
23f1000e
fefc0a0b
f90004f4
f8030b03
f3f6fcfd
0dfafd06
fcfef6fb
f4ff0314
0107f90d
070007ee
000409fd
0e0cfff7
0905030f
fd01f5fa
f2fbf200
060503fa
fdf0f80c
f803fbef
fa00f2ed
01fef906
01f1fefb
f7fa0008
f706fa10
04fcf9f3
010607fe
ec0007fb
f0fcfffd
ffff0ffd
0bf9eefc
1214fff0
f4f603fe
01f41605
0404f208
0b0afbf7
fc0bf700
f600fefa
0e0dfb04
f8090500
03f809ff
fd100605
09fd0004
0909ef04
07f20805
0df9f706
0401ed00
0b08f5f9
1703f8f0
f905f609
fdff0def
07fbeeff
f10dfffd
f30500fc
070c0907
09fa0dfe
120a06f6
f6f7f9f3
f60602f3
0dff0b08
07020bed
f7f108f3
11000bfb
050a1a0a
ff020b08
fd0e05ed
0102f3f6
02060f06
fd010400
0c040b03
f7070d04
0108ff0a
ff0f03fb
faf700fb
0bfeec03
01fc0d0f
0a07f708
070702f5
f9f7fdfb
fbfaf008
0bfa00fe
f9f70af9
070fff08
04fbfefd
f3060514
f8fff407
0f030404
fff90806
fdf6f8fd
100814ed
f60905f0
0ff604f3
06ecf60d
0104060a
f6f7ff04
f6f905f2
000900fb
030004ee
ef0c03e8
07eeed07
f501f2fd
fd00f90a
03f50e09
03f7f1f5
f4efe9f3
03fc0b06
0d02f208
0603fff6
1403ed08
f600fb05
fff604f1
f5f6fefa
10f3eefe
feff0400
f5f5fceb
fe0611f8
f412faf6
ee07fb14
ed02f603
05fb05fe
f60cff09
faf5f8f6
fb04f50b
07f40401
f3f70a00
f7f5f5f8
08f8fbf1
f8070c00
f8000907
eefd04fd
05f7fff4
f7080304
f7fb00f4
effdf400
000def0c
0d05fe05
010507ed
fd04f90c
f60c0409
0d090b0c
05090dfd
08000315
02e60013
edff06f6
faf50500
fb0503f6
0b00fdfc
fafef30c
08f5f9fc
01fc0c0e
00f9fefc
faff1000
fa01fe01
0c06f507
06fa020b
f8050e00
04f3f700
0dfb110f
0c0005ff
f30a00ff
0af8f8fe
f8000bfc
00040602
0407f807
0a0500ff
01140a04
03f8e9ed
0506060c
00f9fffa
00fcf401
03ef0711
0cfe0a07
fe00f2eb
fd05f309
080afbf9
0805f50e
0405ee02
0709fb09
00ff01fb
08f803ff
00040406
12f9fff4
fcfb040c
00f209f3
07f302ff
f7fa01f2
f6140206
09f6f3ff
01ff0afc
01f7fdf6
0204fef9
fb04060f
02011cf3
0100080b
03000703
fef9fcfd
02fbf901
f10b0404
fef40700
fdf40409
070200fb
f9feeefc
0cfb0402
fdfc0704
e90d10f2
02f40afd
fefaff12
05fd0c09
130000fc
f7f701f8
0eeafe00
09f60bf9
fb070b04
fbf701fe
f208fd11
00fb0bf1
03f8100a
0708fefa
f4fa0def
fae9070e
0bf7f3fc
03fb02f6
eb06fbf4
f4fff701
01f007fb
fdf4f7f7
00f7ffff
00f0f5f2
0af6f7fc
05fe00f6
08090207
131104fe
0002f507
0b0de600
fe020210
0602f5fd
0309f9ed
1108fc0d
100af5ff
ecf502fb
f1020201
01f2fa0e
04fcfeea
0df408ff
0209fe04
0bedfb00
03010802
09f40508
070407ff
fe09090a
fe03ecfc
1c00030c
01fb1b13
19fc0df1
02f7f4ed
ec000e07
2107efff
f200fdfd
030200fe
ed0bffd5
0003e7ff
10e903f7
13f4f6fb
01e80e0e
0f2f00f9
f8ff12ee
0be2ec0c
fce2e9f8
00fbef0f
fc0e110d
220908fe
f5000df5
2416fff6
01fb0e0d
0c0cefea
f50203f9
04fffa06
f7ef1012
fbea03f3
0d0e00ea
f6f10eee
d904fc0c
f719fe22
e7fe00f5
fe010b08
01f30313
ffef071d
0f0b0af1
f5f3f502
f6f6fb07
fbffe9fb
1b05eaf8
0efd0df9
18fe0ffd
fe12f7ff
ff0cf1f5
28e8def5
f606e500
f7ede6f1
eef7e6fd
e600fffe
e801d706
12eaf6e9
fb0cf804
fc1b0510
1431f500
eafc07f6
0e06fa0d
fffdede8
0405f91d
01131307
fefaf907
010af6f0
f3061106
f1100f22
08f3030f
ff030000
e514f606
1406f923
f71c210e
020d050a
f80f0c03
1c030408
010af103
fe0104fd
f80ae809
0c0eea04
f701d608
0002ee03
f8140616
f013fbf6
f80f0a15
0dfafbfa
e1f4ef00
f8edf8fe
f609defd
f4eef0ee
edf5ec17
1ae50def
f115e800
0001faf5
ed0bfdd0
fef8e500
11eceef7
02001c0e
1106fffd
26fdf4fd
0ffefd00
00000bf5
07e906fb
ff001703
f7f513d5
fdf0181b
0bfafe02
03fdebf0
e0ea0804
f9cb16f6
01fd0519
f0ec11fd
e90c0a0b
ef0bfafd
f0fefde0
010a0b18
f1ec0201
f60af407
060ad8fb
0d05fbd9
fe130807
140705f5
f91aff00
07160905
11081104
c9fe02f0
f701f6ff
0cecf903
010b00f2
1d00fa05
05ea0807
fe09fde8
0afffb08
eaf80800
20d2fbe3
06eb16f5
0d0c0b02
04f00c05
05f00eed
f50ff2ef
f9f5fbf5
fbf5040a
0b080115
f00203ec
0b07f8ff
f2f6000f
fcfa01fc
02070cf9
f5f70af7
f5f5fa05
f4ebfb17
17fa0aff
00f9efff
02fe03f4
04f5fef8
04070802
f7fef200
ef00fdfa
f1f9f91b
f409fefc
ff060400
fff30e07
ff22f307
ff08ff11
fdff0404
0506f8fb
0d0e08f8
f6ff0709
ef060000
091500f7
020b0403
ff040003
fffc07fc
0509fe10
1bf10609
f4ef09fb
10f400fd
f9090100
f810f8fd
f9ffefee
0d0508f2
fa05ef09
01fc1900
fafefe06
0305fbf6
f50dfb08
f50a03fc
eaea0404
0be412ff
faf405fa
03f800ff
f9020e0b
f7fcf606
fd04f9ff
ff09030e
fe0c02f7
f606fc00
ff0800fc
08040df2
f9fbf701
000b030d
060201f9
04fb0001
190ef5f9
fb0103ed
f3080201
04fb0000
080510f4
04fe0ffc
06fc08fb
060106f2
edf30007
ff020e10
0901f1f6
ee0b00f7
0aec080c
f3f00008
f5f7f900
0afdf1fc
03f104fe
fafc0403
fa01fff0
fe0500fe
faf10607
00000003
0200fffa
04f20001
0714fc00
1400faff
11f9fde8
0b08fc02
fefbfbf3
050905f8
fdf6f0fc
f509fa04
f3fc12fd
0c0aef01
fafe0003
f3fdea08
0509f8f5
fa0d0207
f3f6f000
e800f300
fd0205ed
0eff050a
0005fcfe
0702f6fb
f6f70b07
0104fdef
fc00f80b
f3feff00
fffafd00
0c07fefb
00fdfe08
f6040bf7
09020603
090500fd
0a00f8fa
fff40ff1
f6fdfd04
f4e0010f
fcf70002
0df6f9f9
0602f7f6
00001b06
01fefbf2
0cfc0e07
090b0308
fcf91504
fae80704
04f908fa
fb080624
f200e208
09fbe319
f501000c
ef06fdec
02ef0009
14def4fd
fd2bfaf5
fd160bf4
f91804fc
fcf9fd0b
07fffef8
000ef9fc
fb0f0afc
14fa060d
fdf2f90b
0900f7fa
0dfb01fd
fbfaf4fb
17edeff9
0d16ff16
ee120504
0cf3ffec
d60c2316
0ffaf905
1bea09f6
0206fafb
f40e0903
0bfdfbfe
fbf7fbf9
fb15f3fc
14f107ff
ec0601fa
06f7fff7
0cf709f9
00081def
08f4020e
10fef502
0df6e204
f60215f2
fb04f8fb
fef50606
08fb0b03
000af605
130afa08
011b070a
f411fdf1
ec06fe0e
edf302f9
ebfffb0c
03dff7ef
07040802
fbfb0413
0ce8ecf1
03000a02
fcfcfce4
0cfb0e0f
f80af5fb
00f800fb
000b0403
000e3efe
f4f3e4e0
00ef0c09
f70ef901
e2e5f711
e30bfa04
f8f8040b
fdfd1107
ee07fb17
1312fffb
13f3eb02
eb05f115
070a0200
0d0b06ff
050de609
0908fc12
082cf106
f40608ef
0c060aef
f607fb20
f4f614e6
ddfc19e8
08ff0f11
0106f515
fe07170c
00ec0400
03feff02
fbf9f2f1
edf215fb
06fb0cf0
0206f807
06f5e402
f402f9f9
f308fb0e
0600f70e
f7fa0021
fe07fb2a
0af90d03
f60e0f08
0000ebfa
e7f512ee
f5071af6
030505ec
f500f112
fa00fa00
030012fd
09fe1dfd
fff7d2f8
fbf902fc
07f818fa
01010eed
080de1ee
f5fd04f0
f9fd00e9
1312fdff
0c0c0a0a
00090cf0
e9fff1fd
f2fe09f6
fff6fa07
0cf5f90f
f8040905
00ed0507
03f8fbfe
fbfc0705
eefb1a1c
0211ebf9
0107030c
f703fbfb
06070c0b
04f602fe
f4f0fd04
f3f40e14
fd02fcf5
f509f8ea
e1f209f7
02fbfa0d
fbe702f8
030b100e
f3ee03fa
01f70608
070703ff
040506f1
f5080905
0a0e0cf2
eee7faf4
040b07fb
fcfce8f0
f7f6fdfe
ff0c00ff
0110f5f9
02f9fb05
06061912
fe0cf4f9
05f206fe
0700ff0a
fff203f3
0112fa16
0300f9f6
0b05f6f8
e904100a
f6000123
eef600f8
fbef02e4
0800f304
00f60f1b
02f5fcf0
060207f6
ee0505f6
f30000f6
f10c0bed
fb06e60c
fe111021
05010f15
fff41f04
f4fa05f5
f30af612
1f060bf5
020600f5
0503020a
fffaf5fd
0efd01f5
f7f907fe
ecfc130b
050a060e
15f9f307
f807f11d
fd000e06
0f03f6ed
f61c01f8
fef7f502
04fb070b
dffcfcfd
1cfa0915
fd020d07
e8fcf606
f9020706
f6f103fa
ff09ef07
fa24f9f4
fadbf7f3
04ea0b05
06f2ecfa
0102f602
f704eeed
150be4fa
f00d08eb
000113fc
00f3e6f1
f8150dfe
e80df1ee
fbf2fff1
04e803fe
0911f918
f6ff0608
06f50d0b
030704f8
e717f529
06fb1b0b
f7fe01f9
03131afd
f5fb0901
f6e8fc0b
000efee4
fa111ae2
fdfeffe6
f3ed00f0
fcf7fdef
0aff08ef
0cf8f504
061300f2
fef90305
e900fb07
0de00500
000109ff
0e0eed0f
0b060703
fce1ecfd
01eeef05
ea0f0404
0c00fa17
0806070b
04edf2f4
fbf2e809
12f8fffd
f1f408e5
0a001108
f3f70cf2
0d150102
f10deff8
02f7f209
00280f06
f20eea19
00fb0115
fbf0f2fc
03fe03f6
0aed0bf6
f90001f9
f2f5000c
ff1102fc
f70505f7
01150708
f7f112ec
09f41300
f80005ff
06f00afb
f604040d
08f5f503
02030f09
04fd00fb
fdf4070a
fa00fb03
0f08f7f0
fd000a08
f9faf4fc
f407fbf2
ff0702fd
0405fcfb
09f907f2
09f0f3ff
15100308
e90fed0a
0af6f40d
090fee00
f2fb0d11
f31208f5
f2010703
0afc00f5
efee18f8
10f4fbf3
ee06fd02
f9f101ff
0dfcf700
0902f914
0aeb0202
080710f8
fc0802f8
effb0a05
1200f9f3
ed00ed0c
f40502fb
0c0d000f
07fff3fd
f600eef8
010f02fa
0b00fffe
fff21e08
fe0f0bf7
fbfcf601
fff306f3
04f70404
f30debeb
03eb02ff
f4fd1103
effd070b
0004fe00
05fd1f00
f40c0ffd
0ae9f2fe
0cff03f7
0cfaf4f3
f8020bf6
09fcf4ec
02eefa15
eaeefd04
f8f50c00
fc0deef0
02f2ea0a
f50403ee
19070b14
0810fe0a
05f80eed
0f0906fe
01fd000a
faf9fc0b
fa0afbf2
050f0112
fd02fb07
f2f4f703
fb120501
f9fcff00
00fd08ea
fe1afd06
02f40605
ff1019f9
f9f3fdff
1200060d
fbf4eff0
0710010b
fb18e910
03f90bf4
eb0600f6
06fbfd07
181004fc
e7fdfaef
0b00fef7
0d011ef1
f8fd0410
fffbfb05
010ff3fa
04f6fef7
010000fa
00e90d0a
000ef5fc
07f7ff0e
f917f9ee
e5fdfd08
fa09eefa
f704001a
f8010009
1109f8fc
f9040100
f8f7fff5
02fdfbf2
fa09ffff
f5fcf805
0a10f7f4
fe03f903
050bf9fc
060efafb
ecf5f4f3
131509ed
03f608fa
fcf90b03
06fd18ee
f7fa0af2
02101219
edfc11fb
f0fb0804
0005fafb
05ecf5f4
0ef4f708
ff0200f8
f20109fc
0df40105
12ecfdf5
00f202f1
0f0b1103
eefb02e9
fb09f8fb
f7000102
f0000ff2
0bf102fe
f905faee
f4030504
090ffdff
f70711f7
f30007f3
f6f9ebfb
050005f4
faf307f8
f9fd0d05
0bf301fc
fe01e9f5
fafff8f1
f4fbfbf8
0001fdf5
fee916f6
f004fbfe
eff7ed03
0cf8000c
f9f405fe
02040af8
0afd05f2
00ec1105
0007f30a
ea08f3f3
f9060309
ef010003
0e0bfd0a
01f6f7fc
04f20806
fffef503
f804fdff
fc030106
020f070c
ebf5f504
f10f0009
f902f7f3
fb180b04
0204fef4
ff06fffd
ff1dff16
0c0909fc
090d08f4
00f302fb
f8fe0801
0dfe0e0a
fcf2f112
f60f0cfc
f7fb02f0
f31b18f6
14f70604
07ff03f0
ed0af2ff
04f6f10b
08f5fef4
f9ee07f3
070dff01
faf70302
07ed060a
f1030507
fffcf9ff
080000fe
0b01fe00
0aff08f8
07030efd
f2effbf2
0a0af20c
04110304
ff0afd09
00f5ef01
0af20007
0a0afa03
ff0004f8
00fc0604
08f4f90a
00e9f50b
07e908fd
f400faee
f3f6f601
f107ef00
010601fb
fd0d11ee
f30debff
fd160ffc
0bfaec10
f0ff05f6
f3ec0e00
00f60a0a
001206fd
1209fdfd
0aeefd02
0bf5f6f7
080e06fa
0509f803
05f100f0
f1f5f90a
06ffeef5
fb05f8fd
03f90100
05fef40a
1203fbf6
02f9e902
06070a09
f30c140a
060cf814
0a10fffa
0d000bef
0a11f6fc
f5fbfe02
fe12f4fc
09f20a06
fc020efb
fe0804f9
eff709f4
f4f108ff
f8090807
0cf9f6f9
0efcfcf3
ff020011
fafefefe
f60ef6f5
02f7f50d
0101fc0a
0508f9ef
08fbf2fa
fc0208ff
0200fef6
07edf20c
fef2f2fd
f601fbf7
1005fc07
0bfdfe02
030806f7
0009fafa
0001f80a
0c030002
01fc08fb
0e0c0f10
0c02fcfe
0a060f07
f5fef8fe
fb0cfc11
fb09f20b
11f6f903
fc0700f4
f805f9f6
fbf6f604
0df60af6
0d0807f5
f9fa02f7
f3fef509
09f40304
fa140af4
070b0600
eafff00b
f408fc13
fe1303fb
ec03fefb
f7fbf3fb
0d0c070d
01ff08f9
f506f7fc
f1fb03f5
fdf805fa
0e09fd01
0714fdf7
fd0aff01
14f70401
07fe0afc
fe120f0b
0500f0fc
07f500ef
1501ef03
0f0400fd
01f8fd05
fafef8fa
f8ff03f3
f1fcf7fe
f60601f3
0d090ff6
fc0cff0b
05f800ec
fbf702f4
f006fe11
09fcecfa
ff0dfbf8
f3fb050d
f50ff700
0805070c
f90308f9
00080800
fffafcf3
f9f7fef8
0404f202
f908f508
01010001
f5f101f4
080204f4
030bf5fd
0bf9f6fe
f6000000
01061201
0006fef2
0709f80f
0bfdf302
f6000c0c
f9f5f6f4
08fef6f6
fbf80401
06050403
0dfcfef4
f60af908
f4f2f2f2
f60101ef
f2000003
fc0e0c0b
11fff100
0a01f103
f8070700
f9ff050a
05f70008
070b02f2
000af810
fa0f0bf2
06fc000d
fb070402
03fcfc02
0307f20e
10fdf505
0205f0ff
fff407fc
010c0702
ee00f6fb
07fe0d11
fcf70ff9
1104f808
0f0605f1
f8f5fcf8
05f3f31a
0108ec04
010aeffa
050a050b
04fef806
06fef8f9
00fa1afc
1b2ae8fd
f8fcfcfe
f4f7fff3
0ef501f2
0bf1def7
020d0b04
001000fa
0101fc15
f8f7f3fc
02faf413
01e80910
fbff0d03
07ee0220
12050a02
fd04f900
0513ffd0
f9fd06ff
03fa02fb
0210fefb
05fcf8ef
fe010014
08050100
f5faff09
00fb041c
01fa0904
fd100608
fc060001
f7ed03f8
f60907eb
fe040100
0000e90b
ff06fcf8
fff10848
f40904f5
faff0a1f
0efe0016
051200fb
000f0003
00fe0004
e40affff
e9e90bfe
ffea08f8
0a05fa12
02f404ee
07080d06
fc080aff
0508faff
fd03fdfd
0608f8da
04110a0c
ff02f4fe
02090604
fff907f1
ee0003f7
0e010a09
0a04fd03
07fa05f3
0208e5fc
f5f7f901
0de507ff
01fcf7f5
fc0bfcfa
fa03fa0e
e7f0db01
f80bf7fd
07ebf6f3
14faf5f7
0703e909
fb03fa04
081de809
03f5f0f2
f3f00422
0009fbfa
f4f70002
f4f40400
17fe0009
030af700
f7fc0b11
09eef0fc
fa0a00f7
f9ef09fe
0a01fb01
fbfc1003
f4f6fdfb
07eef5f9
020b0218
dc090309
1c08f1fe
0a0001fe
0af0e02a
08f50509
f0fd0400
f91603f5
feed02ef
05fe01fc
fffa00fb
e6f6fb02
df000108
00edff02
07f513ec
02feebed
02040002
f5f40117
030005ff
ec04f715
f90a06f8
fb0109e9
0c08f113
f2070ef4
05040be2
fc0f0a02
fe00fbf7
ef02080c
fbfff8fa
000d2a09
07ea05fa
f6f704f9
e8f8e7e9
05f8f704
fef801f7
00fe0806
f000fc08
f909f907
00f9fd01
0ef808f1
09ed00f6
0000f904
fb08f2f4
0702fceb
0100fe0b
ff040300
01080304
fff801f8
fb00f906
f90501fe
f7f7f405
0b000013
11000601
01ecff06
f4fe0f09
f40000f7
05fe0316
fef0f300
f91cf4f6
07fdf9fc
ff040704
ed05f4fe
fff9fcfd
0a00fd06
0801110c
f7fef5f9
00fd0f10
05f4f3fe
fc0bf8ff
040302f8
f4fdfcfc
080607f9
02ff00f7
f7f9020b
06f8f8f4
0a08ff05
fa02fc03
ef1201fb
06f90afc
f9ffed00
03ffff0d
fc090f0b
f6010eff
00f401ff
0a060108
0510f50f
faf706fc
0302000d
00e7fb03
0a0ff7f6
fef30004
faf0f407
080812f3
f3f4faeb
0d0104ff
faf70208
08f2f5fd
00000dfe
f9ff04f6
fafcfefc
020e0fed
0ffc0003
03001a0b
010005fc
fbfcfcf2
f8fffdf7
01fef6fb
f9060200
0101ff07
fa00fefb
02fafe06
fdeb0205
030df7fb
0a040900
f4f9f4f2
fef60501
f3f910f9
fa06ff0e
0afd0cff
f9f300fe
001001fc
02080702
ff0b12f9
f308fdf8
0cf9fbfb
ef0000fb
00030b00
fcedf702
0a030a0d
fc071afc
f702fd0a
080703ff
fefff601
f8f300f1
f6f20fef
00f701fc
fefb06fc
0b0700fd
05f0fc06
050705ff
fcfff50f
090306f8
fe01fbfa
f902fb14
f603f215
140cfffa
fc0506ff
f40100fd
fc08090c
0e020302
fd08fefb
0505f50f
0c020407
ecf70afb
0407fdfa
0a01000a
05f70b05
f7f90400
fcf702fe
ff02050c
12f6f3fa
070dfcf9
eff9f403
0004f7fc
fe080cfd
f8faf60a
0cf300f2
0313fbf5
f90703f2
0605fa0f
f2ee080c
fdf4ef04
09f8060c
fff3f6f5
0104eff9
f0edf90b
f90209fc
00030afa
f6fa0509
f206fff5
f606f5fc
fdddf9fc
ff19e7ff
06fbecf1
f80d06eb
0018fffd
f50007f6
f709fde9
f90506ff
140002f7
0001fef0
1314fd0d
09fa060a
00ee0802
04fa0b07
0002fa08
0d0300fd
feedff05
06000311
03f7100a
0b00f519
fb00100b
06f9f900
f7fc0505
f5f10dfd
0b0315f4
030015f9
f60ef5fb
fa190a00
fe08e000
f700e4fa
f100fc13
00fafa03
f808fd06
00f502f9
f502f009
e905f102
0d0500f7
fd000100
f814f800
02f30cfb
0a0deff8
070efdfb
0e00f9ed
effb16ed
fdf406ff
f204090e
07fd00fe
0ae4faf8
0afafe0b
f713fef9
e6f6090a
f7f0f90b
f4040a1d
faff04f6
f501f711
fd0b03fc
0510070d
0105ee08
fb140400
0401fc12
ee02fffe
eff60700
02fef6fe
06120711
fbf5fd09
00edf4fd
03130a0e
f70e06fe
fe0cf805
f50e060a
02f5f40b
02fcf9ef
1bfdf400
17000405
0402fdfc
ff01f204
ec0411f8
f0ff0501
fafd050f
260bfbf1
06f4fcf6
f8fe06fa
0b0108fc
09fc09fc
faf70201
12f1050d
0806f8fc
fffcf8f4
0003eff5
ea0210fe
000aeff1
090600fc
f8020906
0af70204
f70cf608
f2f8f2f4
03fe02f7
faf904fa
f40e05f3
f40501fd
f5f5e7f7
fd050919
fe0f03fc
07f500f2
f7fb07fd
eff2f105
f60108fb
e907f6fb
0b06f5eb
f0fbf90f
0005f3fa
ffed0814
090af810
f2f710f7
fdfd0b01
02f7f5fe
0f01fff2
01f002fc
06030506
fceefdfe
f0f3020a
f9fbf605
0310070e
fa13f010
0d1c0307
08ff13f6
0a030f03
11f50cff
eeecf6f9
04f8f507
0ae9f3ee
f407f7fa
07120906
fef2fe0c
f8f905f7
0b050302
fef50506
030c0105
0f091707
000bf807
f4050ffb
fb0105ee
f1110907
f200f6fa
07fdf50e
f201f901
f5f4f6fd
1004ff02
fff102f6
0c0604ee
f813fdfd
09f5f211
0cf406f5
04fd03ed
fb05fe0f
fdf8fbfa
0602f709
0302ff09
ea03fcf8
1b05fefd
fe06f7fc
fb19f707
fe0807f8
fcf3060c
0df7070c
fff90903
04000bec
f50ef7ff
110208f5
f4fefc0a
0509fa05
0b100c09
010aee03
0e04fa01
040800ed
ff06fcf6
130df4ef
fef2ef02
f8fb0df8
fdeaf402
09100ff5
0a0a050e
f403fcff
f604000b
08eff602
0815fdf9
0b00eef7
f8040bfd
fcf3f603
f4fb07ff
f9f9f3f3
05fcf105
0f120506
02ff0803
f100f60a
f6f30a0f
000f060d
fe06fdfd
f413edfb
0002f1f1
06fef60a
00fd0bfa
0af71009
05eefe0b
ffee05fa
00f4f0f9
0105f5f1
f507f4ff
030af3f8
ee10f9f8
ee01f6f6
f513070d
040ff603
fffc0ff1
fd05f5f7
010400ec
10f3fc0d
f605f60f
f9fdf500
0efff4f9
ff00fafd
f715f1fb
fa0ffaf3
ff01fe0f
f400f8f9
08fbff00
03fcfff6
04fa08fc
fe0207f6
f413fbf5
01f80708
05fef7fe
050504f0
fb03ec05
fb0b0800
08f2f4fe
fc0409ea
1afbf7fd
ed07ff0c
1e17fffb
f8fb0a09
060c0728
fafe09f6
11090008
fdf3fd01
f2f8fdf8
fa0001f9
fef90f07
0202fe0d
15f7fbfa
0c0008fb
00070bf8
120ce1ee
ee0c07f4
09000301
fa0907f8
02f900f6
fd270907
03fb05fe
050cfc0d
fceb02fa
f904f600
f208f905
e0020718
fa01f301
f1fb000f
0705f504
09fbee02
0bfffef9
00150900
050107f9
03f0f9f5
04f5f4f4
1c1304fe
f40900f9
08f9f100
01f9f809
f805e9f2
f3eff500
fa0404f8
fcf9090b
e809fafe
f9160ef7
fae7f010
fe05f9fb
f9fd03fe
f7f812f4
fc0efe0b
1a09f101
060003f7
effcedf6
0406fdf9
f3f5fe03
06ee0303
0e03e60c
0500f900
12faf6f2
08f102fd
000bff08
02130600
fcf3f3f1
0d01fde9
f9fc0b06
0a0411ea
03fcf4ec
0e00fd10
041afdf2
f9110eea
01fdfbf6
13fde805
ea010500
050e01fe
f9f8fcfe
07130710
fc000efc
f3f0fc08
f6030d0d
030617f9
0d0303f8
00050208
06fa1001
010206f9
090bf7f0
0b00f60b
fe1805fc
02fdfc00
0704f3f7
0b07fc02
ff11f105
01000305
02050500
e8ff060d
0df00306
0101f105
02fe0200
eff8e3f9
02f20406
0000f414
0d030009
0209f901
f402f50e
03ecfa0c
020b0403
0c0b060e
070b06fe
0cf7fd10
f2f60bf6
0608f514
fafffbfd
f4000200
f405f9fc
f7f104f5
0505f001
fef80af0
fdffff10
06ff00f1
f60e00f0
04fc03f6
15f6fefd
000606ff
000a08f3
0b02f402
0004fbf1
f81906fd
f30414ed
fe070000
e7f00cf9
ecfbfdfb
fc000106
0007ebf6
fb1f00e2
08f005fc
0bf5ef02
07f909f4
fa0f0deb
f7f7f2ef
f5fbfcfb
012c001b
fefaf208
d1051402
ff1408eb
1bf21e10
0602fff4
04f9fbfc
0cfafe08
fd0eff15
f8030ff0
08fc0616
0106f508
0707f406
ed00f80e
0000eef4
1ff1e5f5
f3080ff9
fc07f501
10f40dfa
f0fb0506
f60907f7
f9fef8df
ff0df903
eff306fe
08f2f704
feea0f02
fcfb05e1
00f1ff0b
fdf4fa02
05fdfc01
0f0010f3
e7ff0cf8
02fe0502
f505f1f8
08ff0e06
f8180201
08041501
f4f80cec
1014f904
ef05f103
f801f8ec
0607fbf3
f6f5f504
04fcf004
f0ff08f1
08020913
f70910fc
0003f6fa
1702fa1f
02f4fffd
f4f70eff
0820000e
fefd16f6
f3fdfe01
edfcfd00
f9030205
f0060303
fe0af70c
fef2f804
0efffb0d
0e08fe0b
00e3e90d
07130905
03141604
0805f90c
090ffa06
0505f103
0ffaf7fc
07090de9
f4f50f18
0a06f1e5
110b05ff
f3fe0c00
f6e5f7f0
0c19f505
fdf018f4
0414080f
fc14fce4
ecf6170a
011400e7
f4faf800
fcfffd03
f814f3fd
150009eb
0be700f1
0807eb1e
0d010200
ecf1f1f3
0222f901
06fcfc1d
fd0608ea
0105f1fa
09f400f5
01f5eb25
140bf500
13100603
23d411fd
0b0b0301
fb051108
120ef2f4
0efc0709
01fff102
f8f31ff9
e8f4fe0d
0b1afef7
0d02010b
ff10fc06
f3fee3f0
16fdf2fa
0c000506
faf916fc
04f6eaf5
01fffaf1
f600ef0d
fe0b0603
09160602
0a00120c
f9000600
070115fb
02fe0ff4
faf6f5ff
ef000106
f8fef7fd
040df70b
f7f800f8
0afc0af9
05f9060d
ecfb0405
01f90a05
0000fef6
010c1206
02040af9
05000af5
05001005
fdf90c04
fa0006ff
06070000
f9fafaf8
fc06f800
ff0c10ff
fdf1fb0b
eeef09fc
f104f909
fffe11f1
effbfb01
0bf5fffc
10f80105
02f8f508
07f5f8fc
000ceffd
f608f9fb
0f07f8fa
0af7f6fa
f1fef6fc
0506ff0e
10fd0904
0003f900
0af8fe06
f6fcf108
02f3f4f8
04fef4ee
f10f0202
fd10fff5
0a01f302
f9fbf70b
02f8080c
080dfbfd
01f71901
fffd02f3
ea0c07ee
0e000afd
0303ec0a
fb04fffa
fd110d0b
00f209fc
13f9fb08
0cfa0008
11151003
fb0ffb01
0c0c03fd
0bf60009
fdf4f6fe
06f4f505
ff00f803
fcfd0d0d
fbf8fb05
f7fef90b
0efb090e
ff0afef9
fffb0601
05f80007
0af3030b
f1fd0000
05040004
0305f306
f0090d05
0908fefa
f7fcf3fe
0609fb03
01f80607
010003f0
09f4f109
11fb04fa
fef11208
f90a07ff
06fefc07
fe0af4ff
f30df40a
02060004
09f80e06
f50efe01
02fa0a04
04f7fa00
f40f0408
07040a08
070800f6
0704ffee
11020501
04fefcf8
000104f1
02f4fff5
0b07fdf6
f405fef4
110eff0b
f800fc15
fcfcf1f1
fcf4fdf6
fcf8fffa
f5f9fb14
02100dff
fa05fc04
0efe030b
fbf307f6
010700fd
fc0904f7
080a07f0
0af7f4fd
03f5f1f4
0b01f702
0a02f301
fefe08f7
ff0808fd
f90a02ff
03f90817
03e0fd02
f80603f7
f103f610
14fb1213
08fcf707
0807020a
090206ef
eff604fa
05eef7f1
011505fc
0e05faf2
0c0003fb
e80105fe
07ecfc13
f9f71710
fafc020b
fa19070b
09fc0afd
fbfff006
faf0f9fb
f900022a
05021315
02ff03f6
0c0a01fa
0ff9ee03
0deffb11
0c06f9ff
f001f409
e2fdf712
010dff0d
03ff09f9
08fc1900
01f5100d
07fd0afc
01101003
f500fee6
f5fafefb
f613130b
061004f0
06141304
0001f307
fc020c09
03f2fa02
efe81106
0309030c
05e5f2eb
0a0915f4
eb0bfffe
f20e08f4
f20703f9
24f700ed
07ff0101
040a05f5
fd0410eb
0f09e5ee
0bf9fc01
0904faef
03fd0108
020315f7
0000faed
0efe04fd
eefcf212
02f6f000
e9e0ff0a
fe0af6f6
f90604f7
fc0302f1
eaec0011
f90413f6
11170600
01fbd702
0407f7ee
ef021715
fd01f205
0a16fbff
0000f4fc
f4fffa0d
eb0a100f
f313070e
1506f807
f407fafb
000306fa
020d0eff
0eecf708
e9fff5fa
0dfbf7eb
f6f2fd00
fc0f09fe
000a08ff
09fb0ef7
0412f214
fafbfa03
ee0bf8fa
000803fb
f90d0005
0217f8f6
130cf001
fc0117f7
fffde80c
f3f00d02
0bee030a
0000fd1b
fafcf410
fcfd0401
ecfa04f9
faf90af7
0ae70100
16faf301
1a1a03f7
0c02f5fd
04110009
08061705
18f91806
f5f40011
05f602f5
08dc01f8
13e7f80b
160a14ff
f61006f1
ff0900e7
060319ed
fd0c0a0f
f9f9f508
ed0702f0
fa08fef4
f4ffef1b
eef607ea
0500fe0a
00030405
090304f8
fb0001ed
fcf80806
0c070900
00f70d0a
04fafcf5
f1fd0700
f7fcf602
f203f8f2
f903f8fd
0a150605
fc0018fe
fb06f508
fc030704
fff7feff
fdecf7ee
0c09fb01
fdf305fc
e4e7f20f
f8f30bfb
0dfaf80f
faf80205
fdeef50a
fbf404fe
f7fff4ff
f6f9fefa
0710f405
f60b0df5
03f00607
fe00ee03
0dfdfe02
f9060201
f5fafafe
fdfdfa0c
f900f211
00fcf1e6
fa0bee00
fffbfdfd
0900fff0
020dfd03
00fafa03
090307fc
fe0000f9
fefa0d00
f404f9f9
faef0602
03f4faf8
0dfd08ff
f90407f5
02070c0d
1004faf9
14040300
f9fafaf0
f8080c04
fefa07fb
f7fdf704
0afdfb0a
0401f80e
fd09080c
f700fd0f
00f6fe03
06fffafc
ff06fa00
f9fcf7f8
05f300f8
fcfa08f9
ed000afc
09fe0005
f910fceb
000bfdfe
0306fb01
01f20400
05fbfb04
f8070a08
fefbfc04
f208f502
f6050609
f5edff00
fb01040f
fbf50500
00f900f9
0f0d02fb
fcf2f60a
f70100fe
06f2fff8
13fcf8f4
0afafb07
f3f800fa
0602ffff
f800050a
09090207
f4010a07
f700f7f2
fe1dfafd
0906e502
ec04feff
fd00fb00
f5fb0601
00040200
070307fe
f7fa0c07
