11011300
f4ceef31
f6fcf8ce
04ffd6e6
ac0701f7
f0cbf00c
24facde9
f20fd70e
0c0e1300
1bf4ede1
04151a7f
06cff0f3
e7042010
241afbe5
f1f71315
2619ef01
0b1afaf9
03d9fbf5
f6e8f6f2
281104df
1af9f11b
efff2515
fe240c14
07600202
d8173b27
f902e9e8
061df71d
14f7f1fe
ddfdbefd
1b28dc11
fe1c5118
f0fa080a
30dd28fb
18051de2
1522f532
0ef010f9
02fa0a23
eae114fb
08fe1be9
0c13e70d
f713fcfc
fae711ff
0103fef7
f8151304
fd16f108
fde5f1ee
ecf0ec02
01ec0111
ea15ec00
d716ebec
e5dfebe6
03f8ee0d
d6ed0a00
f8ce08f3
11f6fae8
18102725
18210308
ff2e180d
07faf4fb
f7c9e71e
0c02e8f0
c5f5f0b8
1c020efc
f9fff9ee
620dfdee
0f15fe13
fb18f91e
e114f1f0
03fc0705
1af7eb0f
dcf40ffb
15f70d0f
cdf709d7
f2ce05e6
15ee25f2
de1b25ec
fb0de938
f2032801
03fd110a
ff0616f2
fb000b31
e113cbf3
98e5fec4
fbf61612
f1f1d2f4
17220fc8
f0e6f801
021b1d12
de19e60e
0f231401
00ea2c0f
faffffad
d6e4f2fe
09e2ebfb
f3dcfaf0
eae30ff3
09fbd701
1ff00622
0afbfe0f
d70ee027
e6eb0380
dfdc04f2
d22813fd
f5feedf7
f7f6fff6
d7fd1415
fed51313
0012030c
10ecf713
22f60d19
00ea011e
0b0ef21c
e902c80a
0e2e4901
f501ce2a
f1eafef8
fafefaff
e913e1ee
f90208c2
e913d00e
02fcf7e5
dbe40aeb
faca00f0
cef20b10
383bcdf0
29190a04
eaeafa01
f3fafd3c
14140a04
2207140f
0d042843
02ece414
f6ecf708
53ff2029
e811ea03
250e0b02
030e151f
01dd0d12
0c270d27
15f8f803
20290c0c
d21d1215
16fcf7f4
f8fcf70a
f8334ede
13f70431
e9d11500
0dd7a8fc
f914f8e3
01db0024
f6f1e9fc
e2e4f9ff
f1e2db0b
001d1309
18191607
0116e122
090e060d
d4f80e2f
f2e5f706
fd12eefb
1ffedf02
f819000a
08ea00c7
0f300de4
0f08fbe8
050d000d
ec130ee7
dcd704f7
faef221a
f1fee9f9
f9031908
f01c060f
e70317fe
eac719fb
16dc89cf
f4111cfa
f6dbdb00
12e8f801
c1f2f2f4
ea0015e7
150a0ee3
04072c4f
fcf9ea06
0019e3fa
121303f9
2743ff16
0012e9fe
e9e700f6
bdc5e00a
ece5e3fe
13f4f0eb
09fafe06
0f0e3643
0104f7fd
1802f202
04123417
ef00e5f2
e3dcee1c
f3fda9f9
f2fcf580
fb202005
00fe000b
02e6ef0a
f907d811
e8d5bee2
111bf8f7
ede7e002
1306f4f4
05f0f1f2
d9e9ddea
f8f84b01
f9e3f5d9
f7ef0606
faeff702
ba000fda
01e612f3
01eb1dec
0e27ff59
0615f011
1e03022f
0af1f2d9
f7f3fc03
1a342b19
0c2eef1c
e6e20203
f91f1df4
ee11d815
08e80be9
02f60b00
1d15e30f
eddced16
e4f02e26
cdced4ec
fbc4fd0c
2cf70ee7
270efe56
0b0310ed
d8ecf5eb
ccf1faf8
e9d2fcdb
da17f6f6
2ccbf8ef
e4ffef05
06e5ff11
eefeebe2
0705ee13
f4112736
da020404
09f9fcfb
fb133307
e70bf8ed
13340e08
1f1204df
13e42800
01de07f0
2f03fa1a
0f3df514
f5a5e42e
ebf4fa10
b2cb09b8
ff200dfe
02fcd300
f50ffccc
15001609
fe2917ff
c2e4f7ec
c8cd11f4
0500e81d
3f1e0925
0837f52d
e0f01d11
09ddf22b
0200f9f0
00fcdd04
e6e307ff
dbc3bee8
a700befc
35d5efd0
ea23ed24
13e6e008
f10605ec
f81bfbf8
09e1f601
00eef5e6
1c080d19
140f1104
190d100d
f932d20c
e8f905fe
f5240ae2
fcf72407
1feadc1e
03fb111d
2a633810
35f21408
affd2ad4
cfd9e7ec
061d1513
ffe8fa16
09d20600
1bf3d6e8
39fe0deb
15221002
1d1b2a02
f8230a23
f1e5fe07
edeaddf6
d7e6ffee
f40a1304
e4e0d3f0
dcf2dff7
e2e10a0f
dcf91e09
c1d4e8d9
f1e0efe4
2af20bd5
12001b3e
080dfeec
ee05d9d6
1e1e03c2
2570ed26
e7fb35f2
100b0de6
072aed06
1c0e18f8
2513120f
f101edfe
d2e2ece4
0ffa0406
f5f92dfb
fc0a1a1d
f0edf918
05101314
2a161638
20e2f5f0
fe08080e
252a0529
07ff2939
fa18fbec
ff002209
f6eb170e
d9e2edf5
191214d6
080907e5
03c152ed
00fd80e4
eeec14ba
14ec17f5
0304ff1c
fc0a1808
fadf0d00
33f4080b
2519ec00
f2f83801
e8ee0015
f52901d9
04e9ee05
060de92a
d30cf2fb
fafffaf0
ee1106f4
3d060df5
f4080bfc
1908f420
00051032
0df10dfc
33f82402
3c260a0f
0504e037
0c04f70e
f1ed09ee
05110eee
fe10ef0b
ceb816e5
082ef7ee
f9f800e9
c108040e
fef80cfa
2e14cc2d
f2f3f2df
162004da
0f07cbfe
d3101aef
19210116
f71a1bea
41f0fef8
07fcfc07
17080015
fbfaef0b
10e40de8
0302dd09
09f409ed
fa162c1a
3311ed1b
24f404ec
0c090d09
06de02ef
f831df2c
041f0015
fcf2f6f7
e2fbfaff
17faea03
023928ff
d9fafeeb
efc9feff
110ded06
1506ff03
e4db0310
151cf0fd
dee1040c
d9f8f4e5
4afcef23
0c0d1632
e0fbfd22
05d1efec
ede00a0e
e1f1e9e1
26eae401
0c120f1a
181d2c0d
f9161f12
7fec1823
ea0fd720
f5e5ec1c
fa06f9da
02ebcffa
e81fd8e3
c514f4de
e680d40e
fd23dcfd
09f4000b
e5de0001
f4fd2607
0bf2f8eb
143822f5
000bf200
e90b0dec
f3dd1016
fb1a11e7
2cdb214c
e910dc0a
d904c9f0
03c6f506
f8e723de
de25e11c
2402f1cd
161e200e
04ea12dd
0b1c0514
102f141d
e40014e7
0e04f827
04dc1312
e1f00701
242beff9
e9181906
0b020e36
110b0911
13e41314
0c110029
030cf2ef
f2cc0b08
d310d0f3
2814e1a9
12e2f10e
eaefdacc
13f9f536
013710fa
0d0ff3ef
29e3ffea
e1fbf806
fbefdafb
0df41606
e51d0aed
f0e8fb0a
f0fbf8f9
f6f5ff03
01133f1a
ccd6faf6
15d107ef
03feeddf
0ae002fa
04dcf4fd
000b05ef
04effc00
03fbeaf4
d8f8fee1
d1eadde5
f6ff00f7
04cfc4e7
0b130016
eba7f1e5
03f1d4e2
12e0272d
fa02f207
1bfff806
26f7fefd
eb18eff4
eff926ef
f2e00109
232df2f9
e81415fb
cf3a072a
1e1c1c15
2e28262c
d1f800d4
e8c5caff
edf200e5
c708fc0a
fee2ec14
1f115d1b
21110308
0c10080e
edf7dcf6
fd00ff0e
06effd03
1be8f9f3
e5b4fe07
297f0beb
f0f374f1
dbd707ed
1ef9120c
fe1a3219
f0020df7
f8fafef4
02eefb00
000508fa
00fd05e6
f02d0907
740f09eb
da033218
0e00e80f
d7def726
fafcff05
15f12546
ff01f5ec
e5b7d901
0512a0ef
e9e7f3da
f5f5ecfb
000af6ec
d9e5ee01
0019df14
fe257f52
feeb0bf3
ed020710
0be6e1e7
03f3e905
f80510ea
27232cf6
0f000a1f
1624ea00
26f70f16
be0915eb
f9cf08fc
0bf50604
da0a12fc
06492507
f3c800b2
e3d2e920
0300dcfc
fd122d00
14e2f7ea
22542b1f
db02f6dd
69380c02
f11dea2b
fe05121d
eef6e2de
ddc303f6
f6f9ec26
f823f714
f2f91e10
fe01142a
310c00f9
19460cef
27f60d30
01f10c37
0e1bdff0
ed06f707
120e05f3
e6001fdf
1de71939
d5dafc0a
0bf8ddf0
4be24d0f
0e17f776
d8171df9
d0fd060f
c8d60923
f0edf1ea
1bf3eaf4
f9f9f707
0a06c601
41e5f901
fe4cfe10
00e31008
1604091f
e7ecff03
e9e1d5ed
01eadafe
f1080c01
e90fef14
faedfe1d
fb03f023
002509d9
1d2de1fa
10010b19
e3302500
0be3f120
13d01dfb
0cfdf015
09042b0a
13151b1c
ec031506
0800e9e9
ff0212f7
0adcf7fe
0a08f6fc
ffd010fd
0eebd102
fd001812
0b110e0d
00f03d20
c2ee2323
0e15e4f2
1312f12d
d5fbfc2b
cfddeed1
eafd0afc
ebfc0d10
ea0820f2
e0cfed0b
02d9caf7
eaeff3eb
f5ede605
7ffa1509
052a1229
e8ef0508
f0e80c21
0cec06f8
e50e14eb
06f71701
f90af831
eb2214fd
ea1815f5
f9fffcec
20e00800
0c02e1de
1dfefeea
0adc13f6
fdf7fced
2eff0bdf
000b1005
12ee0818
e8f0f7f7
01efe6f6
e1fbf11b
fe2415e3
e9e406ff
ea060e0d
fd14dafb
1a0219fe
41f80ee5
fc2cf319
02030901
ff14e8d3
21f900ec
f6170d0c
021d033a
0dfe0e00
de00e7f4
fce7f9f7
d0cae2aa
fd1f0501
120a0f4a
1c161140
fcedfbef
eaf1e9dc
f4163900
f311f3fc
f5fdd7e0
12db02f2
fe092500
f5f1fce6
f716120f
1b24f200
060b0c01
edc90a07
dad6e7d8
fe1a0918
0af60ef5
10dff5e9
d902121c
dee7e800
2208edff
100213cc
05d90a08
220bf1e2
edfcf0be
deeb1410
09eff8f1
3416f30e
08181410
0a0c211e
fcf800fc
bfd5fd2b
f6def1c9
dd07fd0f
c9bfe3c0
f4ffddf7
0dc6daf9
f40300d0
eb1101f2
ebead917
c801f306
f4faf8fd
3201ecd3
e207e8e7
fb163700
f3e4ebe0
d8d7dddb
d6b4b2ff
d9f6b9d5
cce8e0e4
f2c5dfd6
ee09bfe2
0af006ec
eb03eff7
00dbf9e6
1208f920
0b25061c
17f801f1
1218fc0e
182a0911
0cf2f503
0c25faf1
ecfa14f0
e900fd07
fc05160b
09240e10
08f314fb
f100e21d
17141c06
370000fc
17e51302
f00ee81c
021608f3
122a1700
f819f417
11fa0cf2
facd00fe
fdfcf409
eaf72e54
0aff34f2
e8dac012
dc1003e0
1f1414e5
0508f81f
ec010314
d7e8ecde
fff1ccf1
f7071604
fae2fff7
e0140cfc
12ecf9e8
e6faf70d
0424f8f8
37ff4239
07ed2549
f81b0f04
d40b150a
110be8cf
0e2f18e6
fdf7f00c
f9f31aec
e9d4eef7
f405f8fd
c0e2f507
e9f5d2ff
0bdb05f4
03e72030
0401e6fc
072c1fc8
06ff1f16
f830f9f6
d7f102d7
21fcedf7
142d1e14
09fdfa1c
01f806fc
06f8061f
e426f4d0
f4e1fc23
1105df07
fc0eeef5
032b0afe
fa333d1c
1ef80d11
f700fa1b
f5fc1ff8
cce7dcdd
fcededeb
f200e1fd
34f6d7df
0314fef2
140aef0f
471efdfb
0e40f328
f52e18f7
59151e03
0404fb34
ccdce02e
09cdfefd
00edffe4
041b220f
0d002afe
141cdef9
0f0100ee
00040707
f4f218e1
291aea12
eaf92602
000d0806
e205090d
1cfb0813
26201815
ecf9c436
f2ea02f2
2f13eb1d
02e7ebe4
fde6f200
18660c18
04fbeddc
0b2ae0ed
1739e5e5
fd0c13e5
e2061afa
fdd7efe4
19faedcc
c522f517
e6abedf7
100be817
d503fef3
e7dafcc2
0cddc4f6
04e717f0
f20ceedc
09100af1
030b0d13
e6d3d40a
dbefeff9
c806faf5
17e6f7fd
f1f3fadd
2fdb0c2d
fc11e50f
03e102d6
f9f7fa08
00030f02
d4100ecf
310a1007
e9fff422
05f4f406
e4f1e9ff
1d1b1f03
eaf0fe22
ff17f4f5
385dffe7
f20016e7
d2e6d7da
faf30009
0a10f7ff
250a1e0d
0f151313
eac5250f
4fead1f2
f9e00717
fe02d906
eb042007
08fbe501
1ef10021
021601d5
fee9f8d8
09e1d800
f00711f2
ef001201
17eccbd8
1e00160c
04330005
11092af7
f21c14de
17e8242d
dfccdf12
1fe6e42f
0eeafdf4
e313ede2
05eefff6
f0fc1d04
f511d9fb
2b0e1638
0a0b0cfa
edd7d8f4
f1fd13fb
dceaf8f1
03f3fdfa
f406ef29
0c1b01ee
0f192d17
ed152007
04db17f8
fc06fd16
0b000525
f51bea03
060d17f3
28f7f0f1
0d012928
0bea050f
f7021514
fa14ee03
f9f1281b
3df3ee0f
f2ec1429
1d08fe1c
0def1002
0305fdf9
151cf50b
060de5f7
0017ffc8
fef41fdc
0d03cffc
e8e4e6fb
f9000000
26f2f0c6
23251222
e305f9e3
00dcdafa
052a08e1
f2fa1f17
ee09f2ea
fb08e30f
e60023f8
d2fc132f
eaeff5f7
0e21f90c
1ef6fdef
e6040efc
13d6fd00
07ecfafa
1a210feb
e00722e7
f0e7443d
ebf6c2c7
f4ec13f1
1effe0fc
280813f6
1b1f1923
06f5f015
ccc600f9
1dfccd09
c9e72afd
130cf2f1
dff6e701
f6faf207
0be7180a
fefa1314
09fff513
e8f2d804
150d0df3
e8210cdb
ddce13dc
10d2e823
04d20004
ead5f018
100304d0
fc000fe3
070ffef3
27000329
1618002b
10ec130f
e6ebfb27
0d052709
f7f8fbfc
f105fffc
f60afe12
f7091207
1500fa14
e9ff10fb
0800ed0d
08ffce08
f41f151c
0cfe1d13
00e9e91c
02eaece1
fd130102
240afe01
281c15e9
0cfff102
0af80404
29f0fd14
12ec0215
12edfc20
f2f8e41b
01f1080b
f50e23f0
f4e7defe
f807fc10
e6fcf306
f41efce6
0a070e13
f20f03fa
0b051af3
f0fc0021
010016f9
cb060cee
dffcf5e1
00ec03ee
2d00ef05
03530419
eae32707
f5d6a8f0
1411e914
2002fe0f
d20f341e
10000ae6
280105d6
fffcedf7
24eef700
0be503e9
e0ffea05
001313fb
1ef23013
d713feec
fe201ff7
0c131416
e317f807
0de8f60f
011cdbfe
300e00f1
f7101310
000410fb
f5270afc
03f2f7fd
f231f800
f4050a0c
19e8120c
1f310ffb
fb12200d
fc21f5f0
14020d1e
430e1410
fe060115
fa040100
f204f107
f4e9ebec
dbe801e1
05eaf41b
003106f0
2627ef0a
f12b06d6
00def0ee
180eea02
1bfdf922
0ada0304
10140f13
fdff0402
ececfef9
eedfbd08
07060efd
cb00e9c5
f1cd04f9
e2f0deeb
13ecf802
f612ffef
fce409de
04000bf7
fa071d05
4bdc02c5
3a15e952
22170403
1dfff2cf
ef00ffe6
f60320e8
04e80e00
ecfbeaf4
d9050106
e713ec4a
f20ffcc2
090900fe
0f09f1e2
f53c2100
03ded703
fdef0ac7
1920070c
f709040f
f72d2230
09141e0e
08e3ed15
01cdf3ca
1119f8ee
2a0a0601
f605ffff
00f9f315
f70dfc05
241600e7
eee21720
d0fb09eb
d2f5f4cc
da141bda
0af2f50b
f6e2f10f
c9cffc04
1a15d3fb
e821f801
200b2710
0605340d
f8eb272c
e3f923f0
d50302ed
ffeb28fa
eaca0031
000bf11f
06130a0a
f6ff0705
06fbe8f9
02fce4d9
dde2f817
071316f5
03331c19
e3e62d2b
00ffe6f1
e8f7e4ee
03dde0f2
e5cb0ae6
03f502f4
270de1f1
04fa16f7
080c1506
efe70af5
f3fcf5dd
9be62023
f6ade9d5
eff4f8d8
39e81539
e205f609
dcdfdef2
07f9f7e4
1556fbf1
ffde2405
33ecfdf6
0ee5f1fc
f0fdda00
d10fed1c
02f30cc9
ee12f306
11ed0fed
0af4e70c
00fef11c
ec1fe507
fb10f4fb
f5e81210
13f9e8f5
f5131f49
ea26e917
eaff33fb
1f1d01d5
0fed1604
f8f5e5f3
fadc08db
ebd80df9
fe071219
10130309
f4fd050e
22091e23
f41af71a
e6d81a18
1019db05
04f60323
20080109
07f80825
e80aff2b
13d2f0f7
d9f738e7
150307e8
07efee01
24e71928
01240df6
f500ff0f
f0e3dcd7
eaf4ee05
f3ed0902
fce3ede1
01e1140c
2675f5f8
ef01efe3
e304f0dc
29f80616
c2fe0bf5
1add131c
18f40cd9
1418fd38
cede0dfe
dec81308
010bfbef
070035dd
050b1119
1d01cb0b
0efdf0fc
dafdfc05
ead1efe3
cce1fcfd
1300f6f0
dafcfffd
0aede6e3
f607ebf3
2001eefc
f309f51f
0527ef12
fcdcf8e9
04e0ea09
07000efc
e603050d
f0f2001a
11de2406
26f8f723
2907f61c
191efd00
f6e5edf4
15e90700
0309ee13
1dea1b20
f410f4fd
f6ed0103
f709f600
0c000bfb
f3ed06f9
0713ed06
fbee0e0f
fadbe1f9
08e60400
0030f4df
fcf5f507
e40eb9c0
f3eaf2a4
06fcff09
28090722
00fef9ef
07010102
f71d290d
fe13260a
e60def02
090dedfe
e60cfbed
ecc90cf7
fe2b1518
04e805d7
10f300f9
2209181b
1e1a0601
1fea09ee
0bfd1704
1417fb11
0dfff20a
dee90ae2
e9f3fc12
fafa0f04
d90cd100
def505e8
f803f005
f8f300f3
2315e1f0
f2e91a21
f4f6edec
0d0f0822
fbdaee03
0a0002dd
1e21f0ff
0f0a141d
ed21e0d8
e9f903fe
e3d0f2f9
ede4170a
e815ddeb
e6fe0b11
c20a1304
dfcaeffe
def5fac6
25e4dce8
1aed14fd
14d6f2ff
140f240a
e9d70ef8
f4dcf509
e6190d03
d3000809
defd061c
23e3f4f1
19010b64
2ae30706
2612f500
fcf814fb
2ce5f52b
1b0efe05
04321827
1c213404
ff000b07
4500f200
00001a09
fb00e2ed
e3e90012
07eeee0f
15faeff5
e208f705
09341d0e
e6f4e3e9
021010dc
0004d9f7
f811fef8
e001fefa
e8f0dedf
efe911f8
e5deff21
fff112d6
270efe21
02d61fed
05f7f0ed
f111f8d8
0cd316f0
f5e6f1e5
ebffe4d8
28002929
0a1f0414
ffd2d5e6
f2eee8f3
03f820f3
dd04f214
110d02fa
f9f0efff
f8f118e2
1413f8f0
f9fb0b01
0eede0e1
17f809c9
fc041f06
e8e3d6f6
def8efdc
e111e809
1601f5fc
fde3f70f
01fcfdfd
f4e0f802
e1141427
ebe1f407
f9fdf4e7
e5081613
0dfcfe21
13dff704
24fb1621
faef17f7
20e600d8
20190523
0f33f702
0c0b3e27
030619ec
24080bef
f0faf4ec
ec0e0905
0212f804
03f1eb0f
f1fdeaef
f919faf6
e8e934f3
e1d004ea
01d9f700
e5111e11
10fa09ef
10e5eeef
31e6030b
fafaeef9
150519f9
fbf9d524
21f3f0f0
ed0206f2
f4f6ef11
2ef53009
eb2bdf1f
360ae2f4
f4ea0dec
271943f9
06060d0a
f1e8faf4
fcf8ebf3
f2e11a13
f7d223e3
f7f3dd0c
070eec02
f2f6f418
d1e8dbf4
e8194e09
f2110603
dedef2ec
ec1ce2f9
eee307e1
f81517fa
07f6f326
e7f8f304
22ed040c
d8111e03
e9e80d11
e7e2c9fe
2802e2ea
1523fd05
122cf908
f7efb8e9
0409ff21
0714d5dc
2508f70d
c5cbf317
f9e3dad7
30efe6ee
163f0708
10101422
e2de0a05
f1d2effc
e7ef29f2
03f51d3a
00e82618
f80101e1
eef7df05
04dd1002
eee6f0f1
1c07ffe9
e0fc11cf
0d0ded10
05fde429
d0d2fe00
ed1ce113
ee083426
18f118fb
e0e4ef14
fa131f0f
28140a05
e2db0dff
0cf6edfd
08fc0ffb
f760e916
f91306ff
23fa25ff
eb03db10
1ef51c2a
0f28f5f6
1dc20409
fb140609
11330010
e1bc0415
ef000efd
e6e81ae5
0e0ae5f9
ff0fefe5
f3ffebde
f6fa0001
fa251e11
e417df00
f30209d1
def810ef
f605fdad
0108f2fc
e3eb080c
0110150c
2cf2090b
22013035
2521fd1e
06f4dffc
e1ff00fa
09db0a0f
f4292bef
4805df00
fefb131d
150e2b0f
d9fbcdcc
0336f70f
270d440f
e3dddc27
0904ef1a
f21bf9f6
08fcf1f7
e7faf004
17f4fa00
fdfffaf7
e9e1fa04
07f5f806
0b200d30
f8f20af3
0e01f71a
0107fb0d
e80cf2e7
fff7f910
100adc1c
e410f5e6
fbfe20e8
02e307f2
f1e21d0d
f8fe0e10
320dfd00
0320061f
01cf0009
19eedc00
eb16fe00
01f7f0ff
01f8d4fa
f60ee5f6
edf5fa05
dbf9f1e0
090ef7df
16f4ed1b
0ee3d5c1
fb18f3fb
fef22de5
03f4e2f7
f308fbe3
fc07e2f5
eb01fbf4
00f9f003
00e800fe
fb0d00fc
fa1e00fe
f8f016f7
1ffbefe6
e7f212f5
0afc1b01
be14ece7
f50b09eb
fa1100dc
f1fc1af1
1f09f210
e108df01
d902f4fd
38f5ee0e
ee00e1ef
e8f6f3f3
cbec24da
1920f901
e123de15
08ee04f4
fb1123f0
250bf7ed
090a13ff
06ef1913
18faf524
e30c1406
f9ede712
1ceaf401
cfe10003
0902e0fc
e1dcf7f0
ff02ff09
f200d309
e614f800
e0eb12da
262dfcf9
00010322
f6fe1208
ff26db15
0afde506
fbeae82c
05fc0001
1efa010c
101300e4
f5e51ae8
fdece2f0
fedeefd6
1e14edf0
fc1b0516
2cf81915
fddcd50d
e9fde415
fee40bef
00f808e3
f0cfe112
d2090f04
ecc7ecfe
c4c6f7f7
2c22dfe8
0d271900
07e60707
1f10eef2
eb10fbfd
dffb0ae7
f316fef7
01f8eb11
27e90601
1d13eafb
fa09f802
cffd17f5
feeeeff7
fee6dd01
18d6cecd
c9f51215
f705f7f4
f7e7e304
6d2d00e9
f310f705
17f9faea
fc0f0747
f5c5e500
f8e7ff16
0910f90c
0ff61802
dd030feb
dde4e9d2
0120f20a
df040316
0905f8e2
fcee00ea
f7f1defd
f216f802
e1f5f417
e7fa2c0a
bfbf06d2
092004e9
fd0ae5f7
e7eee0d3
f90a02f7
052306c2
05e60a33
0d0806f8
f7f600f3
e4d70e10
0d00e022
01e5e3f4
33eb0007
f60c1905
eb06fdef
390310f1
3c001e0b
d217edfb
13031113
eeed0700
1be5ef04
f707f51b
0c1e07ed
04191ff8
f8d906ff
0a1108f1
fdf7e1ec
d3fb1db8
ec1d04f6
eff8041b
140604ec
dc00b306
eb106d0a
06020a08
ef361707
e4f70511
fad809d4
fcd0e4d9
f2090cf8
10203333
f60a0ce6
e1e6fdc6
fadffe23
fddc04ef
2a0cf614
ddf9fdc5
fa0110db
0efa1611
1a1305e2
f0000624
fffee3d8
0df7f5fb
1f3afefe
e8e4e4d3
e90222f1
1208da13
e803ebe6
d7edfce1
1627f0fc
0df306f4
f7fb180b
1a16e408
fbfa0506
1602cac9
f0defbff
d70f2dcc
e80106d2
fffa150c
ea0bbee8
02150810
fcfb2b08
f011f900
1e1c01fd
f2fafc15
d2dfafdf
eee300e6
edeceafc
f2f239ea
d2dd16f6
ebfee2e0
fccce0f8
fff913de
000f2617
31001326
0a0f1f0a
00dc0f08
2bfab9eb
c8deede1
ecd311f1
030d2927
1de6efda
0c0428f3
f913e4fc
0702ee04
0dc8e5eb
ef05deda
0c08f3db
02301b1d
0c01d5e6
2d00e902
dfe6fc25
1ef0cf10
fff82608
6a441b03
00f8ce0e
d5f9f1d5
0a23f109
de04d7e9
1b06072d
d10eee10
291df0db
022e04f6
eb0700e8
e2e007e8
e9d1dd10
f90df4e2
f20d5a35
14de0718
ebc7e611
f6e1f206
ef00e9e7
e8fd00fc
e0f6e711
0016f6f2
f6eff426
baf2f0f8
0ffcf2b7
0e4e0e05
1f060d0d
f7eafe20
0b00f7f0
020c001e
0e0214ff
0b1e04f8
3114d5cf
ecf30906
e80dfeea
f70c1d0b
15f7ff10
fdfc080c
fe0fddf6
0b212914
f2f31108
0a0003c3
e1f80010
e3dbee02
0519f1f7
03ebe704
0000da00
e3fbf6ca
051a00f5
08f31529
2e070003
12060227
090c080d
edf7f9eb
fdfce4f6
f5f3f609
09100808
12001de1
ecdedb16
fa00de1b
e2edee00
e2f015f9
1cf6d0f4
0d13091a
fb0917ea
18ebe903
06fe0003
f9f9f5f3
fe09eed9
cffff5f2
2405ee14
12db0720
e0ff0306
e51ddee0
0ee2fb02
0713040c
0a0efe16
f9f0f506
fff7dc24
0edcfff8
fb041615
dcd3f400
0dfd13d9
f8fefde6
15182305
fbe92005
0411fa05
dafafb00
f1ead7fe
0afba8d2
000c18fd
c7e6fe1c
1cf11804
05e2f618
dffdf2f5
15edfdfe
030eef1e
0f0901f8
35332518
19f70a23
d9d6e70d
0dfee40b
f2060210
f7edec00
28f80408
100c1012
f2fc0eff
fc00ff22
1b3604e0
f7062a20
0f0b0000
eaf80503
06041119
030f0cff
f3eafd0f
00f61304
eddde6e4
0512e9ed
13fe00f8
4207d806
f4fae10e
140001fc
fa06ee10
f5e5260f
0f03e30f
d5fe4636
0004f9ff
f7f30401
1c092cec
fe0bf642
fed3e1ea
0730fc0d
22fef5fd
0514feff
1716fe04
f70c0509
ecc8dd0c
edf5d7df
fc11070f
f3eafdfe
d2050817
ece0eec2
0f0c0aec
f315ff09
e31006e2
022024fa
e7de0002
f0d407ec
e6fbd9eb
02fdf9f9
1cf6ef05
121c26f2
fe1bf020
071f06dd
00061126
13ffeafa
0019222a
e8ecedf6
13f71b08
0e1c242d
0a19f410
fb0f00eb
fff001e9
faf910fa
09f8eefc
eed30b40
dc070f0b
ebec0524
e60b07f2
fa0bfae9
281c0012
3e162215
f706091f
02f5fe05
042000fc
ef04f4f5
10fbf002
d7e51906
da06e6f9
fcf0201a
f7cbf8e9
01e200e4
f4fddee9
d9eafffe
ef040af0
f507050b
15e2fcf9
1e0cf30e
ff1bb8c4
f6d63200
e333d8ef
13ef00dd
11e2d9f7
fff80721
ffeb05f4
e729e9f4
e52f3500
eb0806f2
cfc809ea
15e8d8fd
3423190a
0e190f25
faffe213
e4f6f2df
c7cdd3db
03ff04df
ec061e0b
fe1014ef
213310e8
141306f2
e8f406fd
040c02d9
43100117
040a403b
f6f0ff0e
d1d9e5ff
f6ecedec
e2edf8f4
f000fd1d
e7fae908
09e2f2e4
bbecdafb
dbdbfbe3
f8de0c07
eeec0520
f20602e6
0822110c
1c0ef200
def2dd05
0eed0bf2
02fac8ef
04130407
f3f300fd
e6050b1d
eddb13d6
031bf627
f60dede6
241901ea
08e2e406
ecf4f3f9
c5070fe6
04d41beb
dc17f7f7
001813ea
e605fbed
e002fd07
0301fef0
0dfc11f9
db2131f9
c8ebd8ba
fb341000
1010e514
e6faf300
fc011b15
dffadbcf
273aefdd
e5172ff9
e81d03fc
422911e2
ef17f11a
e0f900f0
fae202fa
182afa0f
e1ede2f7
faf3f1d7
1fe90822
f9181037
d30bda09
0e3521f7
05effef7
ed2decef
f0133608
1300eedf
c5d3f103
e6f6fd00
29f604f1
e4b9121c
1b02081f
ff15f1fc
d110eace
dadaf300
dfecdff2
b4e90c0c
00e70e08
e7f40711
0cff00f7
08101416
f3f2ded6
e223fbe7
feedfcf5
11f902f8
d1d7f3ff
f4f001e2
02291511
cfdb0dfd
16280e13
0b1a0739
18190b0f
eaf5e403
0603ff03
2b25071c
ed02e20e
25db0d25
f0ee0e27
0d1c04f8
02172313
080ceff2
00d211ef
050b0021
36000d19
012cf8ed
27e004e3
e9ea3d16
163b410f
02f998d0
3206e4f9
0cf6f2fb
fcf71ee7
08f7e21d
e8f70700
0710d7fe
0c101d11
2b04040d
25f10d0d
cfdb041e
faecf4ce
1921fdf6
1405141b
03d8ce02
3b01d8e6
2a2a0b01
10110f22
16021407
f714f806
100003fe
d10df1e7
ddeaf3d5
10e7f4fe
02271210
fd03062a
f801f4ea
deded9d1
0b0c03f1
eff2f6e6
d401f4eb
4132f2f5
f40d0624
f5160f24
1706030e
03150d04
1521fc03
1c151b0c
e30f1306
fd120cec
fafa31f8
0209eeef
f7f00206
ebef14f7
0517f109
f90b181b
082b0b11
eaff0cfc
0bf5e300
be0505e7
f20a15f7
fe004ef8
e8ffece9
090006f4
d2f0f7ea
b5d9dadf
efeddb06
08f4feff
161bebfc
d90afcef
03ed04e3
0b11fd0a
00bcf2f9
04e6fb05
001afdfc
13f70f00
e107e9f9
e40efbee
0b15fde3
0cf10311
d9e403ef
03030b18
061f1d0d
fa0506ef
fcc8e6ff
00140506
291efd01
ee06ee00
07d7eaf5
f9e6e613
dd2b0bfb
ca03ed0f
fdfd00d4
18f22feb
ff0e0e3e
f02bf226
fae8ee05
13e8eae9
1111060f
fc16ff05
1e1e0d0c
e0010f1b
ee0b11fb
04f6171c
06e80212
faf9f2f8
f7e9d6d8
d1d4faf1
05ef01f0
e9da040a
f7ebdae3
1c232e14
04e9f203
cdebd8e6
26000107
041003d1
08f7fb0c
0a1505ff
20ef20e7
e907fe04
f50b3415
fef5d8f6
241e07f9
0c16fb16
251313fe
e8f70001
12e1cb14
ec0bf905
eef9eaf8
e10ce7f5
031007d8
c3c1f112
140104e5
f71d533a
31200f0a
021e2bf9
f0feec12
07f705dc
fdd6cd1f
1812fc08
daeefa10
ef060cf7
f4ff03f0
0a000f16
f5f80807
fbdcecd7
202600ee
0c0d0f25
0400e1e4
f538f500
18cefa19
0012f5fc
e7cbf2f7
14ede407
f7f8f102
05f0fa0a
010b090c
dfd9030f
e4ebe6fd
fdeffb04
08ea04f6
01f90900
fa13eede
f5272820
f2ecef04
e3c1ceed
49002823
0f0b1b69
ff0e0a17
f101fa16
fa011ef2
06080709
db01f0f1
d3dee6e4
f2faf9e2
1ecffc00
13f900f8
0bf90512
00f8f41a
1319fff2
210bf80c
f7010fe1
19e60005
0218e1f8
eddccebf
e8e8eef1
fee3eefc
2ce500ef
0e211415
fd0d1dfa
01e2020f
00f90403
07010001
f0e4f9f3
1c24ea07
00e6e728
f108181c
e6f5fef9
fd1a1c14
fcfc0800
f3f606fd
13d200f4
15fa01f2
1503112c
042621f1
f3f005fe
e901dac9
1d0e2ee7
f8d7f5e8
0e0defe6
060c0d08
3800f502
f4fb1011
06eae500
1211ddd6
f6f5e602
e9fae6f5
effb351f
e9f5e7e2
0b03060b
dd00f4de
02cd1033
13fa13e1
fbfe05f3
0b01110c
f21108fe
fc383b12
07fd0202
1d400c12
090b3118
0dfaf31a
08eefc11
e9fefb03
01efe7e9
f9fb010c
e505e0eb
fa21fab4
eccfca18
2fee29f3
02f20024
1f00051d
f1fe200a
eb00f90a
10120ee5
ecfaf5d2
f5f9fb01
07d9e2ff
fffdf5f3
0818e110
dae81407
fae40723
e9f11302
f4f4f0e2
e7092249
1a2414fd
1b0a110d
0eefede0
0317f714
e90dd5f8
f70af4bb
0de2ec02
03042503
fef21708
dad3e3da
e099d1f1
f7f70ede
eae41001
dffdd5f1
f60f090a
e1e0e5ee
1ff3ed09
0b134926
030004f6
16001b00
e90705fe
0903f2d5
01f3db04
0cfdfdea
05fbf2e8
051408f0
0501242f
15361ae8
d701f30a
0af4eae9
140e120a
e2e1edf2
11edf3d8
ffebfbfd
faedccff
f1e7ddea
11fbeed8
08e8f40b
0d231502
eefa1bf5
faf2d639
e00006e2
cee61db8
0108fb0a
d4112806
0feedaf0
1005d321
0e072908
00e1090a
07e0bf09
1df9e1d7
e4e20004
f8e32b0b
ef2ef4f5
07fe09df
fd091708
2712b70e
06222209
12f8efdd
f61a13f5
0001dc05
0d1d2407
f0e700f3
e8f3e5f9
f21d1a04
f3f209f5
16fe00db
04eef5f9
5a31e619
dc07d406
1bf504e9
eb080eef
e3cbd8e7
060c1bef
1105000f
fe07ece7
effa10e9
3d12f500
f308bafa
0ce4d8f9
3425fb05
d91fff16
111cf20a
cde5f4f3
1ee4e4da
ee1101de
eae900ee
0c0700de
2a270f00
3a040f47
f4060912
e6eb0116
14f5efd8
ebf702f4
f10e1706
ebfaeb0c
e9e6fdce
032b01d8
1de0ce00
f10602bc
0deb0420
d320eadc
fb0514ef
d5d706e0
02e4f4de
010f0021
ecf8e5c0
ee24d5df
08f31de3
fd280817
f4e42c48
f3e10de5
0611e710
1d0902eb
2306f54e
f5e81f08
08fb081f
17f4fe03
1400d3fd
dcfb15e6
08f91f0a
f4f8ec24
080014e2
0fe8f3e4
f1edf704
fdef2df1
f80f10f6
e3060f1a
f015ed32
fdf22ffd
000eff02
151007f8
070ecb05
f2e9f9b6
ea10ef00
280f0eef
b1fc3a16
03030902
e51a1f2f
0ef1f9ea
0c18f4e6
00f810f2
2afee015
0ffd23f9
0a05ef11
28fe0ade
e81ad30d
13c9f0d9
1200e414
1a1d0014
2b2c0e23
030b0c13
faf5e5f9
130de6ec
080fefe6
d21df6df
ee1403f4
fbf2150f
e50b0702
efce37d4
12221c3f
33f5daff
e917ddd5
19d7f50c
122bca0a
f5ec40f3
e2f232d0
10f3fd1c
ee1df900
dc170cff
fff608f1
ddf3e1e9
fbee00db
131c00fe
e3b10024
00fbe30a
f1fafe06
162100f0
14311bfd
e811ec11
092d2311
04caf724
2c351627
21b9fff3
34020a25
df091831
dee80d01
0c0eff0f
4204db0c
fc0ff3f0
e9f11dfe
f610f7e2
fc1700f2
10101c19
1404011e
ee09e112
fc17f30a
e3f51feb
ffebc5ed
2215ccf5
fde8f8fc
29181cf8
d9f403e2
0ff6d4e9
1f28092c
0b11120a
eafffedf
29e4fcdb
ff1fdbf4
efee27ea
fc03d325
fff0fa12
f210ddd6
d90f1301
22e9f814
f82bfd04
dbf31ed3
2c0f0734
e600f7f3
23e4f2f0
eb0c18e6
efdad402
e3f51be7
02fa0c14
04f2070a
fd0229db
fd1d2025
0ff30c11
0ef10ce3
0b06f828
e3eedafb
d9ebed0b
1309fd27
e9f3f2ef
0de317f4
f3e9f8ee
f221e0ee
f4edef06
21fe000a
df2bf300
d6c8ef00
e60ce8ec
d7fc22fa
1928d1f3
1dd1f5e5
32f5e824
28221936
f12711f0
fc0dfdeb
de06f60c
1215dff9
e0f20ede
1d25f3f6
ee1af300
feff05f4
1313091d
18f3ef29
cf0a25f8
eefeffe3
0523f11e
f3fef611
0ced0805
1fe501f1
13e3e9e3
eb1410fc
dff40609
f9f1f626
bae4f1b7
00e8160a
03110429
1e21ee17
d521ed20
ef27f2ed
1a052acf
02e6f806
2a0df7e6
ea3808fc
1afe160b
ebef6717
eff3eb27
0cecee30
e03bdee8
e8a20411
01e9a3ec
1320ebdd
01d21507
2510000b
19ef0ff1
ced5ceec
cc04e2e2
02dccce4
16270d07
2e130703
ebf12e09
1b19e2f7
fef2f002
ff161e02
01f50ee7
e1011d19
f1e7eae9
18fae0e8
0908f7e5
f91a1309
fe19f1df
c7cf0df0
dc1605e5
eedc1204
48161203
e50afde3
ecccdfec
11e5d030
0816e6e0
fcf20008
041f04fd
eb2c2fd4
0f20f10e
03fe18e9
14ec04ee
e5212a0e
e705f0e3
02fa3521
c2f30e14
fe240841
f5fdea13
f5eef5da
16cb130a
41f9d0f8
0ddc130a
11f9e0e9
33ef1a0a
fc04f91a
07f7eedf
d602f2f1
ea170dea
0e000afc
11ed0c12
071bef1f
03fc0302
2f1af6e6
2f4fea3b
dcdff0c7
d8dbf3d6
f20a0d0e
3adee63f
e4ffcdb8
ff1601f6
0005f304
ccede811
eaf730fb
2207fc00
f7112119
c6d633f6
fbf80007
ecedf8d7
19e64ce9
f5f7ece4
0c1adbeb
131108fe
1f1e0504
e402c1d3
defe12c5
f21512f8
eaf1e61e
250132ea
0618f8f7
f21af90b
fad8f842
d4eedff7
e93620dc
f0f8fef4
f2d4d716
cd0006d9
e608fef6
ddcce81b
f4e0d0f6
f6eff7fd
2400c912
b70adbea
feb7e100
e900feed
15d8f001
c8e3fd15
ddc70014
01faf420
06f6fbfa
f11beef9
0dffd4f1
d7f9f7ce
1511f812
e118f412
2e22f9d6
c5172325
d70507f6
edf8f1f0
00ccf608
f50df5e8
fd0201ef
1a23fb00
00f505e1
0925f1ff
fed30f18
15faf0ef
012510ec
f900092a
b2f0190a
f20ae306
f3160ff3
130b3727
09090a02
efe609d7
e5edcbe0
c9d5d7e5
ce0102de
08ebf60b
001a09ff
0dece71d
ee0ff0d0
1fee07e9
352c0afe
d32aee0b
e3d7f5f5
01020d07
fe0109ec
25f319f4
ef070811
00e6000c
0b0717ed
00d1e800
f302fe1d
eef30ff7
00f8f7eb
f3fe0bea
0afb140b
1b3d28f5
f5142c0b
161f2740
18f904ec
0e0b1013
f0e9faf2
f928e1e1
11f72830
0702e216
ca0c0717
eceae209
1523f7fc
1820fb01
d50ff21c
1bfff1f5
cff4f5e2
e8fbe0ee
fdd811fd
0011e227
fa2603e1
01cf0124
15e3f838
0cff002f
f8262aea
04f617ef
00e9ff22
0916e001
0d0c02ee
00f1fded
1a04ff27
ec4a3227
f9e1021a
f217fede
f82229d5
e400f0fb
fae20fee
eeece8fa
01e9ebfb
2f45f8f2
0deae4ff
1521faef
e5d8170d
1af1f7f2
030be811
190d1017
da0d160c
030a1132
15e3f700
3a20f620
f9162610
f911ca0e
220c0ef7
eafb2c44
0627fa06
05fbe706
f527e612
1923f8c7
1e190efe
20f9112d
e5fa1514
240c29e0
db14ee0b
ec030703
da0a290b
0bc8ffdd
0011f0f4
08f50e04
fdf4ff04
10ede411
fa20fdf7
2f140ef5
11f32804
f80f0d0c
08e5f70f
fa16ecf2
f6e90000
160214e0
1506e8f3
181d28fe
16fed92e
f3f1fa0c
05fe160e
dd36fcfc
f9f604f7
f6fe11f7
4102290c
12ee1d11
0c302613
fbf6cee2
f600f8f4
07e31819
1114d91a
d4fb07d2
00002208
ed122f26
d3fa12f1
01d5ddc9
b1eafbd1
c9ef00f1
0d33f011
1424f5e6
f6f8d2ea
1dee0404
efefe3e1
dff8e9fb
1fe4160b
f8e0f310
191008dd
f9f2e319
09ebfdee
cff40ef7
fcc7d300
1717fc02
17050031
15270901
efec150e
00eae401
f32b1025
02fde9f7
f3f60806
e6ffe702
eef7f010
fa132e02
5d1f0f1d
ebffda01
f9f3f9fe
2a08fdfe
144132ed
f42bfaff
f5e90be9
f4ebcddf
e313f9db
14052500
f400fe01
e8dbeadf
f4ed16fa
10f9ecf7
e1e8f5e3
130f07fb
f5251b10
17fa0ffb
fff4d317
f7dbfe1f
0507e400
13f8fffb
040d0af0
f728f009
f7f11de2
17f2b5c9
d505e2e8
00d3f1ed
2fff1337
0225e215
f8f1f31a
d1daf6e6
160ff6c2
27fbf639
0809dce2
ffee0a0a
0fe6f305
02ec113d
0b2fef2a
e2f4ce10
eafc1907
35ef1817
24fe002f
0dfa05f9
ebd0d70b
0de9ea0f
331c0045
351b0125
0f19e1e4
f40424f4
0712f124
faf10f00
c200f617
08dbf434
edebfbf5
dcf600e8
e2ed16d1
c8b3dc07
dceec3cd
e804fcd0
03f9f3f3
e4fffbe5
dbfa0e18
e4f52616
de0a01e4
f5d00010
1c182df2
f31dea01
d2d91ad7
f7e5d9f6
e5f303e8
d9de07e1
fc09f8f2
0209f214
0b031600
f1e5eff9
fe06dff5
fadff0e9
16fbe614
00f4f110
f82de1e5
140806ee
fcfa0df1
170500f4
04fefd1c
0e0b08ef
3c3eecfb
0c06fafb
ea10edfe
06e424ee
01240ef6
05fbfa02
f1fa16f2
2306ff04
031f061d
dfb91cea
0a16e705
cf002110
0908e1c7
0cfc080b
da0d04f0
061929df
dd1df612
02f4e700
d5f9e902
00f40501
3f12f515
f40c0431
fb2436d2
cee9e5ea
dfd1e5c9
f2edbdfe
f301f4dc
f9fd09f0
07f30af8
fe0e0e10
d3dbe2fd
fa00cdec
28f3e52c
022ddd0d
27f3ddfc
042be2d6
1edf000d
f10de711
26f0f9f9
f6e40d00
f0fff7ea
0a1e355c
daf9f502
00200cf8
02002c16
0bece213
010ee505
1bfa2ff7
0b000201
cd21e8fd
4aee0400
1a37084c
09051804
18100b18
f30a0801
eee0f9e2
f7dbe2f7
ec000ee3
04fb0814
320a03e7
02080922
0ee1f9e1
f518da0d
f1edf8ee
051203e6
b7fd170a
18fbede5
2114f8fd
1ef700fc
e108e7e7
e9c2c6fc
14fe2529
a5970318
10d6e5dc
f919c8e7
f202f5d8
0ff21501
e40df80d
f0e6ffef
0502e00a
cb09ebe4
0815c9e9
06f002ef
c400d7e7
24f726e5
0df20a30
d1030df6
d10400b1
e4a5ba02
bc07c59c
da121bcc
0e0802ef
19fa0914
f4e0ee06
00e7f6f8
e20af8de
f5d0ea0c
11ecddf2
2b0bd70b
f8f52009
e7f60300
4704f7ed
1443ef2f
f4eafafa
f011ffd5
e300f200
cccec109
f6cbe4f2
12e5ee02
e102ece2
f9160200
ebe7fcdd
e1ee0ee0
e82405ef
01eed7fa
e902d5e2
44fc1b07
5e730731
07e30b0d
0a010b13
e408f40f
f1f91de7
f9fbf1b0
daf1fa00
f2e3fc0b
e1fde5ed
d3f20ae8
e7fce608
1eed1310
dbdb0412
faf900fd
eee50bfb
03fd0115
d808070e
d9ffd9bf
341c07df
1af1f7fc
e71606fc
e7e5f6f9
14e20c1f
12f7d0c7
f4110c00
031d0022
df170ce7
e0e60500
f105e224
ed09e007
e30504d4
fdec1813
0c00cbf6
0200fedd
fadabae2
e5e4ede4
e8e0f0e8
f7e1e0fb
c9f0ffe2
ebf1e5cc
f10eebe7
e8003b18
d9cefb0c
1609cf08
e3f7fde8
0908d111
f1f3eb08
eaecddfe
f5eeefcf
f8e8001d
dadd05f2
f3f3ece9
fce1dcfd
c507deb1
d6daedcc
11ecf1f7
03f8e0f6
fefcf30c
ffe11dfb
f41912fe
d6e917e1
12fd0ff1
f900f400
1d2921eb
00170409
08fd1d00
fef304ee
1a10f312
47f4ea03
15ffd81d
db08e20d
3ee03142
f4f6f423
fa02f0ed
1a001a16
e02f323b
fc3139e6
4a19c6f4
0a1c0ee9
f3c9c708
d1fefafc
f3fc0de1
f2f9e9f4
fde8eff1
1612b4e2
e209fad1
fcf600f2
c604eaf5
15f3dad9
110bfe08
fef0142d
160b1320
19fee90e
d2e01806
fdf6fa03
19e7dc18
05fbfef4
f4d6daff
0001e6f5
1019fe13
0cecdb09
0701111c
1529fe10
f52e0be5
fff2e4ec
aafbf6ce
fd1df3fa
f7f700f9
1dc4ed02
06e1fcfa
e103f3ef
e4e009ef
17d6f232
f90fe3e6
110bfcfb
02c81526
f601ef24
9080fcf6
17c7a6f3
3f25dbc8
0318f008
e3d403dd
00f401ce
1a0b0df8
0a07f610
1f0a092a
313f1628
e3052408
58f12b34
fc2e077f
ff30380d
efd7fbc8
2215f61c
fc09edf6
e50619e8
1f29f80f
0b321dfb
0dee2c3a
d9db01e4
fd21000b
fc20f1f0
0ff10ff2
0ad4da01
eb0800db
e8df0bef
fcbfeb31
0105f801
1e2203cd
eb2a00ef
ec3329f8
010d19fa
ee11df06
00ecfff5
e3060204
08eafef1
d1ffd5f5
2b111407
07050100
b9360103
ddde20b8
0a061f11
1cf5f1e3
334ff20a
04ed2502
0009ecfb
e2f307f4
06f6fce7
04feef00
0c2806f5
fb08f50e
2009fde4
e20009f4
fe2034c7
ed0f071c
fc05fdcd
231b1208
e805f6f4
10f8f80f
0ef5c600
ff00eccd
00df00ff
f50600f8
e5fdf71d
01f1e9ef
110cf00c
2307dbf1
fb2513f5
dadacf20
11131c0e
f1f9f1f4
fef6ff0f
e40e19f8
2a1900e8
20f204f2
29052ced
de0806f4
104714e6
0ae933f4
2b02e514
05c1f3fa
f2fffbfd
07fdfff0
1d00f001
1cfced03
e91803e3
0eb00e18
1afdb9d2
afa1fffd
08d0cf2b
d419e300
18e3f2e4
06e7fe07
faf4e3dc
060c0c09
eed8e411
d5f615f7
e4f3f201
04dfcb15
bdf3dac3
e7cce4c8
fc1713e4
f900e4e5
18eb010f
e2f6da0c
db0afce0
1210fcff
0ef31ef5
36fed7fb
f1f9e3fd
fbcdcff7
c810fd0d
0de9faf6
fbfe2e0c
f60bfcf6
fd05e7e2
0dfc0026
001c0912
12f5e603
07041216
0ef8f208
f4f5fe0d
0301f7ed
15f3dbed
11d2f806
0204c5f5
e80d0215
f90dfff1
05f80a05
fd0a0de5
2618f71b
1b0814dd
211de4fb
794e2712
f9ebccf8
1c18f2e9
2329130b
1de4d907
06fe10e0
1428f804
c9f9d014
e6f4f3fc
0ff6ec06
10e1d216
0036fcfd
0ce20beb
dae60edd
18f1dbef
0817fe12
0aeb2108
2df9ee2c
4a23001a
d4f2cb15
30f910f5
fbf41d19
fcf3ff15
01f1dfcc
00150a0e
f5ccd602
09fd05e4
17291220
ef0539f7
06f2fd0c
2211f7e2
2305f3fb
f416e2f3
043616f2
0a001f21
d014efcd
3e470ef0
2ef8092d
06f7e61c
fbfa05fa
0df42203
18f9f0ef
1e2f0016
33fa0f0d
fc1bf80e
e6e7ec0c
03d9f5f8
1b0be0ff
eee214e7
fed70412
fc04fedf
f6fcfdf3
032811eb
1af8ea09
e0f80721
f2e706fb
5be801f9
170eef1b
1e2610e4
f0f8fdf8
1a2202f3
271be9f6
161408eb
e3ee030d
00cef3db
09f9e8ed
00060515
13f7f90e
091afb00
ed0df505
00f8100f
ffe51408
24e9f6ff
0c190108
d821000a
f4daecec
181a1000
0c05cdc5
342e0a3c
f1e4eb09
23120600
e6b63205
1d28180b
09072409
c4fe1901
ecfb0e14
d1f300f7
f2efddf5
0d1449e8
25f9d215
17f10df7
21f60207
ce1ae8d8
ebe6f4d2
f9c3d3ed
ec03e013
e413f4e1
f6e7efd8
fa16d5cc
ef221af0
0c254ae8
10051144
e32605d7
01f424ed
f7f61d10
1004f623
d033f2f7
f0e501dc
d0dae40d
2009f3fc
06040909
0ef4fb08
ddf4f8f9
e6fd07ed
00fc0fdf
01f3f902
fb00ee06
501cf6e7
0d1009e4
191dfdff
19fae414
df08dffd
07ff05ce
19eddb37
002840e2
040a00fa
edea03fe
e41102f9
e7fc1af5
fa142c0c
faf9ef20
180c5b05
f3230821
d7d0d30c
d8e2c9d1
0ff4f8cf
ee16f70c
f7122613
0500fcd0
021af90b
28ea0f0b
2410ea08
eaf4f813
0600efec
27fcf9fe
150ff926
b51b1819
afd10fc0
d2d8cef5
32f1d919
fa0814f1
fd251107
e1ec03fe
003df1f8
1ef50f00
0421fa04
301af647
db1c15ef
e5f6c7c5
fd1d0af4
e5f1f0f2
e8f9f4ed
d61dfce6
01f3f7fa
d3e7f717
da1215c5
1ef20300
e2fbc5e4
edd9fde6
f32de003
df03fcff
2603e5f4
f54920f3
dde21714
f0050d0d
fcd202e9
c5283cfa
dbe41afb
e9162cf6
09f70719
b0e60000
07f80bf2
f601151b
f4f0f603
d1e9d6eb
0c0cce03
23ffeb02
1de32211
1e212311
2f1b2715
1e00ecf5
e8001a00
000fe008
e5fc0df2
e1e3fefd
d5f4fdf1
366016ed
e93302e2
a5df0914
f70af7e8
f2141bff
e80f0de0
e8f2fd05
20fd2000
000d32fa
ffe8f70b
330dfa12
674d1619
e8c3d806
18ec02fe
dbec14bd
1bf6dff6
04290be2
f10123e3
1713f11d
0e18f120
fedfeffe
131b1a0d
f9f20818
f1ff150d
ff23da03
0be2213e
1b10d2cc
d6d2d8fb
dde103ff
fc00d9ef
1e1d2204
ee161f00
01e70024
fa14fde8
0fef07e8
1d11fceb
dbece1ec
e2e8dccd
340114f8
1c19091a
ea07160a
fde213e7
19fbe6e4
16032f38
0f0d0304
00092811
0fe5fb1f
d2a8f40a
0d00d909
bb0f0d05
e4dedcd6
f8eaf50d
bbcde9e7
fcdad616
04051ff0
3e07d60f
04fd1324
efe20a10
e003ced9
f400ffe2
e7030dfa
fc12053d
f312f0de
17e70406
ecfc08f9
1003f8fc
15000506
2a0b0108
e9fb1a21
fa0a0210
35e4fbfc
e8e81ff4
f707030b
32f4ea26
f4d5ee2b
e9daf4f0
0700fcfd
11fbed36
ecfe0eee
10ec26e8
0cf6eef0
e6c300ef
e5ff24fa
e2e5f302
f907050a
ffec180a
111218e2
05260e14
12f4e2f6
d4e509ee
333316e8
1322e2c7
c1f423e3
de07ffd7
061606f9
ef1afbe9
c4dcf3e5
22f60738
3a29e41b
f0daf2fe
16dbccc6
fbdde112
e3f5e7e5
25dd00e0
25fee34b
185943de
040ef309
351e0915
f1eb1908
11f1f212
000c2010
1a08200a
faf3fa28
06f7fd1a
da01fed3
1bd5b2c6
d1eafb1d
e51b15e9
c90b04f2
d9f6eab9
07eb43d4
13060928
dd162fe4
0b0c292d
ee02f5ed
edd7d8ea
214b07fc
fbf81aec
0c23f7fc
05dcecfe
f404dd00
fb1807e1
f0e0e2d6
022a3d0b
eedc0ada
0df22d0f
3ff0ee35
ed0d1e1e
f4f4ffd6
17dce4f7
01fef304
1008030c
18081111
162009f9
04fb3223
f8f7f2eb
2d0a1204
f4241407
f3f9fee6
eafee2f0
f9fd0bef
e00ff9f2
f6e5fa12
ddcbb2e3
1a040206
fcff0000
122f17ea
120f13fc
2523d420
e2f613e5
0703d6f4
cbfeeff7
18f804ee
1f2e0401
f2f3f1fb
eb0735ea
b90b0301
d1dfcda0
0efddb01
fb033412
bfe5f1e3
0000e4cb
fdfa2a05
0e00f516
0403fb07
211c0c11
fee2e501
0810f6fe
100eedf1
cff8ebf6
aed7d2d0
fab2f8db
e401ee00
f90bede4
e8f211fb
08fdf522
0aef04f8
f5f63d4a
1c0f0be1
201736eb
0bf9cd08
efd91115
1dfeff08
f019fa14
e4e902f1
1108fcfe
010020e4
3e15043a
0709d10e
2f26120d
281a191c
0e020efa
84fc0421
dce4b195
ecf2ec9f
d51fe3db
e1e9fe12
e5eae6f3
eccdcff3
e816e5f1
fdd1052e
3209e9ff
cb01c7e6
f8121ced
fe3427dc
cfe514df
0a01f911
110900fc
00ff01d8
f71805fc
04fef302
e3d80810
e3f4dc21
03161dc6
11eb01df
d91a34f9
fdf51d08
0cf315d0
e3310ff5
fee6fe34
d0f13c20
18e7141a
f3310dda
06e81c20
00e0f200
2c1bf406
32191b2c
d41dfcf8
b6e112f7
04f8d9b1
1a100f06
f52919e8
fd0223f4
f9ed0423
05fcf1f2
efd70ff5
0cd9e21b
1fe11ef9
f6d1f607
eafefef6
12ddfaff
f7f8eb12
100d00f4
f9d60efe
f1fef903
c423feab
e8f91f38
f9d1cadd
f2d1f0eb
e93ef636
e7f113bf
1de40012
03011100
fdec0617
cf00b5b4
07f5faef
e1ec17fd
00d6e703
f2071918
2426171c
ee2864f3
fbf508fa
0317ea20
e2dae5d9
f5f3fedf
1dd904e6
291e0c2a
013d6700
fa0034e7
001023fe
e4f5f707
230a03f7
f6d5d6fe
f417d1cf
fc0df6d6
d32a28f2
f8f725ea
0cf90fd0
0de51efe
ffe9bfe1
2105fff8
0bfa1d01
e21a1509
ffde002b
f1f6fcec
d83007f1
0203341b
1a104909
3814002a
12e529ff
fb010802
1500f90f
e109221e
0ef62313
1bf72d15
ed1bf6f7
fed0dde5
1408cf00
20e507f3
04fb0b1a
1af8f41d
010418ed
eafee908
0603f50d
ee00eaef
07ceeefa
dfe8dbeb
1118c8f4
e8c2dfe9
0018d10a
0cf02645
10011205
ff1bbdf2
ee211104
00d8e3f2
1312e9e1
250f01fa
1d0014f7
0af02400
0005f3e4
f5d818e5
13dae2fb
d7e1ede8
0d051c05
04f61ad7
2c18001a
3333f20c
0f01220d
faf6fef1
f721450a
fc1febed
020b01f5
e417dcfe
23e702f5
071df3e9
1c19190f
e7fa0907
d8e9f1d9
0f1b2d00
02e50e04
03e8e904
22caf316
e800c502
acd210fd
26d003fe
f80203f3
08dcf510
0c0525da
f0f9f4cb
fada0db8
fc0d0004
29ff082b
09fc1a0d
cd08f6ed
0af01f10
03f1da1a
05f2e3ec
000ebed6
e90803ec
03e912fd
131cfc05
2d0cfa2d
2d0d0612
071fff18
ff00ee09
05eef9e6
000317ea
f409f9ea
16feda07
f3eefff2
e614fee4
f2dc10d4
f01b1226
ebc2072c
dceb0ad9
daf2e9c1
ebd002de
02fed703
e24ae1ff
27002beb
0204f926
9e0712e2
e1cac8a7
b912fdc7
1cf60425
1111db18
f6090ee0
0ef304f6
0aebd703
d6ffc4ed
07d9f1ea
06f7e000
d0deee03
1c04fff5
e1f505f0
fc07ec06
f214eaf3
cde8fa01
1ded281d
fd18fa20
f90f080d
331cf317
ed090c00
0efd1ef5
dbe4000a
0efcc1be
5224e208
280c0039
e81a0002
e8fbeeec
f7f50fec
00f301ee
03f2201a
f5fc190e
efff0e00
e3fae1e3
f5fa2fed
fdffebfa
000bffd7
2f310b2f
2420f3f6
f80331f9
ec03f224
f2090dd6
f41bd9f6
f6010316
fb170302
f9cd383e
0727cd0e
edfffe19
f5121404
260af104
de4004eb
0c312504
05fc0eff
20010416
f4033c54
120e1540
383f01f9
1e2a1d0b
222cea0a
ec2120f9
0addfeee
0105070b
e2eccdfa
07e9ee11
0504e6d0
06091223
e6e2f8c9
f4f7fce1
e8f9ffeb
4245deea
f5eef200
1ff5e406
0509ff54
08301f00
eefa0b0e
100917d9
f43230fd
08dc11f1
08f40012
f7f6e6e6
0ddb06da
2823c2d4
02031eff
00e1d8e5
e3bcf1fa
f92015d7
0ae20700
c8d3d8ff
f503e1f4
f701f5dd
fc16f709
0a0a00e9
d4e512e6
fce9e811
01fbe3e9
e000efbd
fe21e305
251600cf
faf3d2f0
f01138d8
fef6e603
04202eef
d61ff1d7
16192bd8
2f2cf83f
200f1cfd
0ffee633
0ee8d5c8
fcd91f19
110cef0b
039deedb
1916f1fe
e7cecff0
ffdbf2e5
e0e9fff3
1cdef5f7
f7190c1d
f41028d1
301d1034
3c12ccf1
04261fd2
ebf4eb0c
0fece2ee
23fef302
14f12727
0b11f31f
0506fae3
1400020e
21120210
071e2c12
efe30028
09f6e1fc
c6e1feec
031319e5
faeaedfe
1def0321
dae40403
010c1115
ee121ee2
061ec420
d52e09d3
00074a1f
002c0fed
00e2dc04
fe38dbe6
f6021912
f106e8f4
13ffee1d
f9112f12
ffedcbe5
10eb02dc
f907e9ff
fbf6030c
11e2eb07
03f5d6f9
eb00f40c
17040607
0afff300
f6fd2b01
d3110ff2
ffc606f9
00f4dd23
210d0122
05e5f927
060114f5
0c0801ff
0b0226ec
0307dd0b
e920efe9
0ef5090b
0b07f203
d8160ef9
09d7fde1
01eed6ee
143114e7
1f020409
06e0f4f1
205dfaf2
11e93b5b
0f380f2f
00eb07e6
04faf8fa
e700faed
fc01e50e
16f4e6f8
1d05f8de
e6000ef4
10d3fb10
0d05f1fd
f001f5f8
f5e80af0
000c1800
faf600ff
06e4e9fd
e3faede8
1000fae8
e72731ff
f9f80e03
0800eaf3
0e030910
f0fa00f4
1fec120a
e8dd1815
11f5afeb
121606f7
08f00adf
e305eed8
fadeed16
1f011b01
17140803
fb1ceaee
03eee30e
15f1fb00
f007eaee
f9f9f7f6
e1f803f6
1dfad0ec
f4f50009
f8fee9d7
fbd52a0c
fcf111e1
1001e5f1
191115e8
1617f10b
39fb1ff5
082cf30c
e8140cfa
fc1bf2f4
f4e103f0
08fffffa
d201d3ec
3508ebe5
fa1c09e5
16fe10f9
f305fee1
f5f1f918
170009f0
11fc1100
fa1c431f
f9f5f908
090b1900
eb07f4fe
00f51208
f30cf612
f3f20308
071c144e
00fcf5f7
f1d6fef1
1110e02b
ea0b00ec
0000f1f9
16150c07
eefb2d14
e7061410
35241214
280b1c25
120b25fd
eb030825
ed041201
edee00ea
06fbe6fc
10ffeafa
14022306
1d0ff710
f309f8eb
f408c913
e9f412f4
f210f9ff
dfd5fff7
fbf7e5ef
0912f0f1
0f13ef05
110a2b2f
160c0c2b
17000cef
f9fe0718
092b00fd
f22715fc
46081a0e
202b221e
15e51715
fd1e0920
07e6ecfa
f31e160b
ef09ee03
e5f512ed
f1ed0708
b7f2050f
e3d2f7c1
09f6e711
f8df00e3
1603ebeb
0f0a02e7
00eff316
d305fae8
f50e01fd
e50b0fff
36f9e60b
0dff091c
0be3eff2
14230105
002cf2da
221b7f04
fc380636
0de502fa
1211072b
0707220e
f5feecde
fae7f1d9
11f7f3ef
1ce50200
03082721
e0e6072a
e8deee09
00e32114
fb2407e3
fae80421
f90802fa
06080e0f
11df0afd
00e9e1e6
081dfbe9
0deafa0d
eff903ec
1b06eee9
eef000ee
fdf40b0a
090a01f8
cdfbebee
eae2e7f2
0cea0108
f12a1403
e3f3ff1c
e7dfd9e0
ede0e0e7
1711270e
fff2f303
0a001a1b
1b0d0702
ec0b1200
efff00d7
11e6ed0e
1afff724
001224fa
0014f2ed
11f302e9
14181efd
11fce507
121301f2
f4310d06
d50a1c0c
e4e3e6fe
11e9f320
040afce0
1afa0afe
1a261205
edebf61e
dd07e403
f0c5effa
dbe1f41e
f613fae9
f80d0cf5
00233eef
fe1d200d
f0fed7f9
dffc07a3
ffed0fff
18f6dff6
f5251401
16cf0610
f7190009
2bfb2060
2325fdfd
111b2a10
15f91720
f215fc0c
1c08fefd
1211010a
0017f811
0e0c0112
2606193d
2a3801fa
0e001b02
0032fae8
fdee33ff
ffe60000
21efdaec
161edff6
f522ff06
1200120a
df08f8e3
0001e6d5
f1ff00fd
37130f10
fd06f602
f2f03114
e40b06ca
f700ecff
1516d506
dd10fae1
e8fb0934
000e2802
f6fefe01
01fd0a0a
ffe9f71a
ee0019bf
140616ff
0f0d0b0e
fc03ea1b
06f520dc
1801f9f0
faf90bff
f2080102
0dedfb11
e900facd
00f822ee
f3d5fdec
1005110c
031f0e02
020f00e3
eff22c00
f7c9e30b
1912fff6
0012f422
112c001d
e5f4dc0a
0d1ce108
07d2f6f5
23fbe207
f3e3e7f2
eff10808
17f1f8f6
1130041c
041815f8
f2fdfd0e
e61a0fed
00fb0af1
f412d3e7
d7d1e6e8
ea22f7e3
e2f01707
0bea00da
f61cf2fe
0a28402f
10131717
13f4fd00
03fff6fa
223e07e5
0f0b12f6
1806fb09
31381a0f
07091218
e4f52235
f620fdea
e8e7d2fe
ebe00fea
0b18ed07
1f0d1b05
0d1ffa1c
1005ec13
f320f8f1
0a06e30b
f4fbe9dd
0c0209ee
101efff5
0bf40307
0c1be900
17242705
d819000c
f4ed0af7
151f252c
f8fce7f7
fad9d30b
0a0ecbe6
111cebfb
00fbf823
33ead9db
082707f9
11ee29fa
2ee3fd4f
fd20fc0b
111103ed
f4f2e723
fa04f0ee
f5ed12fa
1c05fa33
f9ef2034
f811fb0a
1eedf6f3
d6eaee08
06dae7d5
0dfd0ff6
483f19fc
f6053a01
f70c1308
e0ee1500
12dffd00
1dfc2320
ee0dfc14
2ced0ffb
0f2c001c
f1f90309
f912e8f9
ee0b1206
1d1a07d9
070b0208
f4130f09
14f010d7
fcf4f323
fc0e09e9
120cecfd
e2e61fee
14ffec0b
090e0cfd
0002f4fa
07f4defd
0421f5d4
f7e8fdef
00000aee
ea03f704
fff5f6e2
050afb00
2b0f0740
f5fbd600
e5000c01
0ded1ceb
f2fafd18
f00c151d
db28022e
09bdfb16
03f700f4
382adc03
de123708
e900ebeb
fcf2eb18
ee00d610
04fa090c
03fe00e9
08f9f925
2ff10cf1
0c20f626
fafef9e7
0c1ffc29
f41318ec
26f91718
0603fde9
e71512fd
20d41d01
3a03f117
e908041a
f7fa04df
df26e1f7
ebe80cb3
fee7f93d
1106f7fd
02220bff
ededf6d8
e01209ea
22f609f5
f50cf105
02070303
ecdbe822
f5070c05
fbf41e00
cdc201f2
f20ee1e2
f4f801fa
12f5f6f9
1919f7e5
ee08f409
1afce7f9
f010f5f8
e7f92814
1406051d
fe070001
5e0602f1
f614f20f
1908160b
ecfb0708
f7fa090a
fffb02ee
080dfef3
cb01fbf7
f0e9fde1
2301f61a
ea1605e9
001b27f6
e91b170d
09fe0812
fb02f508
f6ea0ed9
fc04d9f6
e1ee07fd
21d80414
f105000c
0d120b12
2724061a
fa252afc
f5ec0411
e3050e0c
fe07f7e2
f8f0f8fb
3b0ae905
d92500f2
18182dfe
0ffceb32
fc00da00
1609f2ee
fa010403
e40bfd00
f9d802ea
fd000326
030adfea
eefbe805
040b0a06
020fefdb
eb00efd6
fd0f3610
090110fd
23ffec15
2aee0bfa
c609fc05
04141100
dc0cfacc
f0f80be3
fe1eeef4
f5d71002
0f29f42b
03f70af2
f4ffebf7
f1dbfbe2
fc13050f
370bdbfd
000a1ddb
03f4081a
08f1151c
f619f204
190a170f
f51c08f6
0e06f80e
eb27f8eb
271b1522
fff8e6f8
0e060f09
f814000b
e9d102ef
1e0cf8f0
effb2d0a
d7e7fcd6
1afcf7db
f1ea06e0
fdfbfef9
f7000509
00fbe11e
0e4a05f9
fefc24f6
0a1d181e
410fef1e
f31b09ef
2007e709
e1f61eda
f4092b00
e5fb3e04
f8fbeb07
090c311a
fefe1912
dee9fff3
fbf60509
f7ed3909
ff08fd0b
14f8ed00
1dfd12f2
e7c31005
1eede1eb
f9f5d1e8
e6f5ee20
0cfefc05
fdfbdf09
0401fd10
fe010efb
ef1fff16
fefc11fd
2003ff24
34f424ea
d9083500
2af8fa07
e9e601fc
0ef50236
05e9f6f6
0c15cf20
1f24f7f0
d8f71206
00fc11e9
d71cfeea
fafcf5f4
fffe1912
1f1812fe
f502eed8
01effbda
f006e310
081eedf2
14011a02
00fd2013
01f1fb01
170a1c2b
f60e10f0
fb09ed17
ed0b18f7
0c0511da
f6140c04
4818eb27
eb2610f9
1816f90c
e5d9f0e2
e2ebd9bf
d1dbe0d6
fe1212fa
f72601f8
f8e03d03
ecf5fd06
f3ee13f1
fadce1f8
05050316
08f7e3e7
190c2b0c
e511d3db
002e19e3
edf91b06
06f7f5f2
e7d01c04
1a190afc
0de90ee4
e808ed12
ec1cf0fa
1309e703
e2fa0ee3
1a2f2109
0f1432f8
e60df822
fc0904ec
c9261eff
1d1400eb
2f0114ff
fd16f1f6
e2e2020a
09e9efdb
eb061be5
1bd9eded
fb33023e
d31dfee7
dee711fd
10c2cb0c
0833e103
e3e216f2
f0d8b0d9
f2e5dab3
0bf8f900
04f8ecf4
21f700f6
e7f502fd
ec1400f4
14e5fee8
05fb11f9
03f2dcf7
2df901fe
0d1fdc31
0c20e9f5
06fbfc0e
14f30211
1927f9fd
02010f04
211b1cf8
0423f600
3e0512fb
48ddf13e
f5f7e901
fbe7f709
0b2af413
fe121bf5
ed3a4847
16312bfe
fb2ef6d3
f6230f08
d8c9130e
f213e8fa
45f02c34
fbca1f29
f7f411ce
0cf906f4
fde31d18
04220bf3
3af0e901
f5fd0d31
090d0aea
220f2a1e
d9e20918
16d5e2ee
d4e3030e
040205d4
09fa111e
28fdf206
3af1150b
fbfcf54c
000c0106
12fe1f00
efa9bf12
db15f4e0
f423f3f6
f4f8ffd2
fb14efdf
df0b05f4
eef40ee8
fe35e7e6
faec00ef
101417f8
2625eb1b
10e52a20
f8e5ee00
0fddf319
05fa161c
f215ed1c
1b1bea02
3a21fd13
0ef010e3
2804f105
2418e71e
13e1f81e
d5fc07f5
dee1f3f6
d9e6e1eb
eefb05ff
0d021709
14ff07ef
01061a30
f71efc17
f3042eec
f401121f
f0f40107
fc1b13ec
0a0e1f33
fe12edeb
d71a1e1d
11efcb22
f3de0705
e0383312
01f805ca
ddecfe00
24f4f2f3
d6f9f707
e40ef2da
22f5dcf4
22e9d4cd
f8e7fffe
e7d7f600
29e7aee8
d9f3fcf9
eef304ce
bf210c00
d1cd00a6
1405e91f
23021500
e30ae80d
f9dcd4db
b6f6daea
f4d101d2
ebb4dafc
4e0f0bf4
e2ed115a
0dfdf0ee
1e2b1b28
d0ee0609
21db00f0
fa011820
0a1525eb
f21733f8
2d12db12
482f02cc
151dee21
e1ffe3e4
f2f12f24
2702efeb
fdf0d8cb
e1eb00df
16fafb03
ff2ae707
ecebff11
1d07230e
dd0e0315
08c3321a
10ee0426
db10e4f7
efe6f3f1
002626f8
2709dee5
03e1f227
f6f9dbf2
1cf83750
d6fee9fd
2df1fb03
0ef3fe02
0af90927
0bf42a0e
d20c2413
3804e42a
f5d1cd16
2cf9e5e1
e5000834
1e4235fa
fb1a3c37
0802d6e9
f5220300
e100dc0c
08f102cd
f500d5f0
15160fc8
f4071318
f9ddf3ee
00090914
3e2114f3
332d1421
f6f1f61c
06000314
11efe5f6
0f2d191d
fcfeec0b
e705fcf3
eaed022b
ba0021ed
e9dd240a
3e002025
0efbec64
1622021c
d7f6f5ed
1de6daf6
15f4fd25
1222fe28
ff0d0216
1112ed1e
f3f6e103
1c0e18e2
0122e80c
eee8593f
e8f3d7cd
ec040202
13f1111d
f1dae416
12e0f501
19c5e8de
1df3011f
021d0f0c
edefd7fa
19f91603
fa162314
1c1d25fe
f71f2103
eeff15f9
cefffa12
e2f12acd
f9ee031f
fa0ac6d8
e4f72c08
fe031cfb
e51f121b
f3150ae4
0a100b0d
e31a1004
341916b9
dedff002
e4d30301
ef03ec23
0ce2fcf7
01fced05
f2fd0ee4
18fd1042
3fe6f32e
0804ee04
fbc7d800
e72c0209
0907f512
f12f21ed
f6eefddd
2228fcfd
f8d6e0d4
d8052ff5
440d0b2f
00e8e23b
f8f91bf7
0222dafc
e9041900
20e53007
e423e9f9
f3dfdee0
fffbf200
f50700db
f0db1cef
0aff0414
1437eaf5
df1d2a08
012013eb
e9dbfdf6
10f5e8e7
f316f70c
020a1210
1807c625
25e7cfe4
022805ed
01fe090c
02131be9
dde21807
f60df410
c9000ffd
eee507dc
ec07e2f2
09fc1bdb
ea09ecf4
fe14032f
f00a061d
100200c9
1804122c
d91c0b08
f4f11fe7
17fc020a
240df505
080d29ef
3b0d0c01
d213e311
0306e6d2
0ee507f1
d1ebfe02
fa12efce
cbe6d2f9
e3f10dd6
d9c9e21b
ec180ee3
1e09f6b1
521d210d
0113fcf7
efe4def7
02dbf2fc
ebf001f7
f9f9fef2
d10ce3f8
fad8e705
4f05f801
28472726
25481118
d227e400
041af1aa
d1080706
da162c28
9d9aedbd
dca0ca0f
ebf3d9f6
190af3d8
24dbd902
0df9efdb
f205cce5
f8f0ee0d
33f2e40e
1a21162c
fd021412
021b0011
dbf417e4
e106f5f8
f509220c
da0501fd
1b020a08
ffe1f814
4e52e214
dd1bfbdd
0d07f9d9
1600f5fd
1627f9f1
021b333d
1f080605
ccd93414
eaf2e6fb
f6010f04
fac40f2a
14f807f0
0bfe0efa
022917f8
0610d7ef
d9ebfb22
09e7f718
250cd0e6
dff8373f
f3de01fa
15e3f413
ede7fc10
030de20a
f71bf801
120cf4e2
fbf7eaed
de070a1b
11fce9ec
ebd2c40f
26fcdabe
1a1fe731
2826210b
4a1a000d
ff140f29
f0f3fbfc
04c5fcee
1222f00f
16e7e11c
6f10f61e
1738d938
0f0bf5dd
f626eff0
1d22f2fd
ede4ffe5
eae619fa
f6d5110b
11fbf1ec
f913d6c8
ee302000
1d1d0f04
faedffc8
02060e39
ee1d06da
dcd6fe07
071ada00
161a1502
eb050b08
fff80a00
0af4c8fa
25080431
c1b0f322
ebd1d7ef
fd1306f9
e1ef0205
eec3e0f7
f7111d0c
d6f3f5f5
141b23d9
b1f3d8cf
dffcfeae
f51ef3e1
0f07fe00
cbe1f205
221b0018
0f032c28
e4e4bd26
021701d4
26e71510
0f0ee60e
000b29ee
1203db0e
1df012f9
df0303e4
10001c2b
16f7e1fa
1f1ceae0
e6f0f501
ee1ffd06
f30f0eeb
fa091829
cdcf0326
e9fb21e0
0be7a7dc
384b0dd9
0be5df0a
f3e2230a
1304f508
1b13f2f4
12ed1d1a
f214ec09
08f9e5fe
10150015
24f5d902
f2e6b202
d0f0a2cd
c5cd18e0
e8e3e0f6
221de0d0
e7eee911
e10515dc
d9f5e906
e1fbffdb
02e802f6
04ea2605
e9102209
fcde0ffc
0bfcf414
19fc0617
05e8200b
00020508
21fde5fd
d9080e1e
e0c4ec05
f0e9cfe5
1e0808f4
fdf9ff20
ebfbfcf4
fd052a08
ebfa153c
faf5120b
29020ffe
17fbf6ef
e8fbf808
f6da05f6
01e3f2ea
e301f6f7
0711000d
fed8fe21
02d006f2
26fff9ec
310904cd
1f2f00f8
03fd0326
12e601e6
e4f11d27
ffe4c0fd
1be91704
e4f82de4
1ee0f326
161c0519
fff0f8f8
fcf8ed04
e2edd7d5
f8ede5d0
f8e9def8
16ee0a16
3b51e802
060ffe01
16f80824
f70e0502
e8e0d40b
f6fda2d5
e80906ca
ffd804f4
f9ed01c3
edda29f6
0002170e
ecf3ed10
15d00219
2218111e
c01d2b34
e90ae70a
fdeed31c
fe0df80b
e90ced01
ef0a220e
02ffe4ea
09110edf
f2f0ec14
01fb00e5
221304f0
3d160ae2
011a19eb
06e9fd00
1e0e0015
e0e33313
d7ec1ff7
f81613f4
16f5e1fb
cf000eee
fdf60903
1e09e903
1c16e117
00a4ed11
f90105f6
e0d4fcc6
4bf6df17
091705f5
0400f4ef
fa020e0a
f9eb170d
bcf824fd
cbe2dafd
0a084b0c
dfe718e3
1a0f2719
06011b1f
e400f6e4
210f12f8
fdf2060b
07f61804
1a2f2006
e800e3e2
24f703fc
0010e127
f6dad3c4
d8cb1005
f8c1bef7
e9f72611
18f90afb
13ebe111
312e2918
191c134c
fbeb120b
e3e81e2c
e0cce604
f8e8cd16
02d6f0fd
dee5f2e1
1ace0305
20e2302d
0313ec02
0c17fe14
fa12190a
25f5f606
f1ef1f17
f60fed00
675ff0fe
cad8f1fe
0fef0b2c
16140b15
fb03de2c
fd01f2fd
e1e21325
0403f2d3
fd10dfcb
1b00fde8
1609f80a
1af41acb
efcf1735
e4e5eb01
d3fb0b1e
013fefd5
e7ef0efa
fedcefe9
0e002702
05001901
07ff05f4
10151426
f1dbd90a
fa0008f9
00d9f5f1
0ffed81e
1dfaf100
f60df707
f4f109f4
c6f1ddbb
efebf4ae
02dfdb1c
f60d5206
12f8070e
1d371ef2
09041018
3818250c
1935fe24
15f93d2d
11edf017
f112f4e2
eaeb0204
0df4fcf4
fbd8f120
1e15f8f1
feea0816
f9f4f506
fe0bf3fd
db06effe
e8baf104
d8081dea
eedf14ff
e6fef0db
fa021dfb
dbe507fe
ea05e108
ee202214
fdd61aff
e311f60b
011f1a09
1110f91b
ffff12fb
f2fbf928
0c11f617
f2d0e1f0
1ded0713
ebf91a20
19efe9f3
e12933e5
e7fb0a00
fe052fed
f3e806fa
30eb0f05
e2e9f8ff
28000809
d31f12e7
f0ffd60c
190fd9f8
fecc0ddc
0108e414
f4f8f00e
ffe5f9f3
ef00fb01
04cec1eb
f9e204e5
e5cc04e9
f80fff1d
3a20f730
e6f920ff
3ef4e604
0415e70c
fe2a3706
02e8b3db
deea00ef
100f08ff
170a181a
034beb30
2a081c20
cce21827
d0c8e9de
f3fb0df0
dff60a0b
e2e4d7d3
fa17f4ee
040011f4
c70d1d00
fdda0be9
02f22601
dcd6fc1b
ea181cee
f30909f8
19da070e
170f1a05
e30dfbec
172bff12
02f20be9
11e518f5
10e8e1ea
fdf7f602
1db8f500
0cf3faeb
fcebe7fd
f1e1c1ce
eff525f5
09fcd6dd
dc18ecef
07fa0eef
0429ea07
fde9eb02
d2f506f0
1606cdd6
dc0516ff
08f806d2
05192fe7
f7002316
d3f803ec
0adb2d1a
1818d5f6
0c1c1efe
eafb1915
32e8f80c
d5f3ebe6
ebff2ddd
e9fefd00
002ccab2
e8e5fefc
11e2a9b1
221700fa
03001206
0f12e4ea
f4f9e331
1c0b060a
ed1bf007
e50017e8
03e7dfdf
0108143a
e5000bf6
13fbf71d
01e7daf2
c1ec0ad4
08e2f1c7
fc030be5
18ecf617
1219f8f7
0800fcfc
f20c3620
0cd1e907
3504062d
04031804
f1151805
240e2400
fbf31549
030df913
fd0d1f09
26e70840
fcee14fc
fb1910f4
c5e30017
e2641fe7
0803220f
f0eaf2f6
eef9f7f0
02e2f5ef
0702f2ec
05f9effc
1211f900
0c0be808
02d3e514
dd2104e9
320e0506
07fbfc31
000303e4
f60cecff
eeb7b1f4
d4e3b1c4
120bded9
fffcf8e5
e50fffe3
c0f4f9f1
f7ee0bfa
2b00fe0b
f806f219
1c0204fa
1b1c15ee
eb131415
f9fce5f7
fce6f5ec
ddf61d13
f0e6e112
dbe7dabf
e8a906fd
e0f8e40f
fff5cb37
e90aecbf
0e0230ec
16001a0a
2849dc1b
ed00fde3
42f93df9
240df52c
17f411fe
04f8ff13
1ceb0e2c
004415fc
37f3280b
0d100311
f122ff13
daf8e805
060800fb
070131e3
2002eb0b
f1021c08
1106290f
11060d36
e905ddf1
e5e4fed9
f21cbcf3
df11f7fc
0cf8c7e4
f4e3cdd4
102df5f7
fafcf710
fd09fa14
df03e5e4
e4f401c5
00ec0d14
4c302535
0a07e2e1
db1e51f3
2ef31ce4
e115ec0d
1f23210b
26220802
f2f90f0b
0bf4e5f0
f500f600
fcf6d1f2
f9f948ee
07350a17
c4e0e4e6
e5eee2d8
f8fec2c3
0e1502f5
c5d31cd0
e8eefded
06ff0d0d
18fedb06
d8b70104
2d1c4503
f61219fa
e20ce9c8
efdcf41b
39cc0b0c
250e0f30
070d1cf5
16033f39
d3e8f211
0fdde9f5
d6fce7f9
07e1f00f
f6e00109
1f090bf1
100b100b
fa3129dc
180112fd
0bd3fbfc
fd340302
fe08fa07
e4ebe712
ebeff3e5
de260e0d
fff91bf2
04140c1c
121cf706
11f5e7f4
f61b2edf
ed241fed
f70bda01
1cff08f9
16fb3afd
1311f5ec
13cce9e9
5ceec703
1bfb1611
041b040d
561bc2f3
090c2710
15201c18
07e60c11
1313e71b
080f3002
11d20402
cfd2ddf8
1b0b0cff
f9eaf212
49eefe18
0b16ef0a
e5f604e1
d4f00011
14cffdec
06fce214
e6f9ec03
001f0a14
f4f50824
e3cef1fb
01f8d013
f0160806
1cd4fc1b
27ff1a12
fad6e4e8
fdf1d5d1
d8eaf2f2
16e3f524
152e2c1a
02192cfa
fff12804
d20af72a
e5e5e002
ebd6d6d5
1d27f8d1
fedcaf18
020bdbca
072cf4fc
130f06fc
ee2e3b00
0802ff28
fae9f107
28f9c5d7
fb3105fe
f7ee090f
0cdbc8cb
09fd2005
f502f1fd
0519f901
360120f9
00021337
09130b15
f106ed03
f8141d00
04daf9ef
f905fd00
ff0819ee
f700f9f7
0516000d
27423af9
0ceaffd5
09ffd3ed
0212072b
f5fd0df2
f2e3e821
2cfb0618
f709f109
03e90dee
fbd3f314
0cf9e5db
12230bf4
f915000c
f8fcbbdd
f1dcf2fa
2b05fdfb
f2e1e0d7
e208f0ed
1bfb03fb
cc192f22
2020e9f8
0d08fa11
dd130afd
200c13ed
eaedf5f4
f105f6db
09f530d3
f7d8f723
00ffe1d4
eef1f51a
2a081e11
0b36ea0a
eb13e4d7
e51df509
edf4c503
080b07ef
ef291a03
030c0bfa
fcf40d1f
fe2400f9
e61003e1
0703f4f5
ed0509fa
fbf1f90b
e6d20d18
e302110a
0619fd36
21d826d5
16411d1c
fcedf5d4
fbc60e21
20d6cf08
ddd8f8ea
ef020c09
f017eb26
e40927e9
110e2106
1e0c00e4
e91afff6
102ddbe3
fc0408fe
f1fc2231
f703fddd
fce7d4f6
faeee4f7
cfedfafc
0f01e5f5
032001f9
320ffef0
f6fd00f1
0107e5f6
042dfbfb
0815fc10
25fe081a
0202e3e8
0c0436fe
f4f8f4d6
f9f130ec
24ebf30b
fc211509
fa08f710
0afce30f
081c05f7
2e1f24ef
13f00001
f306f4eb
20faf8d1
e9ec1cfa
16f204ff
1e02332f
1bfcc7ec
f22a2c0c
fafa1cfe
07f51d00
e2f5ef1a
f5d7fbe8
4803e722
1120eb00
e6f3ebff
11eaeafe
f5e50cbf
0c17e0ed
f209fa25
4e2609e9
f5272d3b
2af8f405
16da0a0b
da0b0616
cdf5040a
ecfc22f7
00080ee0
ebe32000
fb05f3f9
02eedaf9
1400120e
0815eb0d
03f72c19
f7f2e51a
33232a14
234a1c1c
f811140f
1ae60b14
e000fbf3
21e4d0e4
0e000707
fff60e2c
f3ed2d0c
07fff11a
e7edf602
e4c9e102
09fc12fe
281c2324
20f60227
f8f301e4
e10afb19
1af40e08
0afa0d28
141df2ea
012804f1
e91408f7
f9e51a30
ffe405f3
1c05f9ce
2e0cea3b
0105f9e6
fcf1ded6
f9ec15dc
120a12de
ffe6000e
fb1a2ee9
fe111ff6
fe21031c
fd0514f0
e8e70b0b
f007f4ea
26001e18
f325f80b
fedacfc7
2a0ff600
fc13fc1a
021eec00
ec03120d
0cf4e038
30fbf82a
fa37370c
f3160be0
f0011411
ef11f623
e9bbf416
ef021ee1
1af2e013
17f001ee
040206f4
2114f81e
0b2ae9f3
feee0114
1e2307e1
e3fe0715
f40a06ff
10f52606
13430600
e3fdf612
f5ccfeea
11130707
f818eaf8
0920000b
fb1609ff
07f8eefe
d7e9f2e8
00140efa
2e1e25ee
e9f73433
0d00f1d2
f9ee2a0b
0c09f5fa
0ae9c6f2
0fea01e6
1b130311
f7e4cef8
dc01ffd6
f8e113ee
000ee60d
f4070ef9
360b051b
2103f707
f5190000
3d301935
f2dc0213
f8fddfe4
eb26fbed
0feb2c16
f9f51406
01f105f6
1600db28
1ffdfd23
f112dae3
e509e51a
15ef0b02
d2ecf9f6
e53d41f4
f6d9f027
1ef41825
f80eeef7
04150413
f3190a00
07efd4f1
1cf8e7fc
1bfb0c01
010b23e9
11f812fc
49101f3c
08edfb06
e106e205
ed04f9ee
0c0515f5
2b12062e
07fcd81d
fb162def
fa020efe
e9f0fed7
e2dde908
e219f31c
0006f1ce
171b2208
2b26f2f5
1606052b
e4ef1f28
1efcd8ef
12faf6f9
12fe100f
f7f2f1ed
18dcedfa
020fef01
f3e20ff4
dcf3dafc
f1f308fb
cfedf2f1
ddf403cb
fafcea0b
0dfadd10
0603fc0f
f9e62b19
140e122d
f4dfc8f5
f6fb0dff
e0f01a01
f8f5d8eb
02f6eb09
ea041808
04f30611
ece8d2f4
09ee06ec
e6f1001a
eeddf0f1
faf90a17
dbd814f0
04212718
cd16003c
e8ffffe6
f6f6e1ef
baf4eed0
2719e2d1
03f9fdf2
d10401f6
f7ebdef9
ef040ded
f616010e
1d0b08e2
08e5f40b
130f0f3c
f9ee0b0a
1cff13f4
eefdf4f0
0500def2
fc0411ff
2306f109
cfec0acc
eff4fcfb
d60c1fe9
f509f9fd
f907e309
07ebfd05
242b1a00
f900170c
f7f80a1e
e200efd5
0624030d
20fb19e7
efff1323
0a1aee06
25ea241c
fcc21c12
f0f0e71b
ef0c0200
f6ebf2c6
f4ddee0f
0ef913d6
0c421231
1ef30c14
ec06ff12
04fa01ff
0d2b090d
10f02bda
2b230211
31e63302
0300f00f
e3df1309
fe2732ee
1dfb2912
280f1c0a
f1101f12
ed1aec1b
f0fe0ee0
142d1011
fd08dc02
ed04f90b
01e8ef00
e92018f9
e319f4e7
0ef3e5fe
0e100a04
030af6dd
fdedd8ff
f61f0728
ea141b04
170003f5
e1f80017
ea0cedf7
060e0aea
14f500fa
f62d1128
0e1902f2
01000fec
280f0ef6
0c300305
35321321
cacf2819
16ff1725
dd39e311
fef30ab5
00f9cb29
06f7e0e1
0807f6d5
de12efd6
17f41e12
2a0dfd0f
090ddc0b
d7f3f7ff
c4c60dd7
fb03f0f1
e7e6e6f6
fd14f0ee
ffd72af5
131917ee
01f7e20c
09061aeb
d007ee46
dfdcfde6
ffe713f7
ef1bfcd9
0715f306
0af7001a
0811ea07
f7ffed23
da04e4e1
f7f315e6
0ff90703
f21d03f1
0a09052d
1fe8faf7
f937f8fc
220a0a00
3c1ef824
09323e04
2922e20c
0d241106
fef81719
f7f3f30a
2af4f503
f915030c
0de81413
09fcf3e2
06f4e00f
11230cf9
31f7e421
f5ebc410
ede5eed6
001807fe
17f3ed00
ea0a130a
ebe3e3d3
f8d2dbef
f3f6e10a
0ddcd5f6
0cf0eae7
09e309fe
faf6def9
e3de08ea
4909fdd3
200b271a
07340df1
091218ec
1e08f6fe
fb00dffc
efe625e3
24eff603
e104d0f6
f0e6efe9
f23120fc
e7fc2a11
f700d6fd
efe102ea
270800ea
ee1c06ff
f80a1108
0ffb070f
001f0d27
f904ff00
f21efbe6
f4f2e6e5
210009f8
11d3e508
19f4232a
fc1ae20b
fc1b09f8
ee0b0306
d7e8fbe2
10f5fcf3
f11b0bff
ff18f3fa
04f503eb
05f80312
1200f4ec
f6eff52e
f6fefbef
2100cbda
ff0e12fb
e2f0ee04
fa00f6e0
e1f0ec0e
e2dafad8
ead1fedc
f5fefdf1
31eafce0
c1f1f9f9
27fafaf7
e5f6eded
f8e6fbef
f7f303f0
fafbf8d0
f13eebf7
05023706
0905fb01
f2031be3
071019f5
18100d0c
00f20827
e41efdfa
db0700fa
12f8eff1
06020918
e8f40b07
0b10f1f2
220809fe
e70911f8
0bf70a0f
fcf9022b
f90ef800
eb001523
f4d8db07
ed0028ff
05f8faed
140e11de
f1ea03e9
edd40105
0cf9fb0c
1903f5ef
e6ebfad9
c6e1f1db
e3e4f808
f10e02e0
0b2037f2
1e0bf3f6
e7021307
0005f90e
f5e91717
e0dc001b
e8ef1b06
0604fa0d
fc100202
18fcdf12
efdef4ea
e7e0f8fb
10eeecd7
fc0ad7cb
1108ffce
060201e2
1228ec13
f0dce6e9
f9fbe70a
0aefdf07
f106f0f1
f1fa10f0
fae5f1eb
05ff0ddb
05f20114
15080c0d
e5170701
ff1d1e05
1bf901e3
0dfffa0f
25181321
071d13f9
fdcced1d
0603e815
0d10232a
e2f11fe3
fb1d05f4
00ffdef0
0de0f8d2
e310fdf0
fb071612
f516112b
18120018
3d1d2525
ea171e0d
1bebee33
fa05efe3
1006ea25
fefff201
c81cf6e4
e9e3f003
fc0ee20c
f7f202e9
252001f3
f5ff1af0
05f8e214
0818fe17
01ddf511
e10dddd4
0b0b25f4
ef0df8e9
06e20d00
f813edf3
f50cdbf7
241cfedf
ecfa0d00
02ceeae6
00e6e7ec
08f1ffe4
f00a04ff
000b0204
1b05e50c
dcf9f3d7
fadac2cf
0c30f1e1
e200f5e6
05f50feb
0ce40efb
fc09d900
0ae504f9
f9070d04
23220337
2902fb1a
eded2003
0f01eb0b
08fa02fb
e7cae0fe
25ebe1e7
d8330df8
ebc0f6bf
2303fcf4
e9ec0224
03f202f6
08ea13d6
1ffddffd
defb011e
28e0fe2b
e7f82425
0b2428f9
15070507
e3dce3f5
f7efd3d4
ebc2d0e1
ddf1ead0
2703f3f3
fe071708
c906ffef
0f35e9d6
023042ee
081df816
08f5fb0a
0d1904e4
2b0e0923
e3dbfb3c
eff0eefa
1b111a39
231aec04
f8060cfc
f2000701
f00402d9
05191e05
e51fe5f6
00fd00eb
d1e9c518
e02b311e
01d70af6
f5f1e50d
000bfb19
eff5012d
02d8fef0
dbfa19e7
e70000fe
1a04edf8
e7f70215
f8ecf8d0
e7f200e7
def8f7fe
ef0bef29
ff180106
db1716ea
e81d0921
e1e5f6f0
f905edff
d7070f06
08dbf808
f601231d
1a1b0e14
fd211214
1ef21ffe
ebfc1c06
f10e0efa
03011824
ebf20c10
e5d5e5ff
3409bdf1
210d0a08
ea0700f0
0afaf200
dd17eb0d
f8eefb05
f9ec292b
f522e6ee
01ff08f2
e41733ed
29220302
15121ef1
051c0110
2801ee1e
f00801cd
00ee00cd
0ae0e907
f3f304ce
28f0ef15
ef0ee0e3
13ece413
040b0302
1417f305
0a251504
1c02fe1d
ff01ec15
24092aee
e40e04f7
e9e7060b
fefe2cfb
241c0b08
0c16210d
2cfa1221
0009111e
171df3fb
fc060cf4
400b2f0e
1ff21b26
fbf62415
03d605fe
ee12deed
0aedf526
f5191c11
e4fbe3d3
e4f1f8fb
f708cdd7
37eff6f1
d6060a2d
01d7ef15
0123e60e
fa0704e8
06021e08
e70bfafd
03f60601
e912f300
ebf3ddee
0615e906
ebed1cf4
04fa0009
ff0ef0f8
f70e25ed
03d9eeeb
160ef8fb
fff9edda
ead504f8
ef210c05
08f9142a
f4dddff4
ff081205
1a03fd0d
1c220ef0
2c090625
02fb01f9
151a07f6
1ee3031a
e7efe92a
ccd3f2e5
100bedf8
240f1213
3b07040e
0c11f3e0
f1d20bf7
08ecf1fb
21243405
f33a1e1f
0a101407
04f31a00
090912fe
151401f9
f7eb0314
1ae0dff1
321ff2f9
0307050c
09e72a29
1d280111
01f5ee01
fc051327
070bf00d
090024f6
ef1406d1
090e33ee
fdef0012
cbfc1503
082de4da
1917e6ea
00faff01
f6eef3ed
f2f7fae1
e3faf2f8
1bf91105
f8e412f6
ff0e0acd
ff2515e0
24f0f00b
fc14091a
f7f5e3dd
07e9f9f5
18fee300
190e00f9
f9e4c909
16fa0d0c
f3f10005
ff1a5501
ba1b1801
fe08ece8
100dfe00
f4e5fe06
e10802da
0102ebd2
d2f8dcc5
1c17f4d4
152e010a
d4ed1dea
dee70cc4
f5fbee14
1119fe10
190d0912
e2fdf7fe
e5d414ff
2716ed13
101208fb
0020ec12
24ec1a13
f31bf914
fac527ff
02f8cb3c
e2e4d40a
031ffbee
eaece8eb
08e8ed05
f8140a0d
10fd01bb
080c20f0
0f09d6fd
0e1034d6
0a060ffa
1ef21c21
ea000352
da4b16d6
07d91aea
0c17faf8
dcfff50b
0d0fddfe
f20e27f9
ef231230
08fb2b39
1bfe0cf4
0b2506fc
f1ddcce6
b5fc15bd
14f1fdff
f4f2ebe6
d8dd04f5
0cfe17ee
28fcd500
021101eb
e7ddf40d
0dfc15fe
def4f3fc
00f5d12c
e412ff00
07f21517
fa18110d
03f91107
fdf9f1fd
2ce3df01
c007e3f8
f9c4fbe4
f1000c0e
edba351b
f2e8e730
1dfa06e3
14fee8e2
edfdd0f5
000403f3
1ae4f2fb
e7d9fbf5
10e7c713
00160517
efde02f6
dae7dc15
fdef04f6
c1ede303
e4daecf4
02f6e6e3
10e61438
20f0cf19
1f01a800
05121ecd
dfff0ef9
0b20432c
0fef14fc
ed1008f6
fffe0523
f01ced14
00e1e00e
f31dfb14
120839e0
04132912
13f8ddda
e7ed0613
ebdde1f2
16f6ece9
0328fd21
19edfd06
ba25de00
c6f507c0
fdda05ec
15f8effe
12161411
21dc261a
0937fa12
2e35f509
e90d130d
0e023426
24282827
00e2d60f
e5d24503
fa09e1f4
00030c1b
0d030f10
2c230625
101a0ff8
01e4c20b
ff20d8f4
06fe2908
20dbf1f3
0ee0dee9
cf5829c1
fd061afc
f0fe33d4
161d2b2a
2a32381b
1a070611
0c460fec
0b02f2f1
1bfb17e9
ee0cfa00
04e4f6d9
ebde1deb
e8dde3f9
f70d10f2
0f030128
1de0c400
2228c6eb
ddbde1e8
2a130332
c01303f0
f8f60eed
d5dffc0d
2814ccf3
1117080a
25f1fe05
2714f61c
d0e9281d
ffcf17db
effcd70e
d7dd0bb0
e22f0803
fd0ebacd
2c3b33f6
3913eb01
0f3d2204
e52d2cf6
16c24334
1718c713
d00a110d
34043613
04f3fbf5
f6ed010b
ff433dfb
f40a13fa
01ddebfb
51eec94f
f707031a
e2f923d4
ff0f08fa
f732d4e5
10f409f0
0b050604
e3d4fbe5
0104cefe
10e5f9f2
02dbf308
081bdfff
0f0108f5
030d0e1f
1603f70c
0ee6cefb
df53ddff
dcea29cc
d40bfaf1
02ec1cf0
e90010d1
0a2300f3
fc1c100c
07180f09
090d0418
f7112b23
d90c0ef1
01d9f8fe
efe20719
fe06d8fa
0800daee
f70cdb03
fc0723ad
46021209
171fe7fd
171dff06
e71ceff9
bbdc0002
15f91303
fee82510
040ce6ea
0123291e
e2f1f216
e2f7fdf2
05ebd5e2
1c000226
23ecf50b
f6161319
17261bed
d51bf520
fa1f1bdf
e8200017
d5cb1d11
e8f4f4cd
e6e8fcee
1ef50d21
fcfaf003
0b0fd615
f6e54145
2ef7f220
f32e1b1a
f3f5def8
13f6f303
1ef5f80c
41050013
ed081240
00e80013
f60e00fd
f91506c9
05e907ee
09022807
0a190b15
0be3ff12
3711e0ef
2826cb36
f6fbfcd2
f2e529f4
0020f6ce
ec300917
0711273d
fcff0d0d
18e4e417
b7fd2600
c3d4fd05
fce5e608
0bf8f8f6
14e2ee2e
0919d8ff
e2003905
da0ee911
def209e6
0707e711
e8000936
ede7f61d
f4f202dc
02020f2a
190d2a0d
f7fd19fa
03130ee3
fb0cfbce
f30216db
f60216f3
0cedfad3
2dfaf4ff
f4f102e1
e5ef1800
11051614
f9f2161f
df1a20f5
ffe21ffb
000818ea
fe13f4ee
1012f0f2
11ff2823
eae7c825
f5f803e6
0f0905e5
14202a1c
ceffff44
eee7e2f4
fcdad8ed
0401f32f
dff612f1
fae80bfc
d4e1dde4
154ad1e6
ec1619eb
dfef08f5
b0cd15c5
f7f4dc12
2229d2ee
0e2510f1
22dd0506
fe0000f7
ff0e0cfe
28120818
151af7f0
2c36fa12
f9050f10
f40012fd
ff271df5
f4b6f6ff
efe6e4ca
46022d0b
d80c0aca
f804f6f7
dcf60cd5
ebfbf1e4
01ee15e2
0705e504
fefae300
00f3e3d9
d3fc00e9
faf525f0
10040638
0134ecc7
15e401dd
ecf0ef0d
ccddf4f2
e3fbf1e8
29f1ebfc
f1eac126
ec2c1313
1be8000a
131d141a
012e0b20
bf08fd0a
e9d502fb
170bf10c
3e0012ef
1110132a
d81539f2
e1f10822
05fa1c05
f91a081c
05e5e1e5
f1ecfc00
25f80dfa
0704b4f2
dc06eafb
03bfe802
f22c0615
09f91403
0a12e706
17082215
dfe6f300
feddd727
5afb3b2c
f3fd192e
23d9ec1f
f51feefd
07dff7ef
060df407
36ec0123
3824e424
00ecf4f6
0c24a3d4
0c211400
e9ed06ef
1818df04
cfe10cfb
f8ebe00d
f510f40a
f22422b0
fe1a0700
04e60224
0ffef3ea
060308ce
f10fdad4
1e1eebfd
d4fa10f3
0406ed00
f0fc1116
ea162304
0d0605f4
08dc15ee
01e5effc
02081b2a
e51e14f7
2a270334
d5fad4f1
f4ef0aec
e40ce4f8
dfe3fcf9
0e1a00f1
0deb0eff
fb15f3e4
0215d9e6
f2c3d705
fb44bfcc
f03a19ed
ec050cf7
f6edf1f3
0316f7ef
1cda1cd9
dde41644
10e6f0e0
ede4d1e9
260cf6fa
f9fa0034
0f110fff
f312ddf9
f4fc14fa
f9ebe510
e0c2fd00
f914eee1
f31f01ec
a3f1e3ed
e9cbf2b8
0b0bfe25
f5f724e9
aaecf0f7
440dfb0b
0b12e8f1
f500fa28
f2e20308
1408e120
0e0106e5
f8f42207
0ee62319
fc28e0fe
170d32ec
23e30410
080ee118
22ecca03
d00af6e4
def009e8
f90938fb
f3dff324
808de7e6
42b8de1d
d80e0526
e5e006ec
1d1a1cf7
2aeef806
fc32ebe1
15ecf00b
fa18ecdd
050b10f9
0805f2fa
edf30ed1
f9f3f615
0323f805
fdf6f1db
0b051940
1eebe4eb
121fa6dd
15db24ff
e80a0ee5
19f11c07
11fa0dd8
cff40007
f4ee2903
f9f3e220
fddaf1dc
1e08df0a
eb19fd17
00e01c0b
10f9f91e
190705f5
e7140be2
fb0ffbf6
341ffae3
eaeceb0e
f5f82f22
0dea0ae5
0012f709
bafbf401
f4f108d8
e1fcedf2
ee09fdfa
2020fbe4
00e7d8f6
02ff0ede
def5050a
fef81910
18102312
e3faf51a
0c0014f2
2f00eaf0
fe2aeed6
fbfedbef
0701e6dd
e6f90c0e
f5cfccf9
faf3faf8
380dfa03
021ce5ff
2decbbf1
e5ff0811
0d0ce708
0de7f1d3
04171c0e
32f4000e
430ffa2f
2f182058
e60cf2e4
e4fcf708
fb2001ef
06d7e117
f7e6f3e4
c4d90600
0c0c0224
d0fdfcf8
cecafec4
00f8f4fd
1d0200fe
02f53536
ef350d35
c3f52412
bcf8c2ba
31f80bf4
16fcf0e7
1329f441
0f0d0c02
fbefcc01
f804e50a
d7fbd506
08e918e2
070d10f5
fa531aeb
e0e4dcec
00d318e1
17f5e40a
f10a00db
feef05ec
46f000ed
0d3bda01
ee2e3714
0fe541de
2202e206
3c09c56a
d900d7e3
e1e41b10
fdd602f7
17d7faf5
e04105f9
262bc8da
e7201af2
0000fae5
bc0229df
0c020c0a
f61de219
071a13f9
c4310702
d9e62827
e2d8ccdd
0a2ce808
f2090a01
efe811da
f0060f04
02270904
2e30020c
f2fce40c
c9d6ecd4
fe01cde1
d61c09f4
370a0702
e61b122f
f8140a07
e516ebee
e403fbfd
f00b0602
e8d11bfa
0e0bd3ef
1815e826
2ce907e4
c009f3fc
ef0b0e1c
02dd4817
e6f9e4f5
20200710
1618eafe
e71c180a
e5f21ff1
0a01fe32
711bd935
e327e8d2
06fc01eb
003effd3
2ae00607
e215fce3
2d1805e3
e6acc829
17e8fdef
f104dffd
f6f209e0
ee16f3fd
191bffef
f0e80325
dc00fe0b
044d08d7
1013fa09
0f0ce2f9
e1f1021e
faf9fdf7
e3e7daf1
fa15e9d6
170d121c
39011e18
06f9252b
ebf30508
01e3fb0c
eff3ed07
d806f4fd
1406d100
0df20934
feea2d04
000add1b
ff2afde7
20fbf423
f20df304
f2e80008
1ae4040c
f4121020
0be51516
0b0815f8
1732391f
521d2b1f
21e9d915
08f2eaf3
f8efe4ed
faf2f7ee
f0d90b1c
fbf1f900
0f1229fb
31072b1a
dfcc124e
f5f8edf3
fae2ebff
f6f70efb
eed2e62c
0ce21412
0c2aea00
faecf6f7
bcc6d3c7
1e13d4d2
17182504
22f511e8
1be80d26
e0ed02e6
e3f0ff08
e0fa0002
0bffddfe
ddf1b8ba
effce9e8
12ea3013
e0fdf20e
1a0ff1f0
17fc1f23
0901e90e
fad424e3
12fa1705
07ff24f8
07d41308
f402eae1
16fb0901
fbf9f22a
f20dee01
dc023c34
eacaede3
fde5f611
24e714f2
1e0cdcee
1c1e0e02
f3030003
fef008f8
e4f4f912
1a1416f1
2b2c18e6
00fe0530
ff031629
010cf6f3
00d2e6fc
ece8f0fa
f90101f7
fa220deb
06161a0f
d4f5140b
09db01df
f907cd00
cbd90a14
eb0002cb
0bf4e904
f621c802
fdf201de
f0f50ff6
1deb0329
e0f61128
0bf01919
f6ff2922
0c0123e8
ceec220d
fb01ffeb
00fc0407
f0031b07
eafb010f
292309e1
e402fee6
dee21405
e6f5bd13
e5e4ded6
fc0ff6cd
08372305
120ff712
fb240de6
1b1e170a
c6f8f107
fe12e6d9
efebe806
25e4202d
acd42405
e2cdeac8
12f80f18
0ef3f32c
1aea24fa
08020e17
f4051e14
25d9f0e7
0f0016ee
e4dd0101
00dae422
010bedf2
0a0808df
e8e8fd0c
25e1ec0b
fbe405ff
0bfec504
e81efcf2
e913f6c7
11170413
18e80ffb
decf0e13
f80128e6
17030ee0
0d1ff1fb
0bf1fbe1
180df004
2ee8e602
0003d5e4
23ef07e1
00001a06
e6c2fe0e
f909e8d2
0d040eeb
faf60006
150805ef
fef0eb2a
fbe5f007
0b0d23ff
2c091904
200d0905
cbfb0cfc
10fefdd3
f0f9dc08
11e10200
0614fbea
0722010f
d6d40618
e5f708f1
f0e8ce0a
fd0500f6
e8fb08f4
fdfd0410
f5fb020e
e1000005
f3e7d1f1
10f60e00
f2e2f82b
fe27d6fe
e2f9d7cf
1529dcd4
f30f08e7
fff9f2e1
0f140629
e4ddf2fc
01ef3c2d
f90a280f
fe1b0bf9
1ff3f70e
e3eae1e7
fe00e8ec
1f281afe
2102190e
e712fb11
0cea131b
f9f10a11
001c371e
d3e707f9
0e04dde4
0e2f371c
02f8e0f8
ff13ca13
03f8e5f5
f31e241b
0d1cf50c
01245002
1e08fb01
dcf6153c
03f400ef
19fae9cf
04ff02f9
0606f104
eefa02fa
faee0b02
dfe7d2f8
2fe6070f
eff9191a
0f0c17f9
2ef4f716
fb0ff326
efecf7fc
c1d6f8da
ebfb07cd
120b23f3
e2f507fc
0909fce9
edfeeaee
1007eef4
debd2201
d3bfd1e3
2ffafa05
f94516f4
0b110d14
2320cfd8
e3cf2f06
242405ff
03e805fb
0e0ffafa
f5e6eef2
08e51df1
1616f0f6
03220009
f604442f
11fbebd3
0f03f91b
f7fd140d
000f02ea
061bf836
2e0d2103
03eaf0d7
dcfe1be9
b9e7d4f3
f709dbc3
28e60c0b
09120404
cfed17f3
e5d3e100
fdf0fcfa
2df8e5fc
17f703e9
e315f7eb
2ff6e806
11ebd209
fde8ded0
e6cb16e9
f4daf2f8
e0fa0921
ed05e4e8
09f408f9
080505ed
e902f4f1
14c3dc25
05c7a6d1
e4cef9f2
10fe07f7
e611d6cc
eef7fcd8
fccfeaf5
2a031b15
3a541035
e50b0612
fa030c09
fee9011e
f6f0dee7
0923f314
110310fe
033416fd
110ef0eb
16fcfefe
22ecddfa
cf00fce3
02e6fece
f8131fea
072c150b
f5ed192d
18d0f00a
2d1a1d25
14242e45
f7110cf1
cb000ff1
d6e22de4
18f5fe28
d91dc2d0
f8fce3f9
0e282001
c903310a
09e8e1f2
07170d00
0b021c1f
19f42528
beba9d1a
f00af2fd
0cfeeff6
26ec3af9
163cf956
ce121522
12ed25d1
2e051d36
f60d01e3
fe2829fe
ea0cf422
19fb0d1b
f2ea0117
35231720
fc2614fd
080104df
fff6e3e6
e9e2fad4
1b0307f5
d2eaeff4
ffec05ef
f5f8e7f4
0206ebe3
df30000a
200b04da
ebfb1af8
e0f1fa0e
e7cbe8f4
d2f31116
e3f4d2c9
f7f6fcd7
ca011904
e1d9e9e9
05dfd2f8
f000d7f8
fb090906
161b3e0b
e0f6faea
d2de00d0
f7081209
10210905
d8051d2b
10ceffe2
2005f9f8
29412713
010f0300
16161200
fe0ef0f8
06f20a01
0006f1f7
cbf20ae8
d6c3d6e6
da04f2e0
f3b61c1e
e80519f3
ffd33419
e8f1effb
141a03e5
2c151824
1f021a25
fff5f0ee
05e3e901
c1cb05f7
deddebe7
0c050b09
00ec1000
03ff0008
0d0d13fc
ff050e15
eeed40f3
4af81033
e7200906
f1161225
1fe6040e
607e1904
0b01f73c
ff05ea09
12f40ae1
fefe200b
ee15ec08
0011f10b
fd170a02
080bf7de
cedbf102
e2f514ee
280d0826
e7010b22
08021d1d
eb08d5fb
ebc90a0d
fccbdef0
fcf118f1
ddd5160c
e4f5f3e3
fdcdb918
0106f8fa
ec0900f2
0cf90e15
15fe032f
c9d4d002
630a002c
02f01652
fdfe32ee
bcd0bcde
1411e5d6
eb00f90c
02e2e814
00d90807
e9f9f004
f5f1f407
07d7041e
cf0700f7
e2ec121d
f2e4f6ed
200e1ee1
faff0720
02020100
08010f01
a12713e8
f2e1f5f2
fa1ff7ee
dccae5de
2c21dfda
00d0e9df
22dfda0a
ececf51e
341c3704
0fe9f7fa
1f36ecf4
05250aee
d10cfcfb
d91becd3
ded2f709
e9072c1f
f7080e1a
d81407ea
e31607ea
172d08ec
f121200b
1cef2413
1802faf8
f9080df8
36f9f5e9
d2dbfd07
f000f5fb
1b06ebf2
e6e0f709
cef9d8d2
001c01e0
e31d421d
1a0b0f39
eae2ead6
e0e3fffc
400219f0
1a0f092a
d502dfda
cb1eeae0
0bc5daf8
00f4dee2
2b1929fb
ea0b1330
02f00613
110df417
d0fe00da
dfdc15ef
06d809e2
4b100924
38033711
ffe9ee2c
1efee9e5
eef53818
d80e0901
e7080f00
fe04f1f7
0b2747f7
faffdcd6
0d17f5e9
04261a08
2a07faec
dbde0725
ebacb8f5
26f20002
d4ab0d2e
f54a1de4
ede409f2
fd0ed8df
0ddedff2
e8380ee9
f00df0d3
fce003fb
05f6f800
f1f30618
05f809df
e1ebcef4
d7aef6e2
e60802e8
0dfbc8cc
ff0d0cff
1a061b19
f6e6c9f6
f8e505ef
0002feed
fdd8ecfb
06ea04e6
00fbffea
e210171c
f115f5f4
0c1f07e6
eafb0905
e3d506e3
2209f7ec
f906eddb
c5eae3ed
04f3eb27
0a212320
db182005
1413361a
f7f3f0e7
13eb01fa
f9610929
dbf2d7d7
f6e3caed
1cf7e7fa
f6fad406
f61bfa0b
0b291f0d
1c25fa16
fd332821
efe80117
09ffe11b
041af3f0
0b2b4020
ee0dfd0e
f2f2e7f4
f3ddc7fd
fa073e36
061ed900
f3d2da12
edfbd7c9
0ff823f4
f3e1ebfa
feef01fc
f816f117
0d1c17fa
0a30f5f0
4961e9ed
fa004218
4500f30f
f44b2c35
ebf302e3
f6eb0e01
0c05fe0f
fed9f0e7
15ebe5da
0e0afbe8
010bea02
f5f6f7f1
ee001007
11effdf5
0c37fdfe
24fc1c0b
0b1c16d4
f8e8bce9
0efef4eb
12eaf402
e531faef
f00b03f4
12e60a21
e0ff03f2
1ff0f414
ccf30104
f4f318f4
0211e4d9
ecef1126
f2f702fc
01d301e4
eb2410d7
faf0fdea
f2e9fff3
1213fdf3
2801f7f0
0bec20ff
0b06db0f
fe1c0df8
1a00f0f2
15f20816
ea27141d
03fdf400
0901fffb
f1fee1e7
130debf4
fde7f0df
0dd9f809
f1faf410
2412f808
f50004f7
e3dcf1dc
33fedc08
f9edf1f2
f81a04fa
f4ebfbf3
000704ed
e7fcf011
171516f1
fc21e300
f9c4fbef
3fe3f215
dff9e7e5
fb1004dc
d700e2ef
f41510ec
021a3723
fd1b1117
f2fc0c01
c7f7f4c9
1aef1a11
01190236
f1ee0008
23110507
e901f8f1
10082e26
06fcea07
0c141408
fd3400f4
0aeef81d
180c0111
1d0b1ffb
00f1e9ef
e6000105
0901ebf2
d118f914
f1ef1cf8
f117f507
12eb00e3
00f7ece0
f0193bf5
06efea05
02fe23e3
f7e6e2ee
09fb00e2
f71b08eb
fcf321d8
040a0f1e
06164321
0bfd1632
f9ee0afd
0bfbe806
eef310fa
0e10f411
eae6f4f0
cce410f0
01e800f2
de1b0af6
cad6f10c
10f8ecfa
0e1bf9d7
e00b1a08
e6f40f0d
fdece4f7
09e50e06
17260fe4
f2f906f8
eb1208fa
e810ff08
f00ce6f9
03fe0c01
f25204fa
05e51af4
fbf5fa18
130d080b
daeae8ec
01edf5ee
f8e70408
fa16ecdf
eee6f8e7
dcd6e1de
d4f0d1cf
06ec1711
14f0e9f8
f81111ed
f51f07e8
34210bf2
1742ec0e
030df5e2
120b0023
f4141e05
e7e7dbe5
fd27ffe8
24190d14
001bff19
06ec040f
14212c2b
f0d40bf0
e700d3f1
0dd6e2ea
2f212be0
0d062127
f0fd47fb
ebf5cb13
012026c7
db3237ff
e509f542
deb5e8f4
01e6d4e0
ede4f6fb
f2f7f7e9
f3050601
dffa18f1
f8dbe110
fb3dfd00
e0052c03
01e1f019
eff5f6fa
f01801f7
0c03f2f4
ef2cf415
faef1514
0a21060b
17edfd04
0cf5f211
f2f60c09
0a001301
15faf4e8
e100f0f8
15fbf6ea
0df3fe05
0be1f8fc
0124181e
e9f3e718
e1f9f4e7
05dee621
170bf702
dc00fdec
1f1aea07
160416e1
020100e8
06ca2315
e21405ed
02eb13fb
17e1f9f2
230aee01
fe1100ee
f3eb1a1b
dd29e6fb
091cf616
18031020
10f7e118
ee110a22
c9031615
09e41833
210cf6f8
edf017f6
091e1e12
12edd110
fc0804ef
fbec08ff
ddeff3f5
ff07fbf1
323700f9
fe00101b
1101fb1f
0efce3f0
f4f4e7e2
d1111c03
04f4272f
f4112800
f4fcf7e9
ea0fd0c6
e8e5f3be
fde002ed
f40fe518
e8f3f9d6
130a0cec
0303f318
f115ff13
fa0b040c
25f20004
1007031c
e1f2eecf
def20507
d3f9e0e8
09030b00
f52b14ca
070a29ed
ccf708ef
f8edf5e1
00f50516
050e02ed
eff10307
0d10fdf2
e0081608
0eeb2e0d
ece51213
06fb1af9
d1d7e800
bfbfdce8
f8021ffa
fdecf125
2200d8de
141d09de
17e3ef00
0b20ff12
191025de
03ebf8fc
e41afdf3
fc0a1700
f607f307
04fc1423
06ebec03
e2f71ff4
e61e07f2
f6fcddf6
efe1f80e
10210f01
000c150d
fcf1d907
fed6d70d
11f3f5d1
f3f0fbf2
fdf9dbd0
f903fb10
fb0a0a0d
fb09fff7
d1eb02dd
1ad9f40d
f303f915
edff08d5
34ffeb13
fe05f809
f7f86413
13fafe0e
faf805fe
03e5fdf7
fee9dbfe
03dadbed
1b010ef8
03fdf214
e0e60dec
05f2fa0c
f40700f3
e5cef326
1318fbe2
11e20c1a
f91600fe
fa1cf32c
0afb0bdf
fad4d125
0100d9d9
05e812fa
061efb13
220905da
fa18f2fe
e2e7ebfa
f0e5de03
09d7e6d8
00fe0b21
003a191f
0d060f1a
2010f105
1108e7d7
1806fe04
e531250c
f90214f0
f5e7e50e
3a01eb10
c507df09
e003e1c3
00cdeeff
f5f5fb19
e41d1a09
e71adc2e
1df7160f
feefe522
f7ea04d8
00e8081c
02f8efeb
200ef2ff
022b1a19
e1eceaf1
e31207d8
01d3d5f8
f0ffccd4
effd011e
00ea0c12
031a04fe
02ef12f3
e1161fdd
14dafc08
2212ffed
ff0efa0d
fdf52e0f
08010b02
1adbfbe4
0e31ffff
dc0b12db
00f612fb
0413e0fb
e10cedf1
03163bfa
d9e00e28
e6030016
e31215f0
f61401e0
0119faf8
10d115fe
fffcf80c
fbe80308
ec0f0dfa
160cefe2
2531e813
09df00e7
fdf9fae1
fa0803ec
26031104
bafe13f3
eaec1718
05f50019
1415081d
fae1fffb
f92204e7
2a0d0f12
152e1e25
22080b18
200a2046
11f80501
fb060ffb
19eaf202
fde1cc35
04fef016
3f07ed08
f035e707
0ffcfbd4
f1270300
00f9fb08
14df1117
03fd0801
1ceefb15
1c2b0fdd
0e12f1eb
1e372610
0d1ae6e6
280a30ef
fe3d1422
012721fc
0610ee38
ece50a01
faeee517
eedd00e6
fe29eff7
f4e6d1de
e50df30c
e7fc10e1
04e1eff2
090bf01a
f2001103
20f6f809
0405f9e4
0b0f0200
1f1c1e15
c808f5ee
1700ddf2
f821f3e9
e7211215
e602f4f3
fd0509f5
f5fe1ce9
fcfa211a
e1f12023
fbf3de0d
1418d50c
e1d50b0c
fef31d00
04f20feb
d50ffe23
e7ee21fa
08e2e600
f0ef0c05
d70007dc
18dafcf4
fefae6fe
1aebec2c
2f0d3cdd
ecd81907
f81804e8
17f60a0b
e7132904
20dc262c
d9ee08ea
e0e4f50e
f9f9e1e5
e200d223
e5f20427
dd12ebfa
ebe006f0
2edef918
2b18e1d3
1412f81b
1beff5fd
c6e6dc0c
e3f0e417
20fa0713
f304fe03
f52c0ef3
e51606ee
f602093b
fb0805f4
f3fff1fc
020dfef8
eb0f1f12
f9f11b08
2ef0eb01
17ef00f0
f7edf510
f8f3feda
0722ebdc
fe1bfaf3
2c0709fd
f32f1c0a
edec0214
e52bffc5
ebfb3c05
df09f313
e505ebec
13ea0c20
e1f100f5
201ce9e3
0a2a2ef6
d3e20f16
eeed12f4
1407f606
270aeb14
f91701e1
fe130fe3
18fde700
15fc03f9
f5001503
0000f9f9
fbf2dceb
ee00e3f2
edfa07ec
d9ede0d9
010afbe2
f0f5ea10
e9e0f7d1
ebdc01fd
eae3ee07
e80ef3d5
e7f30500
20ff18ff
fcf4f433
fbdd240d
00efe828
151aee15
051a0eff
f90801f5
000226ef
0ef3f23a
130b3507
f6e8ff3d
00fbea10
f82e0d08
f11c101a
eefcf0e5
1af5de09
37150418
e9f629f7
fff9fdea
fb02f5fd
261804f5
ff1418e4
f4ef3507
0600cf00
e9ebbee6
0706fbe8
f3f7110b
daf6fcd1
e610e8f4
0c3dfa05
0d0c2d15
0b04ed0b
0f001bf4
e9f4fff5
cde100ee
08b8fcee
e3dd1de3
0dd3090a
ec1323ec
19f7232f
c8ddea0c
19e8f80a
f1161a1e
08ef21f0
1504f105
eff9f9f5
1c19dc1f
f8e302fe
fcfe07ee
f9f41307
e6f9f2f7
ef1003f3
0e20fb0c
0712f60c
f6030a00
fbe3e9f6
2be91600
f9051609
d8f51806
fec6031b
1627e605
dff1effd
26d9efdd
f3ede2f1
0be703e9
f2fbedf7
e5e7eeed
090aecf7
302b0cfc
0d0b0c14
f6e90b2a
eb170bdd
04e8f0ed
0301f4f4
080cfdf9
fa1ddde4
08161ce6
ff03fd19
fefcf4f1
e2fc2303
10ecef0f
0f1c1205
fee30900
f80ffa04
111ad7f8
f0f1edf8
d419e0eb
0be910fd
e721061f
000a3c01
e510170c
1206fdea
d805f2fa
0b0d2d05
001c0045
05e11903
00000dff
1e0a1b01
0df4132b
fd16153b
00d716f3
f3001909
ee0c0008
d8ed1d01
e9a8d4f0
280cadee
061dea02
2c2200fc
ea13f6ea
5016f614
f5011418
03fbf60f
0e00f1e4
03040014
21053d0d
150ee40a
0101defb
e300d7f1
0300f3da
f9fc0cef
ed08f803
220dfb06
2b1b1315
020904f4
041105f5
1d1f1d27
f4f70205
f504e8ec
fbf3ddf4
ff0a0811
fff1081e
fd2dfeeb
ebed0018
ea05ff28
02e6c315
eff843eb
04040a18
19edd5f4
1512180c
b2dcff11
f5cbebed
0a11fdfa
fadf152b
000f0ef9
00f32efe
3d1ff7e8
e0e2d638
1904fedb
0a1eef32
04e4171d
dde8f827
23e2e3d5
f7ece500
1c06240c
e8f80706
f5f708ee
05001a2a
0a132723
f7e30ed5
04cdeb0a
c026f0ea
fefb2506
001af7fb
04160ee5
faf3e031
dc0b07d7
f1f4f5ff
00d20bf8
f704faf7
d9fa101d
fc09c202
a518b100
b5dfec80
00e7f0eb
f40ee5e8
2c11fef9
e7cf0215
03fbd2f1
150402f7
0902ed1e
17141005
c6100de4
ff15f801
efeed7fa
190ef0cf
0002f4fe
06f6e4fc
13121331
f3fe1805
04162510
04ea13e9
130103fb
0ceede07
ccfefd1f
fdefeb11
19fe1a13
fb0214f1
07dd00f7
002900df
170119fa
16cbd811
161dd3e1
0deb25ff
301a090f
fb030b01
130dfc04
e7dd08fb
efece906
c2e0d6cc
09d1e4e7
d509c7e7
390c0bba
f1f1fcfd
07dceef1
36eb0d48
fdfdf90d
f4efc6d8
0416fbd0
03ffdb1a
f80cecf2
0812f3f0
e9cd1221
fddebc12
fbfefc05
eee5c60b
2527e432
e01b0bbb
1c00eaf1
1a084d31
e2d11b4a
34fad2e8
f71207e3
f4210904
07f214f7
f3fd1bfe
f8f602ea
d1eacf21
e6f110e8
20f9f322
e5f71406
000d0b1b
e10eeaf6
f1072307
0cfc491a
12031201
e3e10803
f7132a27
f21a0910
03032f03
f50b0f12
f20406f4
0d00fd01
010909f6
0cf92ddd
22130807
2d01cdd6
df0e21aa
0eeaf317
28e9daed
103f0a2b
1af51b17
fbfb01f0
aaee13ee
091fe1f9
ec29ec17
dc013ad2
00181024
ebdcea0a
f0110cda
060b01ed
10dce30b
e6f0f6d6
f193f7ee
fedd80ce
051a01d7
ebdef8ff
410e2b06
d2001a28
eacaf4ea
f7070ad6
17e80122
e3fce7fb
f400fc13
24111d16
feec0909
2df2dbfa
f226ed26
e8d4fb03
071bf3f6
ea1703fc
f42ffcff
1fee3127
01070078
0fd0e714
f300abd3
ac07f2e1
0acdeaf3
1910e70d
e80c0132
0d29eefd
fd110426
f8fff6e3
f4d80ffb
f1fffaf1
fa0800e4
13fef417
0dfcf006
adc7faf2
fa2729d8
f2eff9fe
01f6d7d6
e5d12013
f715f025
16e613d5
e302fadc
d823e1f8
c9f4119c
0a0e06ff
e4f006e7
01ec0dfc
fae9efff
def3ebfa
07f0fce4
03f9fbde
38fb240f
e540e7f9
fceae3ef
e915e4e5
11011f04
0a0326fa
e5fb0d0d
8f18e1d8
39084fee
02f61212
ff0b2206
0cf10000
d801e6ea
141500d1
ebbffcf5
13009cef
f40cf1fd
e212efe1
04fafeeb
e71c1ce7
f2bfee0e
00e9fa20
d815ebdf
fb94ef15
0e0bc704
cd410a01
08c301fa
ecf5f0d8
09010602
00081e1a
0dedea38
220ef0ea
3602331f
f5f9ec32
b6ef01f7
27d5fa05
f40200d4
08e111dc
0c270611
e90b1cdf
f3c807fe
fd15fdf9
271019ea
122b093d
e91ef6f7
fff919ce
07ec066e
171e00db
ebee0afc
141b12de
e70be305
dcffcdd9
0affc6da
04252601
0317fa1a
e0faeacf
1e2017de
0d31110b
141a1706
e8e8f007
1efaf4f7
1115f452
e1ffcbf8
f801ed01
ef0a00dc
f0f408f5
20faeffa
34e004e3
e343fadf
1ced0c0c
e2052119
0edd0125
df0701e8
04d804de
b2d1c7e2
624b5a5b
18ee2f7f
32131afc
fa06c3e0
e719fae6
f927f303
12dadde0
f2faf8d5
05dcede9
1700aae4
080f0ced
fffc0ef4
231a3101
e90904ee
fad81403
f40de8e5
00e10c19
141f1600
f8eb0008
cd01f428
0d16f0f1
2affe107
edf1090c
1aeffe20
ee03fae3
e1fefa23
01fee1e9
e40e1b00
171a0dd7
20cff6fd
2f0cebef
f5020df7
0d0f1fef
15e3d1bc
40e3e906
eb0bf104
e103ec0a
f50f0ee8
e106f8e6
04e7d204
ffe70afc
0cfbef19
ebe3fc03
0edbf2ef
092a110f
0c0deefe
0a06f807
12e408fa
f601e0f1
03ead9fe
00070005
eae8ec0c
ef09fab5
09f90500
e3ffdded
06fe1005
07daf208
ea0ed80e
7f23df00
fa65f616
e2dae2d1
290ff8d6
0cff260a
0814220d
3ccc1f03
e5f70cdc
060bf2d9
47fc0ff1
002adb10
f2eafb07
04f7fe2d
fcde0018
fa0c2605
0bc11542
1dfe032e
fd430d26
1c03fce0
0a011e19
0cf036fc
e1000a0e
fbf2ffe1
19f01003
1300132d
f5dfed1c
f3fec9e8
e224f2f9
edfe2d18
f812d003
ef06facb
fe08fef9
1400f201
191e08fe
eff60110
eeff0540
0dfdfc09
f80aff0a
1718271d
000e15dd
d206fef9
2601de06
e0edfcfb
08f50911
ec0e0104
1df1efd5
f5fcef00
f80ef618
fa0f1fbc
fcf3ff02
38fbd33b
05b31022
007f16f8
02dc2efa
1dfae802
06080206
19f8e807
ec15f0dd
fc15defb
e8ecf6db
1f3c05fd
f502f70e
f6ede6f9
f9f7e31b
03f3ca03
d600dae0
04ae0704
1a2916ff
f7fec3d4
f4f711d3
eddcecff
140e1406
fa151710
1c4924f7
03f4e508
cf0ef203
00b5e1ff
1405b6de
fefefc04
0aca0214
f621ed15
f9e0f80a
0b0e080a
02f9101c
e3e007f9
04f10601
0b2b4e0e
e2e50c2b
faf3eff0
22e817c5
d0eb07da
dbbce7e9
e5e800da
02e6f706
e5012109
0ce4f8f4
0201e503
12f7ff04
3007e1fe
e80f1c00
defcefd9
110cfb00
f902f0ef
df0015ff
eaf0f5e4
090ccfe9
0f191602
061006f9
0101ecfb
f0f0f7ec
1ff40f0e
130ce925
ede7e5fc
0208edfb
1a1e08dc
1605080a
e92af120
0af70a16
fb1f1902
09f9fa18
ebf10dd8
040ced12
dbe646f5
16ffe113
282e1504
09fb09e8
e11c0a1b
eac4e414
2a01f0e9
1e25ef0f
0c08e4f2
ee01ff05
1df0f6e3
10d5e211
1307ee0b
09f80104
100b08fe
f200e50a
0dfffef9
d01419e5
03f4fff7
141403fe
0beb0a14
1d04d728
e815e50c
130b09e5
faffe6e2
fbfd10d9
f1ce001d
00f3c818
27fadfec
0f05e218
aefb10f1
fbe1ccb1
f60c0cef
d2fafa03
e3c6f2f9
061801f4
f4f702f4
06fbfc00
0e040b1d
350af3ec
0d461610
eaf30a10
e8253701
d0d726ec
fae9e7db
d51bf8d9
0efee9fe
100ce2fd
080c07eb
e92608f8
1e1b1e0b
cf0cd6cc
35e6f5f2
0d4420eb
d0ff19eb
0b2aefc4
0bc92714
f807fa32
e5fe15fe
021bfde7
240d0611
fd180714
e10523e7
ff081c20
fce2f129
191e00f2
07e6dcd4
773d015d
f4160011
141d1cf4
2a0cfb47
15020811
1503daf9
10fd0df0
100c1a0a
de080f02
21f6eb1d
e03c001d
f8fcf30c
fee00c0c
02ecf5f4
0304f6d3
fff91b09
e2cbcb0b
bfe6bfb7
f00400e8
e7fb12eb
1d00f5ec
2f1a2b44
fe14030e
1ae9fbf1
13fae428
f5eeef1b
d70f1504
ebdef00a
1805f601
ff0be8e3
d1db03e2
1bf724f5
fd0a001e
382ffcf0
17313c26
dd0fe911
2afffeec
06f3dc18
00023ff6
01fbea13
040b060e
12110005
f608fa03
1cfa0401
0f01dff4
f1092604
fe020115
ebe7f5ec
fce3f4f5
ef01f304
f60cf7e1
19240bfe
f800dc0b
d905f903
04fbf8ee
12fc0204
ece0fcd2
14f8e707
04d8dae3
13fdd2e1
12030714
2cf80efc
0610eaff
ffebf91e
e4fff0e5
130b3a40
f313fb0b
0804d306
f6051121
e3e6eff3
03fd24f4
d70a16f9
1aebf4e1
00040b08
42250a24
e0044731
1803e827
f517deec
102f1201
06fffd07
21fb06e9
f910f713
e3ede5fa
17ecf505
f402011e
1a1d310d
e3004664
dbde0be7
e0e3f9f1
06f70001
eaf5e1cd
df03f4dd
f40ce30b
1e0cecea
132b0300
0ef0ec0e
e9f2fc00
0c0208f1
cb200914
00ddfede
031010fe
ef1bfac0
172701cd
0cf8fcce
d80df1db
e7cdf2ff
15ecbef4
d813fe05
1709f3f1
e8eceee4
defe00f7
2701dffe
19e1de00
25eae3db
f0fcff0f
0ff8e6eb
0020000e
2ce8f9e3
0809ebed
edf2e2ea
fbe702e7
03f41407
f4ec03d5
2c0d1d0d
0702e923
07eff30c
ebf5f100
f400f800
e911f0ec
080a1414
dfdeeb25
14fa23f9
21fae218
e207e124
19bce7ef
140a2a06
09f9f42d
1ce304f5
06feeb2f
17010cfd
1efa1000
0bf60423
131100ed
00ed1311
d2d40012
ec0106fa
0c112410
031702f6
fcf2e903
18171d29
e40a0d04
23142501
cff710ed
0a0df4e2
0224180a
142c00cb
262c1421
f4300c11
f0f7e3f9
feffcb00
e7f42102
ec2f2e13
17021015
040f0a1e
ecd4ff0f
e4ea0c10
f803fbfb
f2320c00
363a16f7
e302ea16
00ef2105
01f9fb03
feff04f8
10e6fe09
1604f717
06eb07ff
04f703e5
f7e6080e
00f7fdec
f90c0e00
13e0fc04
ff04f611
f6ece4eb
1705dee3
02171f00
f41efcf8
28080322
ec1614eb
0e241629
d4e5d81f
e2deeefd
dceed7f1
0eeaeaea
10c9021f
140406fd
f9dae222
0103c9e0
0f0a11ec
40353009
06f0e314
f5fdf6f4
edd0dcf0
1ce8d0fe
0a1be4d8
fce41216
08f8eff3
dd050e28
18051928
e60511f8
f9de08f7
05e8f913
d9e4dffe
eb0e1bf3
feeff808
fcf3f8e7
1ff5f309
f7000c1d
161100fd
040a04db
efd5151f
1e0be4f0
e204261b
09f2d41d
04efcc1c
2c0d0002
10dd04f3
0313cb11
f01a10e0
fbf225c5
0f36240a
f909fb0b
dce2fd07
f4e2f5e0
0402020a
f3f7eefa
09021af6
0a07ede3
122403ef
f6ddccfc
0ce714e9
fbffe50e
1b0b0d15
f8fe170c
ede804eb
0df2e9ff
0d30f8fa
fdff1d06
f41d13ef
e3030e00
15fe00de
01e3f10c
340ce3fe
f414251a
e9bbdf01
dc1300ce
14ecf1d4
f500dffa
02f80b17
eaeceb04
fad110f4
09ff0b01
030ae41f
042b2af8
020deed8
09ffe806
faf902e8
f6003826
171ef20d
ebe4f3f4
fef6fc18
02dc01f0
e6d2edf7
150bc5eb
24f10fc4
fbdbf9f0
0015fe00
f5f7fa09
ded005f4
f6f70f12
f7d904eb
004d13f5
f9ede6f0
08f8f8e2
0401f80c
1408e508
351feafd
efd2ebfd
1fe3bcd7
dffef3fb
f7dfe51c
e014ebff
00c01b06
f30c05ff
e019e7fd
e9040afb
0d01f7e9
c401cbfd
e2d9eae5
0f102415
ebf6f514
1d05feff
06ede7ed
030df9f0
f0db13f1
20d7fa10
0c0ce2e5
0002ee21
06ce04eb
01e9fbe4
1b000601
e021fced
f2f31b11
d8ee11fb
09f6eadf
db082303
1e04f8f6
eae0c7f8
f7f51e2d
03eef0fc
09111d07
120a07f1
f6e407f4
0a132a06
2df61d11
0016e1fd
f2a6d8f0
1f00e6fd
0703d929
052646f2
e70aed16
dad9ea04
2618e811
f61f06ec
1e060ffe
271304fb
16f53816
0f05040d
10191920
020cff13
f5011104
f21cfe03
ec0f1d0f
ffe908fe
f40614f7
1000eeee
0fe81416
fdedfdfd
12e8f7f4
19f62dec
fbf7fae2
f1fad30e
f5e10d00
fd18bd17
eaf43e2d
f3fce700
f9f7e8f3
f3eef908
f4ed0208
01f5d408
010120fa
fef7f40e
ef04e9f2
19eec3f5
1ef2e60b
f82331fb
08ea0ef6
20ff0d09
1bbc0410
d7f2b1ed
e9e3f2df
00f50206
1413e4e1
f4dff7ff
181e0a02
04fee5e6
defaffe4
03fa0310
efe7e9e9
edd5f610
0d1115e4
e50af60f
f30006d4
f3f1bcf6
fbecedd7
dde4e507
1c06f31d
1aedfd0b
ede51937
fddee215
d8f4c5b4
0f0f00e4
1c212afe
0003f909
cb03ee0d
14f913f9
fb03eb01
0904e21b
fff4f00e
1afd2909
df030000
0031f00e
f11f0308
f9ebfcf5
0e280b21
1b022a0e
0a18032f
dddbe70d
38f61108
12220128
fc0b0003
ef230005
dcc603d9
f3f0e5f5
03161519
fb1725f5
e2fc0601
f3d6ebe6
180edded
f601f318
1009fedf
7f720e49
0d062c09
d903d51b
001200e1
fc190e03
07200b17
00000109
f408d7fc
2ddfe406
dde8fed5
01e1e6fa
f20a0b0b
1f101516
2b140411
ddeaf8d3
f50509cd
fff3f0fe
f9e4e0d5
f1f6030f
ebbec6ef
2ef3eef0
0f030f1d
10e9f20a
fbf7f0ef
13feeaca
160f1de8
fef0e3ec
1f0b0cf0
1a0d0cf2
e40adcf5
fafe23e2
e91b0200
ede2f60d
f0bffaee
fad7240e
0506ff28
05ff0543
f81f0013
f30a272b
1711fa09
12eb06f8
e9ec52ca
030906f6
f80001d8
f8113128
ebd2f0f6
ecf3dd08
e001f8f1
e1d616f2
fcf91817
ec03f50c
171213ed
0e1a0afe
ea06fff9
e3dbe5f9
0111000d
ef08fb08
100de816
fa12110b
0106f106
d5ddf902
f808e102
f2ff02d8
fff9effb
0312ed0b
13f41713
eb0af6fd
0902f1ea
023a240c
f5f00a20
ef0adf16
e81d0ce6
f6f60713
07eb0002
f11e0701
091e0a05
f6d50cea
fdfd1b2f
040f0c08
00f80703
fa05f800
f3e10f01
0b050600
2f141f1d
f0cf1e24
eef4e609
fd00fbf0
deeb100b
ff2642fc
c422f01a
e9d905d3
f6f1e81a
10f9100e
faf2f5ea
121e29f7
10250ada
f9ef1d09
07220026
e915f804
d6eaf20f
05c80b06
0510f2cd
fef60e00
03f412fb
d503e1c3
0a080cdc
f31cb20c
fa12f7ae
281b04f8
130af027
f608fbef
ef14f60f
010002ea
f022ec0f
0fe3ff2e
f4e6e5f1
e6e50be7
de2ede1b
18ea02ee
d6e808db
0c181acf
060f1114
f1fcdae2
18f806e8
0f12010c
e71e03f7
e825f7f6
f50d1efc
f801f0ed
1e0fff00
fdf2ce0c
f0d6cf00
dcd801d5
1d322406
e911f9fd
fcf707ee
f81f131e
f3f411fe
0f09fef9
1718211c
0bf105eb
d8fafa0a
f4fbe6fe
05f2d4d0
16eb07f1
050718f8
f4ef1707
1e0013e9
f3dfcdfe
eafdd2c8
ef1704e2
e904d0f5
f2e2f2ea
3f2beee4
ebc4f110
dd1bf611
eff8f3df
e6001308
11f511fb
05130000
00171505
12fd0f18
1adc022a
eefbd714
e7e8f912
1f15e9f2
fc16090a
dfe0de24
f1fd0cee
0e0d0a0a
08051716
262600ed
081e0121
0f0cfaf0
06ef170e
e8f9dbea
10feccf2
0b1cf610
dfcff3eb
ffe9f713
2436ddfe
f3f90a10
e5ddddfe
00da0a1d
03e8e4f4
f9fdf8fb
03e716f3
0b2633ed
282afd11
1f361404
fbf817f5
d7d5d8cf
12eae0fb
00f7f2f3
041fe909
dece07c7
ededebf9
040ef0e3
222bf4fc
1b32110a
e5ff1e13
070cebe5
f1f2e1dc
f40816f0
faf5ed21
edf300ec
fe0c14f0
2a1afbec
ee191009
0afcea03
cbed050e
dcdce0dc
00ff012b
ed01fa11
07f2f9ee
f510d0d4
db0b1aef
19fa0f29
170be2f6
1813dc1a
15e0f9e7
ccff05d3
f1d4ffeb
07ecfcec
e8fcd6db
f3e013f8
f3020efd
cc0af5f5
e2dcfcb9
23ecfb0d
efe3dfd8
e1eff514
e5d5d2ef
0202f8f8
f8eb0e15
21221713
fd30211a
ffedd9f6
d1f318dd
11fa06e6
0b00ed2d
250005cf
12111a14
5726fd1e
2710f63c
da0e08fa
e6ea0ef9
dceafe02
f907ec05
f614fdf5
04dbdefd
e0f90d1c
0d04e9e6
11060a0e
1e14ff03
07250dfe
efe00602
bb06dd17
0fede0ba
ea13dbe1
e804f6db
0f2cf1dc
08232812
1e03f70e
081d0eeb
ec0117f6
d103091d
f3ef04d7
19000de6
e814f5f6
eafb08ed
151af9f0
e71805f2
120404e9
f60411fb
fd060ffe
fdf20af7
06ece6f1
10eef3f5
fef5e303
070a1925
2fdfebf5
0d0204fb
acded9cc
eff7231c
0e230be8
1012fe04
0f08e5e1
1e090607
0618f708
0a1d0924
cfd617ec
4211fb2b
f5f92408
67440b3b
f6061440
bce7e0ec
eae6d6eb
eaf802f4
e10bfd07
0df7eaf3
dd0911f8
15e61c14
da0400f4
090b05ea
3e110a2a
1416fe1d
ea081a1c
e32e3217
f5e6f5f1
ebe90ee5
f805d1d8
0332fbfb
0b060b18
ec0ec9be
221e0005
ff111ff9
0f1e0300
4025e525
cd2000e8
e804f5e5
e102fc0e
05110fe0
05efece5
e6eedae8
15dfd71b
fc1929fa
e9ffdffb
02d7e8e3
0702f60d
feffef00
d5e3eb25
020504f5
ed1e4310
14e21829
f7f80e04
e907ec01
f4faddee
d917faee
f1f612f5
f6fd1900
e9f302e6
efeeddff
ec1ee9c1
f5f5f5cf
0a161afe
4d212e1b
f8edecf0
f30d110c
f2001bf6
14f70421
0712e9e3
37291726
f5fe0630
f7fff710
00210afb
29f91315
f3100c14
030ff908
22062802
fdd9ff1c
fb03cc1a
f81eefeb
100b0d05
0f03100a
d6fffee6
000c14e6
282afd08
dd0113fa
00f2f1fd
26ff070a
fa0be1ea
1e03f7f4
00250003
2a060c0f
dbddd803
d3bbc5ce
05fbdff1
0d17e8fa
f1f0f6f9
0df8f2f9
f709e807
e0f0f0ed
0400fd01
c8e00703
00210ceb
1d332012
f7f71a36
16fa072e
2621320e
0000f8f2
eee708e3
1a061403
0c0a0817
e2f0c6fd
0902fc01
ea031126
08f21a0c
0cf51b1c
fcec1e1c
dbff0013
f8e7ee15
0708f9dd
f3efdc0c
caf810fe
06feafe8
ecf316fa
07d91017
19f1e507
02fee508
fffdf0fa
e5ddfd00
fb16fdf2
fd0c2724
ff0b1712
14230a08
22edea01
0b011800
202d0ee8
f6db0209
fd040109
03fc0f1e
0c00200d
e5eb0ef8
fbff02f9
e8f2d3de
fdf200ff
ef02de09
f91e00f6
deeefdfa
ed1c0cf6
220226f5
dcff2214
1a03f8e7
0108e741
170d0f07
3819293b
f1ec03dd
0f030201
08fbf7ff
1a0414eb
1616d2e6
09150d1c
12f504ff
02e0120a
2a3e300b
f1e4fd10
ede4f7ea
080613ed
e2f8fb09
170fdce8
024616fc
ec0a1106
00020d06
03fd13f6
ffe13219
1a06050f
0d0ef9fe
e3fd10eb
f3eb07f0
fcebf4e9
f30002f9
fc37fff4
0f160603
1afe1912
160d0b17
c9f9010f
e0f1f7f8
042dd9de
fbfffe12
fb030dfa
dde40009
f0d2f0dc
e0fb3609
05fd0ef6
17111718
191b0e1e
040a011b
1bf8fa24
f1f3e5ff
f8e804f1
3bf8f813
1a001706
1ef90c21
e01aeafa
ddefebfd
1c19efe4
07342505
091b2a1f
040304e5
f3f0f115
0c0afefb
e8f3fbff
16483c1c
2b2e4135
d9ce3829
0ce7df0a
11e00bfa
30f6e60c
062221ff
00ee00d9
04d6f5fc
11f7f6e0
fe0ae404
e2e04225
0cd8e803
0f06bbe2
f2f8f212
0816faf2
0004e909
05e104e5
0c0ae214
f809b8cb
1b11fcf1
1c333820
16fbec26
0bfbf604
1de8fff4
fd111a18
e4d500e2
0300f0fc
de0f1a08
f601e100
ec0adb21
f10f1fea
1f242506
20061d06
daece7f6
13f110e0
0b00ff0f
0513f715
f0e4030c
27060108
f629041a
0e320ff9
0605f108
13321435
180b1af5
1aea10fd
d12b0305
f9f11ce3
032320f3
f5ff3a1b
0419f1f7
faebf8fd
07fc03eb
02f30cf8
090bf2fc
01091508
e8fff812
0c171600
030b0df8
fe17fee5
e6dadde0
00010b07
40390729
edd8f805
322fff11
1a16286a
29010223
2a11fd02
191d2214
02180806
220eee11
29240909
00f5e008
080b0f11
e8e5dbee
181503fa
effb1715
10df0b08
10f5f704
f01007f9
eb000b07
241a0bff
101bf41a
0de31908
15f81ef6
ff46524e
f6dbe5f5
f7021112
041411f9
f2060bfa
1ce5f40f
0809e9e8
252ede0f
310a1314
0f121018
ff132614
07ecdf1e
04f70210
0006fe17
ff191c16
020dfc16
02f50be8
f1efe716
f6d5eada
00eaeaff
f5feee0a
f824fffb
120d0514
bbe40010
e3c6eee6
ff14f1f4
f1f4ffdb
d9c3e408
fdeaf1f1
0dfff203
e50c11ea
f7fc042f
fffa0507
dc15e7ed
f0f8f7fe
00f20603
e7f9020d
0c1ce6f6
17e5d816
f9f7fc02
19fde00a
0af9e4de
0000f212
fa2c0008
180c1e07
000d1023
0e0314f9
0f010b0f
f31b1e2d
1cf90707
f72407f9
0001f902
e8e4210a
eff902f2
0ae9f204
fd220d14
23ff16f7
0ed8fb00
d6e903f8
f83823ec
27090a2f
f6f81838
ebecf2f2
0beb04eb
fffa1304
032afee5
4a230d17
30590a1a
f7fe1c15
cbcffbf8
1821e8f8
23261afa
e64b2a2b
15f3efe5
150a0ffa
e0e1ddfb
d5d6eef3
fbee290a
7f4f2b53
12197f70
020520e9
fb2f2a32
faf9eefb
06f4f70d
fb110cdc
fffdfcff
f0d9d3f4
f7f0f6f9
f71807f3
ff122c12
f82b211f
2bf6e80a
e81904e7
f1e5faff
e3d4e3f8
f91508d8
fdf7e5fb
f1fff9fe
efe91400
d91ddeec
fce9d6fb
ed04f4e5
fbedfd04
10240519
2df0efed
dfebf9e2
fa06e7d2
fd0c0ef2
27e9d500
151af341
efff19db
4308152e
f408f614
f83119e5
e91323f5
0bfffb2a
f00ff6d6
ff1c0dff
cbd9d6ef
3901030e
04dd0b00
270909f4
e009f1ff
25e61b07
0c23e129
f418090d
1dff050f
f51302fd
de07f9ee
fff222e9
cac3f40d
ea0608f9
f6eb0608
200ed6d2
093c0cf6
f9161d17
fc25fe04
2a1304f5
3c112215
331afb18
02f7f3e2
f7e4fcff
f0fef705
e2e3e9ef
fee4dfc9
e8dfe2eb
e6c8eff3
00b9c5df
11ffe0eb
16f5f9d7
db1af2e6
d8f6f1d3
0ada0a02
fb00dbd1
d3e70cf5
cec2cfeb
fce7ccc3
e41f47ea
d9030826
16fee7db
15ea2804
0b0bffe5
e7030114
daeae5ea
1eeddd07
f6230ce6
1c01f535
00f4f9ff
01e9ecff
f600f6fd
000e0ef9
08060f12
1e340219
191213ee
17ecf60c
0f16eb13
eeebff11
090b37f0
0a0cf115
ff1f2011
0ced1916
4d1ddcda
133808f0
0ff70cf4
400b0ee4
fb07e11a
00f7f406
2135fb15
01f00319
f204f319
e6f9eae5
16380905
0517eb2f
03f3e805
3e061416
150003f9
fbef0614
fde316f4
0bfe03f9
e4f7f108
16ed02e1
f9fe0010
f0f8f1f7
f0f3faef
0d04f4f3
252df6e4
f7e5ed29
f010191b
e6fc06e7
11f9161d
fe0deaf0
d000f7e5
f3e9f117
0afd00f2
d6f11003
07f9f4e8
f11200f9
0004fae1
eae3f7f2
0af91301
010d2f44
ede4f513
00f5e9f7
eb160e1a
0beef600
e9efebe9
d50e0dcb
fce11312
e5d6e7d8
07faf897
11f6fcf4
f4e2e3f3
eded061f
d3f2eeff
f9e703f4
b7e5f9e3
16d41526
e1ebe8c2
b8bef3c3
f0f4e2cd
06fa1036
f800d6f2
ebe4fafe
0008da03
df0600f8
000f1005
ebf6ecec
0bf213ee
ebd4e301
ca15f5d5
00f5d7ed
00e904f2
05f6e407
fcea1c1a
11ea1804
0200f3fc
f8fef3d7
f0fb0305
07f0ed02
32f711e9
02ff000c
05e9ed17
2c29f7fd
f6ff0bfc
1a0ef930
270d0d03
2027ff33
160e2505
2610f800
0404f038
0b0b0703
f3f3161a
05020713
00ef0100
11220609
feefe1f1
f31cd7da
e7111912
f83109e6
f70000f3
fd1607f7
f60c210f
121b0b15
ee1d25f2
062af8ed
0f0017fd
e30d01f2
f5d3fcf8
fe122617
ecf5f1d4
11241bf1
fbfe32fe
04f7ff0a
03f8eef8
0df1f1d8
0e1dfcf0
14ebf219
d40c0b13
18d5c9cd
f506cef5
00ddf6f6
eefeffce
021d0510
0ef2cffe
ef05e2c4
e8e91412
d10a331e
1a03f500
0c3bf90e
fb170eed
33ca09fd
f4df0d0e
05ee13ec
02112319
eadc0005
0bfaee26
eaf21220
d7b5eb05
09f0ecf4
f11c1be3
0141310f
f711de13
0d041a04
21fcefe5
030de1f2
f8fcf5f5
10051ff9
0d091c29
060cf5f1
f401f70b
01cdceeb
e301ed1d
1fe60602
2305c9fe
d203e7f0
171108f1
eef7da12
de07fde8
03e50d10
f5e5f4dc
1efbe1ba
02e300f9
ffe9f6fb
d6ff15f4
19fc2404
0dee08f9
00e91725
0c1ef9fe
f3fb28fa
f2f4eb0c
1a04ff1d
3004defe
fd18050a
03ed1813
2903000a
cd0af3d7
19262eef
0c0aecfd
fffcfd0d
f4e31204
d4061510
06eaefe4
080d0bed
e1f62310
21fefb04
14fefc16
f1fddfef
f5f7f8f4
f2fbd804
1efd14f0
dc0ad222
e5eefe00
0701120e
e50924e2
d90f13fa
f5ecfd05
0d06f7f2
05ee090d
f0160219
d3f6e8e1
f6cdfa18
060624fe
e11b0ae6
0bfbfe0f
05090019
f5ea06fe
f9f9f804
30f2feec
0020f91d
04f812f2
e9eecaeb
d3f9f5fc
06fbf606
f50d10e0
10fc020c
f4f7fb00
f9e1f4eb
e3fdf30a
e7ea0606
0608f7e1
0ef2f713
17170ff5
f9f1fae3
1d151b01
370a0d04
d017f2fb
fde2c2e0
e614e9c9
15f11903
e21d00fb
14f004e4
fbfbafed
180d01e6
f822142a
12091110
c219f834
1dcc22e9
f30bfadf
162f10f7
0cf6f9f0
f309fbf5
def3f2ba
0bf7f3fc
ea17fd1d
05e502e2
fceeed00
0cf4efee
1c06f102
120f0f15
1bf3ef1f
dd02e301
f9e500ea
14f1f5f6
0a031c09
14141de2
f102ed0a
f6110909
0afafcf6
1af9f1e6
fc141705
dfeadaf2
1204df00
c9df2309
09e7f7f9
f2e7020a
27dfe305
e60ffbdf
d80517f3
e1dde713
f5f2f8ee
090a11f0
eefef6d7
fe00ef03
12feee0a
fbfb171d
f007f1fe
fbf12300
e31df9f0
09fe0407
27ecca04
1817fcfe
fb2f2803
0ef1f3f9
f4040400
0eda080a
1315fc13
f5f616df
f4f31404
edf8cd18
130aee11
081f00fd
f10b2701
fc0df512
feffe907
ed041a04
23fcf7ed
dcd2f9fa
e00ee410
eef2d9ee
f3f4e5e5
07dc18f7
d719ecee
0ff805f9
20f2ef22
271b0907
fe1927ff
fb01f312
041ced0d
fc0d12f2
e50e0811
12fef4f8
f60508f3
1cd2c2db
3606f4b1
fb0f0327
ffec020d
0620120b
f5e4fd00
18ecfd07
30fed8ea
0d05f3e7
e0efcce6
fbfdcec8
1211021d
ddffedf3
13fff6ea
ef08f7e5
060e1f20
1b0f0901
2e1023f1
f10e1100
1fe80ce7
fde71504
02f3cffc
e6fa17f4
feed07fd
2115e5ed
2814110b
fce9ffff
0df6dde7
fcfdfae3
1f1feef5
0420f3f0
1a1105f9
f709fd05
0ae5e3e5
fa0ff80f
f800f8fa
30ede919
fe07e8d8
f118f1e7
f1eff4da
292325eb
09011310
effb07df
081c08fc
fefeebfd
0df5e7fb
e2f01605
03fef2ff
fbfb09fd
fc1004e2
ff12190b
0706dfe7
f5faeae1
12e5e6f1
ff05d6fd
07e307d7
07fbf611
1ff60704
00fb0a22
0cfae302
03f90710
09240af9
0c213ce5
1de73209
e7e71e09
1d0b0d07
f604e21b
14082ced
e3091501
eff93101
fae9e922
fcfd13f1
fadbf700
ebd4fc0c
fc0d0ad9
eeefbcdc
f217ee02
06e60500
0bfb0607
17090cf6
eff20a0e
15f3e5fc
1c0afcfd
edd8efe8
04debc01
011718ff
fd0d0dfe
00f401ee
d901f4f7
20140a00
2e0e1713
18060905
00effd12
3000f9f3
1504211e
f3dff523
fbf8fdff
fd2600f2
f81300f4
1303e2fb
0ef8e816
0b32f102
06031613
0b09f601
fef10c00
00f8df07
f800fbf9
ee0dde0a
e208e8e4
fcec03fe
06ddebdf
ffe3f6f7
e0f2f617
f8e102fa
0804f3eb
18f3f607
12f20df3
f6ffe1ff
1138e6cb
fcdeef20
e8fd2209
f1f003f6
1b14f4f1
fd15100e
dd04e5e7
f1e6f9ea
f6f5bfe1
1219eee6
01001211
01fbf844
e3fe31f9
0f07eafb
fa15eee4
ec00250a
cc00e4e7
e9de2102
f0efe51f
f5f2fc0f
000706f2
09cff004
0afae7fc
f3fef0de
e3ea0ae1
15ec11e4
e0f1bee4
210a16be
ef050913
22f3eaf2
fb0d0d09
05c9fd13
29e600f5
e61fdff2
15fff0d6
f414e9f9
13f6f90a
f00b0bde
e2eff1ff
1c07dbff
0d12ee17
de12edf0
e71c00fc
06e807f8
1801f3f5
f3030515
f5c406ed
ded8c9f0
00dbeeb0
fdf8f205
dfe1fbf0
dcf6dfc2
c610cdf5
eec4e4e1
0ef9d619
05241200
0003090b
0007ee00
fe2cf9f2
0dfe0605
1bfaf004
ff2201f0
07fbe70e
07f6120c
10eb0f10
e3051f07
f7f9f62d
eb25dff8
060b02e3
00310518
1b17e100
02fbf1ff
0c19190c
0510fa2a
180a10fb
e40a0503
09e904f9
fb350016
07effcdf
03e517fc
14f6db0c
e8defff7
1800071c
f6f70306
08f1ff0d
e9c601d7
d9edf7f4
f9e90102
d10ee1f2
02f63706
f2fdec34
14e2fa1a
e1f5dcfd
0325e9fe
e3ebf1ff
e8d3f5e1
15eb08fe
fae5f623
09eb08f3
f8f8fd10
efdf0017
16e5c4e3
daf21808
f8ea04f6
19010911
fe031304
18041016
00ef19ed
f403170a
eecff7f4
1ff0e10c
e613060b
f7000804
f4ddead5
ed05dd0c
edf0dcf9
1501fccb
fce82731
0706ee0d
00062ceb
31fe01fd
05571708
0a0cde11
e0f7f8e3
1dfa111d
00f9f400
f9fa00d7
f5fb1319
f60c1215
f9fafa0f
0e3e1601
e8140edc
15fff900
1604e20b
f50bf7db
00f00b05
eaddc5cd
f9fdcbc8
f704f622
ef131b05
001cd1d7
05041cc1
00e62007
260dfd13
c3f21e00
0ef20109
081ff600
f4fef2f0
fadff3ef
e10a12f6
090b00e5
03f0ebf2
fe090c24
293ffff0
e5482ade
e907edf0
0f01080e
ea2f1ae9
35e5f810
daef0009
03cad4db
ff0ceae6
f801e4e0
f4182310
f410ecf6
df0812e8
e7d1f1ff
261a0117
0209181f
0518161c
1403f43c
ee1df317
09f714da
0b1307fb
d6f0f2fa
290ff21d
e8080dec
ec08eb26
072b5cf3
020b400f
e5ccf823
1adbe41c
fbffc9ea
1d28f5ea
0e09182b
fad2260a
1b13031a
ef010607
f4dddfd0
c7efe6ec
f6ebf6f2
6606fb1b
3c2dfc5c
050ae90d
f61b1dfb
1216f7f9
0cd6cefb
e6d0bcb4
1b15e913
f7fa0d07
0bfade10
f63409f7
f5f5f2f2
1616f7fc
01143801
1201e100
f6fee4dc
0ff5e6f7
fbfa01cd
08010e00
03260bfb
0d110dfc
1f030934
d0100ffd
0af9cd19
2df8ff02
2b14163c
e1e5fb12
e9000df5
15e7e41c
de0dfd02
a0eccfc7
ecfe0497
e6ff0719
010b071a
e7060e00
fff03109
4616fe02
dbf73716
12ecfe28
15d11f07
00fef40a
ede0e406
1d03242f
121f2f2a
eafb11f8
da1cfd09
f2f406fb
17102c03
f812e5f8
f9e918f9
14110af5
1cfb0425
f709e813
110a36e4
f5faed28
ee0b0f1b
f5f62d26
ddf1d612
f6f3eace
fae50bfb
2a06000b
daf2e0fa
dbc8e8fe
0de2e91a
f8e30eea
14feede6
f50be6f8
eb0115f3
ccec1900
0fcc1926
d9d7f323
ebd2a5dd
c0f5ddeb
c0dedcb7
f3f1f7f7
7f2a3425
0a1e0f66
08ed06e1
1318fd19
fe0de600
02e6c61f
e517e20c
04f9d620
feee0fef
c71ae3d4
c1d816e7
e3d21e07
eb04dafa
e3effefa
f4bb9806
0df7dee4
e808db02
2c0118fb
2116050e
cfef0002
0341eeee
ed110604
d807160b
12f0ec14
eb120bf1
03dcec1e
e0eee2e9
d6f9e3fa
32170ce0
e207061e
fdfafd0e
efcd0103
fee1fb00
0fe9f80d
000cec10
de1d07e3
0627fbed
1c042e00
ea04f926
f8fff1ec
3ce4f4ef
e7f3daf1
00fdede5
0c060c05
1a19f3fc
eee5dfc7
00d6f4f7
030bfa21
fa26fe0b
0d2b12eb
fae409f5
e60fd90b
1608ecf7
f91eee06
f2e6e4fe
ebff0202
cacedaea
d2ce0421
2404eef0
f810eb00
f0f8dbea
e4e1fcf6
ebbde0da
f8d7b0ca
f02cfbd0
134313e1
f9e200ed
f4f4bf00
f7222202
4f090538
fe270d00
0808240d
1ae329f6
dcfeed00
05d2f6ee
f919abd4
fb0e0ef6
222b0f00
1af50315
f60be20a
0d130cdc
0ff7d1e5
f7ffeced
14034af9
ea13d6fe
e8c6120d
05eaf4fb
230a0132
300d1711
1b21e41a
f813ebe8
0af7fdf8
eef4f423
070e05f9
150b1d0e
0af9f30f
15170912
4206fe51
ef0516ee
d913dfc7
c2d603d8
06efd4ef
1c0d2e44
20f8f20b
f8ef00ec
eb0cdb06
f2da1407
03ffee14
ec03ddf9
1b1b07f9
00f3e60e
f0ea260c
dce7010c
03cf01f0
bc060efa
d5de00df
0404ff15
de1423d7
00ef2e05
ebdeff28
23ef1806
382bd2f2
074c1001
f7e0251a
f6fb03fb
1103e402
ef030de7
f9f30cfd
e417f9fb
08f8f624
3a351102
071c3511
0f06f20a
b40c11e4
21e20cf0
00060907
fcf7f60d
f210fe09
05100d06
d2d1e51a
05ccf308
b205e0f5
04e2dfcf
f8f9f90b
03fc0d28
f9f50edd
df1b280b
f901fe11
e2ddf7e6
f0f4f6e6
dfd5ecd5
cac910e8
faf9130a
da19ea04
1710fcd1
03fee602
06f919f2
7f05fbff
1527e3f1
e800f7f4
1c26e4ea
bfeff700
ec070200
e6f2fd06
007f7f10
0a1c6372
070dfc14
291712de
f02318f8
dcceffd0
0a0b1214
f61b0f03
e40300dd
01e70203
00f4ef1d
1bf90c12
05dcc61a
d2021900
fee115fe
2502df18
e2140616
301f1102
d55f200f
36ed7f7f
ceecd335
26090dfe
df211902
2107e9e3
f921fff4
ffe5a2d2
fe110dd6
28fe1917
261bf012
e6e021e0
0b09e518
e00fdeef
dc010fda
0f0f1816
fff6321d
fbea0f09
26f0f71a
01f9d7ec
e2ee16f1
08f6fd05
260a21fd
ff0c142f
00fa002d
eae2f9dc
09ed1608
dec4c208
d8f3dfcf
d90013d2
0adad607
fb28f6ec
edcae8f5
e8f5ebe9
ff05f9fc
2624fb21
02031215
0bf71c21
f4fefaed
07feecfe
0ee3d2e4
f9f8f60e
2007e9fa
1a1608fe
0d350313
f2dc130f
1f020523
d3b81717
0efbc210
e12913f4
01f2efea
120bfd00
1ffb041d
fc0ffc25
f0e7e122
07fd05fe
1f10f1ea
0aff24fe
2c13f21b
021dda3f
f50af5ef
fb14112b
13fbfcee
f40323fe
0bdc0ef5
01d3eaf7
fcc9b400
d8de040b
c0cf0ed2
15f1e2f4
121e0fde
192fee22
d80313fa
cbea1f1e
f002f216
22fa571a
e2100a2d
c4c110dd
f4f7c2ee
16ff330e
0cff381e
280114f4
eafcdcf4
050204e7
ed0de9eb
13ed0102
14f605f5
131504f5
c0fdecdd
ddbffdc0
f20007da
dc182410
210d0701
14f3f645
e4061328
f7e2e5cc
fc0afffd
d90efa00
030efdff
e409fb0a
fef1ff05
f9ef19fe
25fb1522
fe14061a
53f1f12e
04d3eb04
fffb1407
010b050f
0ee4070e
fc14e00b
15f20a0d
00282ff8
e3f40610
f702e1d3
f91027ed
fa331805
12ed1b12
f1e9e612
f701071c
2305e2f5
00cfebf9
0dfde6f6
200f3726
ff13121b
12f5f7dd
dcf8043b
d3654dff
29e0372c
0efdf23d
061bf90f
fc010f21
2a3b18ea
fff33101
12f615fb
e2d8fd1f
12ece90b
ffe4f3ea
0512e5f0
02eb0bfd
f6ec0bea
4316f90c
00061e0a
fd1d11dd
09090cd2
e0f2e7fd
d8f63900
212c0c02
033d22f6
d82a1e0b
ddbacddf
f20efc04
0904f017
f31ae000
13e70ef8
131b0eff
ec040fe4
2705f2f1
20fff90d
eecff966
1b1c0009
18080d25
cbeb0dfa
ed14fbf6
27e70f0e
e20de5f5
fd1205ff
2315dcff
dbe41a49
e9f3c813
ca11d3b8
e0ff0dc5
f1e30b02
f6e2d6de
0910e4c4
e4e423ef
3e11152a
3d56d80e
0c023716
fbf6f31c
071ce814
03efe310
0ae017fe
f501f210
f2f8011c
d505060d
e1b2eb09
f3cbccf3
dbdcfd01
f1c6eed1
077f52f5
03f41c19
d4d7001c
f6f408ed
e7f3e622
04fcf5e0
080e0002
ecfef5f1
14ea00ea
d201cbe5
d6e3cfe7
edd9fff4
10dde8fe
1bfee9fd
fef12001
0a0cf106
c1dd05f0
f2db01b8
0b141808
ff0b0e00
3b1b2404
24200719
f0041607
f2f90af0
e4130501
b4edefaf
f7e6ddde
0ef9f7e9
f009fa01
f2e40400
07e5c309
321b070b
d4210f00
f5ebf1fa
b60ef3e2
e6cf09e0
fce4e033
f508dfd0
e9d8f3ff
0005eb08
21fff2ec
051202f5
00242520
ff03d4b6
dc150f29
04f22920
08e6e401
4ae3fce2
2021fb08
0d0dfe1d
f802f802
0905fb09
10061e1f
ff170a26
fde0e51c
1d0e0aef
e2d33008
eafcfed6
f5faf5f5
0614f1e2
f418feee
0d0cf610
211ddff9
fd4f2f00
f7f9dff7
f73d3805
010b2800
e1f0f5e8
f8fd13ed
14ecda1a
0900ef4a
00eaf6ca
f3ed05fd
0e12d7f6
88cbf313
f0d3fccf
fbe8d717
1128d9e2
0af5edf0
f9fdc6e3
f216f4c8
f6170121
ec21270e
f000092d
e7eb120c
eafedc1e
d9dae303
ffcdf317
f9f8fe0b
0a0611c4
20021400
17f6cc12
f12c18e5
12541b08
03ed1afb
17100b26
07f1fb05
fb01d4df
ed05f84c
15cde90f
fe2aeccc
101a0315
04f1fbfd
20f3c100
7422fe36
140f04fa
1223310c
f9faf6ec
0f032702
1111fc0e
40f715e8
0007e620
aef50200
1005f792
f2fce303
0ee4f706
30ea0602
0e0a40f8
1c33fc2a
ddde0311
f21a16d1
d8fd18d4
eeecb8cb
d3f8fc0e
04ce2114
0cfafd04
f002f40d
1408faf8
251dfd1b
14edf426
0c0ffee4
e6f11f18
eb15f114
02e913d2
ca00072f
01c3d6f6
d9fb16ee
21f2e303
0cf40722
e3e0040d
22f2f8e4
ec10f1f9
04eadebe
fc190e13
f4e0ee23
0decf8d5
1009eaef
e50d1c0e
fbf5e815
0201fbfd
01f5d30c
f7fccfe8
14140001
d30703e4
1203eff3
15fe17ff
0afa0117
12ffe4d2
f01b11d9
1105fc24
0aecedd7
26f9c94c
f9090f22
1d02e508
d9ed0c0b
00edfbe1
fcf5e0e2
bbe52fd9
e2f50af4
e70b33f4
c8e1e118
16fe21fb
eff43134
1726fc05
06fe1f01
1f04ff0f
1109ff21
01051009
e502eefb
e3e9fbca
2dc9f108
fce0f007
e70f0b00
160028fe
1a05fc20
f10ce8e5
000f2c05
22263639
e5010cee
f90502f9
e1f906ee
5cf6cdd4
c90df1fd
f7eddbcd
46f0f3ee
faeef203
1bfef83f
4f273519
fee4fa12
ddeb4e0b
3bf2cbbe
de02fff1
fa0d1400
dbded8dc
0fe3d3f2
0dec0edc
f9051511
1a1111ee
14facc01
def0e501
e3f008da
29ceedee
10ffe5fe
edd7ffda
e4c0becd
0afaf645
ee0aeb11
08f855fd
03d1191b
0e09f8f8
eee1d3de
e61bebf4
1bf9fb0d
21e209f2
1c1a1227
203e1014
0cf1231a
e7fbf9f8
00cd0507
18edd8e4
0b0bfbe8
fe0710fd
0f0d412e
f8031ff4
19e20319
e414e8f4
f5f4d9e7
