19780ba8
3dbb59cc
7fff31fa
ca353fc9
ea9e1b9b
33b62089
3527374d
44ea42e7
6742d1ae
04631fb6
f06f4536
060f4d9d
5a8d58a0
fd8c7623
35df0cf0
402e5fef
046f9f52
21fc268b
241726d3
36b711e8
7219a494
fe0254e5
ef011a6c
243c3178
f07b25d6
c10ffdc6
7fff2d81
08864fbe
e11c732b
1a0d0c85
12e51a62
3c9a107a
24ebdc2b
375c494b
0dcad544
4afe3f28
0f4c3827
1e6d1ef9
53deec19
f31f01e3
0ba30e2f
1e495865
57ad3088
64602479
0b89116c
0833d1fc
2c833e49
fd217fff
3ac35c5b
e440e502
4ac5114b
0ccb2e75
e87e30d9
f17b1bc2
21b6768d
2e4a1531
1e614398
7a89bb21
3995a1ca
fbe6f4c6
7fff3047
12a4f8df
1e5a2994
165b04fc
38d21df0
50d42e31
5530000c
c9a13dc2
3edc711a
32b14551
09c025a3
1b9ee9ce
db1d1abc
1ce53f7e
206911b3
66182652
32d5e187
01250abb
56721f6d
3f62112e
0d0f285f
4df41154
4865d4bf
351dc54d
6cff387c
27752ec2
21241161
63522b45
d42608c3
5f43e5ae
22b8fc09
29781d6f
0822723d
ede46651
27d65bcd
3b69220b
1904668b
3a8a59db
645b4a3d
2f442360
41b422ef
236145b6
1ab24469
0a606aac
426535db
45cce2de
43744901
3226f912
22515946
ff5d6c7a
7fff50a6
1b981cdb
712039c6
47d44c0b
136f67bb
1367d5a7
3d731518
1c0e296e
49025c65
162df176
61fc5265
652b547f
14476edc
4efd677c
1bc01c80
65a32bb2
3085ec13
5a371b53
2583ff8b
2bde5d84
df65ea50
4ca71994
16c51be9
320c0d7e
1c530e35
4b985222
1678427d
33d2da96
209107a2
63af0ed6
7fff3410
1e6e3827
fe8f631e
01ebddd5
0fdd56be
f968143f
152e4186
2ca514bb
fc222b09
f127227a
2f62433e
364e5bc2
248723f9
f82e3a85
e5d1fe15
29f7532a
1a819c50
4a333d94
4f3abf81
744e6159
498229d9
eb4343e2
18622327
556745c6
61a322e2
0363f7a5
3d765040
3a1639f3
19ef03eb
153f2933
f8310148
de042598
2777f4ed
2d033462
23fb2876
3d15717d
4a38332d
7fff004b
d0bf4362
0582f438
31d85ddb
4359d7eb
558c5330
1975cccd
6d8e5fab
35cd13e1
0ecbf623
267e2323
361bc5d7
7fff175d
703a32a4
30364ec7
19a620b1
7a1b05b0
267dd9f5
2aea63b7
4d4b5aa8
1cb915e6
d71f45dd
0dab48d8
4410458a
d4252b20
f71a5945
561a7fff
59205d72
3a75d77f
4d49d2ec
1f27df07
42fe20c2
5b5f527a
de85ed48
e4f15c4a
354c3aa1
2cf65449
ff90f623
f4902428
f762232d
02051d2c
26485610
23e63766
02a0e553
f8201ef3
7cf81b36
12673840
223bc712
5b004aea
1bf3fe72
31563408
5e6bfd32
1e2d01bb
57bb5e02
fbf53a32
48d40727
34ae2401
022d6816
03e32008
1dcd1dd8
48c546e9
a4892ff0
0a880124
4c404058
2bd6bc41
45bd50bd
633b363e
0dbd1c22
0d5de696
7fff679d
2f5af432
1715fd8e
7fff3c56
5d873668
f799fa6c
3f7362a6
3bda1b0d
41967fff
44415429
