0009ff4f
00dc029c
08a8fc84
01920438
029303bf
06540500
00e7071e
08280193
05070594
057402ee
06adfe11
07370208
01e80272
0392ff13
054802c3
03c505ba
00f103e0
003c0368
02970271
00b603f5
01e3050a
08750537
02700601
00da04ef
04fdfef1
055401ea
056903aa
041506aa
05510316
02ef074e
04ae05ca
049b055a
0418030b
04ed0765
07950026
05820327
03320050
01b4ff83
ff25004c
000001e3
0024058d
034f0827
03b60245
feb5057c
01c90205
0c800235
04a10077
04c00321
05a0fdfb
066000ae
0167054e
00aefc19
08190554
04a603bf
049b0134
06be0548
02650227
062f014d
034e00cd
01ca076a
00cbfec1
02740176
00ec04a9
02ed0373
