0000003c
ffffffe3
000002ad
00000232
00000161
00000115
00000277
ffffffa3
00000050
000000e6
fffffeba
0000024d
00000162
000001ca
000001d2
000002a0
0000015a
00000004
0000019c
ffffff43
00000249
0000016e
ffffff0a
00000184
00000197
ffffff68
000000db
ffffffcb
0000038c
fffffd2e
00000165
0000015f
000002ca
00000026
000000c1
ffffffe5
ffffff6c
00000441
00000035
0000025a
00000179
00000274
00000199
000000b6
ffffff77
000002c3
00000126
00000144
000000c3
0000026f
00000414
000001b9
fffffd90
000001d9
ffffff78
000001f9
0000001f
00000161
00000159
fffffee1
00000118
00000357
000000fc
00000182
fffffff5
00000266
0000020b
00000407
000000c7
000004d6
00000154
fffffdac
00000301
000000d1
ffffff57
00000256
ffffff73
000003c1
fffffd72
00000084
fffffff1
0000021c
0000000a
00000146
000001af
000000b4
fffffd4f
000002b6
00000284
ffffff1b
0000022a
00000292
ffffff1b
00000305
000001e3
ffffffc2
fffffe8c
00000264
0000004b
000000a4
00000059
0000024f
ffffffc0
000000ea
00000404
0000014a
000003bd
000003cb
000001fc
00000211
0000004c
000001aa
00000140
00000000
00000242
0000049a
fffffff7
fffffe72
00000355
000000d9
00000015
000000ad
fffffef1
00000166
000001b7
000001b6
00000001
00000211
00000339
000002af
ffffff4b
0000016b
00000191
ffffff5b
00000099
0000053b
00000315
00000227
00000284
fffffe64
0000026a
0000022b
000000e5
00000204
ffffff4d
000002f2
000002fa
000004e0
0000018d
000001b6
0000005d
000001d3
0000034e
000003a7
000004ce
000000a5
fffffe28
ffffff62
000001b4
00000171
fffffdac
00000158
0000025d
000001d5
000002be
000000ba
0000004b
ffffffbb
ffffff10
fffffe10
fffffdeb
00000253
00000198
0000013a
00000307
00000125
0000036e
000000fb
ffffff6b
0000013b
ffffff17
ffffff60
fffffffa
0000034f
00000428
00000158
00000188
000000a2
00000290
00000156
00000593
000003c7
000000ab
00000126
000000be
000001e7
000002f2
0000006d
ffffff81
000000f7
0000018d
0000001d
000002c1
00000009
ffffff8d
000005cb
0000024b
0000036e
00000106
00000268
00000140
00000253
0000010b
0000018a
00000339
ffffff43
fffffece
ffffffcc
fffffea1
0000026d
000000ee
00000342
00000073
0000038f
0000008c
0000025e
00000249
00000170
00000287
0000012c
00000023
00000295
0000008e
000001c5
00000070
fffffea5
fffffe37
0000027f
000002aa
00000023
000000a0
fffffe55
00000045
00000019
000002c8
ffffffa5
00000096
ffffffea
000001e2
000002b3
ffffffc7
00000017
0000014b
0000007a
0000026a
000001d6
