2203f7ff
f204f0f0
f1fa09d9
14061111
fbebfa0a
f5edeb00
fdeb17ee
0e0b0208
10e40df9
e8e00c19
02081523
e11d0330
0bf321fe
ebf1de43
0df80600
2ce30032
0607e4ee
0fea1703
08f8f516
0ef20301
15f7ede8
15ff1cf7
fc0fef0b
21eadc32
01120cf0
ff2df009
0ff9d8bd
ffeac2fa
0013d907
15fd0af1
f5f3daed
faf8e61b
e8e9085a
e411f4fb
d5fb02f7
04ddf62d
f81028f1
d0f43c3b
e812f4f7
f1130818
07f60ef5
da180af6
0613ee00
1dedebf4
0605052d
f1f128f2
f41306d1
fad0d9da
ece40605
fde630f3
1522dc09
07fb0ffd
06f2e931
0b40f1f8
efe9031d
eee2f7f1
f8e6f705
fdf604d9
280bf207
fafaf614
040412de
e02015f9
d5fe0700
20041f09
00ef00f4
0206fb16
fd00fb04
f6040afa
f3f3faf7
fefbfbf5
f61af3f5
0001eff5
f8000702
06eee9fe
00ff0503
2311fe00
0000eef3
fcfff4f3
031202fd
ee02fef5
3f00fdfd
ef0002fb
090e05eb
fbfa0401
fa000909
eafc06f1
efecf810
19eafffb
07f6f815
edfa07e8
f8ff00f2
fa12ea09
fa0700ff
f6fe03f6
faf2fc03
073b03fc
fa02e705
faf7fe03
020100fe
fefaf4ff
fe01f4fd
02000406
eff30001
00fc0504
f0fcfb00
0bff1608
0cf2e803
17f52600
1200eb00
f4ffd70e
09fff608
02fb03fd
faf804f5
02f80100
05fbfaf5
0805ff03
fc0efc03
fffdfcee
fa1bf301
fbfbf7fb
21f7fb00
e0fbfcff
f2f3fb00
0809e0d8
070500fa
f5f9f5fc
f4f90806
06f1f106
0000ee04
0e06050d
f405d5f2
fcf10cf5
f2f81504
10faf9f5
fbf6f7fa
f805f704
fef20ffb
02f5ef04
0707faf2
04fe0006
0d0a0f0c
fe0a04f6
f8f9ea07
140af4f7
fdf1eaf6
f6f700ef
00f70209
00f30f04
f8fd0910
f9fbff05
02040c00
0ef50206
0bf2f606
1000fbf5
ffecf3fa
0611f2fc
f3fffe0a
0103f503
00f60503
0bf4f7f1
0600fbff
fdebf908
fdfffa0a
07040000
fbf80b08
020cf6f6
07fd0503
f403ff08
0e05faf5
fd08eb00
f3fdee03
0002f003
f8fb090d
0609ef05
fdf2e9f6
0afc0805
08fefef6
fdf600fa
f9f90410
f907fcfd
f6fcfef0
0d0b02fb
04f0f909
f6fff2f0
f0f6fefe
0001f706
03fc020a
fcf6f811
fe000006
050afbed
fff2fe04
f7110d0c
fdfbf218
0800ff0d
0215e00a
fb0c0b0d
20fa06fe
fef9010c
160a07fe
03eafa00
ee0af81b
fcdfd80b
07f606f8
f4010405
fd04000b
08f531fc
f9f705fb
01fff6fc
33fe08ff
fee5ff02
f9edebf2
07fd01f8
e300f9f8
030ff7f1
dbfafd0d
27f4ec0b
07fc0113
03e82007
f3fcf4f0
f52cf403
09f80406
f6f8f6f7
03f40bfc
14380900
eef4d1ff
fbfbf202
0a000806
0703ff01
07f8f9f7
000806e6
f7eaf4f6
f9fbfa03
ff0a0206
fcfefee6
2a0304f8
0319fefa
04f205fb
e705fdfa
0c0313ef
05f10110
e900f9f0
f7f50203
f9fc030a
f0f8ff01
fa020904
ebfced08
f20e0500
ee07fcf7
fcfd00fc
d7f3f504
0608ff07
0001f1fb
060e00f2
0bf305ff
02fb0605
f80bf107
2de9f2ee
faf1f8ef
11f31fcc
eeedf2f7
2105f5fe
fa041bf5
0cf51bf4
ebf8ebf9
f6ebe9ee
0afaf02c
f3eed41b
e9051227
ee00e61b
241e09cc
00fc1d0a
11fe0b30
f1ef00fa
24e00fdf
f5e1ebdc
d2ef08e9
1ae7e4ea
de171e0c
0ff8e900
0ecae92c
e3e926e5
f72e1520
e8f703f4
e900f1e8
f7043bef
fa2f12ff
10e90029
06f3ebdc
ece4200d
0eddcdfa
2721f5ea
fcf30c18
faef02eb
fae5d4f8
02100ff5
07fb3107
001c0308
ea0608e3
edeae9fb
0e21eef0
10f30d08
0e0f2f46
fd24f5f2
fbf5fa3d
f4fc48f9
0ee9200e
ddd8e8ed
f3e8fcf6
e10b0835
00f2d11f
1af206f6
080008f4
df08fcf0
03033513
f90bfbf1
d5fa0817
0fed08b6
0cf6e8fd
bc1906ea
ffe7f3f7
e704f801
fae3ffef
e7ffd4e7
03f9fd0a
fef70ded
fdfff8fb
fe0af2ec
f800fb0f
fe030502
0311fafa
04f30a10
fcecfc0b
070001ff
eaff0708
fef9f0f5
00fa0000
10f20303
f5fd11fa
fdf0fb0f
051101f5
e901fc06
010600f2
0ffe010d
f7fd0c0e
fee9050c
f4f70a00
06f8f9f8
ec0eeef7
f7fbf0fe
f5fef400
0aedfa00
11070002
ee00fe03
edf3f0f3
fee6eff8
080efff6
0d00f2f7
09f602fb
0200f3f6
ee0004f9
f0010a01
0601f5fb
fff5e8f7
07f8f5f4
0d0cf4f9
f81ffcf4
0ae70001
ff051302
f1fefaf5
060ceb14
ef000e07
01f3f7ee
0006fcee
fe0cdf03
fdf31106
01f0e904
f6fa00f4
f6f3fdfb
ecfb0118
e207f5ff
fa03f2fe
f9f7fcf4
ee04fa01
090f0f0b
f2f8fefa
f7f908f3
eef4f0e3
f6eef201
0203faea
f5fbf300
f8f1f5ec
0105fef5
0010f80b
04f5ede9
f5e9e608
fefe00ec
04faec00
f70c04fe
fdeafbf1
f1030400
13000b08
1306fc00
02f70900
fd05faf9
ed00f7f4
e900110a
08fdfc0a
e903fc0c
f4f4f6f2
000b01eb
f8040afc
fc0bff0e
ed02ea03
fe15f707
02f0e9f5
fdf600fc
fdfafcf1
f700eb02
f0ff0203
f0f0fdf0
0002f501
03fc07f3
f9faf805
f40d04f1
eb0600e2
f30306f7
f508f3f8
fefe0203
0c03f4fc
0203ec02
08f90700
fe09fff4
ecfffe05
1907f810
fb00fd0a
06f207ea
fa13d7fc
10ecedfa
11fa0006
07effa0a
12f20309
f1feff00
02f5f40c
05fdf8fc
0606eefa
fbf60303
ec06fff9
050b010e
030506fd
fa08fbfd
f902fa01
0701f9fd
0600fdfe
04010401
0701fb0c
0504ff01
fd050505
010c0403
0304ff00
02030701
ff01fd03
05050a04
060900fd
f9fbfeff
0a0001fb
ff0c05ff
fdfcfe0c
0a08fd02
0704ff05
00000300
0f060008
0301fe01
fcedf800
0205fd09
ff060c06
0307fbfe
08fc0208
02070605
09050009
fcf90006
090bf700
0003fd05
0003ff02
010007fd
00fc0700
08ff01ff
fe09ff05
f9fc06ff
05fcfe05
ffff0203
f700fbfd
06f8fdfb
fdf3fd0e
f90ef5fa
ff0300fb
ff0806fa
f801fefe
0706fe01
fbff0900
0208050c
10ff0002
02031203
07050101
fcff0408
05fa00fc
11030200
0cfdfbff
0600fd05
02ff040b
fbfefdf6
0602fd00
03ffffff
e9fd00ff
f7e9f003
f4fe0104
f300f20f
fa0111fa
06f6fa05
00160702
fd03f4ef
08070213
f8e2e20a
0bfff300
070f04fd
08edfffd
04eff90e
f0f5f5f8
01f2fefb
3c04f3f6
f8f70afb
fa0dfafa
05fffcfe
1208f107
fb00fcf5
f101faf7
00f50b01
f1faf108
02f102f2
f009fb05
0a0c070a
f4f8fe0e
fbfcff00
f60efb03
0608fefc
00f20bfa
0704f3f9
091205fa
f3fafefb
0df5fa01
fdfa0200
f6fd0103
06030203
0303f103
0801110a
0700fc06
0be5000b
0dfcfb03
0501f1f8
08eff5f2
00fc110c
ed000d04
f2f7ef03
f9f11001
faefed13
f4fe0701
07f8fbf6
f42307fb
ef03ebfc
fffaffef
ea08fdf8
f7f90108
ff02e5f7
01f40ffc
fbf9040d
f2f4edf3
00faf900
0302080c
080ee5f0
ebeaf263
f0090c05
e21106e6
f7fcbffa
08e319e6
05060402
19f920f7
09f34312
10df05fd
16e6d3e8
faefda0b
df8fc1fc
15ea25eb
cef92bef
fb013904
ece11eee
0504eae3
ebe815f6
d5ebfffc
ef05dd0e
0a0fd8fe
fc5ddc09
e6e9f6e3
f1e1fd04
e522eb15
e7efbd1c
ec050201
17e3e410
0ae30be6
06181723
004911be
01df1ff8
edecefe9
f8a3ddf6
11ec6306
0e0903ea
f401f2f5
01030906
1910e8fc
fc13120c
2602d313
33e533ff
e324f42a
e3f31daa
e9e023c8
0d12feda
07e7ce0e
e53deefb
eb1936f3
ea0505f1
15e0c401
ff17e61f
d4fc0421
e6bef5ee
00ea04e9
a9ec11fe
14efedfb
d6fa13fd
03070e12
090809e6
2ae205f6
3208f303
000ff70b
f10ee20a
1701bfe7
0b032c1e
e1fd0806
0d00f6fb
d705e6ea
f8f019fd
eb11d516
04f13509
07e5e612
07eaf32b
d8c9e904
222e0f08
0ceee1ea
f90b28fc
f51e2406
fe22efba
16e6ef07
ec07f5f6
f7f7f223
e50d3504
e9e3034b
fec103f8
e424fff8
0a15e6fb
e51403d1
fe0d0ffd
1c45d41e
0bf3e010
f5e7fc07
070e2312
0810ea26
f5c930dc
0619f70a
0a090314
00effc07
11f2e9f6
0bf5e3e4
05ee00cb
f839fa02
1ce8f905
10002508
0bfc431a
e713f6e7
f3e7d395
fcd10ae8
19dcf5ef
38f706fb
00151700
0c1f3f04
162a1ddc
1af11445
0edf0738
1807f733
0d12f4df
02f7f2fa
9ff5abfc
c40004e9
faf300e7
03000453
eaeb1505
4acbe112
ebed1cde
cc22ff2b
07d9fe25
f60df51c
03df1805
00050aef
f20ef6fe
0dfd1c10
faf00400
33f323fb
f6eedc00
2b00facf
1edadddb
0e00eeeb
dee1eaf8
0a2a350d
fb051142
eff91002
280a00ec
27f3ff07
150ff2e4
42e2ece3
12f3d1db
08f2fdfa
35fb01f2
0beae9f4
e5e5ef1e
eabf23dc
1300faf2
3df9ec06
0902f007
1b0623e6
c4f4fafb
1fa904f7
11bfc00f
befceae1
01fcf705
ec00f0fe
cee10746
faf8140e
0b04f808
27160df0
f7de040b
f6f5e4fa
f904fff4
0a3c0d25
ebf5121a
e1150024
decf0cd5
d412fded
1b011ce9
dcffc7fa
dc0dfdf2
f0f300d4
faeccbf4
0ff82005
0a0c04ec
ef0cec04
0f02e6f2
fa00eee5
e0f9c7d0
0106fb0a
e660f20d
ce1b02ed
cefb1dfc
20b90cfe
efefe9f9
23e6fbc8
0744f3fb
e9f11afa
f917b2fa
111feee9
f40e00fb
f8f8e0ed
f9ea1ad5
edef30e4
31070137
11e1f70b
3cec1ae0
1afb24ff
eb1409fc
fd0a13f6
13fbf408
ec09c2c5
12fc0be8
e51ffbea
d81bcd0d
fbcbecd4
e5ed0a14
f0e804f7
1a13f1ce
0ff1e518
faf8f4f6
0fe32afe
e513e403
fe160903
13f7f53a
f9431ff6
3832fddf
c6c0e20e
f512f4ed
09153ae4
00e9552f
faf732fe
00e709de
d228f903
f3ef22f4
f111041d
00400700
0e071f3b
f42a43fc
fbf6eeec
37c61c13
93d01ff9
0313fa0c
f519ee0b
f9e3fb0b
f7031ed6
0006f834
e2f707d3
19e9e804
fefff3ff
07e72107
c31105f5
12030741
f2fa04d2
2ad0ddf3
ed0d24fc
fde60416
e8090cf5
f4fbea07
11fc0826
f0ebe7fa
f0fafc16
f00341fa
0001f501
fd050af6
fdf616f1
fdd1032f
0bfae7f1
0b1703fa
ef281c05
13220c19
df12fbee
fee608de
ed1b21f3
1f261cfe
ec00f501
ee06fe08
1200f7fa
cc00b5f6
f4e10d04
f9d6f307
0406ef04
f8c4ed00
d70f00e0
03fcce12
310ade18
10dff102
1fe0e80b
dd2900ea
f2d009f0
f8abfa00
c314e1fc
e9001603
ec16df08
c908f84a
18fffce6
f51a2cf6
eeee0012
12f30704
f6050301
fef5f4f5
21150af5
f6071dde
e60004dd
f4080e05
1913c71a
140407ec
1313000a
ea00f5e0
1bfe00f3
fad1f015
f6f8040f
2de9f4f3
ef08f2fc
f4e46501
fd22fff9
1a07ff35
04eb0f18
024d0616
06e9f5f2
0deedffb
10fb05f3
f7f6fa10
fff7fc0a
0300f1fb
020814fb
0efff3fc
fcf1fc00
fd1ff804
f10c12fb
10f4e504
0310f00d
000215ed
f40cf803
01190af7
f30403ed
fafaf901
0502fcf4
0bee0a05
0400fef7
000d01f5
040703f7
fc04110b
040f0afa
f701fbf7
f3f8f9fe
040600fc
ee0d0c0f
fdff00f8
f7000100
f405ebfe
f3fb0010
0006f800
02f0fa00
f8f10300
f7f80601
0910fafa
f609010d
04000afd
0af80120
f30af4fe
f809f817
030a15ef
f100e90a
08f9f7f5
04def90b
04fde30f
fcf901f9
fff9effb
ee07f5fc
ffebf7fb
fa0102f7
0801fe09
0611eefe
08f5eb02
1c0e01fd
e7f70f0d
11051401
e80c000b
eaf7fffe
060bfd00
fefd12f3
fff3fff3
f80ef2f6
fdf002ff
f5f410f6
f100070a
000208fa
02f4eef8
f6f8f6f0
0109e900
0206f4f9
ebf21507
07f9f509
fdee0b01
0404f2f3
00080b0f
f8f9ee00
0302f3fe
0600fae7
00fd00fb
24f90202
0ffaf702
fafc2413
fa19f0f8
eefefcf7
f0080503
0f18fbf5
f3ff0901
f7fe0600
fd0300fd
fa0616fc
fe0ff709
faf9f4fa
0306f2fc
fae1f1f8
01ff0a0a
0bfefe0b
f8ff0002
07fafdfe
f805ff03
f4f9f3fd
05080203
f009f1f7
f900fe13
e8fff4fe
fa0708fe
e8f2fc01
0eeb1505
0609f2f3
01f8d807
f6ee00ff
ef0303ff
f1f400f1
0206f7ff
fefd0c00
ff03f3fd
f0f9e902
f2fe0b00
010c03fa
03effdfe
fd04f906
e3fdfdf5
e7fbf3f7
00fde2e6
fbf7f908
ee0203f7
fdf90103
010001ef
12e1f9de
ee25f0ed
d93fe2fe
fe2616fb
e2290505
0b09efe3
f0f606e6
e5140901
09edfc05
0405e717
d9d74115
eb320405
02441726
101b0214
4efd2d00
270418c0
0a051615
0813f853
e71503d5
e31c18fe
eced140c
2a12ecef
03fbc6ec
02d1d222
fc090d0a
f60e0001
31d60d24
12f7e904
aa06e4e8
01050d08
d7eb03f7
20f0f306
dd001321
18242af6
4d3908f3
0a1f0b0e
1111db01
d7f4130f
f6ebf400
f3e9f928
00b604d1
e84ce3f4
001311f4
1fe1d900
fef009f9
0409f3e6
df0a0e0c
17f2f5ed
f4481216
000e0d03
fc011cf7
f5f521f4
090c3540
0b2b15fe
f2face3c
f1d1070d
e3fa1f0a
e82644f9
0deefd0f
f01912e6
e10cf0d0
07c20309
e50e02ee
150c1909
0cfe15fa
09f9fcff
0de7f016
03ffec13
fefef9f8
001125fa
fb0be215
f00cf9fa
f8f1f20a
00f5f8ff
1dea030e
0cf5e116
0a000003
02f9fe0d
13ffeb11
fe0306fb
1b0700f8
fdd8ff0a
030207d2
0becfff4
13020af1
f5fc00fe
f8fc00f6
0f1cfd1f
0001f509
09131109
f31704ec
fff91b0d
06f60c06
0600fb07
fcfaf902
ec0208fb
f908e906
09f2ee00
1de4ef06
f3050d0c
fbf516fa
02f7fcef
f902eee7
fb080ee9
ff03f6f8
f4fa00ea
0bfce70a
e6fd1107
0b200d08
fd02fb11
fe031ae8
fd0e09fa
f00dec05
0b000bfe
f3f0f903
fd0801ee
fb00e1f7
ec10f7fe
ee07fb0e
ff16faf2
f7fcfc00
c409e602
fe0bf303
0001fe12
faf0001b
f1020103
0a00050a
0600fee3
fec90df5
f313fcfb
ccfbf3f5
d01dfa09
fce1f928
fdf4fdfc
f70604f7
e10ef9dd
01081100
0010dbfb
0000cdf5
1d06ec3c
efeaf700
28ed20f5
05e2061b
0c04e5c1
01f10509
0822f721
f8210fed
b714ebf2
e0fff40e
e810edf8
fe1be9ea
0c0307eb
ed17fc04
05d802c7
17050cd1
e6002ce9
35f2e6d7
04def5ff
064b16fe
0bef0228
f623f2fb
f36af0e0
030e0007
0cddede1
fcf8eefb
f401fa0a
09f9f214
0f08cc03
e41d0001
e81a0701
13fb0cf2
0011070a
fa1f0d00
eef4fb03
000bdade
21cefbdf
27dbdaea
f4f1100e
f12e2af6
ee1f04f4
0802eeef
0a090917
fc0afe1d
e60f0515
0aed0607
f6d1c80e
e111faf6
d7f50722
fa02dd04
1bb8eff3
0810fbf0
e6f033f1
0606fe06
0f07050c
00fb06f0
00000009
10090300
0f0c02f5
020c0bfa
fc04f8fe
0506fa0a
15f500f9
f10303fd
02f2f6f4
0c02fef9
f00cfc00
0001f6f1
02070d00
f4ed09fb
0be70af7
fd00f7fb
ed070d03
0b090010
f20cff0f
f2fe0406
02fefcf8
0d070b09
0dff0af8
08f4e9fa
0afbf515
f508f503
f5fc0200
00fceff3
f0f1fafb
00f405f9
03fd0c0f
f2080b04
01f614fe
01f3e90c
0806ff00
f3eff707
04f8ff00
f6fafcf2
fd040e08
f818f5fe
0308f5f7
13fc0cf9
ef01eeff
12f90b00
02f7fbf2
fbfbf100
0004fb0e
0b090009
f9f0fd12
10fbf808
feeffef1
02fffe01
f9eef5fa
ed0103f3
faf5f70c
fff9ff14
110d0bf4
0605fefe
01ff0303
f4fdf209
fbf700fc
ff09f134
02000f30
02fbf600
02f40312
effc1df3
0f0deff0
f90dfdf6
00ff0104
01f7fb16
01f8f2f1
fdfafdff
f6feeb05
0afd0a04
f4f7fafb
01f001fe
06f5fcf8
09f7f7fc
fdfc0803
04f9f1fd
eef1f4f3
04f80619
ff0900fb
fffff9f6
05ec02f3
0bf0fefc
12010ae9
faf1fffc
fffef101
f6080100
01ff03fb
01060000
f33128fd
f401ef02
0203fffb
fcfe01f7
fb0500ff
02f302ee
f3eff9fe
00eaf402
0a03fd0e
0dfa01f2
fffcf6ec
08fb00f9
eb05f50a
04f8f70a
fa00fb00
17f40a09
f9f7000e
0700f2f6
fa000705
fffff5f9
faf8fe08
0202fef9
f9f5f402
fdf9faff
00090cf9
f508f200
f309f6fe
f80fff18
000400f7
ee020c01
00f2fd08
f6faf9f7
fe070f02
03fe0207
fdef000f
010f0407
ff000105
060ef9f6
07fbf90b
18faf1f2
eb0919f3
0b13fb07
04ddd410
0e00fe03
0e060b14
03f9fbfe
11fe0210
f503f7ff
f5f6feff
130df704
0dedf809
020df7f5
03f204fd
0ef70205
f60a09fa
fa01f8fb
f9f80afe
0b0af605
11ff0e12
1205fffb
fb130a00
f5f60c06
0904f7f6
f6f4f30e
07ff0a04
03f3e205
03f2fdfd
08f4ec04
010d0300
fbfa03ff
f809fcf7
f9000012
f209ff0c
fafafaf5
0108fa24
fe0ef4fe
14000303
07d8ef06
03f6d3fb
09ff07fc
fbfa01fc
e312f8ff
fb0bfcfd
fe080cf5
00091403
08fb0c04
0007f90b
1316fc00
03fbfa0b
05fe0600
f4f800f4
fc01fc0c
0208fc05
fc0a00fb
feff0af5
0ef40201
110af503
060ceb14
ff0a1600
37211fea
01cb06e3
001ff0ee
01e21bfa
f9030500
15f9070d
eb051a18
0e08f436
37f50cf2
e5fe04e4
feeb0f17
003909f8
eb37e207
120602ed
0afe2af1
1af400f4
fffd1a2a
1911eaf1
f702120d
1913fc03
0c01e00b
e800fcee
021bfffb
16efe2f0
e3062611
03f4f6e4
1d2b17e8
14dbfa05
fccb2507
f3fa05cd
27d716fb
0cb46319
09070d11
1530fe2e
ec051b02
0713ebf2
13e50106
1b0e2e22
1732f0f9
10320506
0f2824e1
0308050c
f9f8ea06
00fbfd07
09012d14
f506f4f0
e0f8f216
e8fb24fe
f1030d0a
f705ebfe
e9fd0515
080a10fc
09021d03
100cea01
f40bfc01
00d70314
c4070204
3906f5f0
e515f500
f717f9f5
04061c1f
10f9fc00
f00b0cfb
0af9fe00
f506fcf1
00ffea18
1eff07e8
02fefc05
f30afcf7
0003fe02
f22ff910
fff2f1f9
00fef109
e106f3f7
0708f8f0
04f4f312
01ef0013
eaf20afe
3001fd05
00f703f5
0002f9fb
fcf5faf7
00160405
fa0af8f2
fafcf800
f408f9fe
0bfef40d
f7f6f9e3
f613f101
0a08fe0a
05f3fd03
08f311f7
0fe9fefa
0beb09fe
fc020509
fc0ef9f9
050aeffb
fa080dfa
fef8f807
11f9fc14
f70604ea
03f701fd
05f90606
030a220d
02f91d00
05f3ebf4
04f4f0f8
0809f900
01f6fc02
0806220a
fb0610f9
120c0006
f4fd00f7
fb01fbfb
040ff407
fd00ebfb
091f34fe
f4f9ffea
f3000604
c903f6fb
f808fc11
f808eae2
0003060d
ee00f609
0a04fb0a
06f515fe
f4e6fb10
050802f2
011202fe
040fef07
1206fc03
f604f304
0c0ff801
fefd25ff
fb06e60a
06f005fe
030afffa
f2000800
0401f0fb
00080700
e603fff4
f1fff3fd
130d02fa
f900fefb
03ebecf7
fcf3f9f7
f90a07fd
ef080202
f6f207fa
2504fa24
fff104f9
040c0e11
170afff4
0b0d0005
0ee8fff8
f9feeef4
04030204
08040103
e8ecd9fd
0dfd02fd
fff1e6fc
0b0cfc01
0807fb05
040a05f8
f50bf7fa
f9f60306
f9fcfafc
fdf90fff
feff0df7
f6ffe20c
fb01ff28
0f0cf0f8
fa01faf9
0000fefe
e20ef6fa
120e17fc
e4030605
f6f60af2
09021005
fc030802
05fa13f6
e80c0209
0af9f706
ec0c1903
19f5050c
fef4f5fa
0e00fcff
fc150200
f1010302
ff000efd
eb0f1f0c
fef8150e
110f0914
ea2a08fb
f908000e
f909d7fb
f7ec0a05
24040507
00fbcefd
0ff9f8ca
0dfae911
1a1300f1
ffe0fef8
f9de0820
ed25fe26
f6e9f120
17013d0f
0a01f8f7
04f908e5
f0ee00e5
e9fbe80b
f0f3fd0f
edd7f700
f912f92c
1202edf3
e3b6e8fc
050e09eb
f80efc1a
0916e4ff
001b10ed
f424ff46
f80a09ec
0feff5f7
e72af504
d3d307e0
fa0afe12
ef0ad6ee
f8090de0
02f305e6
0207d011
03140601
0ed70406
0d05040a
07ddedff
fc16e9f3
f40503fd
fe05ef0c
f821f5d8
1145ccf6
07f2dcff
fb17defd
fa11fbf8
2a11feec
01dde1f8
0c0b09f6
0100fbf5
f5f7f105
cdbd2efd
ff080a0c
22ee112b
0a050824
ddf6ebee
11fc101c
eb0cfaf5
e6eefef8
effb1005
050004fc
eebeecf8
fc1bf40b
0100e903
f8070e08
0f0702fe
eb0de620
f431f0e5
d1fb160c
0c0ef105
e41ef5fe
fd29f7e8
e8d9c5fc
fef804e0
060300e4
fbecea23
0cf3e8e8
b8fc00f6
e7e70200
12fd22fc
f710f104
e8fe0306
f225f902
f400d605
4820e009
f40a0d22
aaf016fa
e4200d15
d712ed0c
fa0efcbc
df00faf0
123821e7
30fe2915
ef0712da
f9f0d810
1202e1cf
f715fa14
06f8ee06
15edecf2
0420f6f5
23fdfafd
00c0f3f9
f6f4eded
faffd61b
ef002b37
3e4cfcfd
0a2409fc
f019e608
e50e0aff
f0fdf500
08f729ea
07113615
0d0a0008
e3081e19
f308fe09
1c1e3ef3
d3f0fefe
e9f518ff
ed00f9ef
f4c301f2
23e21112
ff0b2417
0ed8f4d2
00f806e4
3101f01d
05360a02
ed00fcf8
07fc1502
faf802ca
250cedf9
0a08df0a
eaede90f
d8e5fc0a
1d04ff06
fb040c0c
092b1bd5
190e1ee1
f40c1616
e2ff2f00
030dec24
11f2e101
f914001a
be110f2b
e9082b07
effcf807
fde3f6dc
10fbfeef
0d3a16ce
212c0b07
02f0f7fb
07fc3bf3
f6fae314
eb30fb11
2009063c
e158fa0c
123208e8
12260110
f322e8d9
0c0618f4
0f13f336
0df3daf8
1601012b
fd040308
0f10fcee
f0f8081f
1431b216
fef8d1ee
eefde59b
03dae8ef
0a0cf8e7
fd1ffa14
e4fb0018
35f43bef
0bf80aed
0fe5f045
fafc0e22
fbf6160c
0cfddbfd
e1fd1000
e60316ea
ea0a2208
ec05e609
0603f405
16cefe06
0fff13ec
08e82fe6
ff02000c
fff5fb10
08030208
fb01fe15
1a0820f2
0205eef6
0c1af9f5
fff403f7
002b020d
00e2d8f6
04f80002
f6030d06
f2f0fd0a
f6fa05fe
f7f0feed
f708f7ff
340500fc
fce7fd05
11fbf2f7
ecf8f8f6
f9ecf914
f20dfff2
f0030dff
13fcfbf8
f600ff16
18f115fe
f20901ff
ff0c050e
fdf600ff
060cebf9
11fb04f7
060b2201
faf901f8
000000fb
04000def
f10700fe
00fdf803
f9f701fb
04ec02f9
f7feff08
07fe06fe
02f50b00
05fc0c03
06feedf4
f8f40503
f60efdf3
f4fcfbf3
08fd0c07
ed0705fb
f4fcfe03
fb0a04f3
f7fefb09
00000f00
e907f7f7
f0180f00
ef08e6f7
fdfb01ee
ebfef9f9
fb0ef403
09ece8f3
010d10fc
050609fe
02040306
00000dfc
ff0c0e01
ffef01f3
06f10000
f1eff1f4
1207f900
0505fc0c
fe0409f1
04ee17ff
04f8f1fd
f9f4edfa
f407e7f9
02faf6f4
f209f7fe
0c00030a
f9f4fefa
f20807f6
f2f9eb06
0ff4fc07
fef7edfe
00f508ff
ff10f508
f5110402
07010c02
f8ff00fc
03f20a08
f7fcf715
000400fa
000009f9
f4edfb0e
040afcf6
f201fdfd
05f6ef09
04f8ee03
ecf5f306
020bff00
fdf5f3fe
0f07f901
0305fafd
0002f400
07fcfaf1
000202e8
f908f9fc
f9fb000e
f800fd02
fdebf6ff
00f9eff7
0900f105
020cf409
00f8e901
0f00f90b
f0010709
00050009
0804f8fd
0f00fdff
0100fefd
f509f408
f211faff
eb08fcff
feff030f
ebf10a07
fe0e0d04
fafd060d
f0fd0e00
0efaf9fd
fe320b00
f00b0400
0507e1c5
15eb08ff
f514df08
f915d103
09e6f8dd
e7e6fcfa
eb0cf810
f9f10f3c
fcdeffff
ef14f8f9
ecfaf119
0704f2f9
ee25ec00
2bf307e3
080800fc
f018ddeb
fd001f02
d9f4f8eb
fd08fa04
020317f6
f6e1d828
0d2ff4ec
0815f905
f3d6fe27
edf2e227
021dbfff
ab04f240
11f6d9fb
fada0e2b
17ecf0b2
25d1f405
feb811ff
042905f2
0d231cff
e70d17f7
01e808cb
0ad200fe
1b13ea01
fef2e105
e8e4f0fd
0305efec
e6e4d8f1
fbff0806
130207f7
fff82703
0a45dbfa
fdfadafb
d927e2f5
050b1df6
1501f7f5
06022373
fdf6eef1
0d07050b
00f71911
e8f309e9
06f83736
fbfa22ec
260818e9
eff800e5
ef17021c
26ede3f2
07ef15fd
fbede502
efe1e600
43f1eef9
d8a32101
e3fe12ee
02f824fa
1bfc2b1c
0ff9f518
13e6a9fe
ed2bfd2e
06f303df
0a0ae6e4
e5f4d60c
27272904
03f8faea
08fef159
0706f5f0
3107fffd
18cedfdb
f3e8f9e5
40120017
de060d00
fa1de80a
d380fd01
16f511ed
0306e5ff
01260be0
f7052c06
21fb13f2
ff02000f
f6003b0f
e2fbfdd1
08f60613
0f150cef
d411fd06
fcf0cf14
07f61dec
0ff1cf16
fff6f300
04ee061b
f3560e10
f31d0d0d
03fb13ff
001608ea
f8070709
f4130a1b
fbf5db09
0cf70a20
d1ba0700
18fa1df1
012ae200
e8da0cfd
f2dd13cf
0b0d090c
0d0332e5
041620e0
200f010d
d2d40101
f910f2ee
3b001208
0afb0d4e
0efaee00
cef21eef
e6e01808
fdf5f0f2
0af6f207
07f71a19
0b24d902
f2140601
fe0508f4
0a0bfbf8
23f70502
f902fe01
f1e319f2
21f500fa
040605fb
06ee0afa
01170812
efd9fc10
d50a08dd
fe02fefa
fed80ae8
0410f1f1
0cf807ef
fe000dfd
d9f219f8
ecfcf300
edf400f8
00f60501
0615ebf3
ff14f9e9
eefe11fd
f80ae614
000bff02
03ed0909
08080607
ea0b1903
11def6f1
0ffcf0ed
e81f0b00
fff5e5ff
0ff7030c
f6f5efee
f7fb240d
faea07fa
f6220ef3
090312ef
e8fb01fb
011f04ee
ec0007fa
fefe10e8
f92a09fc
f32400f1
09f211fe
f0f407fb
f7e100e7
dcf92301
f700f701
10fc0afa
fe09fbec
e406fdf3
daf3fc0c
ebfefbf6
fb07effd
0901f6eb
1204f909
ede612f4
08eceee2
2a080100
fe220100
21fcc83d
dc042cff
ecf30fe6
f8d8de01
f4fada1a
12ec1d1f
10fdfa14
fc1210e2
26110c01
ec28de34
ee152603
053adc38
e505d01b
23f6f9e6
111e070e
1a121bf8
07f1030a
1204ebfc
3a0e010f
081422f2
db20ef1b
1ae5e30c
20f7f61b
01ecd5e7
31b923f6
17e4ec03
29132206
231348fc
e80d07ee
06010bf7
fe1ce7f3
0f0227f4
ee18f40c
f2c3062b
13ef26fc
cb0b20d1
090803f5
eff81109
11090efa
f8d9eb02
04342211
1cc506f9
10001932
fffbffa0
fc15e3d8
04cc03e7
0708000c
e8fa0e06
0c2c0114
f00700e7
1e0a0548
0f2100d8
09090b11
e90be3fa
0cfaf8fa
eb0017f5
10f00400
1a120722
eb05ed1b
dd2c030b
0013f90d
0ef900fc
05f8030d
f531e8f9
d3e9f521
fdddfd05
de0d0a03
0affe302
f52a07d1
0d080e04
f5062403
0e1710fc
fe09e8f9
110bf61a
2004fde0
0a16010a
fefc2305
f3f21cd8
1b0afe0c
d714001a
000c1a06
cf17f704
feeffb10
fbf7cdfc
e60a0814
151a0b0b
ed32e5f7
ff0802ee
20280001
e7fdfd02
f9fcbd01
ff05d407
ff0718f5
0f01f644
bdcbfa1b
ed4a2209
0bf316fd
10f928f5
05f50dfe
13151f05
f60be9e6
fd05d506
1be005e8
f4fa140d
4113ecff
f018dd11
df1008f6
0703d722
060c0cc1
0424f7df
3ee4dc00
ef00e806
05d43900
f0090deb
1efd2ae7
1000041e
fd0005eb
00ee07e4
fdfefc00
ae0ccbfd
1cfefbfe
e10f12c8
010c0910
f1edfcfa
0bf7ed0d
1c10fbfb
fd0addfc
e7d4e6ff
1cf4f70e
e015fc05
11ef0af3
070be901
0ef31030
e21ef812
0fe131ee
fced0227
e6fcb0d4
04f6eedf
010e26e0
cae80f07
e910f508
ec0cc2f1
e0f6eefe
ddede70e
f10516cd
1a02e9fc
f9e710e4
edf106ff
180b11fe
fa1006fa
e2f82402
ebad1cde
27fbd5d4
10e2edfe
100c4ffa
06fa110d
0519e5fc
f7fe0214
f8600ec7
fb30f1f6
1311e8fd
dcd6fcff
ebebcfef
ddffed5a
f4f4fa08
f6fe0c14
e3e1e40e
faf0fdea
ea0cfd0c
0e0a15f4
0a2cfc27
13d932e7
e112e0d5
18f402fa
02f9c0f0
e9fc0600
e01503e1
f8fdf1f5
f700dae9
00cadd18
e4fa0c23
160606fa
fbe8df0b
03391906
f709e4ec
fbf2d808
03f4ed00
09e60510
f014f8f0
05dcf3f7
06fafb0b
0f0d1705
faf10100
0ffe031d
0001230d
090b0b01
06f6f90a
10f60215
fc06fc00
0cf8f303
0a0607f4
f4fff5f0
050100ff
f3f1f402
08f3f205
f6f70dfa
fa0d070c
f8f0060a
fb1206e5
f4fbfdf7
f90c070a
fd04fa11
07030ef4
fd0df303
0c03f7f7
090e13f1
f203f606
fc03ff04
0f0a08ec
08fa2109
f10106f3
0b0e22fb
fb11ee0e
f403fe09
fe060511
161efe04
01fd0609
06f50600
04f7f3f6
02ff18f0
fa080bf9
130109fa
0208f403
f3eaeffe
02f6071a
12f5f8fb
03090b0d
04f51606
08faf10e
fff60b14
17000001
06f8fc0b
fd110210
11041605
fc13fe03
0af9f0f3
100af700
09000103
01100118
f90b010e
f70afff6
0616f9f5
faea0702
00fffe05
fbfaf80c
f8fafe00
f6fa0000
0502f600
f7f21bf6
0500f5ee
0b1c1ef6
faee06f4
feebf71a
0f07fd00
05f60bf7
f203f409
fa0af6f7
faf5fe00
00fbf500
f20209f4
3101f301
04f706fe
05fcebed
0901eefa
fb000204
ff0ff9f0
faf3f504
0dfb0cf0
f0f107ff
01f8f2f0
f501f2f2
012102fb
ebf90d07
f106f505
f2f904fa
12f813fb
f5f9fc0a
fdfdf7fa
fe11fffe
05fffd07
0c07f0f5
0d08f00a
f6f8f608
f0f7f8fa
fff3fa00
02f9f800
1206f209
1ef4f704
f10aff0c
f90f0309
0901f8ff
02fdfc03
f2fffafa
fefa000d
f7f60501
02f2fd01
ff00f60a
fa02feee
0b170505
f002f20a
f6fdf4fd
00fdfefc
f306fb0a
fcf7faed
0d060c02
0a0007f7
f0f8f9fb
f7010009
efe3e8f2
09f30808
36ee2efe
f70cf205
fb0d20e8
0a0a0805
16001b20
142210f5
f50ff00e
fefe01ed
d7f5f5f6
06ed0e0f
01fb10f8
17f7feea
3dc424ec
e8f7dee1
f3110ff6
ddf4fe41
f80ff6c7
0cf9f1ee
061df3f5
06070509
0302fee6
06de2ced
00fe1bff
f5daebd6
2a47f9e6
05fd1611
280814fb
fae6e4fe
04470d32
00ff0371
e339ed04
0619f1ec
00000903
efedebda
f41000f2
29040007
f5f713ec
ff001416
151df403
0cff0909
f304f1fd
fcf31504
f8fdfe03
ed16fb21
f2f5d712
24ebef0e
f12305fa
1be72a0f
0010fbe3
fc07e00f
e2f1eee9
f7120f16
defdefd2
17140711
effbfbe9
130516f6
2af70103
0f180317
18f2fe02
18c5fc0c
e8100d0f
10ef0cfb
0207fa03
fa02fd0d
fff50300
f0fcef06
05fb0ef3
0c15ef08
00f116f2
0a0c12fe
06000d0a
16eef2fa
00f7f1f5
f6fa03f9
f20e0bf8
ee0611ef
fb07f001
00ef09fc
fc05fcfb
fde30d04
10f7fe06
0cfa0af9
0005f5ff
02121111
f70b0700
0907fafa
00eff103
14f30210
1a00e2f0
03f0fc0f
ea0c020c
ed11ff01
f3060c14
fdf50000
02f6f6f5
000206f1
020af709
060806ed
f30bf9fe
fbf70bfb
00fafbff
fe0cef08
f609f7ef
fe06f509
0a06f8ff
0702fd08
11fe06f0
06fdfbf8
0efbf6f5
02ebf9fd
f6f9f1f7
f0170404
e5f7fbfd
0af907f9
0105eff2
eaf3f1ee
0b110108
f202ec0e
e3fdf6fe
effff616
e7faf90c
f90600fe
01071002
fd000d05
eef9feff
07f80ef3
03010310
f7ea0422
f4050900
faf8ff0f
f8f8fff1
fafdf705
ff1200f4
01f820fe
f903fc0f
02ebe1f7
f606fffe
f80cf90a
f5ef01fa
07fbf2fc
f3f802f3
fbf204fe
2ffefff9
fefcf808
060005fd
ff050002
01f6f10a
fa1402fc
f4f9f5fd
fbf5fe00
f3fd0411
00f619fd
f4f2fb00
03fb01f7
fff200f5
f0fcfaff
f4ef05f9
15141805
0307f008
f403f6ee
faf807fa
06fdfd09
fff80701
f301fc08
f4fbf4fd
f30bfc0e
f705fff7
08f40c00
08eff607
05ff0502
0ef0e8fd
0b0afbf6
05f6060c
fe000507
ec0003fd
0004f806
07f700f3
fe00f404
f609fe02
00f7fcf6
fb1ef4f0
fbf2fc09
fef20700
f1f4fe06
fa00fe0a
edf3f1f1
fcfa0cf3
fdfcfd00
01f402fd
0105f300
050e0305
fe1ae8fb
141305e9
02cfeff4
050201f6
f60001fd
09000ce2
4cf8f109
190b02ef
f91edef1
1cf0fa04
09fcf1fd
f301001c
12030c08
1c0209de
e8010410
05e312f3
193209f5
0ed8043f
bd05fde8
f7f6f50d
f916f0fa
0012f700
12bffaf4
e31201e3
f8dadbff
03ed09c4
f606f5e9
fcfbee06
130f27f5
f9c70013
03fff5d8
f4cd01f6
0af007da
ea1314f9
07eb020d
e9eaf800
e0e5f10e
f8de171c
14fe16f2
1527e2fb
f41900ef
f8f4ecf0
010100f9
0c03fc07
01f805e8
e000240a
f8e3f0fa
22fdf704
ffef15ff
fc06eff7
09f51402
07f90024
04f1e506
fdff0f2f
ffee0cf1
16fef3e5
1e00d7fe
fdedef09
fbfb15e3
fffb0101
0402e402
fefb15e0
eee9fe03
f8fe000b
fc070010
f10cea04
0504f904
fd04fff4
fe05f5fc
07faf502
04ff1802
fff800f7
00f7e2fd
fd04fefd
fe07f700
00fafc00
f2020500
00ee02f1
f5f8f600
000202f5
fbf8f203
faf104f9
f205fb03
fbf40003
f0100f06
0303f6ef
03f6f8fd
ffe60201
1d000c16
fef80000
fd040203
fdf00104
f602f8f8
06020006
00060700
f5fdf2f7
09f5fef7
00f7f3ff
04ff0803
02f50802
f9f702f8
00f9f9fe
0008fa09
fb040009
03fd01f9
01fbfefa
fa0500fb
05effeff
04fded00
faf7f9ff
f8f60105
f3faecf9
fc05fcf5
00fc08f4
0403fcfa
f70300fd
fd09f711
f908f9fb
f805ff11
f8fa05fa
f9fd0700
04fdf5fb
fafffafc
f7f70af9
f50103fe
f8030007
07fbf6ff
f3f7fbf9
f5e5fa03
f202f707
f1000308
f2f7f9f3
09f90008
fcfc07ed
f608000a
f8070c0d
011a0508
1605fff9
f7fdfe05
f8fbfefe
04f5fb02
e40708e9
00f203fa
1308ff06
f8eff403
0ef90af6
0b0d0604
0bfafd0f
fafef809
fdfc1108
f2020020
04f2fdf5
fe0209fe
ff040c00
000dfef9
080efd03
fb0cf303
eef902eb
08080800
04010d05
f1fe07f9
07f4e4f8
ff0400f5
0cfd0500
fafdfc03
02170100
eff7f3f5
ff06fa12
15fd06fe
f006edf9
0efa0bfc
0b14050e
040aed00
05f30109
09110cfb
f50cff05
f6f6f011
f20aef03
07e6f210
e30101f6
ea08f7f9
0906f7ff
f80800ff
0c0a0608
fafdfd01
fbf504fe
fa0cf1ff
fef4f3f7
f9fe0ae2
f0f8f2fb
000605f5
1c2c0d00
170bfd07
3be620fa
f705e2f0
fa190af0
0f1515fc
00fffc36
1c2603ff
00031005
f2f8010f
22133d0a
fa1610e4
160727fd
f4dcfc02
0c0b02e5
09ff28fe
0e0a0612
ffe21711
e7100803
30f2f914
210e0802
05feeb00
fadcfde3
0440ec24
08ede90e
fe0b0400
fb2e0c08
1605e511
f5fd131d
ff2e0e0c
f0f40e0c
ef1c0103
dff4faeb
0ef0091a
fa0df8fd
ed18fb0b
15f8cdf0
eaef1109
f5fa0bef
ecf33318
f1fef518
ff190503
fc011206
e7f8f7f1
14fd0cf2
09f7f207
0dfa3700
f234fe05
fcf4350a
0f00edff
04eaef06
fee8f702
fa07ed00
00bcfe0c
e0f8f6f8
f8fdebf0
e812140d
f9e52411
29fb141b
e0100605
04f509d2
15fbf0fa
00fc060a
0807f201
07fef708
f3fbf5ff
f5051903
fae6f80f
fe1305f2
1300effe
fdfdfdfa
fc0030f9
01fbf606
0ce8fbee
e506fbf1
00000a0c
04f8f9fd
f8f7f7fa
01f1e9ff
f6f4fc09
0007fdfd
14f501fb
00f8fb0d
e6fb0af5
f7f9fc13
000b0409
11f70510
f3f002ed
0812f408
0df4fb19
0801f9f5
0a07070a
e4f908fe
0303e906
f90006fd
03092001
ffe50a05
f9ed0808
f3ff0aff
0a02f7fd
0f0df8f7
fe05f502
08fdf9f6
f806fa07
0000f5fa
00f7f909
000005fe
f900ff08
faf80404
f80600ef
fd0900f8
f5f104fc
0300ff05
07050b02
ecfffbff
f9fc06f7
fbfeeff0
f8e9f2fd
fa00f0f0
00f4f305
e4fcfafc
000801fa
eb0cff0e
06f00feb
fcf813f2
04f2f900
0df303fc
0cfc0203
0400070a
03f206fe
fc071300
ee02f00d
07fdf700
0106f6fa
040c03f7
fb011af9
fe17f30e
fee9e6f4
f7fdf2f1
fc0d03fe
09f209fe
f6fd03fb
eefe0600
eef6f60b
3807f106
06faf6fd
f7f8fff5
fc00fff8
fffdfc11
eff709f9
0a070401
04ff04eb
0c0dfd0a
f9f30200
ee0a00fb
0215f1fa
fdf5f800
f109fdf8
04f209f4
08fd0efc
fdfafe00
f00cf100
0300fc00
fa03f40a
eefffb04
05f0f003
f8f903ef
fe0af6f5
f50d00fc
0bfe05f9
1101f2f8
0febf5f7
02ecfdfa
fd0beff3
f8050df7
05f7ffff
f5f30ffb
08f8fe02
07f907fd
f01201f5
eb0bf707
fcf0fef8
152400f9
f100f608
00f309f9
e80701ff
e8f0ef0e
02f6e0e3
f004f9f9
f2f7f607
00f6f503
04f10507
e7edf01b
05f9ec14
ca15e6e2
f8bdf500
00eeecf9
fff302ff
fa0c02f1
21f3fff0
0902e2f3
1421fbdc
1c0cfb19
e61609f6
edef04ec
06111619
16e0c51a
11fefbee
09ec0303
d3ec04d5
1d0b23f9
e904f8f2
140209f4
17072cee
e839ff15
12fd07fd
f81401f7
ff2314ed
30eeddc4
fef13c16
ee06f1f3
fc021500
e339fef1
06e20f0f
241afad2
f257f0ef
00fc1007
f6000925
eeee3100
14ff00d6
eef3d9e1
efede705
29f4eed2
1005f40b
2ff31100
0fdd32ee
fcfffbfa
f4ecf528
fb050148
11fb10eb
3aef00e9
09f9edee
ec0ee3fa
12020703
0e05491c
0649fdc7
3cea011f
faf5170c
1f030a00
f034e1e9
eadaef14
160a2ad2
02f5eded
dfddec12
ec0bf60d
e9f908ef
f90d0906
f2ed0301
0808f6fd
f906f9fc
edf82bf6
2003edf8
070d06fd
f4040cf6
0c0afa0a
0c01fbee
170800f5
faf9f70e
0409020b
f4fafb01
fc13fefd
fefc0cff
27f1fcf7
edf01102
0a0000e9
0101fb05
f8f6fb18
f7040002
fd05f705
021809fb
fc0602f0
10ed1c15
f50cf2fc
0a07f909
f4000700
09ef0003
e8000d0d
0b021800
08ecfbf9
f50c0001
f208fcfa
ff0cecfe
f801f307
f6f1f5fa
f5faf400
fdf8f3f5
fbf700fd
07ebeffd
0407fdf9
1e05fdf0
0df4f700
f602e2fb
07f40bf9
f7e306fa
01faf1f3
120dfe06
eff107fe
08ef0103
f8feea0c
0cedf7fe
01110c00
fb0400fb
fcf503f1
fdfd00f9
fb12090a
fd05f805
f10012fe
020607f9
f404fd09
05f112fb
1829f2fd
f9edfb10
0708f1b4
f2e8f800
1efb08fd
fcf1fff9
06eee94c
e2e5ee11
10eafff1
0ded181e
2613fa06
f536f81f
042805df
f0f2f734
d52df51e
1afd03ea
fb07eb0a
f4f205ec
f50206e3
1cec06fd
10f600d5
ebe708f4
0bfff709
0132f316
ffeb08f6
02e73217
04d0e822
eff5eb05
d0ef0afc
13151412
08ece7f3
ecf8e9b9
0d1325ed
eef7dcff
f3fefee2
fff0fef9
0eed27e6
f2fb06f7
e1f6f8fb
f70d0cf5
dbf60a17
eed30802
1bf418ff
0d0107fd
e529093d
f9f53a10
f824f9d2
08e614fb
dec7e50b
140a05fd
05f9bef3
fcfeff0f
f308cc00
fad0bb00
e6e4d9f2
06eff8f3
fcef05f9
d534e1fb
d8f0ffff
0bfbe303
f00000ef
f2301703
fb1a0e17
de0b02eb
2b05dcf1
0c18dfef
e7e8e2e9
ee1d61fb
f23100fd
f414a4ff
12ed0cfc
cffde4f1
0600f9f2
050039c3
04ed1ff1
00d9d523
fbe5e4fa
fce0fcdc
370330fe
e7f7e024
040a16ed
311ffe38
fff9f0c5
e5f70a04
f8f4e306
0ffdc8f0
f4fe0702
dce3fd19
01081f00
f0181625
bcfee017
d7ffd40e
db00ee22
fb1dee02
f4eaf1ef
fef8f64b
00f30920
0ce208fc
2aeff8dc
16cd11ed
fc04fd08
16f2fbd5
fcdd340b
03f4fceb
f6cfd8fe
01f113f1
19eef3f2
10a81905
13f002fe
0ef838f5
e3f7f6e0
0f040f05
d7fe07f0
180ef4f5
161110f6
f6f71afb
180301e2
0d33f312
fff20af2
ebe1fc21
dafcfdef
03eaf3f4
36f6e3fd
1d00edfb
06040f23
07a8f503
fd12f5e5
09070700
e50bf60b
10340c00
f801da23
eec11bfe
f4fceef8
0cf533fa
00f814c6
40fe18f4
08fbfe13
1e1e1e13
01021853
dd1d0f14
fae2e9d8
e13ddfe1
e6fbffd5
f90af5c1
0007d5ff
0007e808
f8001b0c
200ce40a
f5010202
f506c20c
e910f20f
0c1cd6cd
e6fffeff
0f11f5c2
21fd1f0c
fadc1204
1c130bfe
e1f8fe13
180004c4
0bfa04b0
0ce901f0
1bd0f4e7
234a0cf2
07f6071d
17f7d20e
d4e9fd26
fbf2e61b
f5fee406
e2fff9ff
041bdcfd
20ee28f3
0139131b
06eef313
c901c5bd
f30027dd
17eb0109
47001ce8
04f9f9ea
23e22a10
fa16f0fe
15ead2ed
0a04130e
20f5f518
e10e06ef
0e03f712
b205bdee
d22cf904
b5f5f110
020a163f
130b0c01
1600f8f3
ee1600fa
0aeff806
f6e7fb18
070909fc
00fc1306
e30d17ee
0504f6f8
fc1111f1
f8061000
03ef0a07
0ce4eb00
0103040a
32170a07
07ee01f5
0cfef604
f00cfe11
f700fafc
20050005
fbf50201
04030ef0
f0f40809
01070708
ed08f903
fbf503fd
13ecfc03
07fdfbfc
030706f3
f9fff601
0405fd0c
f7f50101
0bfd0800
f5ed0002
01260bfc
fafaf104
fcfef5fa
00f80000
07f9fe01
f8fdfd01
ebf40a10
fcf6fa05
0703fa0c
fdf607f8
00010403
06f5eafa
02f427f7
04f4f4f4
f8f0dc09
fdf10cff
09f6f302
f906fe04
00fc0101
040000f6
f6010d03
06f20b04
0bfdff07
0210effc
fd00f9f4
20fdf4fe
e700f8ff
f50ffd0d
0202e7ee
00ee0cf6
09f000fe
01f1ffff
01faf0fa
08000201
fef7f40f
0502e700
08f70b06
08f11d05
1f0beffa
f70d1aef
07eff6f5
07f50818
07f3f7f6
f500f405
04040100
00080a04
f8fbf6f6
f9fff1f5
f7050ffa
fe0b0501
0205fcfb
01f2fdf3
efed0c04
03000715
fef503f5
01f30d08
fceff303
fb00f70e
04f70afe
f7f1f1f7
0809fb00
fd081017
0cf3fffe
ec0b0500
fef4fa00
fa01fffe
09fdfdf3
fb0f0902
09fff1fb
fc07f40a
fef3fd07
0ded06fd
f3f5fb06
13000d06
01ffe809
f618f4f9
0a08fefe
0a080406
0006f7f7
07f2f806
faf8f6fc
f209f4ef
fffdfdf8
ef02fa0d
04f7fd1a
f8f6f7ff
000009f8
f9f810f3
f200fef5
02fa0101
fbeefd07
0011f819
03fc0909
f5fb0cf0
ff0608fd
fc000e08
0d070d04
fb01faf4
f5fa0b02
f902f9f5
fa0000fc
fbff08f2
000f0000
fe1610fb
f60d0400
03feff0d
fe08120a
06faf801
fe08fe0c
ff060000
02f701fb
fbfffafd
fff8f906
14fafafe
00fd05f6
fbf618f6
ff05fe03
fffaf815
fd07fc08
0206fc0c
fafd0efd
02fdf7fc
fffdfef4
0b0005f3
0c16fbf8
f60cf709
fd06f811
f1fcfe07
02fd04ff
0700140b
f600050a
fb05fdf7
01f4f8f6
fef7f404
030af808
fd09fe05
05050309
f7faf7fa
0308f501
fc0bf0f8
09f107f5
fb0a01f1
0d11e2ff
03f5fdfc
fbfffa00
fa040bf4
f3fef908
fb09fe06
00ebfe12
f100f7fe
f80aeef7
0d0003fd
0d02f308
020000f6
f5f20510
01fe0a0c
0b0afdff
ff02fd09
000200f3
fcfbfffd
f6fc010e
ff0e0208
f6fc0202
fef8f202
fd052000
040507ff
fcebf601
0e00fd08
00f3fdf6
ff001500
fbe0e7eb
f9faf3e5
fefe09f5
f90a0401
f5efef06
04f701e6
ebf60015
11f9f600
0a07f804
f9f6f7f9
f5fcf805
08fdfe04
f00e1107
e0f6fdfb
f5f11aef
07000200
18f7fe04
06f1fdff
0017f3f3
f805fe07
00fb0cf2
08f403f9
040c1207
02fe1b00
ff00060a
f420f1f4
0ff803fc
f9fcf9f9
0502f202
f90300fc
02ee04fd
f00efdfd
04f9f30a
08fb0d07
1a1600fb
f300faf2
effa0b00
0002f50e
00f9fffd
14f106fb
f4f7f1f8
12fafd00
040bf101
02fe03f8
f700f705
ef2500fe
04f907f8
f6f800f8
f3f00700
f40000fc
0ef610fa
f9fcf9ea
0300fe0f
fef70504
01f7f410
0b0ded19
0cef0e10
f01b05ef
27bdfafa
031af304
0ce9f20a
ebd7eff6
c7e2e701
f5eafff4
010df9ff
1d00252a
f7fe0a03
e1f80006
0d2ecd07
e433de15
07f4fb1f
0d0600e6
fded0015
08dd0632
e0feebfc
e9f3ec03
09f4fa04
01ee160d
f70e1435
fcf70811
fd181026
e514fe1f
f0f7e71e
b128e60c
08142a0c
eda6e513
f006f9b1
10d51717
feb30022
090803e6
11381535
f5f3f005
2207c7d3
f1e4eb04
0af8e705
071fe8ee
08eefefc
1701fcfd
06eefaec
050914fa
05f00ff6
ec1306d9
fc2809fd
caf61306
1513f00b
060604ed
01f3ea0f
02fd13f5
080ddbf5
fde303f6
feff1df8
011204fb
36030008
12f210fd
1ee6e7dc
f4f6f70a
ee4105fe
f3101ef4
0707fb12
2af9f7fc
05dee8f8
0c08d2d0
e7530df7
17e1f0f2
fee9e3fe
2101ed19
d9e4de1a
1bfccef5
eeff1eb6
ed1607ef
f90f04fc
f1cf202d
eee2f51f
e2f403ed
f5100152
f7e0dcde
e3d0ffcd
07ecf419
4acc08f0
30f6ec01
e7183206
08e4fcda
e6f607de
e9c219d7
00f2ed1a
e0f5ef0f
ed0ce202
2dd40b1e
16f2fafa
f219e50f
0004f8f6
390dfae9
0700e9e9
e8e6e2df
e9d2be21
e30022ea
18e914f6
f3ed2904
ef000fea
0a1fe805
e3ce02fb
12ea01e8
fbd308f5
32140c2d
ff2f55c9
ff05f7ef
ebf81a03
aed8c9fe
0610e5e6
d4e9f7df
e1defa13
d80211ee
faf8c7dc
09ff1e43
eb0ccbe1
11e6eeef
2ce27813
ffd8faf3
71f6132d
ea161ef5
1c3fda19
ccf431da
0df4ef0b
fa00031e
03e90a0a
ef030616
03fbe801
e703000c
ed064eec
e4021cfe
300323eb
e3fd3bf9
00dceb37
31ee250a
e12cfdf4
031219db
00ffee2d
defce10b
32f936fc
fef52203
0714f3ff
fe0e203b
bf19f4eb
d3fef60e
f3fff905
05060006
1044e2f0
0a08dbec
0eedd5e9
10d302a3
24ff32f3
1b0ff30e
00dce9ff
0add220a
09f907d8
f1eceefe
1304fbe4
c90c1d0c
0115e102
03e80cfe
bde71641
de2105f7
fdec0623
020a0bf7
f119e5fd
e70ff8f1
ef42f6f7
f900030d
07e4cac6
021e0c00
ebd8e7f2
45ecfdf0
d5ff15eb
0004f703
1913eff2
2bf91a09
0ace022f
04fb062c
14d80f18
0e0200fc
e30108e9
dd360dfd
b30e01e0
04f2e7df
f215fe05
1ee5f9ef
0dfcf100
0103fd0a
02030303
080af708
0b09f808
02010afd
0002fbfe
fcfdf50d
f7f70ef9
f0f7fc00
01f6ea00
07010512
f7f80000
0af9fc02
0b0411ff
040b0a06
0ced00fc
06fd0afc
07fff80b
00fdf6f8
03ef0403
000000fc
fd0801ff
eaf50206
1b04ee0f
01fdfb01
06050001
fe000402
09f90a06
04fe02fc
0902faf7
07f805fc
fe090605
f9f9d304
0e000bfa
02f5f3fc
f8fe08fe
fcf707f9
0cfc09f5
fffcf900
f9fd040c
0cfaf8fd
fc0dfc03
ff08f907
f10800fe
fff5fc03
0000ef00
050207f9
01fdfc00
ed0cf8fc
120c01fa
eb0b0602
0005f7f6
10fdf6ff
fa020e0a
01ffff00
f5ff0efb
fefd04fd
dc0e00f5
04070006
f001f50d
00000413
ff00f803
00feffff
fdf604f8
221b0ced
f623eafa
170de3eb
000b1df2
f713eefd
0417ba01
fc08fb19
dcf0edfa
ebfae507
0a070b03
fdeff7ff
e20a23dd
e2091a20
f71c07fe
23051ddf
cfebe3d6
f7ff2501
0800f01b
040e19f2
fa0207f0
feef0d0d
e7f6cbff
e7001df8
080d06e5
fff90cea
fff9f8e9
16200523
f61bfc16
cd32f304
fe0207e3
e214f512
21e9fb3f
122adeec
012d17ea
032001ee
fbe3f215
08f50612
2e1228e6
1bcc1ef5
1417ed28
10f7ed1d
1d030710
16fc06fc
f3e1f8f5
f4f8f7fe
fef9c300
edf41bde
1f36fc1e
24f0dbf0
0705e503
39102106
f511e9ef
0d00fa07
01fde5ef
f2fa0015
f60bfd0b
0109f8fc
020bc400
2bfbf20d
30002ee6
eefa0717
2ac6f6fc
4aedf8ed
fc03fbfe
f0f8fa01
fcf900f7
fd0004fc
fe00f300
0101f512
fafe00f6
070f0502
f812fe00
f5fdf9fe
fdf5fc02
0002f404
01060007
00f8fef9
04f4fefc
f40100e8
0c09f90e
11f904fe
f6f5fa08
ffef01fa
f504fcfe
00fffb00
01fbfbf6
08fefb14
e60d0010
f501f6fd
f50105fe
0b0df4f7
00020e13
fff803f8
f6feef0a
f1fd05fa
fbfe0002
0df6e50a
00fc13fa
01010ef2
ee00f406
f100fcf8
0afcf9fc
0111f7f8
fd00f812
03fef105
02fdfbfc
f9fbfa0f
02ff07fa
0100fcf9
f9f408fa
f2f004f0
0f00f605
e60009f1
f3f909ff
ea01ff02
f72efbfc
0ffb0f07
1f010afc
1403fcf9
f4020703
fefafb03
fef9feeb
f8f6f2fd
03f9e2f2
fbfe00fb
ee0408f0
f4fff8f4
f4fd03fe
f7f1f212
130511f6
050cfb07
f7fb0a05
fdfc11f5
070c05fe
0a130eeb
f6f902fc
fa00fe10
00f20200
f0f6eef7
fffafaf0
070d190f
fced0004
f806f8f8
f9f90e05
ef05ff0a
00fa14ff
f304fd0c
02faf809
0dfafcf9
0707f7f9
ee09ff00
0f03f1fc
0206fa19
f7fcf8f7
fef2f801
0401fe01
f60501f5
faf8f90b
14fd0500
f7030bf7
fb0500f4
f9020b04
f81106fc
0200f103
0f0bfd09
121106fc
0701f807
f60ff8f3
07020308
050703f8
f7010603
0bf906ef
f4fef309
0506f603
1801000a
10f5f90c
f2f70409
f4ed000d
f9f8fafc
11f302f4
041afb03
f4f904f0
01ed0fff
f8f8fffa
060706f3
f4eefc0e
f5030024
09f500f4
0401f6ed
01040cee
f30e1614
faff02fd
f5e017f7
f8ecfc0e
f9d20a7f
1562dd02
00e60b06
e12342ef
0d070e10
56180902
e011fe02
f6f8ee50
0707de1c
00f3f2f2
00f21800
e90ddefc
e60cf4d9
f40f09d2
f0111702
11db0014
190de815
1af3f6f7
00ff0a07
dbf345fd
ed16fbd8
1d0e30dc
edeb05ef
0b1af4f6
08f90af4
27ed24ff
4fea010c
f2fbea01
355225de
1af411fd
d33ffbe4
14fbe816
def20f09
f7ddd90a
ebfed8f3
f3e82f1c
fb250909
01160b27
ee4515f2
1ff60002
eefc000f
ff1f13f4
260deef6
f50fd4cd
f7fff02c
0c13f7fe
00e8f8eb
f30600ff
e2e80005
eaf80af9
f5f9ea0f
f5e8f0fa
1afeed06
1f14e1de
ff17eee8
20e1d21b
ed2a24f0
dd14f529
f0f3eeed
0deedee6
f902ff02
d3e20fff
f40a1503
eff90018
fa00fffb
f7faf11e
1ef715f8
f8fdf104
f611f0f3
01fc0b01
fd400016
f5ead303
01eef7ff
e50eeeff
0300f40a
0208e703
00e7fe00
f4fe0200
22060a00
02f70300
fef4f101
fbe60703
f8180007
effa0403
02f8f201
e6fe0305
0f02fd03
1aee16e9
f408ef02
01080513
f20208fe
f6ed16f0
05e906fb
05150e04
fc010005
fb05f501
00f8f3ed
f1001c0d
0af8fafe
0609fc0a
f1fe06ec
f4030403
eef9fc00
fe021900
f2020d0e
09efeff2
0001f108
00f5f1fb
07010cfb
fd061200
01f807f0
0d05fb00
f9ff0608
fafce9f2
f40df906
f0f9eceb
fb292a03
e9f5fbf0
e705f2ff
d505f5f9
fdfaebfc
f60de4ee
06fd0101
fbecfffd
eb0efaf6
f8fe0602
fce40d14
f707ea09
15f3e52e
e3dde0f1
010200f5
e7073508
f5130afb
1d0c1ff6
130314f6
dbe4e60d
e11216d8
1aff0cfe
250603fa
04cf3618
32e709fb
fae9f31b
f0f727fd
f803fcf7
0af5e8ec
fde7feff
4a0c09eb
16000ef3
0f0f01f6
10f70a19
0300fdfe
0901f700
ee0d0ed3
e60340fd
45fbf301
e518090c
1eff09e4
ea00f4ed
f0a7250b
e156ee1f
e0f2f9f3
0af2e8de
00ff08ff
f807f83f
05f8f3f1
10e5f5f5
d425030a
1afe0308
e9f0f302
fb0c17fc
000d0fdf
f51f0652
072cfa03
0c010dfb
1dcb13e3
01ff05f9
e2d407fe
f80eff00
0d01f9ea
fbc9fd34
012018e1
f6fafaf5
1d09fdfe
0adfc0f3
151dfd13
caea07ee
00ee1116
00f70422
e4ecf8f0
e8e40401
fd1410fa
07f7fe08
08fcee0d
07ff00fd
2001f9f7
070a0301
280beb09
0203f709
00080608
09eae4fe
150bfcf9
01030700
06fb0203
0deb0e0f
15eff3e6
f9f2f617
1912000e
02e91100
0a02f7fb
12f70904
feff04f7
050a0d04
fe030501
1eed0a16
00f3fc03
0cfd0604
ff0303f3
f4040a02
fe071af6
0e040305
f6f00bee
f10204fc
fc05ddfe
0fe8f701
00fdf7fe
0cf90d04
0410fb0d
fc0112dc
07050a04
020f0104
fff7001b
fefbfd03
10fdfa00
010e04f7
0ad80613
f2f9edfa
0d0f07f3
fc031204
e800f800
fded070d
ea040e08
fe00f9fd
09f30d0f
f901e912
fdff030f
f40df506
fcfdfe0b
de0401fb
0a00f500
ee12f703
f30fee0f
f9020100
06040cfb
0c0dfd0c
e9040009
f9e4f713
f8ff01f9
0406f310
18050cf0
f608fa12
0afa00f6
f6000d09
f4330401
f9ddf400
021afaf7
ed09f7f9
03fd0000
04f7ec05
f1f502fa
e8f4fa00
fefaf9f7
f8fb0000
f9fcf1f7
e3f6fcf7
1a07f00e
e711fcfb
060303f6
e1fdf8e1
fafdf701
05fb05e6
f3fe0807
ebf700ff
fef20304
08fb10f8
1ef707fd
0df719fe
07000603
f509effd
f702010d
010e11f7
ff09f604
effa0508
f206020e
fd040c03
190cfb08
01001a04
00081413
fdf9e902
f7fcf902
f5fcd6f7
07f80302
08f91a01
fb0d02fe
f7f8fc05
faf9ff0b
fdfbf906
001300f4
07feeb00
f5171908
f7f2f1f5
f107fdfb
ce0ff6f0
fc0df90f
ff0ff8e1
00030308
04e2f104
01efeff7
010e1705
fd0208ed
fe000301
0901fdfd
fe0cf900
f5f6fbfb
040704ff
0204fd0c
fd0bf4fe
ff040103
fe130106
faff1200
060604fa
fef7fbf7
0b040208
09060004
05fcfcfe
05fb03fd
0301ff00
020000f8
1906fb05
08fb0200
0cfb04fb
fb09fa0b
ff01fb14
fcfaf901
f603f301
fd0a0408
0901f307
03f8080c
00090707
fd09000a
fef9f1fd
02fef3f8
fe00fef9
0701fdf9
fdf9fe05
fe0000fe
0303fefe
fc1000f5
fefb0402
fcfffc04
f7ffff10
f302f4fc
03f705f9
fdfdfcfa
f906f602
f80500fd
020c0bfb
f30307fa
06020702
fc0a0007
04fc02ff
fdfaff05
f9ff0a07
07f80102
fcf80a08
0afa0500
fe040903
09fcfc09
fe06fa04
fefdf601
fb040001
f206fbf9
fdfcfafa
fa080110
fe150004
f5021c0f
f4fdf2f4
fb06f8fa
f0f60600
f1f2efec
0ef301f4
f0f50a04
fd13fe05
1403fbfc
20e9f8f1
fdfbf30d
041703f6
0216ff16
0200ecf8
0306fcf3
fefe0000
f7ecf718
df01f8fc
ef0d0002
fa0d0102
f5f90f07
ff02ee1a
fa0af4ff
0006f108
1d0b1101
f10107f4
05fc05f2
f8f3f004
f3fb0c01
fefdfd00
f4f4fb00
f9f70bef
fae802f8
f6ff0a00
00f50a06
fef3fdf8
0613e5e6
fc00fafe
030f03f9
f911fffc
f40b0200
f604fcfe
09f8f9f5
0bf9edf2
f6fb1efe
1207ffff
edfff209
091204fa
edef02fa
f5fc05ff
fef11804
ec01fa19
15ee01fa
f60b0e0f
11fdecfa
e600f9ff
fffafe00
fc03fdff
fef9050d
f613f9f2
eb08fc0a
050800f9
00f8fc0a
edf80508
f8f8fdf8
f2061500
010819fc
faebf8f3
fc03fff9
f8f60810
05150512
0afde3eb
f804f8e4
fc0503ef
0805fefd
e5dbe90b
01e80bcd
fff8061e
19fbfbf2
fb04f6fc
0d0708fa
f013f603
0afaf301
02120009
fb04f30e
f6f628f3
00fbfd10
08f1fef8
fef7f5ff
fb0bf908
faf6030e
f6000ff4
0d00fcf7
f8fb21fb
0df91503
ebfffcf3
fe0d1007
0000f6fc
fcf708ee
f1f8e404
f6f01504
01e504f2
fb2200f5
11eaf013
0001ff09
0f0d11f1
f7f8f4f9
02f6fcf2
fe08f90b
00f30cfa
00ed12fe
05f4eff0
09eeefee
f6f7f1fb
000005f6
fcf8f6f0
092900fd
07fa03f4
0103f802
eaf206f8
e90316f8
0ffe0cfa
04030ce1
e8effb05
0000fff5
0108fc26
f2f0fb03
09fd0902
f40e17f3
03f6f506
fd010deb
f904f8f8
0414fefa
fe0d32f7
f4f8e809
08dbf6e0
ff00eaff
f701eef5
f109f009
f0f4fa03
e4f0e8fb
f4ee000d
1600fe02
fcfc020f
f5f805f9
0000f307
fd0afcf8
ff12f508
f8ef05f3
ed080305
f51608f8
04050707
ff06ebef
ffff06f4
04f1f4f5
f40bedf9
f5ff0bf9
fa04181e
f7fd0004
fef8f006
f400fdf6
0509f405
0a07ff06
f6f5f70b
f422fd04
07040400
fdf1f211
03fffa05
04fafdec
f0f2f5f3
faef0c03
fe0aea04
f908fc09
03f20405
fafde709
0afc0408
f3fef9f0
00f6f700
f70cfe0d
05fcea09
0d0b09f3
f0ef020d
0807f5f7
f4f9fa05
f70a020c
fdf9f0f4
f2fa14fb
ee02fb08
fc0610f9
0af20300
fc00ea22
f4f30400
fc09f8fa
10fc0c10
fef61507
0cf4fd05
f6090402
f7f421fb
fd07f1f4
09f0ec00
f9f4fdf8
fafaf701
10f90ef6
f2fb0000
f2fa000b
00fbfef9
f20c0003
fef7030a
f5faf702
fb0108ff
feff0006
fefffe0e
fef4fa01
f6fcf803
00000015
17f50aef
01f1f3fb
040709f5
ec0ffafd
09fcf0f4
f9f2f805
0d101702
fbf9fef5
0105f6f3
09fffaff
f811fffb
09fd00f8
f500ff03
00fffc08
ff07fbff
00070bef
0403faee
1000f40d
fc09edfb
0500f906
f607f1f8
00060703
0b030017
fcfbfcf8
080802ef
f801fc08
f1f504fe
ff0bfbf4
00f9fe05
ff00f9fe
f9faf4fd
fe01f9f7
f800f8f6
ff07f41c
03fff9fe
02f5fff6
fbeefaf2
0001050e
fa05120c
f4eceb04
05f1100b
06f403fe
0c140a09
f10018e2
f6fafbf7
060ded04
f80cf4f4
00fc050a
02e3ebfa
020aeaff
0af51a0b
fc0a0c02
f4f60306
00fafb03
e6040205
0b05fc12
11f41001
f5f707f3
ecf5faff
13fceef3
f8fbf7fd
00fef3fd
02f8fc04
f4f70007
030f0eec
effce8e7
030908fe
f403fc12
0924e6fa
eee7fcf6
f8eb14fc
0ef2f9f7
fafcfafd
ff1300fd
fd0007f9
f7fdfa00
fff4f5ed
ec0df312
00fc03ee
00f10c06
000cffee
0404ecf5
f70000fb
06ebef0a
ef0ed3ff
10f6fb0b
0d02fb01
ec06f5f0
00020712
f7fc0bfb
0008fdf1
0007f301
13fefbfa
0df3f104
00f00503
04ff0bf2
e20dee06
e8f10506
160403ed
f2fe140e
0cfe0003
ec050208
04f411fd
0dfefdff
f5fbfa0e
f6fdf6f5
00f505f7
fffefa02
fffa0400
00fc0305
0002f70e
fd0e02fe
0007f40d
f90404fc
fc03ee00
f40103fa
fafd06fc
f406f6e8
06fefb00
fef600fa
fe14fc03
02f50402
f815fc03
07f7fc03
09f502f3
fc02f5f7
08fffbed
03e5ff06
03fff806
07eff10d
03fdfd09
fffc0200
f6fe0bf8
1403fb08
0c090500
0107fdf8
fb13ed04
010206f2
fbf8fc0a
f6fa11f6
f8fbfef8
f5fbfbff
fb01fe14
ff03f6f4
fdf605f1
03f11002
09010400
0d000200
09020706
f7f50004
f8faf8fe
f3ed00f3
fce9fdfa
01f9ecf7
fc00fd0a
fcfffd00
01ed1aff
fa0d0403
05fc0503
f7020305
2af00e02
fffaf4f9
01040206
01eff1f4
f906fafa
0500fe00
f6f909fe
08fbf8fa
ffed0bef
eef9ee01
f315fe1b
1107f0f4
f1fe0000
fc0ef7ec
fb06effd
0718070b
fa0af7ff
fffff10f
f00804f2
16f40000
1406ff0f
02f8fd00
fbfa02fe
f2f8f60a
0ddf00f9
fcfbf3f9
11140004
0afe0eee
000bff05
e9050f03
ed07fb0d
0ce70e0a
0a0003e6
fc01f809
00f80102
27070def
0a06fc06
f1f10011
fafcfff9
faf4f702
070af8f9
05eefd0c
070810f5
150609f6
f10d0bee
04fd0af6
fb0decf2
0afe1114
fc000bff
0316fc06
fefff5ea
0203f7fc
fa0ce6fd
1702f204
08f518ff
eef7e90c
06fcff11
0b000606
fbf1eb06
f0000401
0a00dffb
0b071003
f2f2fffa
f80cf502
f3e70502
0af80b09
f704ff05
0209f904
fdeff9fb
f0280316
0d0a0afa
f8fcea07
06f204fd
e8edf1f5
00fcfdee
fcfd0201
0216f7fb
f1041002
000efd11
f8fdef15
150e0dff
ee0c05ff
f802f3f3
0b0200fc
fe120403
050500fc
07fd00f0
fb0ffd08
f10413f6
08f90afe
fe1c0cfc
ecfa0afb
0afcf5fe
1cfb0213
f11500ff
08f104ff
f80c00f7
0612ebf4
01fa010d
1204fef6
fef4fd08
f103fafa
01000ceb
0bfdfe0a
f0f809fd
f9f2060f
fbf4fefd
0513010e
0211fe05
14e2f207
f6faff1b
f6f7ffef
0e09fef6
ef0aecea
06f60b01
111406f7
0015f4fc
15f302f1
16091001
f4fffc03
020bec10
f104fb07
f9f6f606
ec0ef0fa
f80600e9
00f20c00
06f5e9fa
07030a04
ecf9fdfd
f3040302
e7ff000c
0a12180a
f8f408f8
fffff301
f5020705
e8fd0bf3
f1fc0a08
e5eae504
08f2fa09
07fc03f1
050a0c0f
0708faf6
f305f907
11ff08fe
0dddf407
0005ecf9
070cfee3
09f7ff09
f9f213f0
edfef402
1df8f7ff
fb01050e
00f50616
0f0b0001
1ff1040f
fb09f81d
09f700f7
fb07040b
02f21912
f60705fa
01fcfdfe
dd05f702
01150e0c
eb0bfb19
f40a15fe
fd06f3ff
06fb0500
f403f1f0
fd08fa01
ec11f1ff
13ec00e8
f7f50b13
fdfc0f02
0e151205
f0fa0009
fb0816e9
f924fdfc
f80cec02
14fa03ee
fbff0802
f101f002
fff000fe
f7faf6f6
fe050afc
f2fe00fc
e916f6f9
19f6f202
eaf70010
fde2fffd
f2fcfd0f
06fd15fd
06fe0701
f7e7fd03
fb0ef815
fbfcf30d
f70702fc
efec11f3
f3fe08f5
ee040f06
0afc0601
12fa16f6
0cf1f1f5
0501fffe
f5100608
0304f8f6
070d13f1
fe070209
04f9fc00
0ef707f3
f8fffdee
f7ecf1f1
00f6fef5
00000100
feff0001
ff01fef6
fdf8ff16
08eb0efd
05f6fffc
0900f907
01fb0bfb
0e000c02
07f40a04
fbf505ef
fb030c0a
080505fb
f2fc02f3
0109edf1
fe11f40e
0af9f5f9
0203fefe
150af3fb
f7f4fded
fc0101f2
00040f10
15f6fb06
10fef105
04010100
0efcf3fc
000af7f6
090d1400
04f7f808
fa0e03f4
0af40af8
11f608f7
0808ecf7
0a01fefd
02e8f508
0afc04f0
fe040e00
0304fd0b
05fdf6fe
ff05f6fb
01fdedfa
fcf9f405
fc08f7f6
0300f8fc
ffe608f7
fa0af306
04f504f4
01090fee
07faf7f5
fbef0800
0c0e1303
0cf1e40b
f30e0622
38fa00cd
ef0ad8f5
eef9ff0f
0208fcfb
faf7ed3b
15e20efa
0e00eb0a
0b24f2e9
3100033a
0fe90d15
f7f42505
2ffc0716
11db0d02
02070507
f302f5f2
f903f9e7
01f20414
0bed0007
d518f6f7
190a2e14
0fe512f4
ff07002d
f0fa11fd
01f0f6fd
02e9faff
16f12a0d
1dfa030f
06f62d03
01ebf255
0005f608
1c18da3e
f325f9f4
ebf1edfe
e20c082c
00f3c5ec
06feff38
f7151308
02ee27ae
0afe15e0
0df7fdf0
17fb1703
0bf616eb
fcf4020b
00f0e318
f802cafa
facef4ee
d4c824f7
26f50d0f
f0440104
e6f4fb0f
f80f1a1a
0f2bfbfb
1611f81c
2b12e9dd
05f6fe08
0315451a
f200060a
eef5f2e8
fff908e7
0225fb15
df00050e
f1e42600
0a0201dc
02f60a0b
0b1417f0
0a01e10f
06020dfa
f30df806
0905fcf0
07ff0605
fa0fea1f
fbe02417
05f30a08
ff02fd0f
0af2f9fe
0cf81705
ef0af814
f405fdeb
140b0204
ffff0508
f5f90ed7
0bf1fe06
0000fb06
f800f3f8
0f0c0709
1301ed03
fc08fd01
020bfcf6
f40c0af0
f8030608
03ff080c
fffef2fc
f8fefc13
fff103f6
fd07df02
fd0af906
0dfcf609
f7040904
0cfaffff
f3fe0804
01f0f7f9
0507090a
16fc00e9
fc1512f2
02fef701
f1ebf500
0b02f712
f9fcdafa
07f60ced
0cfe0efb
f212f001
07fd05f6
e70a0cf7
fc03f7fd
0af5f506
0b051b00
08f5fe00
0103eef5
040203fa
b310f4f5
0b02fd13
f013fe01
030bfb2b
06f500fd
0cfa0008
f60e0ef2
f70105fb
fe0403fc
fcf80703
ff0deff7
f900fefd
fdfc1101
f80bfd17
00040603
fb000809
fe1023f4
03ff0dfb
0ffffe0b
0602faf3
1003fc0a
fe1c0209
ed03fb06
140af905
fe0201f3
f40006e8
14f5fb03
0b0504f9
f9ff0605
05040115
f703fc20
fbf5f705
0107fa02
03000906
f60905fb
0afc04fb
ffff0b05
000cfffd
fef7f513
09030006
f91000fe
fff9f8f9
02fb0400
07020ffa
0efc000f
0116f6fd
f8fc01fd
f9fdfb00
f6f8fd08
f9fc08f0
06f60700
faf7030a
fffff102
04fcf4fe
fd0b0df7
f5fe0d06
1209060a
fcf601fb
01fe01fd
ef0006ec
f80c0806
0bf2f800
fef70305
0606fcfc
e7f2f4ef
0d08f50a
050100f8
0004011e
fa00fff3
fe01ff01
00ff02fe
0e1ff3f1
121e11fa
2800e2a3
172f1609
fafdfd02
f212fbfc
e411faf7
e4e80ef2
e3071f17
fdfb1ade
110c1a34
00f5e52f
02fd2207
f2f9f3e8
16f0e005
1bf82618
0324c9f5
1b10050e
0005f711
2602010d
0d06fb00
ffee2712
f20811fc
001b12e3
f70d14fc
010df208
e503ec1b
1a03f90a
f400323a
e906140c
07e1e51b
110cfc00
1505ea3f
0fe12cee
4501ee09
0559fa12
04f9cf06
0a0bfdf3
fe0009ef
e9ee04c0
1bcbf624
0009d9e1
020b170d
fffaff0e
f5f909fd
12fee9f0
f0eafaef
05f9f212
f4fa1509
0b10fdf1
13572e00
01fe29f1
06130031
0a2e0e18
08f2fe14
171c0600
ebfbf8fe
e7451f08
1b19f8ff
e8f5f9ee
10f306c6
092cfd08
24e4d9f8
eff0fa00
030e00f8
11f100fd
f805ef0a
f300fd0e
0c000004
0a0ffc08
020900f1
fe060aff
0c18fe02
0cf50402
050dfd01
f80004ff
fd010005
ff020513
fafe0416
fd0cf400
0a07fd08
08f005f6
0406fa0b
04fd0d06
0708000a
0b0bf612
050310f9
fc0e0807
ff050700
f1f30200
fd0dfe05
1207fc00
0c03020e
11fb070d
f1ff0f07
0bfbfcfa
fef2f8f7
fe06fb01
04f70004
0bfd0cfd
110400fb
f90dfaf9
01ff0e12
fb00f100
080006ee
00100d08
ed15f702
f603fcf2
08eefb07
f6f5e1fb
06040dff
13fc260a
f70ff606
fc1c00ff
f0010912
12fefaf0
0ffd060d
09f7f903
020e050a
f9f700fb
f60607f7
e5fdfcfc
f2070000
fdfc0704
fa02080e
f6fcff03
f7fffb0b
0701fc06
0403e701
020a0407
00f2e405
0c01fefa
030c1cec
0c0ffd01
0008faec
01ed0107
08f002f6
f8ec0cf2
f60df9fa
08e7ee09
0aff120c
01fdf607
14ff07f6
000202f7
01f202fe
03010e04
03f6fc0a
f7f6f903
09fc0bf7
fa0702f5
07ff07fd
ffebf2f0
0af0001c
f40310ec
f7feeaf7
0700edfd
ef000cf1
0c0508f9
1206fa05
04fc1efb
01fbfffb
030408f5
f90e0511
030ffdfe
0c0afdf2
0103faf2
fef4f701
0def0702
10fbffef
f9f109f3
f90c04f2
fef8fef9
fef90bf2
f70bff00
090c02f3
fff20bfa
fd14ffee
fc0cf4ff
eefcf5f5
f107f6f4
0b00eefc
f3f8eae3
f003f506
f0f61004
fe0af4fb
ececf400
eafd0024
00ef0ef6
eff90af3
00edf405
e9fb1000
f4fa1f10
f5e2eff9
fcfbf609
fefb0f17
f9efeaf3
04f901e7
fbf843f8
fbd1f945
f5f9ed08
f1f917f6
11fffc43
000d26f5
e108e2ea
f3120303
04f80337
e4e0efe3
eef7e4fa
00ee010f
f6ff091a
f5fa00f7
25fcf905
f0000fff
08003a08
03fbe2e2
0117e344
05e810fb
fd041f0a
fde5dfff
20032e07
110b21ea
06111afc
00cf1215
fb08ffe1
133e1ff7
001fecff
2ffef0fe
ee1ece34
f9121a09
1d10e508
e91c0817
f106f738
f50804e8
f908f4fc
eff9f004
ed0f1ff2
14ee130a
01fd03f5
f22a0806
07f413f2
dd290018
fcd107f5
eafdd7ef
00eaf901
e50e063c
f904effd
dbf70812
ef0f2502
f615f900
001b0f04
e70ef6f0
30eb1f2d
f902f609
1f150ae4
dd172613
04f5f0fd
eefcf40a
f1fdfa07
0704ff0e
0204f90a
f70021fe
0102efff
fd1ffdf3
02f20bfc
f3ef001b
f7ebddfa
040301f6
06f3fc0e
0901f8fb
fbf401fd
0504fbfb
f50801f2
48f101fc
f4ff0006
0ef7f3f2
e5060708
0003fd05
f3f917ff
fbf8f500
04f2f600
ef0103f3
27f117eb
f901f6fb
001d0600
e70602fe
0005f9f3
ffecf500
00fb1ff3
09f20613
01fefcf9
ff0dfbfc
060f0c00
fc07f8eb
07ecf60b
01ecf9ff
fcf9fdf8
03ee07f7
00f60a05
0cf9f200
1df8f500
04faf201
f5fee70b
15fcfc00
04fbfff1
fefcfafa
02fdf6fb
f0fbfdf8
f505fc0a
fe0ff802
fef2ecf2
fe23fd05
0703e8f2
02f4ebf8
f2f4fc00
000eef1e
0507f4e9
03fd1a00
010bfaf5
f9f407f3
03fb05f3
15020401
05ffec10
29ea09c6
4135f9ef
020b040f
0b16d2ff
e7f108f0
c40afc1d
e0e6dded
edf815b8
0b1538f4
f900ee18
0513dcfd
27eee513
ee051def
f1000f20
0e0200fd
fe020ff0
fcf9f6cd
0efaee0b
0909e9fa
19dc2004
eee4fef9
fa1d0029
07f7fc00
0223e734
b3f0f81e
f4f7f510
b80a0cf7
fc5100fe
e8f6070d
f8fb030f
fcf808f5
06b80511
f5e8fbe1
fb201622
09f036f6
12ec51cb
06fb2ff6
09fa0cfc
f802e9f6
01e70500
0a00ff05
16f7f3eb
fe0922f0
10091bdd
fafa16f5
08120b1f
cdf02ff6
0028f2f5
fbe701ec
07d6140e
0e0b41fc
19d6f1cf
edf3f4d0
ff0f17ef
ef0303f2
f3d7f215
f1f30b02
3cef00f8
f3fffbf5
1ebe03f3
1c210800
1dec0402
00000002
fdfffa04
020007f9
01030104
0c0cf9f7
0204fef6
faf81d06
f0f90ffb
f9ef0809
0ce7fc03
0b0100fd
fc000ef6
f20002f3
0c031201
06f7f900
f108f6fa
f20005fb
06f5f9fd
0210f71a
13e5f3fa
f70202fd
f50d0500
e3eafdf0
feebfdfd
f718fe08
14fc0f21
0703fdfe
061403ff
fffd0e04
0afaf800
0c0a00fe
02041009
02071af5
fbf8f7fd
0c08000b
f70200f1
09fd0003
f5030a04
00080201
fd040700
f7f70706
f405f2f6
0a0219ec
0ff2f014
02eff4fd
02ede5f8
f6f9f006
09fe0cfa
fc05fc01
e5f80509
060101fe
f7e60820
e3080a0d
f0fae507
0001fff8
ecf7f918
ef09fbf0
00f207fa
04ec080d
0200f505
ff0508fc
f00005fe
fef703fb
04f6f8fd
fd04f506
05010a06
01f0edff
f8040905
fb081a00
0ef7fe02
101318fc
0ef8f4f6
0cfffcfa
fffde900
fa0300fd
0cf7f7f7
04f50308
09faf90b
00f9f0ed
f40bfff9
02f8fd00
f8fe0cf8
f0edf6fa
020d02f3
06f7f2f9
f709fcfb
f4fffdf7
04f6f902
00f0030a
16ff0501
05f100ff
fb1f05f9
eff60bf8
f701eef8
f50b0806
fbf9f5f8
f705fb06
fbfbf809
f714fa0a
fb0100f7
fe0002f7
0100000b
f806f200
03fcfcf7
04f410f3
0308eff6
00f9ec05
0f04fcfc
0608f9fe
0af6f3f3
11f0ff05
fd00fafc
faf9fcf8
f0ff030b
f40aff0c
0906021a
0400f700
faf700f5
03ea09f5
f70900fe
f70c0bf9
ebf0f103
000cf41a
f4fb01fa
010d1315
fd00ff00
ea0f0cfc
0a000904
dd221f00
f5fef513
4bfdfd4b
23fce4f3
03f60000
fbfb39f9
0e06f4f5
05060bf9
0207ff0c
f617eee9
0f0ee2ee
020b1003
00fd13f9
073af2f0
d822ce05
edfc0911
fef408fc
dd01fac8
2e0301ec
f6faeffc
e60bf5eb
e4e73306
eef60afb
2b3a3a00
0d130d05
07f8fc05
06fbe527
14ff18f9
110bed11
f30012f1
041e0a39
00f11cdd
0551e9d8
0bf4e6f9
f3dc01f8
e8002fe1
ed0919f5
00f7f0ec
fa1df1e8
fe01fff7
0619faf8
02c6ff04
e9011811
0df70eef
00150be3
1206eff7
0d0f305d
1b200619
f8ed0cf0
00170d09
d4e1e9f9
fe05d7fa
0bf7ee00
ecf0ddd5
03fffd0b
0e23f1ef
23100705
1df4e21b
b5f71b03
1706f91f
ecfc06f0
08e0fdfc
00d90f18
eefd29f2
f8f00204
08030af6
fe13efff
faf703fa
02fef7fb
f60401f1
f00509f2
00f4f908
0f0bfc0a
0a0bfaf5
0bfd0106
02f80204
0c070305
ea07f4ff
0cf2f9f6
10f2fe08
0e03070c
030009fb
0a07eefc
11fa0b07
f402fd02
08f4f008
0200fa0a
0001020e
0bfd0502
00fff9ef
ff0af7fb
0a10f1fc
f400f7fd
00f8f503
00f50500
0707f9fe
fb0ef806
f50af600
f8fbfb09
f6f307f9
0bfcf2f8
1bfef800
00ff07f1
f6f9f7f4
07ff0efc
0bf000fa
f0f7fc08
00f8f7f7
0ff50404
0d0efc00
08fbfdff
030002f6
0001eaff
0008ff06
00fe0a0b
fdf20004
f2fbfcff
00fefefa
fef30df7
0e0003f4
fa00f709
f4f1f8ff
04f80613
01fe0201
00f9fdf8
fbfcfb00
eefe000f
0a0efbfc
09fbfcfd
ff0a04ff
0ef6ebf5
0300fd10
f2001709
1f05f806
f1fc14f8
f5eaf6f5
0a08fcfb
14f403fb
01faf604
fd0308ff
05040000
02fd060e
fe06fd11
08fb0e00
1003f2fe
0dfa1109
0009ef02
fe0cfc11
f50c00f7
fc0ffd02
f5f60801
0800fcf8
060c000c
fcf000f9
fafb09ed
0106f6f9
f3040310
fafb0008
fffa0a0e
f3fa0efa
fbfbf8fb
fe00fbf0
f40700f9
1011f9fd
02faef08
f8fffdfc
11fff8f8
070c0df9
0af60600
09eaff10
0b0efd10
0e00f403
0ffd0c05
0af0eaee
100a0c00
06fd040a
00fafdf6
fdfcf601
eff7f4fb
0d020dfe
fa04fb06
fc030106
fff70902
000e0305
0501f7fd
faf00a13
f813fd19
030805f6
0b070af8
09f60306
fef30405
02fbfe14
1129e7f2
0c0defe7
1f01fe06
44c32905
fa0708f0
120420ff
04f80ade
07fef018
f70ddf09
05f14e0b
19f4103a
0b010ad9
fedefef8
fb1001e2
dd1cdbdb
19f40e21
fd0c21f0
1a0ff7f8
f2eddb3c
22ee0bfe
30000a04
faf41eff
03f50908
eece04f9
0bf103ef
0337122a
e1100210
f1f2fff9
d1fcf60d
e417f5fa
19d5e1fe
ec170007
fcc2fd31
f7a8d911
18240f02
04001a04
fbf120f8
13faf0e6
1efae9f1
15031fec
0d030913
0b08f808
29fafef9
f1efcf05
1aeff3eb
dbf902fd
030103f7
f621e911
e8e735ff
220d0515
2fcd0c03
f9ec0303
00f3e93d
0ffe1120
2cf50b07
1be2d4fa
d6e0f501
f3e5f502
1b0f13fc
fa0cf704
0cfc08f2
ecfa0209
14d6e819
14f6e902
def0f7f8
f5eef80b
d8f62c22
fffff501
00fc1104
f10a0ef2
fafdf210
0f0ffb08
04f0ee19
08fe250c
fafdfaee
0403f603
00fbe7f4
17c7101d
e50a1605
0308efe5
08f7d208
00fffafc
edfffbdc
0cf8ff08
06fbf500
0ef3f612
0af5fb0e
efedf52f
fc0af012
0c1c0001
f3fb01ea
f707f4f0
04fef4e1
f00a0003
0903ffd8
04050af2
f0f3ecd6
0e11daf9
0900ef00
08111200
0810fc0d
100a0303
03f3f1f7
fd050818
eceff7df
fa000df5
f8f7fc0b
edf70afb
05150615
0ee70805
06f0f2f7
1dfa02e6
eb14feff
f4f1f90c
cf1afd0c
f502f3fa
eafd0c27
00dd02ed
0ce9f5f7
0ce914eb
0ff50112
ec1631f2
0c0ceefa
ea100002
f8080eff
fa000ef8
eb06fbf7
02faf8ea
1102e415
eedbfa1e
f022fdf1
f02401fa
050f04d7
faf7bef7
fd130d3c
21edfff0
07002107
06dbe901
f80c03ea
05d80005
0af40713
f1e8edfe
0b2f2801
ff00f1ed
09eed319
f3caf41b
ed15eded
2222f7f4
0e05faf0
11eea3f2
09f0fbf8
06491116
19f5f80e
f22512f4
e23ae937
010de90c
130f39e4
efdff009
f91f1310
feec041b
12052029
21f6191f
14f205f3
0324f422
f8040000
17082715
010021fb
1200d816
1203f6ef
df1600f5
ef17dff0
f43e12ee
eb00120a
12fe051f
0b12e100
0b0ff515
d7000eff
1df1fe0c
0a1dedf7
fde3cf09
df09f4e7
fa34dff1
dbf613de
0328ecf4
e3220df4
fa06fdfc
1dfe0a0d
2601f410
040eefe9
f7f7f5f3
f3182d05
07f2f811
f9f80915
00f2fe1a
02070301
ff020809
04ed11ec
030ce9f4
f800f3f8
0004f705
fb1af806
f7dee909
fdfdfe06
121af601
f001f4fd
ff0ffde8
f0f903f9
fbef07fa
1cf502f4
f300f1f9
f80a05fc
f00afcf6
05f2010d
eff707fa
111003f3
01f109f1
08f3fa09
06f704f3
f6fefcff
0112f403
f9fe00f9
020207fe
fef1fffd
18242906
0afe0000
0501fef4
08fe14fa
f70bfb04
02edfdf5
eef809fb
faf808ff
0004fdfc
fbfbf1f6
fd0206fe
fcf0ee00
01f31500
00faf4f0
01f5d303
00fb0703
05f0fe07
ec090a07
fdf00af8
0202faf4
0700e6f9
f100fc02
00f2fff3
001705f1
f6fbf1f7
060608ec
f5f9f800
f9f6effd
0502e0d7
fafb0d00
06f30004
fc0af908
0afaf500
f2f1ee0c
0dee00fa
210b18f6
1305d606
13f90313
1325e50b
f1fefef5
f20bdbf3
0bf40406
fb03d3ce
ede648f1
1f16faf3
190c2508
fbd5d605
26210ad7
0aece4f6
fd02001b
fafbf0cf
d4f8e7e4
54e2f8e5
fd0b10ee
0602f1fa
04110bf2
170ef512
15ef07fb
000b1961
e41de154
1213cc07
aaf9ea66
f8330709
00ec081c
050ffc23
f3d6f226
07dceb14
25ee08f2
e9fb02de
110209f7
1eeef902
0fd6f8f9
12f0ff03
10f4ff06
f6f915fa
fee3f315
eecbf30d
f5050c09
0a141b30
fef713e5
1f26f8fd
ed110004
f51801fb
ea02fdf0
07fbf603
e706e72d
e626d81d
00ecf013
23e606f8
dfe20ee6
23fc3320
18ef10fc
22040eef
fc030c00
fadbed29
d300fefa
fbeafee6
f712fddd
ee0c0201
2b29fa0b
ff4a0104
ea1800fd
0a22edfe
f000f6c0
19fb0000
f8fec801
fcfb07fd
e0e5cb23
07fd16cc
04f70d03
0bd205e7
44fd23f5
f302f60b
f703e700
f60f0bfa
ef0ed303
f4f7f9ef
fb0bee2a
22f51408
f8f0190e
e5b048fc
001df2f3
0908fcfc
de193af2
f303db0c
1822f510
f70cb913
fb150028
fe2d1b2a
f8cc00c4
fdee2413
23e609fb
eaf5f207
f617acfa
e5ff0e0e
0ef0e7e9
041d03e6
0012ea00
01d80c02
24e1260c
19d0d5f2
1002cf05
f60be2f1
f2ebf7dc
f441e9e6
1d26f9f1
fd21e2f2
e62e4bfa
f91213ef
fbef2be0
0af606e3
06fe0722
11fad8e7
00fce8e6
d6f70a0c
4d04fcf4
e0f90ed7
0ff20a04
ffecf5f1
08e7dcf4
eff1d7eb
f3fdf800
fcf5090d
fc10f4fa
020401ff
f20308f6
0003ff05
fefff5ed
0016fafc
fa0ffd05
fe09fa09
1308ec12
100810f6
0cfdfaf5
0300f800
f702f8fc
fe04f406
020203fb
00e00a07
ff0f0ff3
fe1dfafc
fe00fb06
ff1104fe
14060303
00f9fb1a
fa0700fc
ff0702ee
fc0d0a01
0401fbf6
ffff06ff
fc02f4ff
faed0700
09fefffe
0204fd10
f5f5fc01
04f5fdfe
fd0506fe
fe06fd10
03021700
fa0f0415
f5060704
f7fc010e
02051112
fe06e400
eeed19f8
07f0f904
ff16cb07
0b050cff
00120903
f009f609
0502f514
fa00fefd
0dfc0afd
fd05fd00
0906ed07
180ae9f7
00ff05fd
170b0007
e5070106
06f9f70b
fb0afefe
f7ff0300
f5edf9f9
fe1300fd
0f0ef50a
1dde09ee
fde9ec00
d8f6f0cd
035a38fb
0504fb04
f50abf02
fefd0c2b
be03ff12
eaf80aff
f602e1d6
c1faf1fd
db06fc09
0e2215e9
fbe60b38
48003b12
fcecfa4c
10fceb00
1008eb11
fc0816ca
11fff7fe
4302fc00
00f64e0d
df1a09f8
0b1b1617
f0000400
08120120
def800f5
00150505
d700e306
f91c35f5
e838e7e5
f9e5fd6b
f1f80fe5
f720e206
17f3feec
0005e8ef
0308c8fa
fe0a38f5
0b1313f2
110a0415
12d7f619
07dfdcf7
fdfa00ff
f8ee0303
131af3f8
fbf21407
0318d2cf
00190032
de0317f6
0ef9f9fe
fd00f20d
efef2200
fd190ff4
01d6dbea
09fafcdc
f00b01f3
f8110100
3149f00e
51eff1ed
cf18fec9
f6f2f3c9
fac8f306
f30de6f3
efffeaf8
030df5ff
fefefd09
fb0cfc0a
080200fb
fdf504f4
0e0ff904
fe040af4
04120201
ff12fc00
04fdf103
080efe12
12fa070b
000a0106
09fa0603
fafd0007
fefd05f6
0b040900
02f6050a
07060f06
0f0c000b
12070614
0d070101
00fe01fa
eafdfb07
01030701
fa0b04fc
f9120d00
050f05fb
fd090411
fcf9fffe
f6fa0713
0afd0000
0005fcfe
13fd07fd
07f6f309
001111fe
0001f500
fc010106
020d0523
f60c05ee
01050c13
1b0d0b12
f006e409
01f60002
05e3ff0b
0205d905
0e0aff00
09f60b07
f50ff70b
f9120405
f50f0409
0bf90c0f
0900000b
0305e707
1000f805
fef80f17
060a0a09
f1fefe0c
02050010
0c0a06fe
03080201
f4f309ec
0304f50e
0804050d
09de2611
f6ffe615
fcdff015
17dfeded
22db00f4
f1e9f7f4
0f1907d1
0c03fe07
0ff407fd
e3fdea0d
ee0e2705
faea1132
17ecd2fb
f9f4f619
fa11eb32
e8fffe6d
f0ebe0e0
08d6f7ed
100a142c
fe12ecf9
0305efe3
d70a0709
f5f413df
3e51fe23
12e805f8
f246f51a
f4e20720
f607fc06
04f727e5
021d330a
fff3f921
fbf3edca
e61d0930
db2729eb
06e7f900
0215e8fa
ea0ad802
feedf40e
ea0be217
e9dbfa20
fe53fa09
0101ea0e
cdedbe0f
e947ddec
d30314fe
0e0e0a25
e8171a0f
13e915fe
09cd20e0
ec0504fb
e2e4a5ed
efedf907
02050ce3
ffd8e9e8
fb03fec4
03e4eaf7
0105fde9
0d04faf2
c9390df7
daf6fd12
06060ab2
ea0600e6
0d001205
10ef1e24
f5f107ef
fe090314
1500fdef
fcfef617
fc051fef
0d1b0401
00ff051c
01effd00
f80eed02
19fefa00
05f6f318
f111090b
04010f01
22ec0af6
03f7eff3
06f503ff
16f6f40a
09eb10f5
0c1100f3
2b0204f8
1101010b
2400f210
fcfc06fc
01f4100b
f3e809f0
040d09f1
fb11f5f3
fe0108ff
ea1609f5
feeff513
f5fe05e7
fefaf800
0dedef0b
f3f306f7
e92200f5
040ef8ff
0906f30c
0f140707
08f8f805
ebf5fef9
f0fa0cfa
0dfc07fb
040500fb
0bfaf908
fbf4f6fb
f103e514
13050304
f40cffef
02f40904
faec10fb
f0f60008
fdf50813
00f505fa
080af3f8
f00cfa0f
08edfbef
f20bf9f2
faff09eb
f900f50c
00f70001
00010ef5
fef710f4
f6ed08fc
0afb0e07
fd10f3f3
fbf40607
02f5ec01
fbf10312
050206ed
0afff2f9
0aebf014
00fdfcf3
fe02ff00
00fdf503
030e0a1f
fbf206fc
07fb1200
10ed1214
0e05fef7
040b0a06
0303fd14
00e51515
f801fe06
fb0b0d08
0e0d1200
09f9ee08
f4f612fc
f8faf50b
05e80e08
0e02ed14
0e13f319
fd03fd14
fa0e0003
05fef7ff
fb14f40d
0b00f3fc
f0e5f6f1
020c0000
0eef07f3
fd0c0402
fc07080d
f20f02f7
fe010402
f700f8ee
00fb100e
02f3effe
f807eb07
fe07f200
00fdfd04
0d06f503
00f9fef7
14fb0509
f4fc040b
f5ec0cf4
f2070711
07f2f4f0
f2080c09
10f3eb09
f2f406f8
ff080100
0712fd0a
f30200f5
f30800f9
f5020a10
fa0405fd
fcfa08f5
f319f807
0c0703f3
f7f3f413
09f7020b
f9ee00f4
ebfc2201
07fe0d03
f4fbf3ff
02fb0afd
effe1cfe
fb000700
fbeee7ed
fc0beee2
f5f909fe
0cfe0bf8
f9f1f900
01eaf9e2
fb11032a
0c00f404
11080605
0dff0708
00160dfb
ff01040b
0212fcff
0000f2fc
e6fb1107
01f60208
08f20502
170af400
fc0401f7
faf7fe09
fbfa060d
05f8fa06
fa08fdfa
00fcfff3
ff06030c
f909f80b
12fefafb
1407fff3
f7fbecf4
f7120c05
07f000f6
fd15040a
0af6fc07
06f8f808
10130afe
03f900fc
05fae2fa
080cfe08
08f2f408
f9ee0307
06fe09fc
22f307fd
05fef0f3
f5fe08ef
f602f4f2
fd1cfafe
fdf800fc
f4f70509
fdea1407
000d1014
110210f8
030013e7
00f0f900
ec0d0506
fffefb0e
00ede700
fbfbfc09
0006e206
0ff70f04
ec0b00fb
1508f2ee
020a03ec
f8f9ff07
0a06f708
15ebe201
0aeff006
3e000708
f90b0803
1304eaf2
f00c0109
ff070507
fff8120e
f6eefe07
0c0afcf4
03fff9f4
fa0b050a
fe0312fc
01f61306
03000600
fc160604
08f90ef1
0008ffe7
fefcf400
e6f9160c
f8fff800
13e908fd
000d10fe
f2f4df01
f4f701ee
02f90c08
0e07edfc
130ae601
041324f8
f3f3f40f
08ff2209
fb00fae8
00060e0e
0617ef0f
00f722f0
f9f4ed06
f300cc08
0ffffdf9
00f9f1f2
f502edf7
fffb0117
fc07f40b
04f318f6
fd0ff305
0009f403
0ffde500
fb050103
3a00fa06
e1fbf6f9
fd0afe16
0b09eff1
03fef4f1
0aeb00fb
ecfa0a09
0109f517
0316e7fc
f2f8faf6
20ee18fb
0fd5be0b
17021de1
00fe10fe
11000123
3c04fbe8
1d1601f1
fddb18de
32fb2cd8
2ffe0b04
e402192d
fae3f1df
b0ddfbe9
f300f0fb
e8d108ec
0cecf3df
f5e0e845
2bfa00d8
fb1612e8
faf8d810
22d8dec8
e1050505
ffc2efef
f70ce8e8
ef00e6f1
060608ef
1ff62f3c
ea020ff0
15b1fb13
062100cb
ea900e47
1fe8fd22
0d0f1cf4
15f3ebeb
ef072ded
18f6d72f
eefb1b1a
f1081cee
ee10f818
001101fc
fcf0f50b
e9fc16f6
00f7f4d2
ec140923
020a0209
e907f8e5
c2d70512
2339dbf0
f720f8fa
f3f2d216
01fceecf
0e16ebe0
edecfceb
24fb06ea
fb0bf8ec
0ec8300d
d415fdf1
27e11218
f5fefbcc
f32bf017
e6fc0113
24e3db12
fe0320f2
0904f903
e50af701
4b4119fc
071507fb
e3f6b5fb
070e1dd6
d40009ef
ef00320a
f9f63106
d1e6e7f4
fdeafa10
0ff4e3fc
0914eaa2
e91f260a
f810fd0d
09f94bfc
1c27f046
ed180f0d
0af6fdfe
13f3fdf7
250ae809
170bf607
2e250902
ef0e00ea
f1fc36fe
07bec147
f510e309
e70e2d01
09ced004
16fdf2fb
10ccfe4c
16150018
f8f60200
22f809f4
040e04cf
ec0448f4
eff404fc
edbefde1
1825cbfc
f2d50cea
fae612f4
01f9b3f1
0704d90b
d7e4fd00
ebe50663
09ffec12
12f1f7fe
1621f8ef
bee81a17
001722fc
00091ef7
020b073a
0014e70d
1df9eef3
06fdfa1b
e3fe00fd
dc00dff6
e00a0411
131dd70f
1900fbf1
0ce70b1b
17fe0604
1ff021e6
0609041c
f41007fe
f605da06
fbfdfb05
210605f1
0201f904
150200fe
fdf1fff7
f0fdf812
fde0e500
0805f4fb
05060101
000afc0d
03f02709
07f404e9
00effa07
18fe0302
07f1fcfc
00eff611
07f903f8
ee05feff
f60701fa
d1fbf8f4
2af400fb
f7e1f803
20f10b1b
04f60cf4
ee21f90e
00070efb
000de2ff
1912f8fc
0b140900
ec06ee01
10e300f8
000df30a
05ff0a07
fbf9fb00
fcf708fc
f5000200
01f6f000
04fbfaed
ef01eafd
ff0f0afd
0605f2ff
00f5f801
ef06fef9
00f80cf5
05ea020c
fc00f200
f0f10305
ee0d0604
0cfe00fa
0209ff02
e1fff410
030008f9
f7150bfd
e6010700
05f60003
000b000f
fd07f60d
f80803f6
f80402f6
00050302
f9fefe03
01ea01fd
02fcfc0c
0dd9f1bb
33f72608
eeffe21d
f410c9f8
07e70ddb
b51b1506
0618f31d
f400effd
e7170a05
e70007c0
f515f4dd
df14fefb
14f90ef1
f8fff832
fd0b0b0d
b8e6eddb
00f30efc
1411f903
3cfafa0b
08166bea
f22f0613
2ed1f1d4
000eeeea
fcff0af4
37f0f004
02fdf8fe
fe0d3429
f71af10f
0527f1fc
05e31024
2a24ccf4
e7051bf5
d104fef2
fef7fe0a
0ff511ee
0bed0406
0214fce2
f909eb14
f31f070e
f8f2f810
e1eb0af5
f2fbe0fe
08e9d90b
0afccc0c
1304d4fc
fb09e31d
32e221da
e7fffde1
04d32bf7
0c002101
12f7ef23
efd10f09
1b0e2b1e
d92be314
1ce3edf5
1e16dd05
19fb0dfa
16f609f7
eefd031c
08de1916
0dfe1607
f6f1eaf6
f6e2ebd5
f81af000
050a0746
07f4e501
f3fc0ee5
f4f71207
f70c18df
2eecfaef
0a1f2f1d
f2f5f1ee
efd7dd0d
13e10a13
0e1320f6
dcec10bd
191520de
e8faf610
03f3eaf1
0202f003
e500f605
feff0f19
1df61007
ff12b80b
0d0d15eb
03e8f2fb
0afe00fc
f64106e2
1c3206fe
fbf121fa
170210e4
f8f2010b
140910dc
1423fb3c
dd111128
1d280ff3
331317fa
002017ed
fefe0cee
07f0100b
feedf60e
07fd18f9
ffd40600
0615ee04
04070af2
ee27bf00
0fe4d4e5
e81bd836
f40e2418
182be2f9
ed3a2304
02d7f71a
1a2e1904
0802130f
eefced0c
fb0afd0b
17f1040c
2602f808
d00011ec
070f230e
30100c15
dd19050a
f30700e4
08dbfbf8
06f3f70f
f4eee109
f201f612
f3f6f4f9
f7f5e604
00ff1b00
0006faf9
fff90301
e9020009
f913f30c
05fc0b00
000ef2fa
00fe00f4
fa09f7fb
f60b0701
f506faef
fcfefde2
f8f9fd0f
0bf606f1
fa030000
07f4fcff
fc28fbf4
06fdff08
f6fd05ff
1e0204fb
e4fa20f8
01f0fbfc
f7f90aef
04f4ee05
010af900
ff00f806
fd00fff5
f8fbfbec
0b090409
07f92b00
ea00fc00
f90df800
fc00f2fb
f9fb09f3
f6fffa05
f9fafef3
fbeff6fb
fc03fc06
fbe8f2fd
080107f7
18090501
050a04ef
f81a05fa
03f6f20b
00060406
0bef0b03
f5fbf702
06fdf5fa
f2ecfe0a
040b06ff
f705ecf6
fc1400ff
fefceb00
00fef8f2
f3f40710
f5fa00ff
00f90ef0
fafb00e6
f500f1fa
f9fafef8
0201f809
d4ed02fa
0c0002fa
d806f957
13a9dd00
0ae0f90e
10094f02
feeff7f9
52f30c04
06fef3f0
ff230236
1ff1d9f1
00e600f2
05fccf28
0b1fd2f3
dae6f1f3
28f8f3ea
f612f0f8
1bfbf3f3
f3fbf719
e1e7ecf4
00f90b06
20011208
0af6cd05
20ddf703
ed1dffe9
fb09f602
3c35fff6
fcfe06f5
fdfbedf0
000ef3ff
04f71be1
f90902c1
e5ed0304
0b1f06f3
010513f8
f2ff1224
e3ee5a03
f6f7f001
f1e0fc04
212f1c15
091ce9ed
1efc0cfe
231dea0b
09fc17e5
fb05e4dc
e6f9ec00
0a10102c
1742eee7
1c16f302
ef2f0014
d4f40de8
f214dd0a
e6e905fe
fb0320df
1d12042a
e4e92bfe
1b0df6ee
00c232f7
b3ef010d
2b082631
e9ff132a
0223e00c
f8f4f708
fdeb0211
0309f009
0604f603
07f60203
f5fcf909
02fb11f9
05f9eb02
fa0408ee
f9f80412
fef3f510
fd04fff1
f7f6f1f9
fff4fef7
0cfb10f2
f2e9f40b
06fbfc01
05f808fa
18f8f20f
fceefdf0
1501f9fc
00fe0d06
ff010a0b
0c0e02fc
f908fdf2
08f210eb
fefe00ff
f90d0df8
00f2f502
11fe00fa
02f80007
fb0af1f8
fa0006fe
0cf90bf9
11f00df7
04f9190d
f7020600
11f7f8f7
0009f5f5
1002f806
fff9ee08
09f10004
0008fa04
03ee08f6
02f9f800
0efff306
fcf0f906
02f6fffc
040d000a
18fa07f9
eff3ed10
00fd01f7
01f4000f
07faf40e
fb0df604
0709f3eb
0df60409
f90c02f9
04fff608
eff907fc
f4080a0f
090e0ff5
fef819f8
03f00d09
fcfefc00
090ff917
fffdfd06
fd0af4ff
fbf5eafd
fafff0ff
06040200
02fafff6
0bfafef9
ffef0d00
fd00fbff
f600fcf7
f9fb06f8
fffe04f5
fafafd02
f8ff02f9
00f002f0
08fcf5f6
fe0000f2
01f6f7fe
fbeff406
f506f7f8
f3fdf4ee
f808fc00
f203fcff
02fcfaf2
02defaf6
1104050b
0cf4fffd
00f4f507
04f7fffa
fefae6f3
080005f4
fcfafa01
fcf6e802
f9edf2fd
fcf801fc
fbfbfafb
fefbfa00
0efa02f8
00f8fcfd
f9fcfd09
fa0001f2
e7fef9fa
01fd07fb
fdfe0100
00f605f4
fefdf6f7
03f0f8f4
f600fbff
ebfcf8f8
07f2fef3
f5fef3f3
f3000900
f601fbf9
f7f606fa
f1f3fef5
f9fbff03
00f7fafd
0407fefa
f9fdf5f9
fff3edfb
fcf50601
f50500fd
eaf4fcfa
0af9fbf9
f8d9f507
fafdf6fd
f308f720
09e3fffb
f5ff1201
fcf72502
fa2604f2
29f20305
07fefc05
030829dd
020113e8
05e8fc22
feed0706
24330fd6
c4ecf9d0
01080705
00fdeff9
f7ede616
0122f427
f8fb09f2
ecf4f106
e60dc003
08dcf10b
0703f8e6
0819f5f6
f829ffe0
191ddb30
e6012117
3a090cf5
f6b514f7
051c2d1f
1cee01d0
4752ff30
ffe00feb
d51ff401
e8f40602
f2e929f4
14fbf9e3
e516edfe
0e2addff
1605f7cc
f3201404
1b0dfee3
ecf80afa
f6f813ed
0cf3ecdd
fa1c091c
f9d0fa13
050ff7ec
fbfc0300
0f062103
0cf0e90d
ed00ef27
004e270f
eff10914
033d0408
f30c04f6
f5e63be9
a7181102
30ecdc13
ea050411
181ffbfd
e5fbf4f8
32072200
053ffc01
0d040ef7
f9000b34
10dd11fc
0032e8f1
0eef11f7
f4f102fc
0a0debfd
0fea1704
0601f136
04f1fb08
d6f9ee2a
f948ecfb
fa21eafe
333af310
d7e42012
00201300
202d0002
04193410
b8140409
27eafeeb
16e6ece4
f3e5f022
f8fef61d
e8170207
f9051f36
bffafe03
fbfcdbef
bfefdde2
0c3cf2f0
0fb11e0d
e202efeb
c5c41ef0
01ca2301
393cfefb
19042e0f
0af4d100
e60ae3e3
f5dfe902
04f61b33
fc00ee07
1e100003
0cf8f0f3
fef9011f
f80908f7
0ae7fc02
fd0cf705
1619fefb
241930fb
0ff713fe
1a09f207
f4f61aff
0f09f9d5
0bc5fa11
100ff4e7
20d91808
ea08e809
e32b98fe
2e4108fd
bbfac6f0
f4f4f3ea
e0fbfffd
08f3ea0d
04f2e5e3
070efa24
031212ff
0401fe09
06fe1b0e
01090e04
130802f7
f8f51409
fceffeff
f3fa0af8
11f402f7
fa0108f5
fd01f9f5
01fb0ff7
000314fa
090d00fe
ff0c050d
fbfafb15
f60a0cf8
0bfceffa
f3060e11
ff000306
fa09f607
ed040707
19ef00f2
ffe8ff02
0a00f2f6
04f1000b
0bf8fffe
0b0b0009
06fa0000
fbfc03fa
f5180af6
f508f005
0809080d
000f1a00
050ffc02
160ef90c
f00bf809
000007fd
0700f8f8
0b0b0301
f701f006
0e0a0efa
fd130102
f4001203
fff71afb
06130107
00040afb
1505030e
0af5fa0b
1001f702
07070018
0ff70b00
ff001300
f7f9f5fa
08fcfa01
ff07030a
eb04060a
0e120f05
01f70b00
0d031207
040c0c08
15060d13
000206fc
02fceaf9
05dbfaf6
c025fb0f
bbeacefb
222a09de
1d02f7f8
0c020226
f918f9e7
f2e73bfb
18e42919
e0c91dde
0123f0e9
feeed5f6
f8c81e03
ef2a3922
f2f423de
0ed4250b
f2cee710
e4faeae0
fe07fa02
e716e6d9
f7f08009
27e6fff7
ef0e0515
05f405f5
d4c70510
0214050a
de06bced
b605dcdb
00d5161a
0ae3fafa
f8fffcdd
c7d558d0
f03afe13
3c04fdf4
11e3fdd6
daedeff6
effcf507
f2d21401
f9df0d2d
09f5db0e
ef070a01
fe08eefb
ee0cf7e5
0df0fe1e
0200586c
e01224ec
000f04f6
dd23d501
00240201
e7dec6f5
07f6d5f7
fd0619c2
0d09f600
f2e1ebe8
1cb116e4
f2e0ee0b
e8e854d9
f907e1fa
12023c16
e91df8dc
fdedeff3
cdfeee07
1b00dd24
f806ec12
0d0b05fd
f6f1f100
fff9fd10
020106fe
05fc0000
0305ff02
fffb0202
1101fa03
0700ff00
00030505
04f7f0f3
13000efa
f9fa0001
00f2ef06
f60c0003
00f6fc0c
080515f9
10040000
03fe0e05
f709f406
0301f90b
02f101fa
03ef0f05
0af6f806
f4050ef0
fceff9fd
0afa02fb
f9fcf304
02f0fdfc
f700f5f9
020600f1
01f60001
fa090c02
ff050600
f803fefa
1403fe02
fc0100f7
06fa0406
08fbfbf6
02010505
0802f3f9
f906f609
00f8f107
0ff80b00
f4f8fef9
12050a00
110205f4
0cfbf4fd
f503faff
f8f9f805
0c0002fc
080cf700
0004ef07
0d00030b
0d06f2fe
0312fdfb
04040001
f401fe1b
fef5f8ef
f80016f7
1000fef4
0205fbfc
01060efe
f6fa04f7
f6f7f1f9
ff0aec02
06000005
03fafcf3
0d03ef00
0506fdfb
f9faf7f8
f50bfa0c
03ffe3f7
fdec000a
02f80f00
0201f8f4
0a1615fc
13f2fe00
fa03f9f6
1ef611fe
08f4ff08
00fffa00
040a02f7
08fa05f6
f5f70401
0907fdf6
ece81405
f9f4f6fe
eeee0008
f1080efa
07010304
fefa0d17
010ff602
08f2fefb
f9fafafe
02f7f301
f9f3fffa
fffcf801
03fdfdf5
0300f7f8
06fe0efc
f7000205
eff90af4
e6060603
f4030403
fe07f702
09f507fc
f2effef8
0100e408
f3f8fa00
fa00f701
e311f6fc
0900fa0a
ea04faff
080bfaee
0002f1fa
0df8ecfa
03fb04fa
f8eb05fd
fa0309f6
f20203f4
f1fcfafd
0af3faf2
f3fe0d01
ff0005f7
01f9f1f9
01f4f5fc
dbf7240e
f4fced03
d107fb01
ef484914
05e4f81b
f30be303
f2f4fde4
bdef0efb
e8eb0305
eddc0609
f40316bc
e124e712
f9f9f800
000de62b
eefad114
1214ecde
fdf7000e
13f20824
0a1a30ee
2709eff6
1f0d0afe
18fd02f7
0002e60c
01180df5
110ceb12
05e2fb08
f4e90b00
03fff0f3
ce07e301
0de6d20b
11fce6b2
07e404e5
2bf408c9
ef001309
0c07f2e6
fcf01bfc
0bfd24f6
ef0230e3
fac8faf8
03feeb1a
0bdcfae4
fb03f800
0e0f26f5
00fafd01
f61f1008
f6e3f712
01fddce9
f8060dfb
14f6d0fd
e815e8f6
1305f109
ff0c01e6
11140eea
00f4feb9
ebf6fd0f
daeefe00
1d0002fa
e0f3dc03
1b00f500
470ae20f
e605ef2a
f72f1806
25edd514
f9f000e7
f5051600
08fb08fb
fc13f5fc
07f6f902
01f8fdff
0901f6fc
0c0801f1
fe00fcf9
0b210009
faf9ef09
110bf909
fc000c0a
0a06010a
0702040e
00ebfd06
06f7f9fc
0b0aff00
15e6070a
fd090517
0e0300fc
0f12000c
0007fd05
0f0003fa
f303fc04
fdf705fe
fe0b08fb
fa0f08f4
0bfffcfb
ff020509
07070700
f6ef0a0a
06fcfdff
0007f4ff
0a00f903
03fbf505
060f1ef9
0407f702
f2fefafd
ff0b1013
f5fcf7f3
0702f80d
0f14080e
e708eaf7
f9f608f8
06d5f70b
000cd5f8
000409f4
07001b05
e20fef09
0116f800
f9040f0a
0ffd08f3
0b00fc07
1106e800
0f020008
00fb1606
fa030df7
f90100ff
00fa010e
fb16fcfd
fb09000a
f2f308f5
021ff402
0d09f70c
e3fcef07
0604f60e
f901f1f6
0a00eb11
f9f922fc
0c07f0fd
edfcf200
fa0a0707
ff14e325
0b0029f6
fa0ee604
011dfefa
08f900ec
0909f7ee
16f603e5
fb090000
00f8f7f6
fef614f7
03f72102
fb2bf1f9
f0ffef00
ef1908f2
321d00f9
d10708f4
060bfd09
0403f3fa
f9fa1102
ff00f50e
f304f8f8
f60afaf3
10f40505
14041b01
14031d04
eefeec09
fbf30300
f305fb08
fe0000fd
f3020c0e
00f2fd07
01fcf600
0b02fdda
08feeff4
cbfdf5f3
0be908f3
0e12fcf3
0b0de305
0ff8fffc
03140dfe
e30506f2
00f900fc
ff03fdfb
f6f5fad7
d612e607
fcf5f706
16040402
0cf6fff1
000910fa
d6edeeed
f8170816
f502ecf6
fd0206fd
eff200ed
ef06fdfc
12fd0603
e4fee2f1
f3eee8f6
f60ee4cd
f9b33a01
fa12fd25
fef3cc05
fee2f5ea
e3e2fdfb
0610f3f6
090af8ec
01fcca21
f5d514f1
fb2df0e7
e62b06b3
052a1210
030203ca
13170bf4
00f8f844
0bf733bc
3ef2f7fb
43daf409
0c050be7
051ae234
1fd0f3de
ee16f1ef
eae0192d
1ef5f830
e9face0f
ef10efe1
f4e5f808
f9e0fdde
ffe6ea18
44110cdf
f0012500
1803dde5
02fe18ef
eb10f20e
eaf9d6e9
03d9f4f8
0709d2f5
2510fa14
fd04ff12
2e280002
22b8fef9
e2e9ec00
f9e205d9
cddc120a
f81dfde9
414ffd0c
01b306f7
fe2f2e04
e60dd605
dff5e6e5
06230f22
08101d00
fc030000
e71309f4
f40a0d03
07f104f3
0419defd
f3fb0830
0a2f1d1a
c707f30b
e4f10409
f8fe06f8
fef9fd00
fcf20801
fefff6fe
03000af9
040c0001
f0050703
f90b0807
10020115
18fb29f6
f107f805
0318fa08
03fd06fb
0cf9ef02
01fcfdec
fc0af700
1f08000c
f900f800
fc0a21f6
0515030c
0404f709
ff090002
070d01ff
e70706fa
0707fd07
f608ed07
07080b05
0a11020b
f704fc06
fa000212
fa08f7ff
08ee03f4
000a19fe
fff204f8
030d0d05
050cf906
0d0cf307
f8f6ec0b
00ff08ee
f5f2f300
09fd0ef7
02fc04f8
e411eef9
22ea0004
fc0c0cf0
fd02e9ff
0703f602
071302fc
01000f06
ecf0f6ff
f2fb0300
07deef0e
dc080100
f9080d00
ff17fdff
05edfdf4
03fcf7fe
eff8fef3
ea020604
0a05f9e9
08000300
ef00faf7
fffbf706
fdfcfafc
18fdf709
f8f50514
eefbf5f6
03ff0dfd
f10116ff
13f4f9fa
12f900f6
04f20207
0c0009f6
0be5fdf8
f5faf5f0
14fd03f6
07000505
fbe9ee06
00f00001
f40003fe
fafffa05
01fe1000
fd01f400
effef90b
fdfd010d
ec010108
07f4f0f5
fbf409f5
001bfb08
00fcfbe7
00fcecfd
fef4ff05
03fe00fd
000117fb
11f4fe13
04080df4
f106f801
fdf4fa00
04060dfe
07fa0701
0200f5f9
f809fbff
01ef0902
03fdfeff
f1fc02fe
00f80103
0dfaf9fa
01fb03f5
110007fc
fef7f6fa
1007faff
07f5f6f8
03ed0600
f9e502fd
1c06f109
020a0eff
08fdfdf2
03fcf1e3
03fdfafb
02fbfefe
ff0cfe06
21f6f308
03fff30f
fcff03fa
fb1111ea
0e000511
12fc0d00
f60e0f01
