0065ffb3
01a8003b
fe37f5b6
ff12feb4
ff09fe9b
fe8dfe71
fe85feb2
febcfe98
feb4fead
feeafeb6
fe92fec4
fee0fee7
fef5fea7
fecaff22
fe7afea4
feddfea2
fe9dfe67
feddfeed
fef0fe78
ff24ff60
fe6afe99
fe8dfeae
fe95fecd
fec3fe7b
fe8dfeb4
febbfe6a
fe9ffe8e
fec8fea0
fefdfe87
fef0fedb
fe5cfe8b
fe8afe73
fff0feb8
ffae00f3
f7e30138
ff20fe7f
fedbfe6d
ff2aff45
fe44fdee
fe63ff32
ff04ff17
fe8afea8
feb0feba
ff2eff4d
fe6afec2
feefff23
fe4afefe
fea0fe4b
fe6aff35
ffbcff80
fe46fe89
ff7afef2
fef3ff66
fe19fe3f
ff8cfed5
fe4efe63
fe98fe7d
fe87fecb
ff22fe75
fedbfe58
fef3ff68
ff53fea5
fedefed2
fea0fe7b
fe6dfeba
0024004c
0087fce7
ff32f02c
fd22fe37
ff1eff2f
fe3cffbd
01cdfef2
ff92fe78
fedfff42
fe00ff40
ff67ff26
ff63ffdc
fe62fe86
ffa2fe8e
fe34ff24
ff3aff8b
ffb0fec4
fe4dffed
fec5ff3b
fee1fea3
ff0fff97
ff8cff09
fee90042
ffd0ff05
ff32fe3d
febcfe8f
fe7f0055
ff37fefc
fda600a2
ff69fee4
fe4cffe8
ffa00002
fdd3
