ffffffb3
00000065
0000003b
000001a8
fffff5b6
fffffe37
fffffeb4
ffffff12
fffffe9b
ffffff09
fffffe71
fffffe8d
fffffeb2
fffffe85
fffffe98
fffffebc
fffffead
fffffeb4
fffffeb6
fffffeea
fffffec4
fffffe92
fffffee7
fffffee0
fffffea7
fffffef5
ffffff22
fffffeca
fffffea4
fffffe7a
fffffea2
fffffedd
fffffe67
fffffe9d
fffffeed
fffffedd
fffffe78
fffffef0
ffffff60
ffffff24
fffffe99
fffffe6a
fffffeae
fffffe8d
fffffecd
fffffe95
fffffe7b
fffffec3
fffffeb4
fffffe8d
fffffe6a
fffffebb
fffffe8e
fffffe9f
fffffea0
fffffec8
fffffe87
fffffefd
fffffedb
fffffef0
fffffe8b
fffffe5c
fffffe73
fffffe8a
fffffeb8
fffffff0
000000f3
ffffffae
00000138
fffff7e3
fffffe7f
ffffff20
fffffe6d
fffffedb
ffffff45
ffffff2a
fffffdee
fffffe44
ffffff32
fffffe63
ffffff17
ffffff04
fffffea8
fffffe8a
fffffeba
fffffeb0
ffffff4d
ffffff2e
fffffec2
fffffe6a
ffffff23
fffffeef
fffffefe
fffffe4a
fffffe4b
fffffea0
ffffff35
fffffe6a
ffffff80
ffffffbc
fffffe89
fffffe46
fffffef2
ffffff7a
ffffff66
fffffef3
fffffe3f
fffffe19
fffffed5
ffffff8c
fffffe63
fffffe4e
fffffe7d
fffffe98
fffffecb
fffffe87
fffffe75
ffffff22
fffffe58
fffffedb
ffffff68
fffffef3
fffffea5
ffffff53
fffffed2
fffffede
fffffe7b
fffffea0
fffffeba
fffffe6d
0000004c
00000024
fffffce7
00000087
fffff02c
ffffff32
fffffe37
fffffd22
ffffff2f
ffffff1e
ffffffbd
fffffe3c
fffffef2
000001cd
fffffe78
ffffff92
ffffff42
fffffedf
ffffff40
fffffe00
ffffff26
ffffff67
ffffffdc
ffffff63
fffffe86
fffffe62
fffffe8e
ffffffa2
ffffff24
fffffe34
ffffff8b
ffffff3a
fffffec4
ffffffb0
ffffffed
fffffe4d
ffffff3b
fffffec5
fffffea3
fffffee1
ffffff97
ffffff0f
ffffff09
ffffff8c
00000042
fffffee9
ffffff05
ffffffd0
fffffe3d
ffffff32
fffffe8f
fffffebc
00000055
fffffe7f
fffffefc
ffffff37
000000a2
fffffda6
fffffee4
ffffff69
ffffffe8
fffffe4c
00000002
ffffffa0
fffffdd3
