fffffff6
ffffffe1
ffffffed
00000000
ffffffe6
ffffffee
00000007
fffffffc
00000000
fffffff7
fffffff8
fffffff7
fffffff3
fffffff5
fffffffb
fffffffb
ffffffea
00000000
00000000
00000004
0000000c
00000007
fffffffe
00000001
00000000
ffffffff
fffffff5
fffffff4
00000002
ffffffff
fffffff5
00000000
fffffff8
00000000
00000006
fffffffc
fffffff7
ffffffef
00000000
fffffffa
ffffffed
fffffff7
00000002
fffffffa
fffffffe
fffffffa
fffffff2
00000000
fffffff6
ffffffeb
fffffffc
fffffffc
fffffff6
fffffff9
fffffffa
00000004
00000018
fffffffe
0000000a
00000011
fffffff3
ffffffff
00000005
ffffffed
00000000
00000004
ffffffec
fffffff7
fffffff9
00000009
fffffffc
fffffffc
00000007
fffffff7
fffffffd
00000000
fffffff9
0000000b
fffffffc
fffffffe
ffffffff
fffffff6
fffffff6
fffffff5
00000000
fffffff9
fffffff7
00000001
00000000
00000005
fffffffa
fffffff9
00000005
00000001
fffffffa
00000006
fffffffd
fffffff5
00000002
00000000
fffffff3
00000002
00000009
fffffff7
fffffff8
0000000d
00000008
00000002
00000000
00000004
0000000d
00000000
fffffff0
00000000
00000006
fffffff9
fffffffb
0000000c
fffffff1
fffffff0
0000000a
fffffff4
ffffffef
0000000e
fffffff8
ffffffeb
fffffffe
00000002
00000005
fffffffd
fffffffc
fffffffd
00000006
00000005
00000003
fffffff5
0000000f
00000004
fffffff9
0000000c
00000006
fffffff4
00000004
0000000e
00000000
fffffffb
ffffffff
0000000b
fffffff3
00000000
0000000d
00000007
00000008
fffffffc
fffffffd
00000003
00000004
00000002
00000001
00000000
0000000c
00000004
00000003
00000006
00000006
0000000e
00000000
00000000
00000002
00000006
00000004
00000008
0000000b
00000005
00000001
fffffff7
ffffffff
00000002
ffffffe9
fffffffe
00000005
ffffffff
00000003
00000004
00000001
00000002
0000000b
fffffff8
fffffffb
fffffff5
00000001
00000001
fffffffc
fffffffc
00000000
00000004
00000007
00000006
fffffff8
00000001
00000001
fffffffe
00000014
00000008
fffffff5
0000000d
0000000d
00000006
fffffffb
fffffff5
00000009
fffffffd
fffffff2
00000003
00000001
fffffffc
00000007
ffffffff
fffffffd
00000000
fffffffa
00000002
fffffff8
fffffffb
00000006
00000000
fffffff0
ffffffee
fffffff9
ffffffe7
ffffffed
fffffffe
fffffff2
ffffffec
00000008
fffffff7
00000002
00000006
00000009
00000001
00000006
00000008
00000008
fffffff2
ffffffef
00000001
fffffff1
fffffff3
fffffffd
ffffffff
fffffff0
fffffff9
fffffff2
ffffffe5
ffffffe7
00000000
ffffffe2
ffffffea
00000007
fffffff9
fffffffc
fffffff6
ffffffe8
fffffff1
fffffff4
ffffffe3
fffffff4
00000008
fffffffa
00000000
fffffff9
00000003
fffffffa
fffffff3
fffffffa
fffffffe
fffffff8
ffffffff
00000000
00000005
fffffff8
00000003
00000005
fffffffa
fffffffd
fffffffb
00000000
fffffffd
0000000a
0000000f
fffffffe
00000010
0000000e
00000004
fffffff5
ffffffe9
00000002
00000008
00000015
00000000
00000005
00000004
fffffffc
fffffffb
fffffff2
fffffff2
fffffff9
00000015
00000003
fffffffe
fffffffc
00000002
00000002
ffffffee
fffffff3
00000009
0000000e
fffffffc
0000000d
0000000c
00000003
ffffffff
fffffffc
fffffff7
fffffff7
fffffff8
fffffff8
ffffffff
00000006
00000005
00000000
fffffff8
fffffffd
00000006
fffffffc
ffffffff
fffffffc
fffffff3
fffffffc
fffffffe
0000001e
00000007
fffffffd
00000004
00000002
00000001
00000004
00000001
00000000
fffffffc
00000001
00000000
00000000
fffffffe
00000000
fffffffa
fffffffa
00000000
fffffffa
fffffffa
00000010
00000011
fffffffd
0000000e
00000000
00000004
fffffffa
ffffffff
00000008
ffffffe6
ffffffe6
00000001
fffffffb
00000006
00000009
00000013
0000001a
fffffffb
fffffffa
fffffff9
0000000d
ffffffff
fffffff8
0000000a
00000008
fffffffc
00000002
fffffff5
fffffff1
fffffffc
00000002
fffffffe
00000000
00000006
00000001
00000004
fffffff2
ffffffeb
00000001
00000000
00000001
00000005
00000014
0000000c
fffffffb
00000006
ffffffe5
ffffffef
ffffffea
ffffffe7
fffffff8
00000000
0000000e
00000009
fffffffe
00000005
00000001
00000003
fffffffa
00000007
fffffffc
fffffffb
00000000
fffffff7
fffffff3
fffffffb
00000007
00000009
00000003
00000005
0000000e
fffffff7
fffffff9
fffffff8
00000007
fffffffc
fffffffa
0000000d
ffffffeb
fffffff4
00000002
fffffffd
00000007
fffffff9
fffffff7
fffffff9
00000000
fffffffb
fffffff2
fffffffc
fffffff8
00000007
00000007
00000001
00000005
00000008
00000001
fffffffb
fffffff9
ffffffff
fffffffa
ffffffff
00000000
00000000
00000002
ffffffff
fffffffb
00000000
fffffff5
fffffff0
fffffff7
fffffff7
fffffff4
fffffff5
00000000
fffffff9
fffffff9
fffffff8
ffffffff
ffffffff
00000000
ffffffff
00000008
00000005
ffffffff
fffffffb
fffffff7
fffffff8
fffffffd
fffffff7
00000000
00000001
00000000
00000008
fffffff8
0000000c
00000010
00000007
00000014
00000004
fffffff7
ffffffec
ffffffe1
ffffffef
ffffffff
fffffff6
fffffffe
0000000c
fffffffd
00000003
00000000
fffffff9
fffffffc
fffffff7
fffffffa
fffffff9
fffffffd
fffffffe
fffffffd
ffffffff
00000000
00000000
00000000
00000006
00000001
00000000
fffffff7
fffffffb
fffffff0
ffffffe5
fffffffd
fffffffe
00000007
fffffffc
fffffff3
ffffffff
00000004
ffffffff
00000000
fffffffe
fffffffe
fffffffc
fffffffd
00000000
fffffffa
00000009
00000004
00000002
00000002
00000007
00000000
fffffffe
00000002
fffffffd
fffffffa
fffffffb
fffffffd
00000003
00000001
ffffffff
00000000
00000000
fffffff0
fffffffd
fffffffa
fffffff9
00000002
fffffff1
fffffffe
fffffffd
00000000
ffffffff
00000000
fffffffd
00000000
00000003
00000003
00000000
fffffff9
fffffffe
fffffff1
ffffffff
00000009
00000009
00000001
ffffffff
00000000
fffffffe
fffffff7
fffffffb
00000000
fffffff0
ffffffff
00000001
fffffff4
fffffffb
fffffffc
fffffffb
fffffff8
00000001
00000001
fffffffc
00000001
00000000
fffffff9
fffffffc
fffffffc
ffffffff
fffffff8
fffffffe
fffffffe
fffffff9
00000003
0000000b
00000007
fffffff1
fffffff8
00000000
fffffffc
00000002
ffffffff
00000003
fffffffe
00000004
00000001
0000000c
fffffffe
00000001
00000004
fffffffc
00000002
00000006
00000004
fffffffd
00000005
fffffffe
00000007
0000001a
ffffffff
00000001
fffffff9
fffffffc
ffffffed
fffffffa
fffffff4
fffffff3
fffffffc
fffffff6
00000003
0000000c
00000000
0000000a
00000008
00000003
fffffff8
00000006
00000006
00000000
fffffff8
fffffffa
00000005
00000006
fffffffa
00000002
ffffffff
00000001
00000000
0000000d
0000000e
00000006
00000014
00000012
00000008
00000010
00000008
00000001
00000007
0000000a
00000000
fffffff7
00000005
00000000
00000001
fffffffe
fffffffc
00000008
00000001
fffffffc
00000001
00000003
fffffffa
fffffffe
00000000
fffffff8
00000000
00000000
0000000c
00000007
0000000b
00000006
00000007
00000004
fffffff1
fffffff4
fffffffb
ffffffff
fffffff8
fffffffb
00000000
fffffff7
fffffff3
fffffffa
00000003
fffffff5
fffffffe
00000011
fffffff6
fffffffa
00000014
fffffffb
fffffffb
00000000
fffffffc
fffffffd
00000002
00000001
00000002
00000005
fffffffd
fffffffb
fffffffb
fffffffc
ffffffee
ffffffe6
fffffff8
fffffff5
fffffff2
fffffff4
fffffffa
00000007
00000003
00000001
00000000
fffffffc
00000004
fffffffd
fffffffe
fffffff0
fffffff7
fffffffc
00000000
00000003
fffffffe
fffffff1
fffffffa
00000000
ffffffea
ffffffe8
00000002
fffffff9
fffffff7
00000003
ffffffef
fffffff5
fffffffa
fffffff6
fffffffd
fffffffa
00000003
00000005
00000000
00000002
00000000
fffffffe
fffffff5
00000003
ffffffff
00000007
fffffffa
fffffffc
00000007
0000000c
fffffff5
00000003
00000000
00000000
ffffffff
fffffffc
00000001
00000004
00000004
00000008
ffffffff
fffffff2
fffffffd
fffffff5
fffffffd
fffffffe
fffffff6
00000003
00000007
fffffff1
ffffffea
ffffffef
ffffffd7
ffffffe1
ffffffee
ffffffd9
ffffffe5
fffffff0
ffffffff
fffffff3
fffffffc
fffffff5
fffffffb
fffffffc
fffffff6
fffffff8
fffffff7
ffffffe8
fffffff2
00000000
fffffff3
fffffff3
00000000
ffffffe8
fffffff6
fffffffe
fffffffb
fffffff1
fffffffc
ffffffeb
ffffffea
fffffff6
fffffff2
fffffffa
00000004
00000004
00000008
00000000
ffffffe8
ffffffee
fffffffa
ffffffef
fffffff8
00000003
00000013
0000000c
00000004
00000000
00000004
ffffffff
00000000
00000006
00000001
fffffff6
0000000a
00000006
00000004
ffffffff
00000008
00000000
fffffffc
00000004
fffffff3
fffffffb
00000000
ffffffef
fffffffa
00000006
fffffff9
00000002
0000000f
00000003
fffffffc
fffffff8
fffffffb
fffffff9
fffffff1
ffffffff
00000001
ffffffff
00000004
00000008
00000004
00000003
00000004
00000006
fffffffc
fffffffd
fffffffc
00000007
ffffffff
fffffff9
fffffff3
fffffff0
ffffffed
00000002
fffffffd
00000009
0000000b
00000000
00000002
00000008
00000004
ffffffff
ffffffff
00000000
00000002
ffffffee
ffffffff
fffffff9
fffffff5
00000000
fffffffc
fffffff2
00000003
fffffffa
00000005
00000009
00000014
00000003
00000006
0000000d
00000000
ffffffff
00000008
fffffff7
fffffffb
00000006
fffffffa
fffffff9
fffffffd
00000003
fffffffa
00000004
00000006
fffffffd
00000001
00000003
fffffffe
fffffffd
fffffffe
ffffffff
0000000a
00000002
fffffffc
00000002
00000007
00000000
00000000
00000005
fffffffd
00000001
fffffffe
ffffffff
00000004
00000001
ffffffff
00000001
fffffffd
fffffff9
00000004
00000002
fffffff6
00000000
fffffff7
fffffff3
fffffff5
00000007
fffffffd
00000007
00000001
fffffffe
00000003
00000002
00000002
00000006
00000002
fffffffd
00000004
00000000
fffffff9
ffffffff
00000002
00000001
ffffffff
00000006
00000009
00000004
fffffffa
00000007
0000000e
fffffffd
00000004
00000011
ffffffff
00000000
00000002
ffffffec
ffffffdd
ffffffe8
ffffffe4
ffffffd5
ffffffe3
00000007
ffffffea
fffffffa
fffffff2
ffffffee
fffffffc
fffffff3
00000003
00000003
00000006
0000000a
00000010
fffffff0
fffffff1
fffffff1
fffffff1
fffffff0
ffffffef
fffffff4
ffffffea
fffffff1
ffffffeb
fffffff0
00000000
ffffffea
ffffffef
fffffff6
00000005
fffffff6
fffffff3
00000006
00000006
fffffffb
00000004
00000001
ffffffff
fffffffd
fffffffa
ffffffff
fffffff4
00000000
00000006
fffffffb
00000000
fffffffd
fffffffb
fffffffa
fffffff6
fffffffb
ffffffee
fffffff3
00000005
00000000
fffffff6
00000012
0000000a
00000007
fffffffa
fffffff9
00000005
fffffff5
fffffff5
fffffffe
fffffff2
fffffff7
00000005
00000001
fffffffe
0000000b
fffffffd
00000000
00000003
00000004
00000004
00000009
fffffff2
fffffff8
fffffffa
fffffff2
fffffffb
fffffff4
fffffff0
fffffffb
fffffff9
fffffffd
fffffff8
00000008
fffffffb
fffffff6
00000006
fffffffb
ffffffea
00000008
fffffff5
fffffff6
fffffffb
00000004
00000001
00000005
ffffffff
00000002
fffffffc
00000004
00000004
00000003
00000005
00000007
00000004
fffffffd
fffffff8
00000005
00000000
fffffff2
fffffffe
fffffffe
fffffffa
fffffffa
fffffff8
fffffff1
fffffff3
00000002
fffffff0
fffffffe
fffffffa
fffffff1
fffffff4
00000002
fffffff8
fffffffd
0000000a
00000006
fffffffa
0000000a
00000004
ffffffff
fffffff0
fffffff0
fffffff2
fffffff4
ffffffe5
fffffff9
ffffffee
ffffffe2
fffffffa
fffffff0
ffffffe5
fffffffe
ffffffff
ffffffff
fffffff5
fffffff3
00000000
fffffffe
fffffff2
fffffff9
00000000
0000000a
fffffff8
fffffffb
00000009
00000006
00000011
fffffffb
00000001
fffffffe
fffffff8
ffffffe8
ffffffff
fffffff1
fffffff9
ffffffee
00000001
00000000
fffffffa
00000009
00000002
0000000c
00000006
00000006
00000007
fffffff8
fffffffc
00000000
0000000b
00000009
00000003
fffffffd
0000000c
0000000b
fffffff4
fffffff2
fffffffc
00000002
00000002
00000015
fffffff7
fffffff9
fffffff9
0000000e
0000000c
fffffff6
0000000a
00000000
fffffffd
ffffffff
00000008
0000000b
fffffffa
00000002
0000000e
00000008
00000001
0000000a
00000001
fffffffe
00000002
fffffffc
00000000
fffffff9
ffffffe3
ffffffed
ffffffe4
ffffffe9
ffffffef
ffffffe7
fffffff7
00000002
fffffffe
00000000
00000003
00000004
00000003
fffffffc
00000008
fffffffa
ffffffff
00000000
ffffffed
fffffff4
fffffff6
fffffff2
00000000
fffffffe
00000004
00000009
0000000b
fffffffe
00000006
00000006
00000005
fffffffb
00000004
0000000b
00000007
00000007
ffffffff
ffffffff
00000005
00000002
00000004
00000010
00000006
00000000
00000006
00000003
00000000
00000000
fffffffd
ffffffff
00000004
fffffffc
00000003
fffffff6
0000000a
fffffffd
0000000c
00000005
00000000
00000002
00000002
fffffffd
00000001
fffffff9
fffffffc
fffffffc
00000000
00000006
00000006
fffffffb
00000004
00000003
fffffff6
00000006
00000001
ffffffee
fffffff5
fffffffd
fffffff2
fffffffc
fffffffe
00000007
00000006
00000009
0000000a
00000004
0000000c
00000002
00000007
fffffffa
00000007
00000003
00000005
00000000
00000004
fffffffe
0000000b
fffffff8
fffffffe
ffffffd3
ffffffd7
ffffffdb
ffffffe6
ffffffe1
ffffffe1
00000004
00000012
00000000
ffffffda
ffffffea
ffffffec
ffffffe9
fffffff1
fffffff4
00000001
00000001
00000000
fffffffd
00000004
00000000
fffffff5
00000006
fffffffc
fffffffc
00000009
00000003
0000000c
00000004
fffffff7
00000001
0000000c
00000014
fffffff3
fffffffd
0000000c
00000003
00000000
00000004
00000004
fffffffa
00000006
00000000
00000001
00000005
fffffff6
fffffff8
00000008
ffffffe7
fffffff5
00000000
fffffff6
00000005
00000002
fffffff0
ffffffe8
ffffffe8
ffffffea
fffffff1
ffffffe6
ffffffee
fffffff5
fffffff3
00000000
00000000
ffffffff
ffffffff
fffffffc
00000000
00000003
fffffff9
fffffffc
ffffffdf
ffffffe6
ffffffe2
ffffffe9
ffffffe2
ffffffee
00000002
fffffff2
fffffff3
00000003
00000004
00000002
00000002
fffffffd
00000002
fffffff6
fffffff3
fffffff8
00000009
fffffffa
fffffff7
00000005
00000000
00000004
ffffffed
00000000
fffffffa
00000006
fffffffb
00000001
fffffffc
fffffffd
fffffffb
fffffff9
fffffff8
fffffff7
ffffffe8
ffffffec
ffffffee
fffffff5
fffffffa
ffffffe7
00000000
00000008
00000000
ffffffff
ffffffff
fffffffa
fffffffe
00000009
ffffffff
fffffff8
00000003
fffffff9
fffffffb
00000017
0000000b
00000001
00000008
fffffff3
fffffffe
ffffffe9
ffffffef
00000015
00000005
0000000b
00000008
fffffff8
00000007
fffffff1
ffffffff
fffffff4
fffffff6
00000005
0000000f
fffffffa
00000002
fffffff7
00000008
00000003
fffffff0
fffffff3
ffffffe4
fffffff6
fffffff1
fffffff1
0000000b
ffffffff
0000001c
00000017
fffffffd
00000004
00000008
fffffffe
00000001
00000000
00000003
00000000
00000000
ffffffe8
ffffffde
ffffffee
00000000
fffffff9
00000008
00000018
00000027
00000026
ffffffec
ffffffed
0000000b
00000002
0000000a
00000003
00000004
0000000c
fffffff6
00000001
fffffffd
0000000d
00000004
00000001
00000006
00000000
fffffff6
fffffff9
00000000
ffffffff
00000002
00000003
ffffffff
fffffffd
00000003
0000000d
00000006
0000000d
00000014
fffffffe
00000006
00000002
00000001
fffffffb
fffffff4
fffffffa
00000005
fffffff7
fffffff6
00000001
fffffffc
00000006
00000002
00000009
0000000e
00000012
fffffffd
fffffffd
fffffff5
fffffff0
fffffff7
fffffffa
00000002
0000000c
0000000c
00000005
fffffff2
fffffff9
fffffff3
fffffff1
fffffff6
fffffff4
00000007
fffffffe
00000002
00000000
00000007
00000007
fffffffb
00000001
00000000
fffffff8
fffffff9
ffffffef
ffffffe5
ffffffff
fffffff6
00000002
00000000
00000007
00000010
00000004
00000004
00000003
00000000
00000005
00000005
00000001
00000002
fffffffe
fffffffa
fffffff7
fffffffe
00000007
00000000
00000000
00000002
ffffffff
fffffffd
00000002
00000002
fffffffa
fffffffc
fffffffa
ffffffee
fffffffc
fffffffa
fffffff0
00000003
00000001
fffffffe
00000006
00000002
00000001
ffffffe8
fffffff2
fffffff0
00000005
00000004
fffffff7
fffffffd
fffffff6
00000000
fffffff7
fffffff8
00000009
00000009
00000003
00000000
fffffffa
fffffffa
fffffffb
fffffff9
ffffffff
00000003
ffffffff
fffffff0
ffffffe1
fffffff1
ffffffe2
fffffff3
00000002
00000002
0000001b
fffffffc
00000001
00000006
fffffffc
00000003
00000008
fffffffb
00000004
fffffff9
00000001
00000000
fffffffb
ffffffff
fffffff0
fffffffe
00000007
00000000
00000007
00000009
fffffff3
00000009
00000007
00000001
00000000
fffffff5
00000014
00000005
00000003
00000006
00000004
0000000a
00000000
00000004
00000008
fffffffe
fffffff1
00000006
0000000d
00000000
00000005
fffffff4
fffffffe
fffffff4
ffffffe9
00000002
fffffffe
fffffffa
ffffffea
fffffff8
fffffff5
fffffff5
fffffffe
fffffff6
00000000
0000000f
00000022
fffffffa
00000000
00000000
ffffffe7
fffffff4
ffffffcf
ffffffff
fffffff9
fffffffe
00000001
ffffffff
0000000b
fffffffd
00000008
fffffffa
fffffff2
fffffffa
ffffffea
fffffffb
fffffffb
00000003
00000001
00000001
0000000b
00000000
fffffff5
00000000
fffffffc
00000002
00000006
fffffffd
00000005
00000000
fffffffc
0000000d
00000000
fffffff1
0000000c
00000000
ffffffec
0000000a
0000000b
fffffffd
00000001
00000000
00000000
00000005
ffffffff
00000000
00000006
00000007
00000002
00000003
fffffff9
00000000
00000006
fffffff9
00000000
0000000a
00000000
00000006
fffffff7
00000007
00000006
fffffffc
00000000
00000000
fffffffd
fffffff9
fffffffb
ffffffea
0000000c
fffffff9
ffffffe2
00000025
00000011
fffffff1
00000001
fffffffb
ffffffef
0000000d
00000000
fffffff6
00000004
fffffff3
fffffff9
00000000
fffffff6
fffffffd
00000006
00000000
fffffffc
00000004
fffffffc
fffffffd
fffffffe
00000004
00000001
00000000
fffffffb
fffffffd
fffffffd
fffffff9
00000000
00000000
00000002
fffffff4
0000001d
fffffffc
fffffff0
0000001a
0000000a
00000000
ffffffed
ffffffe6
00000010
fffffff5
fffffffe
0000000a
ffffffeb
fffffff5
00000009
00000001
00000003
00000000
ffffffff
fffffffa
00000002
00000003
fffffff7
00000001
fffffffd
fffffff6
fffffff5
00000017
00000005
fffffff6
0000001b
0000000f
ffffffed
ffffffed
fffffff7
ffffffe2
00000007
0000000c
ffffffdc
0000000d
00000025
ffffffe6
fffffff6
fffffff8
ffffffff
fffffffc
ffffffff
fffffffe
fffffff4
fffffff9
00000001
fffffffa
ffffffff
00000007
fffffffd
fffffff6
00000004
00000000
fffffffa
fffffffe
00000000
00000000
00000004
fffffff6
fffffff2
fffffffe
ffffffef
fffffff3
00000002
fffffffc
fffffffc
00000001
00000006
00000006
00000006
fffffffd
00000003
00000000
00000000
00000002
00000000
fffffffc
00000000
00000005
fffffffa
00000001
00000003
00000001
00000007
00000004
00000002
00000000
00000001
fffffffc
fffffffd
00000004
00000002
ffffffff
00000004
fffffff9
fffffffc
00000000
fffffffe
00000000
fffffffe
00000001
00000004
00000000
ffffffff
fffffff4
00000006
00000002
fffffffe
ffffffff
ffffffff
fffffffc
fffffffa
00000005
00000010
00000000
ffffffff
00000000
fffffffe
fffffff9
fffffffb
00000012
fffffffc
fffffff3
0000000c
fffffff5
fffffff0
00000013
00000000
ffffffff
00000005
ffffffff
00000000
00000006
fffffffc
fffffffb
00000001
fffffffd
fffffffe
00000002
fffffffc
fffffffd
00000000
00000000
fffffffd
fffffffe
fffffffe
00000004
00000008
fffffff6
ffffffeb
00000006
fffffffa
ffffffef
00000007
fffffffd
fffffffa
fffffffb
fffffff9
fffffff5
fffffffc
00000000
fffffffb
0000000a
0000000b
00000000
fffffff9
fffffffd
00000005
fffffff9
fffffffd
00000007
fffffffc
fffffffe
00000001
fffffffa
00000007
00000007
fffffffb
00000000
00000008
fffffff6
fffffff6
fffffffd
00000004
fffffff8
00000000
fffffffb
00000001
00000008
00000005
00000000
00000004
00000008
fffffffe
fffffffd
00000002
00000000
fffffff6
00000000
fffffffa
fffffffc
fffffff0
fffffffd
fffffffd
00000006
00000020
fffffffd
fffffffb
00000006
fffffff8
00000009
00000017
0000000b
00000004
00000018
00000001
fffffff5
fffffffc
fffffffc
00000005
00000006
00000003
00000001
00000000
00000001
00000002
00000001
00000000
ffffffff
fffffffb
fffffffc
0000000a
0000000f
00000001
fffffffc
00000008
fffffffa
0000000a
00000000
00000005
0000000a
00000000
00000004
00000002
fffffffd
fffffffb
fffffff9
fffffff2
00000002
ffffffef
ffffffe3
fffffffc
00000002
00000000
00000003
fffffffb
fffffff7
00000000
fffffffc
ffffffff
0000000a
fffffffe
ffffffff
fffffff5
fffffff3
ffffffe6
fffffffc
00000016
00000008
00000004
00000003
fffffffc
fffffff8
ffffffff
fffffff7
00000005
fffffff4
ffffffea
00000002
fffffff9
fffffff3
00000002
fffffffa
fffffffe
00000001
fffffffe
fffffffe
0000000b
fffffff8
fffffffe
00000000
fffffffc
ffffffff
fffffffb
ffffffff
00000001
00000002
00000005
00000009
fffffffd
fffffffc
00000004
fffffff6
00000006
00000005
00000000
fffffffc
00000004
fffffff2
fffffffc
ffffffea
00000004
ffffffed
ffffffe3
fffffffe
00000000
fffffffa
00000002
00000000
fffffff9
fffffff6
00000002
fffffff9
fffffff9
00000002
fffffffd
fffffff9
00000006
00000011
00000011
00000005
00000012
0000000b
fffffff6
fffffff8
fffffffb
fffffffc
0000000b
fffffff7
00000004
00000004
fffffff7
fffffff4
ffffffff
ffffffea
00000000
fffffffe
00000006
fffffffb
00000003
00000008
00000000
00000002
00000007
fffffffe
00000002
ffffffff
00000006
00000003
00000005
fffffffb
00000004
fffffffb
fffffff4
ffffffec
00000000
fffffff8
ffffffe4
fffffffc
00000001
fffffff0
fffffff8
fffffffc
00000002
fffffff9
fffffff0
fffffffe
00000002
fffffffa
fffffffd
0000000b
00000001
00000006
00000000
00000007
ffffffff
00000006
00000004
fffffffd
00000008
00000001
ffffffff
fffffff7
00000000
00000001
00000001
00000003
00000009
00000001
fffffff5
fffffff9
fffffff7
fffffffb
00000000
00000000
00000001
00000009
00000000
fffffffd
ffffffff
fffffffc
fffffff7
00000003
fffffffe
fffffffa
00000001
ffffffff
fffffff9
fffffff9
ffffffff
fffffffe
fffffff4
fffffffa
00000000
00000000
fffffff9
00000008
00000012
00000006
00000002
0000000b
00000010
00000004
0000000a
00000000
fffffffd
fffffff6
fffffff8
fffffff1
fffffff6
fffffffa
fffffffa
fffffffb
fffffff5
0000000b
00000000
00000000
00000006
fffffff4
fffffffb
fffffffd
fffffffb
00000000
00000004
ffffffff
fffffff7
00000006
0000000a
00000004
00000008
00000000
00000001
fffffffd
0000000b
00000000
00000008
00000011
fffffff4
fffffff4
fffffff6
fffffff8
00000001
ffffffff
fffffff6
00000000
00000008
fffffffd
00000001
0000000c
00000006
fffffff7
fffffff8
00000006
fffffffb
fffffff4
00000002
fffffffb
fffffff7
fffffff8
fffffff4
ffffffda
fffffff4
fffffffd
ffffffeb
ffffffee
ffffffff
0000000d
fffffffe
00000003
0000000b
00000004
fffffffd
fffffff8
fffffffc
fffffffc
fffffffc
ffffffff
00000003
00000005
fffffffb
fffffffc
00000007
00000006
fffffffa
fffffff5
fffffff3
00000004
fffffff8
fffffffa
00000001
00000000
fffffff6
ffffffff
fffffffe
fffffffb
fffffffe
ffffffe9
00000006
00000007
fffffffe
00000007
ffffffff
00000015
00000009
00000004
ffffffff
ffffffff
fffffffa
0000001f
00000003
0000000b
fffffff9
00000003
fffffff6
fffffffa
00000000
fffffffc
fffffff6
fffffffb
00000003
00000016
00000001
fffffffc
00000002
00000009
fffffff9
00000008
0000000d
00000001
00000008
fffffff9
fffffff8
ffffffe5
fffffff7
fffffff8
fffffff8
fffffffa
fffffffd
00000001
fffffffb
fffffffe
ffffffff
00000001
ffffffff
00000005
00000001
00000000
fffffffe
fffffff8
00000001
00000004
00000000
ffffffff
fffffffe
ffffffff
00000000
fffffffd
fffffff4
0000000a
fffffff5
ffffffef
00000003
00000018
fffffff6
fffffff7
00000006
fffffff6
fffffffa
fffffff5
fffffffa
fffffff3
fffffff2
fffffffe
00000009
00000009
0000000e
00000001
00000008
00000009
ffffffff
ffffffee
fffffff4
00000001
fffffffd
00000002
00000006
00000000
00000004
00000005
0000000a
fffffffc
fffffffe
fffffffd
fffffff7
fffffffc
00000002
ffffffec
00000000
00000000
fffffffb
00000000
fffffff6
ffffffe9
00000001
fffffffa
00000000
fffffffc
fffffff9
fffffffd
00000000
fffffffd
00000003
00000006
00000013
00000003
ffffffff
fffffffc
00000005
ffffffff
00000002
00000003
fffffff9
fffffff2
fffffffe
fffffff7
ffffffea
fffffff8
fffffffc
fffffff6
fffffffc
fffffff2
fffffff0
fffffff3
fffffffe
00000000
fffffffb
00000000
fffffffc
00000007
fffffffd
fffffff9
fffffff9
00000000
00000000
00000000
00000006
00000000
00000003
fffffffd
fffffffa
fffffff8
fffffffe
fffffffd
ffffffff
fffffff6
fffffffb
fffffff8
ffffffff
00000002
0000000e
00000008
ffffffed
00000009
00000006
00000007
fffffffd
00000000
fffffff9
fffffff7
00000000
fffffffa
fffffff9
00000001
fffffffe
00000004
fffffffc
fffffff9
fffffffe
00000005
fffffffb
fffffffc
00000001
fffffffc
00000002
fffffffd
00000006
00000007
ffffffff
00000009
00000007
fffffffa
fffffffe
00000000
00000000
fffffff4
fffffffb
00000002
fffffffa
fffffffe
ffffffff
fffffff9
00000000
0000000b
fffffff6
fffffff2
00000003
0000001c
00000000
fffffff4
00000015
fffffffe
00000004
00000005
00000000
00000008
00000005
00000007
00000000
fffffff4
fffffff7
00000000
0000000e
00000001
fffffff9
fffffff6
ffffffff
fffffff6
fffffff3
fffffff1
00000003
fffffff2
fffffffb
00000003
fffffffc
00000002
ffffffff
fffffffc
00000002
ffffffff
00000002
00000000
fffffffd
0000000c
0000000a
00000006
fffffff9
fffffffe
fffffff7
fffffffc
00000003
00000004
00000008
00000007
fffffffd
00000001
fffffffa
fffffffb
fffffff1
00000004
00000003
00000008
00000017
0000000d
00000017
00000012
fffffffe
00000000
fffffff1
00000001
fffffffe
fffffffb
00000009
00000009
00000003
00000000
00000011
0000000b
0000000e
00000003
fffffffa
ffffffff
fffffff8
fffffff0
ffffffee
00000000
0000000c
fffffff9
00000007
0000000e
fffffff6
00000009
0000000b
fffffffd
00000002
00000001
00000009
fffffffb
fffffff9
0000000a
00000007
00000011
ffffffe5
ffffffec
fffffff8
00000000
00000006
00000006
00000002
0000000d
00000009
fffffff5
00000000
00000004
00000004
0000000c
00000005
00000001
0000000b
ffffffff
00000006
00000000
00000000
00000000
fffffffa
fffffffa
fffffffa
fffffffc
fffffffb
ffffffe7
fffffff1
fffffffa
fffffff8
0000000e
00000014
00000002
0000000f
00000000
00000009
00000001
fffffffc
00000004
fffffff9
fffffff5
00000003
fffffffc
fffffff8
00000002
00000003
00000000
00000003
ffffffff
fffffff8
fffffffc
00000001
00000002
fffffff5
fffffff9
fffffff6
ffffffee
ffffffff
00000008
00000000
0000000e
00000010
fffffff9
fffffff6
fffffff6
fffffff7
fffffff7
fffffffd
00000001
00000010
00000010
ffffffff
00000007
00000006
00000006
0000000d
00000003
fffffffc
fffffff9
fffffff9
00000009
00000002
fffffff2
00000000
fffffff6
ffffffea
00000000
fffffff7
fffffff1
00000007
00000001
fffffffb
00000003
00000001
fffffff2
00000000
00000001
fffffff9
fffffff6
ffffffe9
ffffffee
fffffff2
ffffffe5
fffffffa
fffffffc
fffffff9
ffffffff
00000000
fffffff4
fffffff1
fffffffc
ffffffee
fffffff4
fffffff4
ffffffe9
fffffffd
00000005
00000001
00000010
fffffff9
fffffffc
fffffffb
00000006
0000000b
00000013
fffffffc
fffffff0
fffffff8
fffffff7
ffffffef
00000000
fffffff7
fffffffe
0000000d
00000000
00000000
00000000
00000004
fffffffa
ffffffff
00000001
fffffffb
fffffffd
fffffff2
fffffff3
fffffff9
fffffffa
00000003
00000013
ffffffff
0000000a
00000009
00000008
00000017
0000000f
00000001
00000009
fffffffd
fffffffd
fffffffc
fffffffb
fffffffb
00000006
00000005
fffffffd
00000005
00000004
00000003
00000000
ffffffff
fffffff9
fffffff8
00000001
fffffffd
fffffffe
fffffffc
00000008
0000000b
00000006
0000000e
00000006
00000000
0000000a
0000000a
00000009
0000000f
0000000a
00000006
ffffffff
fffffff0
ffffffe9
fffffffd
fffffff6
fffffffa
00000000
00000004
00000001
00000005
00000002
00000002
fffffffb
fffffff5
00000003
00000005
00000001
00000004
fffffffa
00000006
0000000b
fffffffd
0000000b
0000000b
fffffffe
00000009
ffffffff
fffffff8
fffffff8
00000003
00000004
0000000c
00000004
00000005
fffffffd
ffffffff
00000001
00000009
00000002
00000008
00000009
fffffffe
00000006
00000006
ffffffff
fffffffb
ffffffff
00000010
fffffffb
0000002d
00000014
fffffffd
00000006
0000000c
00000004
00000004
fffffff9
00000016
00000025
00000012
0000000f
0000002a
0000001e
00000004
fffffff8
fffffff2
00000005
fffffff7
00000002
0000001f
00000000
0000000b
00000007
0000000f
00000012
fffffffd
fffffffb
00000007
fffffff6
0000000c
00000011
0000001a
00000028
fffffffd
0000000e
00000012
fffffffc
ffffffeb
ffffffc9
ffffffd9
fffffff7
fffffff4
ffffffe9
fffffffe
fffffff2
ffffffef
fffffff9
ffffffd0
ffffffe1
fffffff9
ffffffeb
ffffffe6
fffffff1
ffffffe1
fffffffe
fffffffa
ffffffe9
ffffffff
00000001
00000004
fffffff0
00000012
00000010
fffffff0
00000007
00000014
00000007
00000002
0000000b
00000004
00000000
00000003
fffffff8
fffffff8
fffffffe
0000000f
fffffffc
00000008
00000004
00000006
00000009
00000000
fffffff2
fffffff3
fffffffb
00000005
00000007
00000001
fffffff2
ffffffec
fffffff5
00000003
ffffffdc
00000004
fffffff6
ffffffe8
ffffffe6
ffffffff
ffffffd9
ffffffe4
00000005
00000006
00000004
00000004
0000000d
00000015
ffffffee
ffffffef
0000000a
fffffff9
ffffffd8
fffffffd
00000011
00000008
00000001
00000008
fffffffa
ffffffff
00000000
fffffff5
fffffff8
00000002
00000000
fffffffb
ffffffe3
fffffff3
fffffffa
ffffffde
ffffffe5
fffffff4
00000007
ffffffe5
ffffffe7
fffffff6
ffffffd2
ffffffe0
fffffff3
fffffff3
fffffff4
fffffff5
ffffffe5
0000001b
fffffff4
ffffffe5
fffffffc
00000000
ffffffec
fffffff4
fffffffc
fffffffe
fffffffe
00000006
fffffff5
ffffffff
00000016
00000019
00000004
0000000d
0000000f
0000001d
00000005
00000011
0000000e
00000010
fffffffa
00000000
ffffffff
ffffffe2
ffffffff
00000007
fffffff2
00000002
0000000a
fffffff8
00000008
0000000a
ffffffe8
ffffffff
00000007
fffffff2
ffffffeb
00000000
fffffff5
fffffff8
00000000
fffffffd
fffffff8
ffffffff
fffffff4
ffffffed
00000001
fffffffe
fffffff7
00000006
00000006
fffffffd
fffffff9
fffffff4
00000002
ffffffed
ffffffdd
00000005
00000019
00000005
fffffffe
fffffffb
ffffffd9
ffffffe6
fffffff0
ffffffda
ffffffe8
00000008
00000003
00000005
00000006
fffffff6
fffffff0
ffffffff
ffffffe1
fffffffc
00000000
00000017
00000006
00000001
00000023
00000006
00000000
0000001b
00000012
00000004
ffffffd7
fffffff9
00000001
fffffff4
fffffff2
00000004
0000000e
00000008
fffffff2
00000019
00000002
fffffff2
00000018
00000013
0000000d
0000001a
00000008
fffffff9
fffffffb
fffffffb
fffffff5
ffffffe1
ffffffef
00000009
ffffffe1
00000000
fffffffe
fffffffd
0000000a
0000000f
00000020
00000001
00000013
00000023
00000016
ffffffff
0000000f
00000007
00000000
fffffff2
fffffffb
00000005
00000007
0000000a
00000004
00000009
fffffff5
ffffffff
ffffffe9
fffffff8
00000002
fffffffd
00000005
fffffffe
fffffff4
fffffff0
00000001
00000000
0000000c
00000005
00000005
00000000
00000000
fffffff3
fffffff4
00000000
fffffff8
ffffffff
fffffffb
00000005
00000009
00000005
00000009
00000001
fffffff5
fffffff2
00000007
00000004
fffffff8
fffffffa
fffffffd
00000004
00000006
fffffff5
0000000d
00000000
00000000
00000000
00000004
ffffffec
fffffff2
ffffffff
fffffff7
00000007
00000003
0000000d
0000000b
00000006
fffffff5
fffffff9
fffffffc
00000006
00000006
00000003
0000000d
00000002
00000002
fffffff2
fffffff5
fffffffa
fffffff4
00000000
00000005
fffffffd
00000008
00000005
ffffffff
00000003
0000000e
00000001
0000000d
0000000d
fffffffa
00000001
fffffffb
00000007
00000006
fffffffa
00000010
0000000d
fffffffc
0000000b
fffffffb
fffffff1
fffffffb
fffffffa
fffffffa
fffffff3
fffffffb
00000008
ffffffff
0000000f
0000000e
00000004
00000003
0000000a
00000001
00000000
00000004
00000005
fffffff9
fffffff9
00000000
00000003
00000006
00000006
0000000a
00000001
00000001
fffffffb
fffffff6
fffffffe
fffffffb
fffffffe
fffffff1
fffffffb
fffffffb
fffffffa
00000001
00000000
00000000
fffffffb
fffffff4
00000003
fffffffc
fffffff3
ffffffff
00000001
00000008
00000002
00000002
00000008
fffffffb
fffffffb
00000006
fffffff6
fffffffc
00000000
fffffffb
fffffff9
fffffff4
fffffffb
fffffffe
fffffff9
fffffffc
fffffff8
fffffffc
ffffffff
ffffffef
fffffff5
00000005
fffffffe
00000001
00000002
fffffffa
00000000
00000003
00000004
0000000b
00000000
00000000
0000000d
fffffff8
fffffffe
00000009
fffffff5
fffffff2
00000009
ffffffe7
fffffff4
0000000f
fffffff3
fffffff6
00000002
00000002
00000003
fffffffb
00000011
fffffffd
ffffffff
0000000e
fffffff6
fffffff7
fffffff6
ffffffec
ffffffea
fffffffa
ffffffe7
ffffffed
fffffff3
fffffff4
fffffff6
00000000
fffffff7
00000000
00000008
fffffffd
00000005
00000000
fffffff8
ffffffff
fffffffd
fffffffc
fffffffb
fffffffe
fffffff3
fffffffa
00000003
0000000e
00000009
fffffffe
00000006
00000004
00000001
0000001a
00000012
00000002
0000000f
00000010
00000009
00000001
fffffffe
0000000e
00000017
fffffff8
00000014
0000000b
fffffffb
fffffff2
00000005
00000001
fffffff6
00000003
fffffff7
00000002
fffffffa
fffffff8
fffffffd
0000000b
00000015
fffffffa
00000009
00000010
00000000
fffffff9
00000002
fffffffb
00000009
00000008
fffffff5
fffffffb
00000000
ffffffeb
00000000
fffffff8
fffffff3
fffffff6
ffffffee
fffffffa
fffffff8
fffffffc
fffffff6
fffffffe
fffffffa
fffffffa
fffffffb
fffffffa
fffffff7
fffffffb
fffffffa
00000001
00000005
ffffffff
00000005
0000000e
00000013
00000007
00000013
00000012
fffffffe
00000004
fffffffd
fffffff4
fffffffd
00000004
fffffffe
00000003
fffffffb
00000009
fffffff5
fffffff9
fffffff7
fffffff6
fffffffd
ffffffe8
ffffffe5
fffffff1
ffffffe6
ffffffe3
fffffff1
00000002
00000004
00000002
fffffff7
00000000
0000000b
fffffff4
00000004
00000008
00000001
00000003
00000006
fffffffe
fffffffd
00000001
ffffffff
fffffff7
fffffffa
0000000e
00000005
00000001
00000005
ffffffff
ffffffff
00000003
fffffffe
fffffffe
00000007
00000000
00000005
fffffff9
ffffffef
fffffffd
fffffffd
fffffff4
00000004
fffffffe
00000002
00000000
0000000e
00000010
00000004
00000007
00000005
ffffffff
fffffff6
ffffffee
fffffff3
00000000
00000005
fffffffa
fffffff4
00000000
fffffff2
fffffffc
00000003
ffffffff
fffffff9
ffffffff
fffffffe
fffffffa
00000000
00000006
00000001
00000000
fffffffd
00000000
fffffff8
00000002
fffffffc
00000000
00000004
fffffff9
fffffffe
fffffffb
0000000b
00000012
fffffffe
ffffffff
00000009
fffffffe
00000000
00000000
00000002
00000001
00000003
00000003
00000000
00000001
fffffffe
00000000
fffffffd
fffffff9
ffffffff
00000001
00000000
00000001
fffffffc
00000000
00000000
0000000f
00000007
ffffffec
ffffffe9
00000003
fffffff0
ffffffe4
00000002
00000001
00000002
00000009
00000001
fffffff9
fffffffc
fffffffe
ffffffee
fffffff3
fffffffc
00000006
00000001
fffffffc
00000003
00000002
fffffffd
fffffffc
fffffff7
00000000
00000000
fffffff8
00000006
00000008
00000000
00000000
00000002
fffffffb
fffffffe
0000000d
ffffffff
fffffffc
00000008
00000003
00000000
00000003
00000009
00000008
00000008
00000006
00000008
fffffffe
00000002
00000002
00000005
00000000
ffffffff
00000009
00000008
fffffffd
00000001
00000005
ffffffff
fffffffb
00000000
ffffffff
fffffffc
00000002
fffffffd
fffffff8
fffffffe
fffffffd
fffffffe
ffffffff
00000000
fffffffe
00000002
fffffffe
00000001
00000004
ffffffff
fffffffa
00000000
fffffffb
fffffffd
fffffffe
fffffffb
fffffff5
fffffffe
fffffffa
fffffff9
fffffffc
fffffff8
fffffff0
ffffffee
0000000d
0000001b
fffffffb
00000005
00000020
00000001
0000000e
00000001
00000009
ffffffff
fffffff6
00000001
00000005
fffffffa
00000003
0000000e
00000006
fffffffe
00000005
fffffffd
00000003
fffffffe
00000003
00000007
ffffffff
00000001
ffffffff
fffffffb
fffffffb
fffffffe
fffffffe
00000000
00000002
00000000
fffffffe
00000003
fffffff8
fffffff9
ffffffff
fffffffc
fffffffe
00000005
fffffffe
fffffff8
00000006
fffffffa
fffffffe
00000007
fffffffe
00000000
00000002
00000003
00000000
fffffffc
fffffffd
fffffffa
00000003
fffffffd
00000000
00000004
00000003
fffffffe
00000004
ffffffee
fffffff2
fffffffe
fffffff5
fffffff8
00000002
00000004
fffffffc
fffffff7
fffffffc
fffffff1
fffffff3
fffffffb
fffffff6
fffffffc
00000000
fffffffa
00000003
ffffffff
fffffffd
00000003
fffffffd
00000000
00000001
00000007
fffffffa
fffffff8
00000004
fffffff9
fffffff9
0000000d
00000000
fffffffc
0000000c
fffffff6
fffffffd
00000003
fffffffc
fffffff8
00000009
fffffff9
ffffffff
fffffffe
00000018
00000018
00000005
00000010
0000000a
00000000
00000004
00000005
00000007
00000008
00000004
0000000c
00000018
00000001
00000001
00000002
00000004
ffffffff
fffffff8
fffffffe
00000003
00000006
00000008
00000003
00000000
00000006
fffffffc
00000014
00000009
00000007
0000001f
00000003
fffffffe
fffffffc
00000002
00000000
fffffffe
fffffffa
fffffffe
fffffffe
fffffff5
fffffffe
ffffffef
fffffff5
00000004
0000000e
00000004
00000005
00000000
fffffffd
fffffff5
fffffff4
fffffffd
00000008
fffffffe
ffffffef
00000001
fffffffe
fffffff8
fffffffa
fffffff7
fffffffc
00000007
0000001a
00000008
ffffffff
00000006
fffffffe
fffffffc
fffffff8
00000001
ffffffef
ffffffe0
fffffff4
00000000
fffffff5
00000000
0000000e
00000001
0000000f
0000000b
0000000b
00000002
00000000
fffffffc
fffffffc
fffffffc
fffffffb
fffffffe
00000009
0000000e
fffffff6
ffffffff
00000001
fffffffe
00000000
fffffffc
fffffff5
fffffff4
00000013
0000000a
00000000
0000000c
00000007
fffffffa
ffffffeb
fffffff5
fffffffd
fffffff6
00000000
fffffffe
00000001
00000003
00000001
00000007
00000001
fffffffc
fffffff2
ffffffff
fffffffa
fffffff4
fffffff9
00000003
fffffffe
00000007
00000000
fffffff9
00000003
00000008
ffffffff
0000000c
00000002
00000000
0000000d
00000004
00000019
0000000d
fffffff2
fffffffc
00000000
ffffffef
fffffff2
fffffff3
fffffffc
00000005
00000009
fffffffb
0000000b
00000004
fffffffa
fffffffc
fffffffc
fffffffd
fffffff6
00000000
00000001
00000002
00000005
00000003
00000008
00000008
fffffff8
fffffff1
fffffffb
00000003
00000002
ffffffff
00000009
00000006
fffffffd
00000002
fffffffd
fffffff9
00000001
00000005
00000000
00000005
00000004
fffffffc
00000019
0000001a
ffffffff
00000013
fffffff9
ffffffee
00000003
fffffff3
ffffffef
00000002
00000000
00000000
00000006
0000000e
0000000d
00000003
00000012
00000017
00000002
ffffffff
fffffff3
00000009
00000002
fffffffc
fffffffb
fffffffe
fffffffc
fffffff8
ffffffda
ffffffeb
fffffffb
ffffffef
fffffffb
fffffffd
fffffffe
00000011
fffffffa
00000000
fffffff9
fffffffc
0000000d
0000000a
00000005
00000011
00000002
ffffffe7
ffffffe7
fffffff2
fffffff0
ffffffed
ffffffed
00000006
fffffff7
ffffffef
fffffff8
fffffffc
00000006
fffffffc
00000001
00000004
fffffffb
00000003
fffffffd
00000001
ffffffff
00000007
00000002
00000000
0000000b
00000000
fffffffe
00000001
fffffffe
00000002
fffffffd
fffffff0
fffffff0
fffffff4
00000007
00000002
fffffffd
fffffffc
fffffff5
fffffff6
00000000
fffffff1
fffffffb
fffffffb
fffffff8
0000000e
00000000
00000001
00000004
00000002
00000004
ffffffff
fffffffe
fffffffc
fffffffa
00000002
00000003
00000006
ffffffff
00000005
00000008
00000000
00000000
00000002
00000000
00000007
00000002
fffffffe
00000007
00000002
fffffffd
00000000
00000006
00000000
00000005
00000000
ffffffff
00000003
fffffffd
00000006
00000003
fffffffe
fffffffc
fffffffb
00000000
00000000
00000002
00000000
00000004
00000009
00000007
00000009
fffffffe
fffffffb
00000001
0000000a
00000002
00000002
00000003
00000001
00000003
00000002
00000006
00000002
fffffffb
00000000
00000000
fffffffc
fffffffb
00000005
00000006
fffffff8
00000005
00000000
fffffffb
00000003
fffffff8
fffffffd
00000000
00000010
00000008
00000004
0000000a
00000009
00000000
00000005
00000009
00000000
00000002
00000000
00000000
00000000
00000000
00000005
00000002
00000005
ffffffff
00000007
fffffffd
fffffffe
0000000e
00000006
00000001
0000000d
00000002
00000003
00000002
00000002
00000000
00000007
00000004
fffffffa
00000001
00000003
00000000
00000001
fffffffc
ffffffff
00000000
fffffff9
00000000
00000001
00000002
fffffffc
fffffff8
fffffff5
fffffffb
fffffffc
fffffffa
fffffffe
00000000
fffffffe
00000000
00000000
fffffffe
00000002
00000006
00000002
00000000
ffffffff
fffffffd
fffffff0
00000000
fffffffd
fffffff2
fffffffd
fffffffe
ffffffff
00000000
ffffffff
00000000
ffffffff
fffffffd
00000003
00000008
00000001
fffffffe
00000004
ffffffff
00000003
00000004
fffffffc
fffffffc
00000000
ffffffff
00000004
00000000
00000000
00000007
0000000f
0000000c
00000006
00000007
00000007
0000000a
00000005
00000005
ffffffff
fffffff7
00000005
fffffffd
00000001
00000002
fffffff9
00000001
00000004
00000000
fffffffb
00000001
fffffffc
00000001
ffffffff
fffffffc
00000000
00000000
fffffff8
ffffffff
ffffffff
00000000
00000000
00000002
fffffffa
fffffffc
00000000
fffffffa
fffffff7
fffffffb
00000000
fffffff6
fffffff6
fffffffc
ffffffff
fffffffb
ffffffff
fffffff8
fffffff6
ffffffff
00000005
fffffffc
00000000
00000000
fffffffc
fffffffe
00000003
ffffffff
ffffffff
00000002
00000003
ffffffff
00000000
00000002
fffffffb
fffffffb
fffffffa
fffffffd
00000002
00000003
fffffffe
00000006
00000002
00000000
00000007
00000002
00000000
0000000c
00000006
fffffffb
ffffffff
00000001
00000009
00000006
00000008
0000000a
0000000f
00000004
ffffffff
0000000e
00000004
00000004
00000008
00000006
fffffffd
0000000d
0000000c
ffffffff
0000000d
00000005
fffffffa
00000005
00000002
fffffffe
00000000
ffffffff
00000009
fffffffe
00000003
00000003
00000006
00000004
00000004
00000007
00000006
00000000
00000005
00000006
00000001
00000007
00000009
00000003
00000005
0000000a
00000002
00000008
00000003
0000000d
fffffffd
fffffff7
00000004
ffffffef
fffffff3
fffffffe
ffffffee
00000000
fffffff1
00000004
00000000
fffffff8
00000005
00000000
fffffff5
0000000c
fffffffc
fffffff8
00000000
00000000
fffffff3
fffffffc
fffffffd
fffffffc
00000004
00000001
00000005
fffffff7
00000000
0000000e
00000006
00000000
00000010
00000000
fffffff9
0000000a
ffffffee
fffffffe
fffffffa
ffffffec
00000002
00000002
fffffffd
0000000c
fffffffc
00000006
00000008
fffffffb
fffffffb
fffffffa
fffffffc
fffffff6
fffffffc
0000000e
00000002
0000000a
00000005
00000000
00000005
fffffffd
fffffffe
00000008
fffffff1
ffffffe0
00000017
ffffffed
ffffffde
00000016
fffffff5
ffffffe8
0000001e
fffffff3
fffffffe
00000007
ffffffee
00000003
00000001
ffffffff
0000000e
00000003
00000005
fffffffe
00000001
00000002
fffffffb
00000002
00000002
fffffffc
0000000a
fffffffb
fffffffc
0000000c
fffffffd
00000005
0000000a
fffffffd
00000003
fffffffd
ffffffff
00000000
00000000
00000000
fffffffe
fffffffd
00000002
00000000
fffffffa
0000001a
fffffff3
00000009
00000012
ffffffe6
00000000
00000007
ffffffe2
00000009
00000013
fffffffd
fffffff9
00000010
fffffff5
fffffff2
00000010
fffffff6
fffffff9
fffffffc
fffffffc
fffffff8
fffffff6
00000005
00000007
fffffffe
00000009
00000006
fffffff7
fffffff3
ffffffff
fffffff9
fffffff6
ffffffff
fffffffe
fffffff5
fffffff4
fffffffa
00000005
fffffffb
fffffffe
fffffffe
fffffff6
fffffff7
00000006
00000003
fffffffd
fffffffd
fffffff6
fffffff7
fffffffd
00000002
fffffffb
00000002
0000000a
fffffffd
00000001
fffffff9
fffffffc
fffffffd
fffffffd
fffffffc
ffffffff
00000004
ffffffea
ffffffff
00000001
fffffff1
00000003
fffffff8
fffffff8
00000017
ffffffff
fffffff6
00000004
fffffff9
fffffff9
00000000
fffffffe
fffffffc
0000000a
00000002
fffffff7
fffffff3
fffffffe
fffffff6
fffffff8
00000000
fffffffc
fffffffe
00000005
0000000f
00000003
00000002
00000002
fffffff5
fffffffc
00000001
fffffff3
ffffffff
0000000a
fffffffe
fffffffd
00000003
00000002
fffffffe
00000001
fffffffd
fffffffe
ffffffff
fffffffa
00000003
fffffff8
fffffff6
fffffffe
00000005
00000008
ffffffff
fffffff3
00000002
00000009
fffffff3
00000007
00000003
fffffffb
00000010
0000000b
fffffff2
00000001
00000001
fffffff4
00000002
00000007
ffffffff
00000006
00000003
00000008
0000000d
fffffff6
00000000
0000000c
fffffff9
ffffffff
0000000d
00000000
fffffffe
fffffffa
fffffffd
fffffffc
ffffffff
00000001
00000003
00000000
00000001
00000003
00000002
00000000
ffffffff
fffffff7
fffffffb
fffffffe
00000001
00000000
00000013
fffffff8
ffffffea
0000000a
fffffff7
ffffffff
00000011
00000002
fffffff6
fffffff7
fffffff9
00000008
fffffff7
fffffffd
00000003
fffffffb
00000001
00000002
00000005
fffffffe
fffffffa
00000001
00000002
fffffffc
00000000
fffffffa
fffffffa
00000004
00000006
00000009
fffffff1
fffffff8
00000008
fffffff6
fffffff2
00000004
00000001
00000003
00000006
fffffff9
fffffff3
00000002
00000001
00000000
00000004
fffffffb
00000000
00000000
fffffffa
fffffffe
00000004
fffffffa
fffffff9
00000001
00000003
00000002
00000004
00000000
00000005
fffffffe
00000006
00000000
00000001
ffffffdc
ffffffd9
fffffff3
00000032
00000000
fffffff3
0000000e
00000017
fffffff6
fffffffc
00000004
00000001
fffffff4
fffffffe
00000003
ffffffe5
fffffff5
fffffffe
fffffffe
00000000
00000001
fffffff8
fffffffb
00000001
fffffff6
fffffff8
00000001
00000002
00000000
00000000
fffffffa
fffffffc
00000001
fffffffb
fffffffe
00000000
ffffffe1
ffffffde
ffffffe4
0000004f
00000020
ffffffea
00000015
00000010
ffffffe6
fffffffd
fffffffe
fffffffd
fffffff9
fffffffb
fffffffe
00000000
fffffffd
fffffffe
00000001
00000000
00000000
00000002
fffffff9
00000002
00000007
fffffffa
00000004
fffffffe
00000001
00000006
00000002
fffffff8
fffffffc
ffffffe9
00000000
fffffffd
ffffffeb
ffffffe0
fffffff0
00000010
00000011
ffffffeb
fffffff3
00000026
fffffff0
00000000
ffffffff
fffffffd
00000004
00000001
00000001
fffffffe
00000003
00000007
fffffffe
00000003
00000005
fffffffe
00000003
00000004
fffffff7
00000003
ffffffff
00000007
fffffffc
fffffffe
00000008
00000007
00000001
00000000
00000000
00000000
fffffff8
fffffff8
00000005
00000000
fffffffe
00000003
00000002
00000004
00000000
00000001
00000001
00000001
fffffffd
00000001
00000003
fffffffa
00000000
00000003
00000001
00000000
00000000
00000006
00000000
00000000
00000006
00000004
fffffffe
00000006
0000000a
00000005
fffffff4
ffffffff
00000002
ffffffff
fffffffd
00000003
00000000
00000002
ffffffff
00000003
fffffffa
00000001
00000001
00000000
00000001
fffffffb
ffffffff
fffffff3
0000000d
00000000
fffffffc
00000008
ffffffed
fffffffa
00000003
00000007
0000000a
fffffff2
fffffff7
00000009
ffffffef
fffffff8
0000000a
00000001
00000002
00000005
fffffffb
ffffffff
00000003
00000000
fffffffb
00000002
00000004
00000000
ffffffff
fffffffd
fffffff9
00000001
00000000
fffffffa
00000005
00000002
00000005
fffffffa
ffffffff
00000001
00000000
00000001
00000005
00000005
00000003
00000002
fffffffc
fffffffd
fffffff8
00000000
fffffffe
fffffff7
fffffffd
00000001
00000004
00000002
ffffffee
00000000
00000002
fffffffd
00000003
00000001
00000004
00000000
00000008
fffffff9
ffffffff
00000001
fffffffd
00000002
00000006
fffffffa
00000000
00000003
00000002
00000000
fffffffb
00000003
00000003
ffffffff
00000005
00000003
00000001
00000005
fffffffe
fffffffe
0000000a
fffffffc
00000000
fffffffe
00000001
00000001
00000001
00000002
00000002
00000002
00000000
00000000
00000000
fffffff9
00000000
fffffffd
fffffff6
fffffffd
00000005
fffffffe
00000004
fffffff4
fffffff0
fffffff9
fffffff5
fffffff2
fffffffa
fffffff2
fffffff0
fffffff6
fffffffc
fffffffa
fffffff9
fffffffa
fffffffb
fffffffb
fffffffc
00000003
ffffffff
00000000
0000000b
00000004
00000003
00000006
00000005
00000000
fffffffa
00000003
00000002
fffffffa
fffffffc
00000003
fffffff2
00000002
fffffffe
00000010
ffffffff
ffffffff
fffffffb
00000000
fffffffe
00000000
00000000
ffffffff
00000001
00000007
00000000
fffffffd
fffffffc
00000000
ffffffff
fffffffa
00000003
ffffffff
fffffffe
fffffffa
fffffff4
fffffff2
fffffffe
fffffff3
fffffff5
fffffff6
fffffff5
fffffff8
00000000
fffffffd
fffffff9
fffffffc
00000003
00000001
00000000
00000005
00000005
fffffff8
fffffffe
fffffff7
fffffffd
00000000
fffffffe
fffffffc
00000005
00000000
fffffff6
ffffffff
00000002
ffffffff
fffffffa
fffffffd
00000003
00000000
00000001
00000004
00000008
00000000
00000003
00000000
00000005
fffffffb
fffffffb
fffffffd
00000000
00000000
00000006
00000000
00000001
00000005
00000002
0000000a
00000002
ffffffff
fffffffe
00000000
00000002
00000000
ffffffff
00000008
00000004
00000002
00000004
00000007
00000002
00000005
00000007
00000006
00000005
0000000b
0000000f
fffffffe
fffffffe
00000003
fffffff9
fffffffa
00000002
fffffffd
fffffffc
fffffffe
00000001
00000000
00000004
00000004
00000000
00000000
00000003
00000003
fffffffe
fffffffa
fffffff8
fffffffe
00000000
fffffff6
fffffff7
00000001
fffffffc
fffffff6
fffffff4
fffffff5
fffffffa
fffffffc
fffffffc
fffffffb
fffffffc
fffffff8
fffffffe
ffffffff
00000006
00000000
00000004
00000001
00000002
00000001
ffffffff
00000001
fffffff8
fffffff7
fffffffd
fffffff4
fffffff6
fffffffb
fffffff9
fffffffa
00000000
fffffffd
fffffffc
fffffffb
00000000
00000003
fffffff8
00000005
fffffffd
00000008
00000003
00000007
00000000
00000001
00000001
00000000
00000000
00000001
ffffffff
00000000
00000003
00000001
fffffffd
00000000
00000002
fffffffd
ffffffff
00000003
00000003
fffffffe
fffffffc
00000003
00000003
00000005
00000005
00000001
00000003
fffffffc
fffffffc
fffffffc
fffffffb
fffffff7
fffffffb
ffffffff
ffffffff
fffffffc
fffffff4
fffffffe
00000001
fffffffd
fffffffb
00000001
00000002
fffffffa
00000001
00000006
00000005
00000003
00000002
ffffffff
ffffffff
00000000
fffffffe
00000002
fffffffe
fffffffe
fffffffa
fffffffe
fffffffe
fffffffa
ffffffff
fffffffe
00000000
00000000
00000000
fffffff9
fffffffd
fffffffa
fffffffa
00000001
fffffffc
fffffff9
00000008
00000002
00000003
00000002
0000000a
00000004
00000001
00000004
00000006
fffffff7
00000000
00000008
fffffff7
00000005
00000006
00000005
fffffffd
fffffffe
00000003
fffffffe
00000002
00000007
0000000d
0000000f
fffffff5
fffffff2
fffffff6
00000005
00000008
0000000c
fffffff5
fffffff6
00000002
fffffffd
ffffffef
fffffff8
00000005
00000008
fffffffd
00000000
00000005
fffffffc
00000000
00000008
00000000
fffffffe
fffffff3
fffffff4
0000000a
fffffff6
fffffff1
00000013
00000009
00000001
00000000
fffffff5
00000004
00000003
fffffff3
fffffffa
00000004
ffffffff
00000001
fffffff1
fffffff0
fffffff8
00000002
ffffffed
fffffffa
00000012
0000000b
00000004
ffffffed
fffffff3
fffffff6
0000000a
0000001c
0000000b
fffffffe
00000002
0000000d
0000000b
00000006
00000005
fffffffc
fffffffe
fffffffb
fffffff3
fffffff9
00000001
fffffffb
fffffffb
00000003
00000000
fffffffe
fffffffa
00000004
fffffffc
fffffffc
fffffffe
fffffff7
00000002
00000007
00000004
00000000
fffffffc
00000002
00000002
fffffffb
ffffffeb
fffffff4
00000004
fffffffe
fffffffc
00000003
00000003
fffffffa
fffffff7
fffffffd
ffffffff
00000001
fffffff7
fffffff1
0000000b
0000000d
00000003
fffffff9
fffffff1
fffffff7
00000002
fffffff5
fffffff1
0000000e
00000010
00000005
ffffffff
00000000
fffffff8
fffffff4
00000000
00000000
fffffffa
fffffff2
fffffff9
ffffffec
ffffffef
fffffff1
00000003
00000006
00000005
fffffffb
fffffffa
fffffffd
00000008
00000003
00000008
00000005
00000006
00000007
fffffffa
fffffffc
fffffff2
00000001
ffffffee
ffffffec
00000004
00000008
00000006
ffffffff
0000000b
0000000f
00000001
fffffffc
00000005
fffffff7
00000000
fffffffc
00000002
fffffffb
00000000
00000004
fffffff9
ffffffff
0000000c
00000006
0000000b
fffffffb
fffffff9
fffffffb
00000002
fffffffe
fffffff3
00000004
00000009
00000004
00000008
0000000d
0000000e
00000003
0000000d
00000008
fffffffe
00000005
00000009
fffffffe
fffffffb
fffffffe
00000000
fffffff5
fffffffc
00000005
fffffff0
fffffff3
00000010
00000001
fffffff3
00000006
00000002
00000000
00000005
00000007
00000009
ffffffff
fffffff9
00000002
fffffffd
00000004
00000005
fffffff4
fffffff9
fffffffa
0000000c
00000004
00000002
fffffffe
00000000
fffffff6
fffffffd
00000005
00000008
ffffffff
00000009
0000000b
00000008
0000000f
00000011
fffffffb
fffffffc
00000007
fffffff8
fffffff2
00000000
00000009
ffffffff
00000004
00000011
00000006
00000003
00000003
00000011
00000007
fffffff4
fffffff6
fffffff5
fffffff0
fffffff6
fffffff1
fffffffa
ffffffff
fffffff9
00000000
fffffffd
00000006
fffffffd
00000004
00000002
fffffff7
fffffff2
00000003
fffffff6
00000000
00000006
fffffffb
ffffffef
fffffff9
00000001
00000001
00000006
fffffff0
ffffffea
fffffff9
fffffffc
fffffff4
fffffff8
fffffffe
00000000
00000002
fffffffb
fffffff4
00000005
ffffffff
fffffff3
00000000
fffffff9
ffffffe9
fffffffd
00000000
00000000
ffffffff
0000000b
ffffffff
fffffff9
0000000b
0000000b
fffffffd
0000000a
0000000e
fffffff9
fffffffe
00000008
fffffffc
00000004
00000004
ffffffff
fffffff0
fffffff2
00000009
fffffffb
fffffff0
fffffffb
00000000
fffffff7
00000001
fffffffa
00000005
0000000e
fffffff8
fffffff6
00000000
00000000
fffffff9
00000003
00000002
00000007
fffffffd
00000002
00000009
00000000
fffffffd
00000002
00000000
fffffff4
fffffffe
00000008
00000000
fffffff5
00000000
00000010
00000001
00000004
00000001
00000002
00000001
00000007
00000003
fffffffd
0000000d
00000009
00000005
00000002
fffffffe
fffffffe
fffffff7
00000002
00000000
fffffff5
fffffffe
00000000
fffffff9
00000000
00000005
fffffff9
00000005
00000006
fffffffc
fffffff9
00000000
fffffff9
00000000
0000000e
fffffffc
fffffffa
00000000
00000002
fffffffa
fffffff4
00000000
ffffffef
fffffff9
00000016
fffffffa
fffffff3
00000015
00000004
fffffffd
fffffffe
00000008
ffffffff
fffffff8
00000001
00000004
fffffff9
ffffffff
fffffffe
fffffffb
00000007
0000000c
fffffffa
fffffffc
0000000a
fffffffd
fffffff0
fffffffc
fffffffe
ffffffff
fffffff7
fffffff9
fffffff8
fffffff4
00000000
fffffff7
fffffff7
fffffff7
fffffff0
0000000f
ffffffff
ffffffec
00000000
00000011
fffffffa
fffffff9
fffffffb
0000000c
0000000d
ffffffff
00000000
0000000d
fffffffe
00000000
00000004
ffffffee
fffffff6
0000000b
fffffff6
ffffffe5
fffffff9
fffffffc
fffffff4
ffffffe6
00000008
00000008
0000000b
00000006
00000007
00000004
00000002
0000000a
00000001
00000000
fffffff1
fffffffd
fffffff9
fffffff8
00000000
00000001
fffffffa
00000004
00000004
fffffff9
fffffffd
00000000
00000005
00000000
00000001
00000011
00000007
00000000
00000003
0000000c
fffffff5
fffffffe
00000003
fffffffd
fffffffb
00000006
ffffffff
fffffffc
00000012
fffffffc
fffffff3
00000009
00000003
fffffff5
fffffff8
ffffffee
00000005
00000004
fffffff4
fffffffc
00000000
fffffff1
00000001
fffffffc
fffffff8
00000000
00000006
fffffff2
fffffff7
fffffffc
00000000
fffffffa
fffffffb
00000005
fffffffa
fffffffc
fffffffb
00000002
00000009
00000000
fffffffd
00000008
00000003
ffffffff
00000006
fffffffc
fffffffd
ffffffff
fffffff9
fffffffd
fffffff8
fffffffa
fffffffb
fffffff7
fffffff9
fffffffa
fffffff1
00000009
0000000d
fffffffc
00000000
fffffff2
00000001
00000007
fffffff7
fffffffd
00000006
fffffffd
fffffff7
00000005
00000000
fffffff2
00000008
00000001
fffffff5
0000000a
0000000f
fffffffb
fffffff9
fffffff5
00000009
fffffff0
ffffffec
00000000
00000001
fffffff2
fffffff7
fffffff8
00000001
00000002
fffffffa
fffffffc
fffffffe
fffffff8
00000003
00000005
fffffffb
fffffff9
fffffffb
fffffff1
ffffffef
00000003
fffffff7
ffffffff
00000005
00000007
00000009
fffffff9
00000001
fffffffc
fffffffa
fffffff8
00000000
fffffff6
fffffffd
fffffffe
fffffffc
fffffffa
fffffffc
fffffffb
fffffff3
fffffff7
00000001
00000002
fffffffa
fffffff8
fffffff8
fffffff9
fffffffa
fffffffb
fffffff5
fffffffc
ffffffe4
fffffff1
00000007
ffffffe4
fffffffb
00000014
fffffff5
0000000b
00000015
00000005
fffffffa
00000001
00000000
00000001
00000002
00000009
00000005
fffffffe
00000002
00000000
00000004
fffffff9
ffffffff
0000000b
fffffff9
00000007
00000007
00000004
fffffffe
00000002
fffffffc
ffffffff
00000000
fffffffb
00000006
00000003
ffffffff
fffffffb
00000003
00000003
ffffffff
fffffffc
fffffffe
00000000
fffffffe
00000011
ffffffff
fffffff8
00000003
fffffff9
fffffff5
00000002
fffffff7
fffffff8
0000000c
00000007
00000002
00000008
00000000
00000000
00000008
00000006
fffffffe
ffffffed
ffffffed
ffffffff
ffffffef
fffffffb
00000004
00000003
00000008
00000004
ffffffeb
fffffff9
00000006
fffffff1
fffffff7
0000000c
fffffff0
00000000
00000013
fffffffe
fffffff1
fffffff6
fffffff4
ffffffef
fffffff4
fffffff4
fffffff1
fffffff8
fffffffe
00000001
fffffffd
fffffffa
fffffffb
fffffffe
00000000
ffffffff
fffffffb
00000005
0000000b
fffffff9
0000000b
0000000c
fffffff6
00000009
00000003
fffffff1
00000000
00000005
00000002
00000004
fffffffe
00000001
00000002
ffffffff
fffffffc
00000003
00000004
fffffffc
00000007
00000000
fffffffb
fffffffb
fffffffe
0000000b
fffffff8
fffffffe
00000004
00000003
00000003
00000004
00000004
00000001
fffffffc
fffffffd
00000000
00000001
00000000
00000007
00000001
00000003
00000001
00000002
00000000
fffffffd
00000002
00000005
fffffffd
00000001
00000003
00000001
00000001
fffffffa
fffffffb
fffffffb
fffffffa
fffffff7
fffffffb
fffffffe
fffffffb
fffffff9
fffffffd
fffffffc
ffffffed
0000000c
fffffff1
fffffff1
fffffffa
ffffffe6
fffffffc
00000000
00000000
ffffffff
00000000
fffffff5
fffffffd
fffffff6
fffffff7
fffffffa
00000000
00000000
00000008
00000000
00000002
00000009
00000006
00000006
0000000d
00000000
00000002
fffffffc
fffffffc
00000001
00000003
fffffffa
fffffffc
00000000
ffffffff
00000004
00000000
00000004
fffffffc
fffffffd
00000006
00000003
00000000
fffffff9
fffffffd
fffffff7
fffffff9
fffffff9
fffffff9
fffffffc
fffffffe
fffffff7
ffffffff
fffffffa
fffffff6
fffffff0
fffffff4
00000000
fffffff8
00000002
00000001
fffffff4
fffffff9
ffffffff
ffffffed
fffffff8
00000005
fffffff1
00000004
0000000b
00000002
00000000
fffffffa
00000004
00000003
fffffffe
00000005
00000008
00000002
00000000
fffffff4
fffffff7
fffffffa
fffffffe
fffffffe
00000000
00000008
fffffffe
ffffffe5
ffffffdf
ffffffeb
fffffff9
ffffffed
ffffffef
00000009
00000005
fffffff9
fffffffd
fffffff9
ffffffff
00000006
00000008
ffffffff
0000000c
0000000c
00000001
ffffffff
00000007
ffffffff
0000000c
0000000a
fffffff8
ffffffff
fffffffe
00000008
fffffff7
ffffffea
ffffffe8
fffffff3
fffffff6
00000006
fffffffe
ffffffff
0000000a
fffffffb
00000002
fffffffe
0000000a
00000019
00000000
fffffffe
00000006
ffffffe9
fffffffe
fffffff9
00000003
fffffffc
0000000b
00000004
fffffffe
00000000
fffffff7
ffffffef
00000017
fffffffe
ffffffff
00000008
ffffffef
00000000
ffffffdb
fffffff1
fffffffb
ffffffec
fffffff3
fffffff4
fffffff4
0000000d
fffffff2
fffffff9
00000003
00000005
00000000
00000006
00000003
00000008
0000000d
00000000
fffffffa
00000000
00000009
00000011
fffffff8
fffffff9
ffffffe6
fffffff5
fffffff9
ffffffee
00000014
00000000
fffffff2
00000006
00000000
fffffff5
00000009
fffffff9
fffffff8
fffffffb
ffffffec
ffffffec
ffffffec
00000001
ffffffe2
fffffff1
fffffffe
fffffffc
fffffffb
ffffffe9
ffffffee
fffffff9
0000000d
00000017
fffffffd
fffffffd
0000000f
ffffffea
0000000b
0000001f
00000010
ffffffff
00000008
fffffffb
00000002
ffffffec
fffffff4
00000000
00000001
00000002
fffffffc
fffffff7
ffffffee
fffffffa
fffffff3
fffffffe
ffffffe6
00000000
ffffffee
ffffffe6
fffffffb
ffffffdd
ffffffee
ffffffeb
ffffffed
ffffffea
ffffffd8
fffffff6
fffffff0
fffffff0
fffffffd
00000000
0000000a
0000000c
00000006
ffffffe7
00000005
00000003
fffffffc
00000004
00000009
0000000d
fffffff6
00000004
fffffff9
00000004
00000016
00000008
fffffff2
0000000a
00000002
fffffffa
ffffffff
ffffffef
00000004
fffffffd
fffffff3
00000008
ffffffec
fffffff1
00000000
00000005
fffffffa
00000000
0000000b
fffffff9
fffffff5
00000006
fffffff9
ffffffee
fffffffb
fffffff1
fffffffc
ffffffea
fffffffa
fffffffd
fffffff4
fffffffe
0000000f
00000008
0000001d
00000004
00000011
00000018
00000001
00000006
fffffff7
fffffffa
fffffff5
ffffffe1
ffffffd9
00000007
00000008
00000011
00000026
0000002f
00000020
0000000e
00000009
00000006
00000002
00000015
0000000f
00000006
0000001b
fffffffc
00000000
fffffff5
fffffff9
ffffffff
ffffffff
00000006
ffffffff
00000017
00000001
ffffffe7
ffffffcd
ffffffec
fffffff2
ffffffe2
00000002
0000000a
00000001
00000007
ffffffe5
ffffffe9
00000010
00000002
00000000
00000003
0000000d
00000013
00000005
fffffffd
ffffffe9
fffffffd
0000000f
fffffff6
00000001
00000011
00000014
00000004
00000002
fffffffb
fffffff7
00000002
00000007
00000007
00000007
00000000
fffffff8
fffffff9
fffffff8
fffffff6
ffffffed
fffffffc
fffffffe
fffffff6
00000000
fffffffc
00000009
ffffffff
fffffffd
fffffffe
0000000a
0000000a
fffffff6
0000000c
00000009
00000004
fffffffc
00000010
ffffffff
fffffff6
0000000a
fffffff8
fffffff3
fffffffa
00000006
0000000d
00000009
00000002
00000003
00000000
00000001
00000005
fffffffc
fffffff3
fffffff3
ffffffed
fffffff6
fffffffd
fffffff7
fffffff4
00000000
00000003
00000007
ffffffff
fffffff8
fffffffb
00000002
00000001
00000002
00000001
ffffffff
0000000e
ffffffff
fffffff9
00000001
fffffff8
fffffffb
fffffff7
fffffff5
fffffffb
ffffffff
fffffffc
fffffffc
fffffff4
ffffffe9
fffffffe
ffffffeb
ffffffe7
fffffff6
00000002
fffffffa
0000000f
fffffff9
fffffff3
00000007
fffffff1
ffffffeb
ffffffff
00000002
fffffff4
fffffff2
fffffff3
fffffff2
ffffffed
fffffff6
fffffff1
fffffffd
fffffffd
00000002
00000000
fffffff9
fffffffa
fffffffc
fffffffa
fffffff5
fffffff3
fffffff6
fffffff8
fffffff3
fffffff7
0000000b
fffffffd
fffffffc
00000003
ffffffff
00000003
ffffffff
fffffff3
fffffffd
fffffffc
00000000
0000000d
00000013
00000013
fffffffd
ffffffee
fffffff0
fffffff0
ffffffe7
ffffffe8
fffffffd
fffffff2
fffffff5
00000002
ffffffff
fffffff2
00000000
fffffffe
fffffffb
00000005
00000008
ffffffff
00000014
00000013
0000000a
00000000
00000000
00000000
fffffff9
fffffff3
fffffff7
fffffff5
fffffff7
fffffff5
fffffff5
fffffff6
ffffffff
fffffff4
fffffffc
00000008
ffffffff
fffffff6
fffffffd
fffffff7
fffffff5
fffffff9
ffffffff
fffffff1
fffffffb
00000007
fffffff9
0000000d
fffffffb
00000000
00000007
fffffff8
ffffffef
fffffff3
ffffffff
fffffff4
fffffff9
ffffffef
ffffffe3
ffffffe8
ffffffe3
ffffffea
ffffffef
00000001
00000004
00000005
00000000
00000001
00000008
fffffffb
00000000
ffffffff
ffffffff
0000000c
00000005
00000000
00000004
00000000
fffffff9
fffffffd
00000008
fffffffd
fffffff4
fffffffb
fffffff6
fffffff3
fffffffa
fffffff7
ffffffea
fffffff4
0000000c
00000006
00000003
fffffffd
fffffffb
fffffffb
fffffffd
fffffff8
fffffff6
00000005
ffffffff
fffffff9
fffffff8
fffffff0
fffffff5
fffffff8
fffffff4
fffffff6
0000000c
00000004
00000000
fffffffa
fffffffc
00000003
ffffffff
ffffffff
00000000
00000006
00000002
00000000
fffffffc
fffffff7
ffffffff
fffffffc
fffffffb
00000002
00000015
00000001
fffffffd
00000006
fffffffb
fffffff9
fffffff8
fffffff1
fffffffc
fffffff7
fffffff7
fffffffa
fffffff2
fffffff1
fffffff5
00000002
0000000d
fffffffc
00000005
00000004
00000003
00000009
00000004
00000006
00000006
00000001
00000009
00000001
fffffffb
fffffff7
fffffffe
fffffff8
00000004
fffffffc
fffffffa
00000005
fffffff0
fffffffc
fffffff8
00000002
00000000
00000000
00000000
00000009
ffffffff
00000000
0000000b
00000000
00000007
fffffff5
ffffffef
00000005
00000001
fffffffe
fffffffe
fffffffe
fffffffc
00000000
fffffff3
fffffffd
fffffff8
fffffff2
fffffffc
00000005
00000002
00000000
00000002
fffffff8
fffffffd
00000000
00000000
fffffffe
00000004
fffffffb
fffffffc
00000005
fffffff6
fffffff8
fffffffb
fffffffd
ffffffff
fffffffd
fffffffa
fffffffd
fffffffa
fffffffa
00000002
fffffffa
00000004
00000008
00000008
00000003
00000003
00000000
00000000
fffffffb
fffffff5
00000006
00000003
00000006
00000008
00000007
fffffff8
fffffff2
00000000
fffffff5
fffffff9
fffffffa
00000001
fffffff9
fffffff4
ffffffff
ffffffff
fffffff4
fffffffa
ffffffff
00000005
fffffffb
00000000
00000002
fffffffb
fffffffc
0000000f
00000003
00000002
00000011
fffffffc
0000000d
00000004
0000000b
fffffffb
ffffffef
00000001
ffffffec
fffffffc
fffffffd
00000008
fffffff8
00000000
00000009
fffffff7
0000000a
ffffffff
00000005
00000008
00000004
00000000
00000004
00000000
fffffff9
00000005
00000005
00000000
00000000
00000000
fffffffe
00000001
fffffff4
fffffff3
fffffffb
fffffff1
fffffff8
ffffffff
00000000
00000000
00000005
fffffffb
fffffff6
00000003
00000000
fffffffa
fffffff5
fffffff9
00000004
fffffff6
fffffffc
00000000
fffffffc
0000000a
00000009
0000000c
00000005
00000004
00000002
00000001
00000000
fffffffc
fffffff7
fffffffc
00000001
fffffffb
fffffff9
fffffffe
fffffff2
fffffffd
fffffffe
00000000
fffffffe
fffffff5
ffffffed
fffffff2
fffffffc
fffffff9
fffffffd
fffffff9
fffffff8
fffffffa
fffffffd
fffffff9
fffffffa
00000000
fffffff5
fffffff8
00000004
fffffffe
00000004
0000000a
00000012
0000000b
00000009
00000006
00000006
00000003
fffffff6
00000008
00000000
fffffff8
00000002
00000000
00000005
00000009
00000001
0000000f
00000006
fffffffd
fffffff0
fffffff0
fffffff8
ffffffe6
ffffffef
fffffffd
fffffff6
fffffff8
00000001
00000003
00000008
00000000
fffffffe
00000000
00000001
0000000a
fffffffe
fffffffa
fffffff2
fffffff9
fffffffc
fffffff6
fffffff9
fffffffc
00000000
00000002
fffffffc
00000006
00000005
0000000a
00000006
00000001
00000008
00000001
fffffffe
00000005
00000002
00000000
00000000
00000002
ffffffed
00000005
fffffff9
fffffff2
00000000
00000007
fffffffe
00000003
00000012
00000000
0000000d
0000000b
0000000c
00000008
0000000b
00000005
00000006
fffffff9
fffffff5
00000003
ffffffee
ffffffef
ffffffff
00000004
ffffffff
00000004
fffffffc
ffffffee
00000001
fffffff1
ffffffef
fffffffa
fffffffb
00000001
ffffffed
ffffffeb
00000000
ffffffef
fffffff7
00000001
fffffffd
fffffff8
fffffff8
00000003
fffffff6
fffffff8
00000002
fffffff9
fffffffe
00000009
00000006
fffffffd
fffffff8
ffffffe9
fffffff7
fffffff8
fffffffb
fffffffc
00000004
ffffffff
00000006
fffffffc
fffffffc
fffffff7
fffffff6
fffffff8
fffffffb
fffffffa
00000005
00000001
fffffffc
00000007
00000000
fffffffe
fffffffb
ffffffff
00000002
00000003
00000006
fffffffa
00000001
00000001
fffffff8
fffffff1
fffffffc
fffffffe
00000003
00000006
ffffffff
00000012
00000002
00000001
ffffffff
fffffffb
fffffffc
fffffffe
fffffffa
ffffffff
00000001
fffffffb
00000002
00000000
fffffffe
00000001
0000000d
00000005
00000000
ffffffed
00000000
ffffffff
fffffff9
fffffffe
00000004
00000009
fffffffd
00000000
ffffffff
fffffffb
00000004
00000005
00000002
00000004
0000000d
00000000
0000000e
00000002
00000000
fffffffe
ffffffff
fffffffd
fffffffb
00000026
00000000
fffffff3
0000001b
00000002
ffffffe6
ffffffec
fffffff1
00000007
0000000a
fffffffa
00000001
fffffffb
fffffff3
ffffffff
fffffffb
fffffffb
fffffffe
fffffffb
fffffffe
fffffffd
00000006
00000001
ffffffff
00000001
00000005
00000000
0000001a
00000001
00000000
00000014
00000000
fffffff5
fffffff7
fffffff7
fffffffa
fffffffb
ffffffff
00000000
00000000
fffffffe
00000000
fffffffe
00000000
00000001
fffffff0
fffffff1
00000005
fffffff4
00000002
00000002
00000000
00000005
fffffff0
ffffffee
00000000
fffffff7
fffffff0
fffffffd
00000003
00000003
00000002
00000001
fffffffe
fffffff6
fffffffa
fffffffe
fffffffe
fffffffe
00000002
ffffffff
00000000
0000000a
00000000
fffffffc
00000000
00000000
fffffffe
fffffffa
00000000
00000001
fffffff6
ffffffff
00000000
00000004
00000003
fffffffd
ffffffff
ffffffff
fffffffc
fffffffb
00000003
fffffffc
fffffff3
00000000
fffffffd
fffffffe
00000003
00000005
fffffff8
00000003
fffffffc
00000006
fffffffa
00000002
00000000
00000000
00000000
00000002
00000003
fffffffd
ffffffff
00000004
00000002
00000001
00000002
00000001
fffffffd
00000002
00000007
00000000
00000000
00000000
00000000
00000002
fffffffd
fffffffe
00000003
00000001
ffffffff
00000003
00000001
fffffffd
fffffffc
00000004
fffffffc
00000000
00000000
fffffffa
fffffffd
fffffffe
00000000
00000000
00000003
00000023
00000009
fffffff1
0000002a
0000000c
fffffff4
fffffff5
fffffff5
00000008
00000000
00000000
00000001
fffffffa
fffffffd
fffffffe
fffffffe
ffffffff
00000000
fffffffe
fffffffb
ffffffff
fffffff6
00000002
00000003
fffffffe
00000002
fffffffb
ffffffff
fffffffc
fffffffd
00000000
fffffffe
fffffffa
fffffffb
00000000
00000001
fffffff6
00000001
ffffffff
fffffff8
fffffff9
00000002
fffffffa
fffffffc
fffffffc
00000005
00000001
fffffffa
fffffffe
00000000
00000000
fffffffe
ffffffff
fffffffd
fffffff9
00000000
fffffff6
fffffff9
fffffffc
fffffffc
fffffffc
fffffffe
00000006
00000005
ffffffff
00000000
00000007
fffffffe
fffffffd
00000005
00000006
00000001
00000000
00000006
00000000
fffffffc
fffffffe
ffffffff
ffffffff
00000003
00000008
00000000
fffffff2
0000000b
fffffff9
fffffff8
00000002
00000000
00000003
00000002
00000003
0000000d
00000000
fffffffa
00000000
fffffffa
00000006
00000001
0000000e
00000002
fffffffa
0000000a
00000000
00000000
fffffffb
00000004
00000003
fffffffc
0000000a
fffffffd
fffffffd
00000001
fffffff6
fffffffc
00000005
00000001
fffffffd
00000006
00000002
00000009
0000000b
00000003
0000000a
00000007
0000000a
00000000
00000004
fffffffe
00000008
00000008
fffffffc
00000000
fffffffb
fffffff9
fffffffa
fffffff2
fffffff9
fffffffa
fffffffa
fffffff7
00000000
fffffffe
00000003
00000000
fffffffc
fffffff2
00000001
00000004
00000001
00000000
fffffffa
fffffff6
0000000d
0000000b
00000015
fffffffc
00000005
00000006
00000013
0000000a
00000014
fffffff9
fffffffc
00000003
ffffffff
fffffffd
fffffffa
00000000
fffffff4
fffffffa
00000007
00000000
00000003
00000004
fffffffc
fffffff9
0000000d
ffffffff
00000001
fffffff6
ffffffed
fffffffc
fffffffb
fffffff3
fffffff9
fffffff5
ffffffec
fffffff6
00000004
fffffffd
fffffff6
00000000
fffffffd
fffffff4
00000007
00000000
fffffffe
00000007
fffffffe
00000003
00000006
00000001
fffffffc
00000001
fffffffd
fffffff7
00000007
ffffffff
0000000b
00000003
fffffff6
00000008
ffffffff
fffffff7
ffffffff
ffffffff
0000000c
00000017
fffffff8
00000000
00000002
00000001
00000007
00000007
00000000
ffffffed
ffffffeb
00000000
fffffff5
fffffff0
00000012
fffffff8
fffffffb
00000007
fffffffa
00000005
ffffffff
fffffff5
fffffff7
fffffff9
fffffff5
fffffffb
00000008
00000001
00000003
ffffffff
fffffff9
fffffff8
00000010
00000001
00000007
00000005
00000003
0000000f
fffffffb
fffffff8
fffffff4
0000000a
fffffffc
fffffff6
00000004
0000000c
0000000b
fffffffb
fffffffd
00000002
fffffffa
fffffff9
00000000
00000005
fffffff1
ffffffe7
00000007
ffffffe4
ffffffe4
00000003
ffffffee
ffffffdf
00000002
00000008
00000001
00000002
00000003
00000000
00000004
0000000a
00000002
00000001
fffffffc
00000002
fffffffe
fffffff9
fffffff7
00000002
fffffff8
00000001
0000000e
0000000b
00000000
00000003
00000004
fffffff5
00000004
0000000f
00000002
fffffff9
fffffff6
fffffff3
fffffff5
fffffff8
fffffff2
fffffff2
fffffff0
fffffff2
00000000
00000007
00000002
fffffffb
fffffff1
00000008
fffffffb
ffffffe2
fffffff8
00000008
00000001
fffffff1
fffffffb
00000001
fffffff6
fffffff9
00000007
fffffff7
00000001
ffffffff
fffffff7
ffffffff
fffffff4
ffffffec
00000001
ffffffec
fffffff0
00000010
fffffffb
00000000
00000006
00000003
00000005
00000002
fffffffa
fffffffa
00000012
ffffffef
fffffff9
0000000f
fffffff6
00000005
0000000c
fffffffb
00000004
00000009
00000005
fffffff7
00000007
00000015
00000006
fffffff7
0000000a
00000002
0000000e
ffffffd9
ffffffe1
ffffffeb
ffffffcc
ffffffd4
fffffff4
ffffffcc
ffffffd5
fffffffd
fffffff9
fffffffc
fffffffc
fffffffc
00000004
fffffff8
00000000
00000001
00000005
fffffffc
fffffffe
fffffffd
fffffffc
00000001
fffffffa
fffffff9
fffffff5
00000008
00000006
00000005
ffffffff
00000007
00000002
00000004
00000008
00000004
fffffffd
fffffff3
ffffffff
fffffffe
fffffff5
fffffffb
fffffff4
ffffffea
fffffff3
fffffffa
00000003
00000002
fffffffa
00000000
00000009
ffffffef
fffffffd
00000001
00000007
0000000c
00000006
00000003
00000002
00000005
00000007
00000000
fffffff9
00000002
fffffffe
00000002
fffffffd
fffffffd
00000002
fffffffc
00000000
00000007
fffffffd
fffffffe
00000008
fffffffc
00000005
00000006
fffffffe
00000001
00000003
00000010
00000009
fffffffe
00000008
0000000c
ffffffff
0000000f
00000004
fffffffb
ffffffff
fffffffb
fffffffd
00000008
fffffffe
00000000
00000009
fffffffe
fffffffc
fffffffa
00000002
00000002
fffffffd
fffffffc
fffffffc
fffffffc
fffffffb
fffffffe
ffffffff
fffffffb
ffffffff
00000001
fffffff8
fffffffe
ffffffff
fffffff7
00000002
fffffffe
00000003
00000004
fffffffd
00000004
fffffffb
00000000
00000001
fffffffd
fffffffd
fffffff5
fffffffe
fffffffc
fffffffd
fffffffd
00000003
00000000
00000001
fffffff7
fffffff6
fffffffc
ffffffff
fffffffc
00000005
fffffff5
fffffff9
00000000
fffffff1
ffffffd3
ffffffe4
ffffffee
ffffffd4
ffffffe2
fffffff2
ffffffcf
ffffffde
ffffffff
00000004
00000003
00000005
00000008
00000004
00000000
00000000
00000002
fffffff1
fffffff2
00000001
ffffffee
fffffff3
00000005
ffffffe2
ffffffeb
fffffffb
fffffff2
fffffff5
fffffffe
fffffff3
fffffff9
0000000c
fffffff1
fffffff0
fffffffe
00000003
00000002
ffffffff
fffffffb
00000000
00000000
00000000
00000000
00000005
00000001
00000001
00000000
00000005
00000003
fffffffd
0000000e
00000004
ffffffff
00000000
ffffffff
00000000
00000001
00000000
00000003
00000001
ffffffff
ffffffff
0000000e
00000000
fffffffe
00000006
fffffffe
00000000
00000002
fffffff9
00000000
fffffffc
fffffffa
fffffffa
fffffffd
00000000
ffffffff
fffffff9
fffffffa
fffffffa
fffffffe
fffffff9
fffffff9
fffffffe
fffffffe
fffffffa
00000001
00000002
fffffffc
00000002
00000006
00000000
00000000
00000001
00000000
00000000
00000008
00000005
fffffffa
fffffffb
fffffff8
ffffffff
ffffffff
fffffffb
00000000
00000002
00000009
0000000e
00000010
0000000b
00000005
00000009
00000007
00000008
00000000
fffffffc
fffffffd
00000006
00000003
00000000
00000003
00000000
ffffffff
ffffffff
fffffffb
fffffff9
00000002
00000000
fffffffb
fffffffc
00000000
fffffffe
00000000
ffffffff
00000004
fffffff1
fffffff6
fffffff8
fffffff3
fffffffc
fffffff0
fffffff4
fffffffa
00000009
00000000
0000000a
0000000c
00000004
00000006
00000007
00000000
00000000
ffffffff
00000006
00000002
fffffffc
fffffffc
ffffffff
fffffffd
fffffffa
fffffffa
fffffffd
fffffffd
00000002
00000000
00000003
00000004
00000000
00000000
00000009
00000000
fffffffd
ffffffff
00000000
fffffffa
fffffffe
fffffffd
00000001
00000000
fffffffb
fffffffa
fffffffe
00000000
00000000
00000000
fffffffa
fffffff6
fffffff9
00000003
0000000f
00000007
fffffffa
00000000
00000001
fffffffb
00000000
fffffffc
00000002
ffffffff
ffffffff
fffffffe
ffffffff
fffffffc
ffffffff
00000001
ffffffff
00000008
0000000d
00000008
fffffffe
00000004
00000007
00000002
00000006
00000008
00000002
00000000
fffffffc
ffffffff
00000001
fffffffe
fffffffd
00000001
fffffffd
00000000
00000006
00000001
fffffffe
00000000
00000000
00000000
ffffffff
ffffffff
00000007
00000002
ffffffff
00000007
00000004
00000000
00000001
00000006
00000004
fffffffb
00000000
ffffffff
00000000
00000004
00000003
fffffffd
00000004
00000001
fffffffb
00000003
00000006
fffffffc
00000000
00000002
fffffffe
00000002
00000001
00000005
00000004
00000001
fffffffd
00000002
fffffffc
ffffffff
fffffffe
fffffffa
00000004
00000009
00000007
00000002
00000004
00000004
fffffffe
00000006
00000009
00000000
ffffffff
00000005
00000007
00000005
00000006
00000006
00000004
00000007
00000000
00000003
00000001
fffffffc
00000003
00000005
fffffffc
00000000
00000001
00000006
00000001
fffffffd
00000000
00000000
00000000
00000003
ffffffff
00000000
fffffffa
fffffffc
fffffffe
fffffffa
fffffff6
fffffffc
fffffffc
fffffff8
fffffff9
00000007
00000006
00000001
00000001
00000005
00000000
00000000
00000003
ffffffff
00000004
0000000c
00000006
00000002
00000004
00000001
00000005
00000000
00000001
00000004
fffffffe
00000003
ffffffff
ffffffff
fffffffc
00000000
fffffffc
00000000
00000000
00000001
00000000
ffffffff
fffffffe
ffffffff
fffffffe
00000000
fffffffd
fffffffb
00000007
0000000b
fffffff8
00000000
00000003
fffffffc
fffffffc
fffffffd
00000005
00000004
00000004
00000005
00000003
00000000
00000002
fffffffd
fffffffa
ffffffff
fffffffe
00000000
ffffffff
fffffffa
00000001
00000000
fffffffb
fffffffd
00000000
00000001
ffffffff
fffffffb
fffffffe
00000000
fffffffd
ffffffff
fffffffd
00000005
00000002
00000001
00000000
00000000
00000000
00000001
fffffffe
fffffffd
fffffffb
00000000
00000009
ffffffff
ffffffff
00000002
00000002
00000000
00000006
00000000
00000004
00000006
ffffffff
00000002
00000000
fffffffd
00000001
00000004
00000002
00000004
00000000
fffffffc
00000001
ffffffff
fffffff8
fffffffe
00000000
fffffff9
fffffffc
fffffffb
fffffffc
fffffffd
ffffffff
00000000
fffffffc
fffffffd
00000000
00000000
00000004
ffffffff
00000000
00000000
00000000
fffffffd
00000001
00000000
00000007
00000007
00000001
00000001
00000006
00000002
fffffffd
fffffffd
00000000
fffffffe
fffffff3
fffffff5
fffffff6
fffffff1
fffffffa
fffffffb
fffffffd
fffffff9
fffffff4
fffffffe
fffffffd
fffffff7
00000006
fffffffc
fffffffc
00000002
00000003
fffffff5
fffffff5
fffffffd
00000004
fffffffe
00000000
00000009
00000001
00000008
00000003
00000004
00000002
fffffffb
ffffffff
fffffff7
fffffff4
fffffff6
00000003
fffffffc
00000008
ffffffff
0000000c
00000000
fffffffe
00000004
0000000b
fffffff9
00000001
00000007
fffffff8
fffffff3
00000002
00000000
00000000
fffffffe
fffffffa
ffffffee
fffffff7
fffffff8
fffffff9
00000003
00000003
fffffff8
fffffff9
ffffffff
fffffffb
fffffffd
ffffffff
fffffffe
00000001
00000000
00000004
0000000a
fffffffe
fffffffd
00000000
ffffffff
fffffffd
00000001
00000009
0000000c
00000006
ffffffee
ffffffef
ffffffeb
fffffff2
fffffff3
fffffff1
fffffff8
fffffff7
fffffff1
00000008
fffffffe
00000000
00000003
00000008
fffffffe
00000003
00000005
fffffffe
ffffffff
00000005
00000005
fffffffd
00000000
00000004
00000000
fffffffe
00000000
00000001
00000004
00000003
fffffffe
fffffff2
ffffffff
00000002
fffffff9
fffffffc
00000002
0000000c
0000000c
00000005
00000000
00000006
fffffffe
fffffffb
fffffff9
00000011
0000000e
00000000
00000000
fffffffd
fffffffe
00000005
00000001
fffffff8
ffffffec
ffffffec
fffffff8
fffffff4
fffffff5
fffffffd
fffffff0
fffffff4
fffffff8
fffffff7
00000000
fffffffc
fffffff6
fffffffb
fffffff8
fffffff8
fffffff6
fffffff8
ffffffec
fffffff1
0000000a
fffffffa
fffffff6
fffffff8
00000000
fffffff7
fffffff2
ffffffed
ffffffe0
00000000
fffffff0
fffffff2
00000002
fffffff6
fffffff3
0000000c
fffffffc
fffffffa
00000002
00000002
fffffff9
fffffffa
fffffffe
fffffff1
fffffff8
00000000
00000000
fffffffa
00000002
ffffffff
fffffffd
fffffffc
ffffffff
fffffffb
00000007
0000000a
00000010
00000000
fffffffb
fffffffe
00000000
00000003
00000000
fffffffa
fffffff8
fffffff5
00000002
ffffffff
fffffff5
00000003
00000008
00000000
0000000c
ffffffff
fffffff4
00000002
00000006
fffffffd
fffffffa
00000002
ffffffff
00000000
fffffff7
fffffffa
fffffff8
fffffffd
0000000a
fffffffa
00000001
00000008
fffffff1
ffffffef
ffffffed
ffffffee
fffffff2
fffffff3
fffffff0
fffffff3
fffffffa
fffffffe
ffffffed
fffffff9
fffffff8
fffffff2
fffffffa
fffffff7
fffffff5
ffffffff
0000000a
00000009
00000006
00000004
00000002
00000000
ffffffff
00000000
ffffffff
00000000
fffffffb
fffffff8
00000003
fffffffd
00000002
00000005
fffffff8
00000002
00000006
fffffffc
fffffff1
fffffffc
00000000
fffffff5
fffffff7
fffffffb
ffffffff
0000000b
fffffffc
fffffffe
fffffff4
00000001
00000005
fffffff8
fffffff7
00000006
fffffffe
00000000
ffffffff
00000008
ffffffff
fffffffd
00000003
fffffffc
fffffff6
fffffffc
00000000
00000002
fffffffa
00000000
fffffffe
fffffffc
fffffff8
fffffff8
fffffffc
00000002
00000000
00000007
0000000a
fffffffc
fffffffe
fffffffd
fffffffa
fffffffc
fffffff9
fffffff8
00000002
00000002
fffffffd
00000004
00000000
00000000
fffffffb
00000008
fffffffb
0000000e
0000001b
00000002
00000007
00000006
fffffff9
ffffffff
0000000f
00000001
00000003
fffffff8
fffffffa
fffffff8
fffffffe
ffffffff
fffffffa
00000002
fffffff8
00000005
00000014
fffffffa
00000005
00000008
fffffffa
fffffff8
fffffff5
fffffff6
fffffff2
fffffff8
00000000
fffffffb
ffffffff
00000000
00000000
fffffffc
ffffffff
fffffffc
ffffffff
00000005
fffffffe
00000000
00000006
00000004
ffffffff
00000000
fffffffd
ffffffe5
ffffffff
fffffffb
fffffffb
00000005
00000000
fffffffb
fffffffc
00000001
00000000
00000002
00000006
fffffffc
fffffffd
fffffff1
00000005
fffffff8
fffffffe
00000014
00000004
00000000
0000000a
fffffff8
fffffffe
fffffff9
fffffff9
00000009
00000007
fffffff9
0000000e
0000000b
fffffff6
ffffffff
fffffff0
fffffff5
00000005
fffffff1
fffffff3
00000007
fffffff8
fffffff4
fffffff8
fffffff7
fffffff5
fffffffa
fffffff2
fffffff6
fffffffb
00000000
fffffffb
fffffffe
fffffff4
fffffff4
ffffffff
fffffffd
fffffff6
00000000
00000000
fffffffe
fffffffa
fffffff7
fffffffd
fffffff5
fffffff1
ffffffff
fffffff9
fffffff5
00000000
ffffffff
fffffff0
fffffffa
fffffffb
ffffffef
fffffff6
fffffffd
ffffffed
fffffff4
00000003
fffffffe
00000000
00000004
fffffffc
00000000
00000000
ffffffff
ffffffff
fffffff9
fffffff9
fffffffd
fffffffd
fffffff8
fffffffe
fffffffd
fffffff6
00000001
00000000
fffffffd
fffffffc
00000001
fffffff6
fffffffa
fffffffc
fffffff3
00000000
00000001
fffffff9
fffffffc
00000004
fffffffc
00000007
fffffffe
fffffff9
00000005
00000002
ffffffff
fffffff8
fffffffd
00000009
0000000b
ffffffff
00000005
00000009
fffffffa
fffffff5
fffffff3
fffffffc
fffffff2
fffffff0
ffffffff
fffffffc
fffffff5
00000000
00000009
00000001
ffffffff
00000003
00000000
00000002
00000004
00000000
00000006
00000006
00000004
00000000
fffffffe
00000000
00000000
fffffff7
fffffffc
00000003
ffffffec
fffffff8
00000001
fffffff0
fffffffe
fffffffb
ffffffee
fffffffd
00000000
00000004
00000008
00000006
fffffff7
00000000
00000000
00000002
00000000
fffffffa
fffffffc
fffffff8
fffffffe
00000000
fffffff9
fffffffa
fffffffc
fffffff2
fffffffb
ffffffff
fffffffb
00000003
00000002
fffffffd
fffffffa
fffffff3
fffffff6
00000000
00000005
fffffffd
00000008
fffffffc
fffffffd
fffffff9
fffffff6
00000001
00000002
00000000
fffffffa
ffffffff
fffffff3
00000000
00000000
fffffffe
00000006
00000004
ffffffef
fffffff6
00000004
ffffffff
00000001
fffffff9
00000005
00000004
ffffffff
fffffffe
fffffffb
fffffff9
00000006
00000006
00000002
00000006
00000003
00000009
0000000c
fffffff7
fffffffe
00000002
00000005
00000006
fffffffc
00000000
fffffff1
fffffffa
ffffffff
00000001
fffffff9
fffffff9
00000000
ffffffff
00000005
00000000
0000000a
00000003
00000000
fffffff9
fffffff9
00000002
fffffffe
fffffff8
fffffff4
ffffffff
0000000d
fffffff4
ffffffef
fffffff8
fffffff4
ffffffef
fffffff7
00000001
0000000e
0000000b
00000000
00000002
00000005
fffffffb
fffffffc
00000001
fffffffe
fffffff3
fffffff6
00000008
00000008
fffffff3
00000003
00000005
fffffffe
fffffffb
fffffff9
00000000
00000000
00000004
00000002
ffffffff
fffffff8
fffffff9
fffffff9
fffffffa
00000006
fffffff7
fffffffb
fffffffd
fffffff9
fffffff5
fffffffe
fffffff3
fffffffc
0000000d
ffffffef
ffffffe9
fffffff9
fffffffb
ffffffec
fffffffb
fffffff2
fffffff6
0000000b
fffffffb
ffffffea
fffffff2
00000002
fffffffb
ffffffff
00000001
00000006
0000000c
00000001
fffffff8
00000001
00000001
fffffff6
00000000
00000000
0000000c
00000016
fffffffe
fffffff8
fffffffc
00000000
fffffffa
ffffffee
00000004
00000003
fffffff0
fffffffc
0000000d
fffffffe
fffffffb
00000003
00000005
fffffff0
00000000
00000019
fffffffd
fffffff0
fffffffd
00000009
fffffffe
00000001
00000009
00000008
00000009
00000003
00000002
0000000a
fffffffa
ffffffff
00000008
fffffff6
fffffff6
ffffffff
00000003
fffffff5
fffffff2
00000006
ffffffff
fffffffb
00000002
00000002
00000004
00000007
00000008
00000001
ffffffff
ffffffff
00000005
00000003
00000000
fffffffd
fffffffc
fffffffe
00000000
fffffffb
fffffff8
fffffff4
00000001
00000003
00000009
ffffffff
0000000a
ffffffff
fffffff5
00000004
fffffffe
00000000
0000000b
00000010
00000000
00000002
00000007
00000002
fffffffd
ffffffff
ffffffff
00000015
00000011
fffffff1
00000005
00000006
fffffff3
fffffff1
fffffffc
00000005
ffffffff
fffffffb
00000002
00000001
fffffffd
fffffffc
00000006
00000000
00000001
00000004
00000006
fffffffa
00000004
00000001
fffffff8
fffffff0
fffffffe
00000007
00000015
00000006
00000002
0000000c
0000000b
00000002
fffffffc
00000005
00000008
fffffffb
fffffffe
fffffffd
fffffff8
fffffffa
00000000
fffffffe
00000001
fffffff3
fffffffa
0000000a
fffffffe
fffffff3
fffffff3
fffffff5
00000000
fffffff6
ffffffee
fffffff7
00000003
fffffff9
ffffffed
fffffffa
00000005
fffffff7
fffffff9
fffffffe
ffffffe3
fffffffc
00000001
0000000b
fffffffb
00000010
00000016
00000003
fffffffe
00000001
00000000
fffffffa
fffffffd
00000009
fffffffe
fffffffb
fffffffe
00000001
00000011
0000000e
fffffff9
fffffffe
00000007
fffffffc
fffffffa
00000002
ffffffed
fffffff0
00000002
fffffffb
0000000b
00000009
fffffffa
00000003
ffffffe5
fffffffe
00000004
00000001
00000004
0000000b
fffffffc
00000005
00000005
fffffff4
00000007
ffffffef
00000005
fffffff4
00000000
0000000a
fffffffa
00000015
0000000c
00000002
00000003
00000009
fffffffc
00000005
0000000c
00000008
00000008
00000006
0000000d
00000008
00000005
00000002
00000007
00000000
00000004
00000000
00000003
ffffffeb
ffffffea
fffffff6
ffffffe4
ffffffdc
fffffff1
fffffff4
fffffff8
00000003
fffffff6
fffffff3
fffffff4
fffffff7
fffffff0
fffffffa
fffffffa
fffffff5
00000007
fffffff7
fffffffe
fffffffe
fffffff7
00000000
00000009
fffffff8
00000001
00000002
00000001
fffffffe
00000004
00000000
fffffffc
0000000d
fffffffe
00000006
0000000a
00000000
fffffffe
fffffff7
00000002
fffffff5
fffffffe
fffffffc
fffffff6
0000000a
fffffff9
fffffff6
fffffff9
fffffff5
fffffff3
ffffffff
00000000
fffffff6
0000000b
ffffffff
ffffffef
ffffffee
00000004
fffffff6
fffffffc
0000000a
00000000
00000008
00000000
fffffffb
fffffff6
00000000
00000000
00000004
fffffffe
fffffffe
00000005
0000000e
fffffffb
ffffffea
0000000b
fffffff7
fffffff6
00000007
fffffffa
00000005
fffffffc
00000001
00000009
00000001
00000007
00000009
fffffffc
00000002
fffffff5
00000014
fffffff8
fffffff7
00000010
fffffff5
00000008
0000000f
fffffff3
00000003
ffffffea
ffffffee
fffffff5
ffffffea
fffffff8
fffffff8
fffffffa
00000005
fffffff8
00000005
fffffffb
00000003
fffffff2
fffffff4
00000006
00000004
fffffff7
00000007
fffffffb
fffffff9
ffffffef
fffffffd
fffffff7
ffffffec
0000000a
fffffff9
ffffffef
00000002
fffffff7
fffffff7
fffffffb
ffffffea
fffffff9
fffffff9
fffffff7
00000004
00000006
00000005
ffffffef
fffffff7
ffffffec
fffffff5
00000003
fffffff6
00000007
00000005
fffffffd
fffffffe
00000000
00000004
00000000
ffffffff
0000000a
ffffffff
00000013
fffffff4
fffffff0
00000003
ffffffe1
fffffff8
fffffffc
ffffffee
00000007
fffffffb
fffffffe
00000000
fffffffd
0000000d
fffffff9
00000008
0000000a
fffffffe
00000003
00000001
00000005
00000003
fffffffe
fffffffd
00000005
0000000d
00000000
00000007
00000004
00000018
fffffffe
00000009
00000004
00000005
00000016
00000008
fffffff3
fffffff1
fffffffa
00000003
00000008
00000000
00000011
00000013
00000004
00000015
0000000f
fffffff4
fffffff5
fffffff6
fffffff9
fffffff6
fffffffe
00000003
00000003
fffffffc
fffffff4
ffffffff
fffffff6
ffffffee
00000001
fffffffa
fffffffd
fffffffe
0000001d
fffffff8
00000013
0000000f
fffffff2
00000007
00000003
fffffffa
fffffff7
00000005
00000000
fffffff9
00000005
fffffff6
fffffffc
00000003
fffffff5
fffffffe
fffffffc
fffffffe
fffffffc
ffffffeb
00000007
fffffff1
fffffff6
0000000d
ffffffff
fffffff7
00000002
00000000
ffffffef
fffffff6
00000010
fffffffc
fffffff7
00000005
00000005
00000000
fffffffe
0000000d
00000005
fffffff4
ffffffff
00000003
00000005
00000003
00000008
00000004
00000003
fffffff2
00000000
00000004
fffffff6
00000008
0000000c
00000007
ffffffff
00000001
00000000
00000000
fffffff8
fffffffd
00000005
00000000
00000007
00000000
fffffff6
fffffff9
00000008
fffffff9
fffffffc
fffffff5
ffffffe8
ffffffeb
fffffff4
ffffffe5
fffffff1
fffffff8
ffffffe7
ffffffed
fffffff9
fffffff8
fffffffd
fffffff1
fffffff3
fffffff9
ffffffee
ffffffea
fffffff1
ffffffee
00000004
00000000
fffffff2
fffffffa
fffffffe
fffffff9
00000002
00000000
00000006
00000006
00000002
00000007
00000005
00000004
00000000
00000000
00000002
fffffffe
fffffff9
fffffff6
00000000
00000002
00000000
00000000
00000009
00000004
00000002
00000000
00000003
00000003
00000000
00000004
fffffffc
fffffffe
00000004
00000000
00000000
fffffffd
00000006
ffffffff
fffffffd
0000000b
00000000
fffffff8
fffffff7
fffffff7
ffffffff
fffffff4
fffffff2
fffffffb
00000000
fffffff4
fffffffb
00000003
ffffffee
fffffff7
00000003
ffffffea
ffffffed
00000009
fffffff1
ffffffed
fffffffe
00000008
00000007
ffffffff
fffffffe
fffffff7
fffffff8
00000004
fffffffa
fffffffa
00000018
0000000d
fffffff7
0000000a
00000008
ffffffee
00000004
00000000
00000005
fffffffe
fffffffd
00000000
fffffff4
fffffff5
00000006
00000000
00000000
fffffff6
00000002
00000000
fffffffa
fffffffc
fffffffd
00000006
00000001
00000000
00000000
00000007
0000000f
00000000
00000003
00000000
00000005
00000005
00000002
00000002
fffffff9
fffffffd
00000001
ffffffff
00000001
ffffffff
ffffffff
00000004
00000007
00000001
00000001
00000009
00000004
00000003
00000005
00000000
fffffffd
00000000
ffffffff
fffffffe
fffffffe
fffffff7
00000003
00000000
ffffffff
00000006
00000000
fffffffa
fffffff8
ffffffff
fffffff5
fffffffb
ffffffff
fffffff0
fffffff3
00000004
00000000
fffffffc
fffffffb
fffffff3
fffffff2
00000008
fffffff7
fffffff5
0000000b
00000010
00000006
00000004
00000001
00000000
00000001
fffffffc
ffffffff
00000003
00000001
00000002
00000003
fffffff9
00000000
fffffff8
ffffffff
00000001
00000009
ffffffff
ffffffff
0000000c
fffffff9
fffffffb
0000000a
fffffffc
fffffffa
00000004
fffffffe
fffffff7
00000009
fffffffd
fffffffd
00000000
00000003
fffffff5
00000002
00000003
00000001
00000000
fffffffc
fffffff4
fffffffe
fffffff8
fffffff4
fffffffd
fffffffe
fffffffa
fffffff1
fffffff7
fffffff7
00000000
fffffffe
fffffffd
00000000
00000002
00000005
00000001
fffffffc
00000000
00000000
00000003
00000009
00000000
00000003
ffffffff
00000006
ffffffff
00000005
fffffffe
fffffffe
fffffffe
fffffffd
fffffff6
00000004
00000000
fffffffe
00000004
00000006
00000000
00000002
00000001
00000004
fffffff8
fffffffd
00000001
fffffffd
00000001
00000009
00000001
fffffff6
fffffff7
0000000a
ffffffed
fffffff5
00000008
fffffff3
00000000
0000000a
00000015
fffffffe
ffffffe3
00000018
fffffff3
ffffffed
00000004
ffffffe9
00000005
00000016
fffffffc
ffffffed
0000000d
fffffffb
ffffffef
00000000
fffffff6
fffffff3
fffffff1
0000000e
00000008
fffffff9
00000007
00000006
fffffffb
00000012
00000003
00000003
00000004
ffffffef
00000007
00000007
fffffff0
00000007
00000003
fffffff7
0000000e
fffffff6
ffffffe9
00000010
fffffff0
ffffffed
00000009
fffffff7
fffffff9
ffffffda
00000005
00000003
ffffffeb
fffffffc
0000000d
ffffffec
00000007
00000016
00000008
fffffffe
fffffffe
00000009
00000006
fffffff9
0000000a
fffffffa
fffffff2
fffffff5
fffffffa
0000000e
fffffff1
fffffff0
0000000a
fffffffe
fffffff4
0000000a
0000000c
00000012
fffffffc
00000008
00000002
fffffff4
00000009
00000003
fffffff4
0000000c
00000001
00000003
00000001
fffffffe
fffffffa
00000000
00000000
fffffffd
00000003
00000000
ffffffee
00000004
00000007
fffffff4
0000000a
00000006
ffffffee
0000000c
fffffff7
00000002
0000000d
00000003
fffffff5
00000003
fffffff6
00000000
00000009
00000007
ffffffe0
0000000d
fffffffe
ffffffe5
00000009
fffffffe
fffffff7
fffffffb
00000003
00000008
00000004
00000009
0000000a
00000003
00000013
0000000a
00000015
00000001
fffffff1
0000001a
fffffff8
ffffffe1
00000005
fffffff3
fffffffa
fffffff9
00000003
00000009
fffffff6
fffffffb
fffffffe
ffffffed
00000003
fffffffe
00000002
00000008
fffffffc
fffffffa
fffffff0
fffffffa
00000000
00000002
00000000
fffffff0
00000002
00000022
fffffff8
00000000
0000000a
fffffff9
00000000
0000000c
0000000b
ffffffff
fffffffc
00000006
fffffff3
fffffff9
0000000b
fffffffe
fffffff9
00000006
00000011
fffffff1
fffffffc
0000000c
fffffffe
fffffffd
0000000d
00000003
0000000f
fffffffc
0000000a
0000000d
fffffff9
0000000b
00000011
fffffff3
00000010
fffffff3
fffffff0
ffffffea
00000006
00000006
00000001
00000006
00000008
00000011
ffffffe7
fffffff9
fffffffb
fffffffc
fffffffb
fffffffb
ffffffff
00000000
00000000
fffffffc
fffffff5
00000005
00000001
fffffff7
00000005
0000000a
00000003
00000009
fffffff8
00000007
00000014
ffffffef
fffffff1
00000002
ffffffe1
fffffffb
00000004
0000000a
00000005
fffffff0
00000001
00000007
fffffff9
00000006
fffffffe
00000000
00000004
00000004
00000003
00000001
00000000
fffffff9
00000000
fffffffb
00000002
0000000f
fffffffb
ffffffe0
0000000e
00000007
ffffffd8
00000013
fffffffe
ffffffe9
ffffffeb
00000000
0000000e
fffffff7
fffffffb
00000001
fffffffb
00000003
0000000d
00000000
fffffffa
00000002
00000003
fffffff2
fffffffe
00000002
00000001
00000004
fffffff9
fffffff5
fffffffa
fffffff8
fffffff2
fffffff5
fffffffb
fffffff8
fffffffb
0000000a
fffffffb
fffffff4
00000000
fffffffc
fffffff3
00000001
fffffffc
fffffffa
00000000
fffffff8
fffffff8
fffffff8
fffffff4
fffffff4
fffffff5
fffffffa
fffffff8
fffffffa
ffffffee
ffffffff
00000002
fffffff4
fffffffc
00000004
00000003
00000002
00000008
00000007
00000008
00000000
00000013
0000000a
00000000
ffffffff
00000003
00000004
fffffffe
00000003
ffffffff
fffffff9
00000002
00000000
00000002
00000002
fffffff7
fffffff6
fffffff9
fffffffe
fffffffc
fffffffa
00000003
00000004
00000002
fffffffe
fffffff3
00000005
00000000
fffffff3
fffffffb
fffffffd
fffffff3
fffffffc
00000001
00000006
00000000
00000000
00000004
00000000
fffffffd
00000002
00000000
00000005
00000004
00000007
00000009
00000006
0000000c
00000007
00000006
00000009
00000000
00000006
00000000
00000000
00000008
00000003
fffffff9
00000005
00000001
00000002
00000009
ffffffff
fffffffd
fffffffe
ffffffff
fffffffb
00000002
fffffffb
00000002
fffffffa
fffffffb
fffffffe
00000000
fffffffe
fffffffe
fffffffc
fffffffe
fffffffa
fffffffe
00000005
ffffffff
fffffffa
00000004
00000001
fffffffb
fffffffa
fffffffc
00000011
0000000c
fffffff5
00000007
00000002
fffffff7
0000000a
00000002
00000001
fffffffb
00000001
fffffffc
fffffff7
00000000
fffffffd
fffffffb
fffffffd
fffffff8
fffffffa
fffffff8
fffffffd
fffffff6
fffffff8
00000002
fffffffb
fffffffb
fffffffa
fffffff8
00000000
fffffffa
fffffff3
fffffff8
00000000
fffffffd
fffffff7
fffffffe
fffffff9
00000003
fffffff8
fffffff9
00000001
fffffffb
fffffff8
00000005
00000004
fffffffc
fffffff6
00000002
00000000
fffffffe
00000009
00000000
fffffff9
00000000
fffffffa
00000000
fffffffe
fffffff6
fffffff9
00000001
fffffff9
00000002
00000001
00000003
fffffffa
00000006
00000000
ffffffff
fffffffc
00000001
fffffffd
fffffffe
ffffffff
fffffffe
00000000
fffffffc
ffffffff
ffffffff
fffffffa
fffffffc
fffffffa
fffffff1
fffffff2
fffffffa
fffffff3
fffffffb
fffffffa
fffffff5
fffffff8
fffffff5
fffffff7
fffffff7
fffffff6
fffffff9
fffffff8
fffffff3
fffffffd
fffffffd
ffffffff
fffffffd
00000000
fffffffb
00000000
fffffffd
fffffffe
fffffffc
fffffffc
00000000
fffffffb
fffffff7
00000005
fffffffa
fffffffb
00000001
ffffffff
fffffffd
00000006
fffffffe
fffffffe
00000005
00000000
00000000
00000001
00000003
00000000
fffffffe
00000000
00000002
fffffffc
fffffff2
00000000
00000002
00000000
00000001
fffffff5
fffffffc
fffffff3
fffffff5
fffffffc
fffffff6
fffffffb
00000000
00000001
00000001
00000001
fffffffe
00000003
fffffffc
00000003
fffffffc
00000000
fffffffa
fffffffe
00000003
00000000
00000001
0000000d
00000008
fffffff6
00000004
0000000d
00000000
00000006
fffffffd
fffffffd
0000000b
00000001
fffffffd
00000004
ffffffff
00000001
00000007
00000013
fffffffd
00000000
0000000a
00000000
ffffffff
ffffffff
fffffffc
fffffff9
fffffff5
fffffffd
fffffff9
00000001
fffffffe
fffffff6
fffffffe
ffffffff
00000007
fffffffd
00000001
00000008
00000001
fffffff2
ffffffff
fffffffb
00000001
fffffffe
fffffffb
fffffff5
fffffffc
ffffffff
ffffffff
fffffff3
fffffff2
fffffff9
fffffffe
fffffff6
fffffffc
0000000d
00000002
fffffff6
0000000b
00000011
fffffff6
fffffffc
00000003
fffffff3
00000003
00000012
fffffff0
fffffff8
0000000d
00000000
fffffff9
fffffffe
fffffffa
fffffff0
fffffff4
ffffffff
fffffff0
fffffff5
00000001
00000000
00000009
fffffffe
00000001
00000003
fffffffb
fffffffd
fffffffc
fffffffe
00000000
00000007
fffffffd
fffffffa
00000000
00000000
fffffffb
fffffffb
00000002
00000002
fffffffe
00000002
00000006
00000003
fffffffb
00000004
00000009
00000008
00000007
00000006
00000006
ffffffff
0000000a
00000000
00000000
00000000
fffffffe
00000000
ffffffff
fffffffc
00000002
00000000
fffffffd
ffffffff
fffffff4
00000001
ffffffff
fffffffe
ffffffff
00000009
00000008
00000006
fffffff8
00000009
00000001
fffffff8
fffffff7
00000012
ffffffff
ffffffec
00000006
fffffff8
fffffff5
00000000
ffffffff
fffffffe
00000006
fffffffc
fffffff9
00000006
fffffffd
fffffff8
00000004
fffffffe
fffffff5
0000000b
00000006
fffffff4
00000005
00000006
00000002
00000003
fffffff1
fffffff7
fffffffe
fffffff7
fffffff6
fffffffd
fffffff6
00000000
fffffffe
00000003
fffffff8
fffffff8
fffffff2
fffffffc
00000001
fffffffb
fffffffe
00000005
00000007
00000001
00000008
0000000a
00000003
00000005
00000005
00000012
fffffff8
00000000
fffffff7
fffffffa
fffffffb
fffffff9
ffffffff
00000001
fffffffe
fffffff8
fffffff8
fffffffd
ffffffff
fffffff4
00000003
fffffffc
fffffff1
fffffffc
fffffffd
00000000
fffffffd
00000003
00000000
00000000
00000007
00000002
00000001
fffffffb
ffffffff
fffffff7
00000002
fffffffa
fffffff4
00000000
00000000
fffffffa
0000000a
00000006
00000005
fffffffe
fffffffa
00000007
00000005
fffffffc
00000005
00000006
fffffffc
fffffffa
00000011
ffffffff
fffffffb
0000000e
00000006
00000001
00000000
0000000b
00000003
00000000
0000000c
00000003
00000000
00000005
0000000d
00000005
00000000
fffffff3
00000002
fffffffe
fffffff8
00000002
fffffff9
fffffff5
00000006
0000000d
fffffffa
ffffffff
0000001b
00000007
fffffff4
fffffffd
fffffffc
fffffffd
fffffff1
fffffff5
00000002
fffffff9
fffffffb
00000000
fffffff2
fffffffd
00000005
fffffffa
00000000
00000000
fffffff7
fffffff7
00000000
fffffffa
fffffff8
0000000b
fffffffb
fffffff6
00000002
ffffffff
fffffff1
00000002
fffffffe
00000000
00000004
fffffff7
fffffff7
fffffffc
fffffffd
00000006
00000002
00000002
00000007
00000000
fffffffc
00000000
00000001
00000004
00000007
00000001
fffffffe
fffffffe
fffffff4
00000008
00000004
fffffff4
fffffff4
0000000a
00000006
fffffffc
fffffffe
fffffff6
0000000b
00000011
fffffff1
fffffff8
00000005
fffffffd
fffffff4
fffffff5
00000001
fffffff5
fffffff9
00000004
fffffffd
0000000c
00000003
fffffffb
fffffffe
ffffffea
00000018
00000002
ffffffd7
00000022
00000031
ffffffd3
fffffff5
0000001d
fffffff2
00000008
00000006
ffffffea
ffffffff
00000008
fffffff6
fffffff1
00000006
00000004
fffffffc
ffffffef
00000007
fffffff8
00000000
00000002
00000001
00000000
fffffff0
0000000a
00000003
ffffffeb
00000008
00000014
ffffffef
fffffffb
0000000b
00000004
fffffffb
ffffffff
00000006
fffffff8
fffffffa
fffffffb
fffffffd
fffffffe
ffffffeb
00000003
00000015
fffffff2
fffffff0
00000005
00000006
fffffff8
fffffffa
fffffff8
fffffff8
00000009
00000001
fffffff5
fffffffe
fffffffd
00000000
00000000
00000000
fffffff9
00000001
fffffff1
fffffff6
0000000a
ffffffeb
ffffffef
00000001
fffffffe
fffffffe
fffffffe
00000000
00000000
00000001
00000001
00000004
00000003
fffffff5
fffffff1
00000005
fffffff5
fffffffd
00000008
fffffffa
fffffffc
0000000f
00000006
fffffffc
00000008
00000007
fffffff9
00000000
0000000b
00000003
fffffff8
fffffffb
fffffff2
fffffffb
fffffffe
00000001
ffffffff
00000006
00000008
00000000
00000001
fffffffb
00000002
00000004
fffffff5
fffffffa
00000007
00000005
00000000
00000004
00000003
00000000
00000002
ffffffff
fffffffe
00000006
00000001
fffffffc
fffffff8
00000000
fffffffd
fffffffe
fffffff9
00000003
00000002
00000000
fffffffe
00000001
00000000
00000002
ffffffff
00000000
fffffffb
fffffff9
00000009
00000007
ffffffe8
fffffffe
fffffffa
ffffffe0
0000000d
00000025
ffffffec
fffffff0
00000005
00000008
00000004
fffffff9
00000002
00000002
fffffff3
0000000a
00000000
fffffff7
0000000e
00000011
fffffffe
00000002
0000000b
00000007
fffffff1
fffffffd
00000002
0000000d
00000004
fffffff9
00000007
00000001
fffffff8
00000000
00000003
00000000
00000006
00000001
fffffffb
00000003
00000003
fffffff7
00000002
00000000
00000000
00000001
fffffffb
fffffff9
00000005
fffffff8
fffffff9
0000000e
0000000c
fffffff8
00000008
ffffffff
00000003
0000000b
fffffff7
fffffff0
00000012
00000001
fffffff0
00000009
00000003
00000002
00000001
00000003
fffffffd
00000000
00000000
ffffffff
00000006
fffffffc
fffffffd
00000007
fffffff8
fffffffd
00000005
ffffffff
fffffffe
00000000
fffffffd
fffffff8
00000004
00000005
fffffff6
00000002
00000000
fffffff9
fffffffd
fffffff6
fffffffe
00000000
ffffffed
fffffff8
fffffffa
00000000
fffffffa
0000000b
00000019
ffffffff
0000000a
fffffffa
fffffff3
fffffffd
fffffff7
fffffffb
00000002
00000002
fffffffb
00000004
fffffff8
ffffffff
00000002
ffffffff
fffffffd
fffffffe
00000004
0000000b
ffffffff
00000003
00000006
fffffff7
00000005
00000003
0000000c
fffffff8
fffffffd
00000005
ffffffec
ffffffff
00000006
fffffff9
00000003
00000002
00000007
00000007
00000003
00000014
00000009
00000001
00000009
0000000a
00000007
fffffffa
fffffffd
fffffff9
ffffffd4
fffffff6
00000000
ffffffeb
00000006
ffffffff
ffffffff
00000007
fffffff8
00000006
00000002
fffffffa
0000000d
00000000
fffffffa
fffffff7
fffffffd
fffffffb
fffffff2
fffffff8
fffffffb
fffffff4
fffffffe
0000000e
ffffffee
0000000b
ffffffee
ffffffcd
fffffffc
00000003
fffffff4
0000000f
fffffff5
ffffffff
fffffffe
ffffffff
00000000
00000000
00000001
00000004
00000004
fffffffd
ffffffea
ffffffe7
00000000
fffffff5
fffffff1
00000009
00000007
fffffff8
fffffff5
00000005
fffffff5
00000008
00000011
fffffff4
fffffff1
fffffff7
ffffffec
00000017
fffffffd
00000009
00000001
ffffffd4
ffffffe5
fffffffd
ffffffe2
fffffff4
00000000
00000006
0000000a
fffffffd
ffffffff
00000000
00000000
00000008
00000000
fffffffd
00000006
00000007
00000000
00000009
00000002
fffffffe
00000002
00000002
00000007
00000007
00000008
00000002
00000000
00000002
00000003
00000000
00000001
fffffff5
00000005
00000002
00000000
0000000a
00000003
00000000
00000005
00000006
fffffffa
ffffffff
00000000
fffffff7
fffffffa
00000000
fffffffe
fffffffb
fffffffc
fffffffc
00000001
00000000
fffffffb
fffffff7
fffffffe
fffffffa
fffffff5
00000002
00000001
00000007
ffffffff
00000006
fffffffd
ffffffff
00000006
00000002
00000000
ffffffff
00000002
00000001
00000002
ffffffff
00000003
fffffffe
fffffffd
00000001
00000011
00000012
00000004
00000013
fffffffb
00000002
0000000f
fffffff8
00000006
fffffff6
fffffffc
ffffffff
fffffff0
fffffff2
ffffffff
fffffff2
fffffff8
fffffffd
00000002
00000001
00000000
00000005
00000002
fffffffe
00000006
00000000
fffffffe
00000001
00000004
00000004
fffffff9
00000004
00000006
00000001
0000000a
fffffffd
00000000
00000002
00000001
00000000
fffffff7
fffffffa
fffffffd
00000002
fffffffe
00000005
00000002
fffffffb
0000000a
00000000
fffffffd
0000000c
fffffffd
fffffffd
00000004
0000000a
fffffffe
00000001
0000001d
00000007
fffffffa
00000008
00000000
fffffffd
fffffffd
fffffffa
fffffff9
fffffff8
00000000
fffffffc
fffffffc
00000003
fffffffc
fffffffd
fffffff5
fffffff6
fffffff5
fffffff2
fffffff6
fffffffb
fffffff6
00000006
fffffffc
fffffff9
fffffffe
00000007
00000000
fffffffc
00000006
fffffffd
00000009
fffffffd
fffffff2
fffffffb
ffffffec
ffffffec
fffffffd
fffffffe
00000000
fffffffd
00000000
fffffffe
00000000
fffffff8
fffffffe
00000000
fffffffe
00000001
ffffffff
fffffff8
fffffffe
00000002
fffffff8
00000001
00000002
00000003
00000002
00000000
0000000a
00000005
00000000
00000006
00000008
fffffffa
00000007
00000004
fffffff6
ffffffed
fffffff1
fffffffa
fffffff6
fffffff5
00000000
fffffffd
00000000
00000003
fffffff7
00000000
00000000
00000000
00000003
fffffffd
fffffff7
ffffffff
fffffff3
ffffffee
fffffffb
fffffff9
ffffffed
fffffffe
ffffffff
00000000
00000007
00000001
00000003
00000003
00000000
00000001
fffffffe
00000008
00000002
fffffffc
0000000b
00000006
fffffffe
ffffffff
fffffffe
00000004
00000001
00000005
00000006
fffffffa
fffffff8
fffffffb
ffffffff
fffffff6
fffffffd
00000006
00000007
00000005
fffffffa
fffffff8
fffffffe
fffffffd
fffffff1
fffffff5
00000003
00000000
00000000
fffffffc
fffffff5
fffffff5
00000000
00000005
00000006
00000003
00000008
00000007
fffffffe
00000006
ffffffff
fffffff7
00000000
fffffff9
fffffff7
fffffffe
fffffffc
fffffff8
fffffffa
00000000
00000000
00000002
ffffffff
00000002
00000007
00000006
fffffff8
fffffff2
fffffff7
fffffff9
fffffff8
00000000
00000000
00000005
00000000
fffffff9
0000000b
0000000a
00000000
00000009
00000007
00000000
00000002
ffffffff
0000000c
fffffff9
fffffffa
00000000
ffffffef
fffffff6
ffffffff
fffffffb
00000006
00000001
0000000e
0000000a
fffffffe
00000002
ffffffff
fffffffe
00000004
fffffffe
fffffffd
00000000
00000003
00000004
00000004
