e6f31a13
00e5e010
fcc827f9
533cdf00
c1221906
36a5b72b
fe40aed0
cfdb1923
5ce810f8
db0ef8ff
19d908ce
03170bf4
e5d40ad0
7f0c1f24
d444d206
dfd4c902
fbdfda0d
f11b1130
92c28080
aab2b080
03e9dfe7
01dcf4ca
573ae422
427f74df
2b02581d
2a00f513
11dc285e
0d015e29
ee06093e
fbfe1a02
ffed131d
16f9ec10
216c5435
57fb5516
02263fd8
2b013c2c
e0dcddf6
00f20323
ebb1fef6
0ad8cd0a
f4e50503
0a230011
020ce42e
fe289ceb
ece730df
1d38ea68
f317fdef
1c18be16
b119fcfa
d2c6d191
25eefae9
dc1d1ef6
f7f91cff
1b1ef305
ae23be0f
80e4fa80
d5eae101
d5e9f6e1
0ae2e319
db08e5d9
b80ae3f0
2cfcfa2d
031d16d6
eef5f0fc
072613ca
095ee6e6
e8f5de0f
baf720f5
c7ae01f1
c60ee8e5
a5c1cd80
cbb4f7b3
20f8001d
d1aae3fd
39dbe9ae
fb0dcae3
1b0e33d5
12ff0519
09c0fad1
e2dbfcf9
e1dd1f0b
1efb0007
32c1f466
d8f511aa
ffdc0617
3e06175d
f4d4d90d
fff5fee2
e5d709f1
d4cf20e9
4ae935c7
1ffe5c7f
dea7c202
47d7c120
2d0c2df4
e3491708
19de01f9
27204638
747f3333
2c2c6050
3704f95c
375824f8
ecedf1ca
d00d00a5
cfcce6e5
dd01d900
081f0e15
ecdeae13
08250ad6
201e2d2c
dd02e226
1f2f092a
07073732
e0ccef14
dbe9bf00
47f2e020
f3fee618
4e217d7d
062a373e
f3a3fdeb
f103abd6
25351cf9
f6fde912
cc6c2337
d8eef400
e4e1efe8
461a1eee
3218297f
30e20106
2c04e90f
7f76ea1a
16693222
e0341845
fc5802bd
34d7e11d
0412051f
ecea11f6
1fc2d80b
11241b2e
f70c0e1d
e700dd0d
4c2e1f09
2161e034
f8e729f9
1c250ae8
df15ded7
03f8dfe4
e509cfa6
e9e82a35
1915ccf0
0c2bedec
27fe18e6
3321232a
c91523ee
cab0d741
000803e0
d2222327
267023d8
b6c4bc1f
d7d7d3e8
472903d6
eda1072f
07160676
e50bdbe3
d10917de
ee04f90c
ef0c304d
e912fbf6
2f0cf2e9
f5222d0c
f6ee292c
f0ebe5e3
2d04ece7
0a0904ff
0cfae3d4
074dec18
f1f71b2a
392309ef
87faf3f8
22d52eac
050aebeb
c6f808d3
1ec31d27
31da0ad1
1ef1ebf3
20f5e210
2cfc25ea
e7effdeb
b6f60200
e1e4d0e5
d0d7edc8
202ce5e3
f2264b0b
190f31ed
f3f7ffeb
4710eb11
4a442336
13ecdc39
1bd2edea
20d2054f
d0ecf402
0627fbd8
c315e210
ebf2000c
0235f6ea
d2d23aff
2621fdd8
0edf2e09
eb051c2b
1fd3ead2
fbfbf00b
402215de
d7333aeb
f2ccb6ff
2dedcbfe
08d90cd8
fbfa0dfb
d91808ef
2200e817
e707f525
14f1ffd2
1a0d161f
fef5091a
d9f0ffef
1f0712fc
4d59d7ff
431c5d4a
1b09381e
f435012e
30cff81c
03312e2a
c0fdf6ca
b90df7bc
ffaf2106
e31c0546
1d31edc0
f6140130
fd013420
4248fa0d
0b2e091a
fa0bdff3
4c352d46
1ccbf614
27f17e67
c7fcc629
dac0c1f7
09ae80fa
f2eed8b1
15eefce3
0bee2403
efbed8f3
1314f0c0
2d566f75
edf80547
d6ccaa15
ced1d1b2
19e4e1d7
cd0e12c9
15091714
7022e724
c7eb090f
49f219e9
023002f0
f907e8e7
eae7d9c9
e27f01c1
f280243b
0520c12d
17140ce0
0300de14
1ef9f503
523a2556
d7c9df60
12d3f502
63add3fb
e87f48e5
2b280920
11f80e1a
d5de0b0f
1501a5fe
dbf2f8d7
00d3d831
10fcd816
002f16d5
09f9fd11
d1ec00f4
c5e3e3b5
0b172616
07f629f4
e1d61418
f42404d4
dacdd9c9
acaddae7
c586a0c1
15bd90c5
bbba5cd1
25dd0739
14fd0b04
f1c1fbfa
fe1b2bd4
01b5f5e1
10dbe609
317f1e01
faeaffdd
27f318dc
eaaafcf3
d603d5b2
f80ef1d4
bb062cf0
fed92ad9
f901c9cc
e9030bda
cac60ae5
09ee2519
1e2502f0
ee0d4f24
1526f255
097fffff
11397f2b
5e08f734
38502122
e3fde2f6
0f18e911
2cca1711
f61b0df7
f514222f
fc082b36
0a1cc41e
0b133624
e1e8f2db
e028ef09
efe814c6
0cd51013
d823fb39
c806c3aa
c68080d5
f7cec4c1
f60e171d
34210c25
35fcde11
f5062a16
2302f014
40e7f7d2
fdc3de1e
04ecb826
f7eb0302
d310d2eb
ebeef0e3
f3e3c6d2
0d0705cb
240114fb
f31d032b
c90acec0
4ae9fbe4
dacebaa9
28fdfff7
dd280210
0800f7df
2f021d02
e8d92a32
49d7e6c6
d40de940
f5e4300f
f6cbea0f
0108cb19
dc1cdb1f
4bb5cb02
f108f4e8
30f038f0
27311900
0ac8d925
24c7e633
eaffb9eb
a7041c18
bfd1c417
f6e0ddee
54dd0346
f31ce3f9
ee1ef114
f4390d34
0d1b442c
00120af5
c3e41ae6
18112919
e4251330
2e31beac
18d30008
27f31ee2
1e220bf9
36d1131b
0cd01b18
54ef301c
ebf803f4
182ffe1c
ea380900
0dfdfc0b
07a9d2e8
d1bef844
0d0b0c9d
c7fc00d8
000825e6
cd3401ea
36b2d3a5
2b28fb24
ea4329fa
dd05eb1b
09fe16f6
e513dee8
e804fedf
e3d2152b
d6c9dae4
d9d9ccef
1ffc02d5
edef1019
0af501dc
f4f3e0d6
25b569f0
3629a3fb
0b3bfbee
eaf5002f
0007fe0a
f904fef0
0ed3e5fb
0214d8f0
d9f5b7f0
f6bfdbe9
d9c1808f
92ed0534
18bdbc62
db13f232
09dbf6a9
f5f2bd19
09e4d7d4
2a02f601
0ec33cfb
0915d91e
f12e142c
0622ea02
0e0adb00
d9f711d4
f51d1514
01dde934
2a0e05f7
2a3629f1
1300292f
8230e233
caf6ee04
000d4443
fef206d7
fdfb3347
f211ffe7
1de2f5de
12941b1b
11f3e5f5
30f7381a
e17afff6
0a0f2a10
cee60827
fd0b03b7
f1df0bf6
fc2002c8
09c5dafa
0f36c411
dc03f3e1
110bdd42
ea37d9ef
f6d2fbff
ec1000ed
39203c47
4923587e
e3592a10
172b7f35
4c1d1349
1313323d
10e606e6
531cfde1
ce2ad6cd
c12680ac
b900db80
41f9dc03
201eff0a
2b4be8f1
1a062926
ee21fe52
1ef41d02
4ac20906
f6400315
e6f439d5
9dbe3113
1fea0cdc
f5fb06e6
e8d6dfdf
6c00d022
564303f8
31554d5c
01290aab
e3d43300
e31054db
faaf05fa
24201abf
0709201f
35243131
0ef7f6fb
fb1f0939
08f823df
25e1e50c
51034e00
3510ed1c
f912fa29
d7f0fecb
25e50004
e625dfd6
f3b2b7e8
e9fbf008
23f3e52c
124f2ae3
39164f47
6a34f83b
4c034442
65efccd9
b4fd42eb
5135302c
f5eaf6de
120ae9c7
e6e1252e
012c18d6
030ad904
01de14f0
db0437ef
1ffe2405
30174807
c1caeb8f
f8d50433
03f0cfbd
e3dc21da
1447fe01
24281120
49da050a
0fe84b4e
012118fb
f0e6c218
c8fece80
02d1d9e6
c8dcda1a
ea1bf3ed
3d02e307
2f181a2a
2e3f1450
2229340f
c8000b0f
0e13ed2e
da03cd02
e5f5f109
6a0e0bff
34052642
dbfd17e6
f3f7efc1
1f12f7d4
ec0c0910
0b000516
f817d0de
ebe6bcb5
3930e813
ac1b2f4a
0b1b351d
d7db4b41
f31b43fd
fbe102fa
16e4e411
f4d8fbfa
bb1333d5
ced5e511
f0ebd2ef
f31810d0
7f04ec2b
04270bfc
fd1a1025
ec17e7f3
1b101de6
2f01ea2a
ee29fefd
09df0fe7
1a00e70b
1bf20827
f0edefde
15f70525
f1070bd7
fcfe02f3
1e1bfa1d
fad61dec
e709dde4
05ef11e5
06eef4fc
09e423f3
eb011d19
0e09000e
141d26e8
1821e9f0
eefd0107
1318daef
e1ec10ee
16b1fc10
ea0700ef
daf11ce4
2d051cfa
fe270bf4
e6002cdb
0e0400f8
0004ea0b
12e503dc
f6f3ecef
f6120ad3
0bf4ff0a
fe1ff4eb
fcf50807
ec171c1a
feaef0f6
df00e737
5400f415
1d0dfb3f
1d16ee09
5c80807f
804cba80
130c14ac
ec0de8ee
24fdffd6
0fea1b10
f70f11e1
fcf90020
1ae7ff17
11e909f3
cfe4fc19
0fe01727
0f1503e7
0b162308
11f91907
13f00918
f105dedd
0be6fad9
09e3fd16
ed00fce1
1ef9c7e3
2b0927f8
fae22102
ee0934f6
1ff11630
ec141efa
fd1705e5
0af7d9fd
0a311cff
05073e16
f0050e00
0704fbe7
192c2c03
0c42324f
f51504f3
0dfef501
11fb01dd
02f5f5c9
0612ffee
0605e5f3
01b91b01
e5ea19e9
f316e007
1328fa0e
2009e90f
28e7f57f
f60bf5de
210718fc
23f0040a
c5620c19
1ee8e4f8
15f6f93c
e5f6eaf7
eef7bd1e
d5ffed15
0f1e01fe
f0ce0409
fb091bbb
00ffd5fd
f0f8fb04
99052101
11aae7f2
01e08811
e5e5d223
12eeffef
0e010cfa
00efe519
2f0ef5fa
2107dd2c
fd06eade
ef0413ea
ef1d1b08
f9dbf162
1732fe0f
e8cdd90a
04e3f2fa
c3fd1418
0ff3fbfc
2c161d3e
cd22f9ec
02e6fcff
fc10e812
2a21eae9
02f2eb01
f01104f4
f8e9e321
19eaee3f
f91902e2
f226060f
e2170106
e10406fa
e9eee204
19250620
fc021a05
f5e82612
e8fb110b
b701ee04
1bedfa24
3afdf3ed
09f6f517
f8f6e912
21fcf81a
eb270606
c0fe0300
dfea20e2
011ff50c
e7fa18f3
1e0efa2b
f9de0915
f2fc0a2b
ec0f00fe
21e80b03
def61efa
efdad0fa
7ff8f7f6
c41ab3b4
16d333e7
08fdd0f9
d5f63a0b
19ea0905
faf0f0f9
0f1ac9f4
0a08e4eb
f40ef5d1
1ff20de6
e8f00712
edfe0108
fee2f7eb
07e70018
0bea1b04
eb1915e4
d207f00b
0febd4b7
12e40d09
08fcfffc
e9ee12f8
0dfde4eb
f5ef08e1
ef04e9f4
f6fde9fc
14e6e0f8
4f120bea
f511150b
020c20f7
01fc1cf1
14190700
f804fc16
de13ef00
3478f118
1206d800
02e5f120
f607ff1d
220d0600
ca10fee5
03e31924
ef03f839
f31c0006
f81f000c
fde7faf2
240d0016
eb07dd00
f6fc21f3
36e7e4bb
eef5f8d5
cac52cf6
df09db1b
18dfcec9
f7021cf4
c3152a01
ffded6ca
1b0df712
fef218df
1013d5ec
eaf312fd
f9e5fa14
3c300bf5
f8ef1821
e321f9fc
07df05fc
06f7fe00
de0fd8d1
15f70bdd
fde5efe8
d9feebe2
f1edfad7
c9d3d1f1
f5fefd11
1ae4df17
04251302
1507f3f2
f9231825
cdd6d801
fde21212
1219001a
12e6f1c0
d3f0f0fd
f1fd06dc
1bf624d8
12c80331
e7fffdec
f809360e
08dedefa
0f1c022d
00151f00
610b2400
cb300923
e0e91f19
02fefb2c
ecd7080a
1b0b1018
f8fdf2ed
fd1525da
0df1ff24
e1ee22f1
0afbf42a
ebfe18f9
fceae9f7
e6fd281c
21141600
eb391a00
012702f1
14da4cd3
0bf4d114
06f003e7
f8dbf8f4
06f9ea06
13d43ee0
2109fe00
f20ce4f4
dccff706
ff17e6e6
cdf9dcd1
010dff16
0e2620d3
c9ff13f3
e0e40802
15192a1d
10f32e0c
1a181d2d
fcfdff10
effe22de
0e02fa0f
22e911e1
ff250e18
10ec0df9
df0ffd1b
eee106ef
fa19f1df
fc0209ed
fa2413f0
05de00ff
19cbb610
0cfffaf9
101aed0b
0a0e3f20
03fef1f3
10f5e404
fb14e00f
6a120720
f21ce2c6
f6e725cc
f0fe19ed
15f8f20f
d61132fe
e61b21ed
09091f1a
1ffcea17
16f20d0e
141d1016
def900e4
00d7e3da
3a1c08fd
f2257f11
000fd917
13f617f4
ff2022fd
0ff21229
041bf0f6
e8fde40b
1c05d72f
d114e4b2
151c15ec
faf3ee02
0e12efee
1b01ea03
f7040108
e600e003
021ff101
1f1d3418
0f050215
f501bf08
1ceb2a04
db21ebf5
1700eef5
1ee3dbe5
161ecffc
0b000b19
8004fd80
f4ec1828
1bde0de3
f8e2f52f
da220f16
f3fb0e04
e718de04
e003f8fa
efed02e4
01e702da
1807f818
2602c9ea
e2f8ffdd
edec3200
f1e91219
000ce5f6
000e16e4
00f3f205
1ff5e1fa
e204faad
14f01105
10e5120d
e816f509
000af702
08e8f0f2
d92507fb
3532080c
d7cc9b0d
d10814c1
fa0649ed
2c15d2e1
b87ff90b
e7b440e8
f0dcd446
f1e7141e
0a19ffee
e80f0600
1602f505
1a051a0e
0e0419e7
e4f9180b
2f0511de
d8e70208
f4e8f2c3
1c04edeb
effae029
bb0000fb
bcfbdbf9
01db05e7
e7d5fdee
f403e1f8
081820ec
fff9fc09
f80e1bf6
c10b2121
33e3e301
d5c24208
efff00fc
f7f11f0c
ede51b1a
fbce06ed
fff91720
0af718e9
fcf813e7
ea1bfd16
12f6d0f9
0a0f00dc
100b2007
dde917e8
30f20cfd
0231eaea
07ed041e
1a1bf7f5
0df9eb07
ec1a2505
0900001b
fef90bfd
0002f90d
11fe1123
0100fee2
0605f90c
e7f2dbec
f2fb0fff
0221790f
2c23034b
d01000e0
d8f0180e
e604d6e8
1cffee00
0b1dc5ff
12f4d922
151c14de
1af7fd03
1602dc11
fb0ffb18
0afd0417
1cf9203a
fff8f3fe
04ef1700
ed04e40e
0301100c
0f131d1b
fa28f8fa
097f0719
42c9fa22
12f51cf0
c0dadff2
1f06fbdb
e5f8fbec
0717fdf1
04ef7f25
28fec626
d71500d8
35f6fe17
edf0010a
f7e00126
ede9f521
f81f1c00
f7ed0208
00d6df20
0629e6c9
0f270a0e
19fa24e3
00e3e9f7
ef0eeaf2
101909f9
14f02032
0ffbe5f7
1ff6eef0
01e8daf1
c196e325
e218e7f7
c50003d0
e5c0fbc1
2100d707
0f23090e
19fc08d9
e2ede2fa
0207dd11
eb0ffcf4
e2ffd6ff
d91f22f7
260dbfdc
f7002f28
db22fa1c
dfe704e2
e718141c
0100010f
f61e0627
1c200c22
58f50712
da04cded
07ce0404
fb0ddbcf
d3f2f4ec
fad47ccc
00dbd2fd
02f6fa09
ffe801f6
1b0818de
eb15e71c
04ec13fd
f10e16ee
1be0e818
b8cc2aed
1c01f117
f61308ed
efe50507
80f5120e
1de60dee
1334fd20
f606e41e
ec0ff7e4
ea02cd15
090700e5
f7d4091f
d20a0602
00120b1c
cbe50cd4
e4fe0107
19f5071c
1ff61d12
f1101efe
fb18da0c
19080f13
deedf908
f6f8e9ed
f6f1ed12
29160c00
fd1a08f2
07e50328
ff26ea06
0122071b
dc4a2722
23eb11da
df14021b
26e005ed
001201eb
0ee50619
3a5f030a
2e1bea36
d8181bf9
c473e91b
26b03511
29f0ae1f
0716e8f8
fff4e10a
16f9fce9
251ceee3
fc17f7df
0318160e
ccf62804
03fdf3e6
ea1dfbe3
0e0d1fe7
f6050bf4
fee4e6fc
0d02e510
0f16fce5
f8e1fefd
1536fb0d
25f553d3
e9efe541
01dc1501
0c1df21f
0ff70804
14f90319
0a21ebd4
effeeb0c
e5e807ed
f8edf1eb
ff11050f
0d0e1503
18f80fdf
ff0c17f7
08f5fff2
f90f0d07
0af2ecf1
f7fffaf4
f911fdf6
0cfc0816
071402f0
faf8fcf9
fbf50b09
e5f50102
fbf6eeea
0705e802
ed11fbf6
11e3fc12
ec11080c
fcfcfaf8
f90210f6
0103fd0d
f3fd130a
110ae308
ec0ce7ce
ff1207f8
06edfe0e
040af900
05071f17
f9f1fe19
f501faf4
0601edfd
1206f800
03eb0818
1022eaf5
13e3fd23
030fe7f5
07eb0713
1aecfb1d
040b0afc
0302fb07
f4f80a08
040af00d
fbd6fa08
f0060306
e2ecedf1
010be4d4
fef1fdfe
e111f813
ef072ef5
00e6001c
01f5fd06
fb07fff9
08010df7
f1fbf1e9
fb06f805
f4edf3fa
1620fb13
f90300f8
04fe0604
0a10f00e
fd0dfeea
03fb0b10
12eef0fb
cf1002ea
06ed1510
01f5fa16
02f00aef
0704faf4
f60af3fa
342b1811
f50a0cee
01fef30e
10fe0f02
ddeeee14
101e0822
f6081416
030c0d07
fb05f3f6
05fdf004
f8fa0900
f6edfe04
f3fb0af5
f9fbf5fa
0604231d
fb0017f4
16f71311
fb1226f6
1d0def02
f616eaff
000408d5
060af709
fcfff2f5
e8fb2711
e9ed1a09
1ef1f600
0108e505
d90de7eb
1be4ed00
f405e70c
07e90720
0a00f11a
000a0105
13f01d23
f9e7dfed
0c0dfae2
0e1d000b
12f10a1a
1afb04fb
140e0815
fb1bf00c
fbe5fef8
08000000
0f08fce6
fe05f101
f3f305f2
fdf3f6eb
05ea0b0a
020b01fd
101310f2
fd2ae3f5
fcf803fc
17dfd909
110af40b
0d0003e8
1609fdfb
0b01f4e8
e1f10900
f1e7080a
c81f0cee
ebff1003
f103e5ec
10f60104
f3f80bfa
23e8dc18
eb0ae8e5
edf4ff13
faf0140d
f8f3eaf1
02faf0f1
0dfcfc08
08ee0308
fd0b05eb
f5fefcff
1103060a
16e7fe1a
e60c03db
040ae809
f101f7ef
faf6fff0
080513e7
f0f9f0f9
01050ceb
1000ef0e
ff000104
0310f7fa
e9040bfe
e4000a05
08ebecfb
f906f2f0
13f009f6
03f3e906
f500f0fc
fafa0020
14030622
f5f2f8dc
05f2fbf8
101d07ff
0a151332
fd130f0a
05f5eef9
f40500ef
ed0d07fc
08f6ecf4
0df9fef8
f705f7fe
0be901fe
06f8e7f3
1315f4fd
002a1e06
d3fb0dfc
0bde08ff
0b0d1100
09f3f214
1a04f110
06030cf2
00feebea
faf1fff6
fc00feff
1b0003f8
e0f90010
0df80bfd
ef05ee09
0cedfc09
1d0f0500
fa04f8e8
05f6f7fe
f6f60819
0a00ed0e
ff06f401
ff1200f0
0de90ff9
0709fdfb
f800f81c
ebfcfef4
0003ecf5
20051305
37001411
1401f534
f4dbfb11
fc04daef
0f1efbe5
09f5fc0c
081308fe
1514fdfe
0cf31000
bf0f0501
eef8f3be
05f30006
060ceb00
10fcf1fc
0bfdf607
ff02eafb
f8f8ff09
08f80608
0a02fefb
f7ffebef
feeaf8eb
fa18edf0
f915feea
fc1500fe
faf5fa0f
fe13fcfa
1f050112
fe0d06fe
00eef7e1
00030804
00010efd
ee110c0d
091c2ce1
f6121007
0501150f
0a10f8fb
f6f0050f
effdf0fd
09fef003
f7040416
fdf30709
09070a12
faffc7d7
e908e9eb
00112f05
e5070510
f8f4e707
15f70807
0bfe1b1a
fbfd0012
1709f6f3
e9f3f0e2
fcfc02e6
fdfe0607
f4f0fb05
05ef12f1
10f51109
eff7f207
ff0e06f2
faef01f8
000b0212
f821eff5
00f00e03
f8faf800
ffe8f4f2
0a05f4f9
e3042a13
ec061f02
f407fe01
ff051806
08041111
12fdec12
1b1809fa
1416fbfb
011107ec
0008e7f6
0625ffdd
110d00f6
0a02f1f7
19fa14f4
03000109
0c00eaec
1209f905
09000b00
0e071216
140c0506
040ff009
0309350b
faf70e14
ff041007
33efeb01
0800092e
0cfd0c11
fb07f70b
fe11f8f8
ff1afcfc
0001e200
102505fd
18ebf022
f8fcf6ee
fcfa0ced
f9dffcfb
fdfa08fe
06ecf50d
eff009f9
fe10e9fc
f6f3f9f8
0d00030a
0d11f906
f7ecf3f9
fe0b04f1
e8171508
05fe1501
f609ee11
0014e6ee
13f9faea
0c010dff
f2f2f4f8
f3030df9
00fbeb05
fd120414
ea020903
f4e5f5f5
1216e200
fbf8fcf9
e801fbfb
f2fbfffc
ed0808fd
fcfd0700
15000f10
010d0d25
09fa0509
07e4190a
f51103f5
e900f1f6
0df6fee5
fa1df611
f20609f2
df0eff01
0e011d07
030a07fe
e613ff00
07f4ff02
2cfbed11
ef280f0a
03fa02f4
0c04f9f8
10e7f400
0c01edee
1c111c15
fbf627ec
fbf7f7f9
fb05eefd
eff60307
fc06eff1
1407fd05
03121b1a
0d121c00
02f8fe13
0af30000
fc08f6f8
ebfd1207
f3e9f50a
d8f510eb
fae2feff
d5161305
06f41401
fc15220b
fa00e6fb
1cfeed03
10fee515
12fef402
f4010711
f7060afd
f1050cfa
0209fa01
f0e6f401
00de03fc
f400f7fe
eeedf4f6
da05ee0b
f3ef060b
0be8fc16
fef4f917
0c1405fb
041d2f07
f9140f21
f5f10604
0209ee02
fe00f109
100efbf8
1104f0f4
ef06e10f
f606fcd7
eeedfa08
0ee6fcf1
140a1609
ee0e0b00
1600e405
0a0be5f6
f2fc00ee
0aed021b
080ef613
f5f5f016
fcf6f8f3
171be7f1
fe261ffc
fcf5ff06
f2eaf106
fbe9f300
f00b0ffb
f6ea00f0
f8fa0f02
09fdd9eb
ef09f7f9
f409f7f5
02fd06ff
fd0101ed
0805fc00
02e407f4
06f3f800
09f5cafe
12feecfa
2c20effe
f7030eee
080001f2
00090801
00000f07
f4eeff00
f103fafb
0c13f902
f5fe11fc
11150efb
03f8e50d
0b01e60a
00eff0f2
f303e908
f9fd020e
f809ff0d
11ff03fe
0a02eaf7
210f10f5
16ebea0d
1303e800
090808f1
0102efec
f90603ec
fdf8f2ef
05ee02f7
0a1301fa
0310fbfe
0905f8ed
f90602e5
060910f9
100e0010
fdf3e404
0002081e
0413df03
f22402ca
4a300d13
ebd6070a
09070a02
fcfafbf9
07060305
f9060412
000b0401
1904e5fb
02060000
163404f6
fa190b0b
0604fd09
e2dff41a
11f2f109
f2f61106
fd05fbe6
08170012
0602fdec
0e130009
faf8fa02
291303fd
fde3f325
f8e8f9f5
0700f90b
faf7f4ef
f8ed0b06
02fee8ea
121200fc
fcef01f5
18f4f307
00001731
0be10c11
021e1a00
fa16f110
f50af0f8
231ee2f0
00fc2204
040cf301
f3fbfd12
fe05f7fc
08fe02ed
0804ee06
ebf0fdf6
eb0425f3
f50a0500
fe090bfa
0003f4f6
01f2faf6
2ef4ff0c
edfaf80e
f9fc07f3
02f7fbfc
1d0f0beb
f60f15f8
20f7f6fe
f710e602
14000b00
e9ea19ff
f9fe0617
01ec00fa
f6f7ec0c
04fdfcf5
edfcfeff
080ae906
0c07ef05
14f0f4f1
f3de181a
f907e505
0c08f0ea
1c0507e3
f60b03f4
fef30302
1909ed08
000805f9
0d0402f0
04fcf311
121604f9
010305f9
d1f0ffe9
080dea00
ff0100f2
f500fae9
02fce20e
0502e600
f3160409
0bf0f5f6
f2f1f9fc
f20b12fe
02f912f6
fc0c0af2
f7f90800
08ef0c09
060cfc00
0d0407f8
11f504ef
09f6f000
02fdf3fd
0ef2f2f5
0afff405
1b151109
fc130000
eeeeddfb
04f201ec
edfe0501
fb0905f0
fa0b04f3
efeafbf4
0bf0fbf9
ef12ed0a
01031400
0dfaefef
ff0e0a1b
1606020a
eceb00ea
fefeec1c
f9deed13
fe0ad901
fbe800da
1a1c061b
df1705fa
1013f709
15f0e918
1fedf5f6
1bff0722
1220e21f
f5f7e706
0e22f600
fc090f0f
0eed031b
1bfa0411
1109fe18
f0fb1403
0df2001e
13050000
08f4dc06
f7ecfae4
29eefce9
ea2ffee7
fc28f512
06d6f3fb
1f0f0507
e112efef
041905e6
1422f915
ecfb25ef
0df8ef05
e933f607
fdf90c16
00f506e5
fddd20eb
11ec04ed
f6172bc6
000afc26
210ded16
050de81e
fa0ef0e2
10f31e1a
eaf20009
ec04c9ff
c0ed53c2
131c0209
f0eff7ff
07ff0600
dc0be7f3
2b1e1320
20fdedfd
2207fc08
dce0ede4
011007e2
f5ef33db
fb1d0d2f
f4dc0f0e
00ec1bef
08f7fdf4
25030706
1d110936
1602060d
f4f10003
d9ebf307
0c01f5f8
05e91e01
1407ebd6
e805e1d3
0dfff5e1
f400250d
01201703
f903f922
fc1d1107
18151208
020df7ea
e502edf4
08c01103
f6eef017
e804e7ed
dbfde9f8
05dae614
fff417fc
00c3d1e8
eed0e5cb
e3f3d811
1debc8fe
04eef5ee
f30a06f7
e613f80f
e90307fc
00d6092a
1bfdc4e2
b5c0ecf0
f3bdf6c6
fb05ced3
0a03f715
2d0c06ff
1d0602e8
f2eb0cf7
e922eb05
000afedf
14e61411
ece8e6ef
f51a1713
500d0b38
32591f22
f0e70705
f2fee1ef
1517f4e1
f80218e8
f1020ded
de07ea01
f20815fd
f5eff413
15f8f10b
f60d0de1
cee10cd9
fb032ef7
0202f813
ef08fb06
07f8fa1c
da19f6f8
1cddfa0e
faf8eb35
edef02f5
e3fc00ee
ff23fb14
270301e5
010d0f15
f2faf710
f423fc01
dafee904
d9e41207
fa0d1ed1
f4170be6
0fe8f8e4
00e000e8
fc18ff0e
120406ec
f5161306
1012f8f7
e0eef6fa
17fa1612
e5110120
1f0c19e6
05d81dfd
e20110f5
0afafb1d
2122d202
25f6f1f7
0a100d1c
f202f2eb
28f5f7fd
0a01f810
1a08ebee
dee7dd04
f8d0e0ee
eddfebf9
f8e3f4dc
04f21411
faf611e2
f6ed1e2a
12e917e2
fce40cf2
0f070919
f5dd17e0
ff10e20e
e9e3ec20
0af7f919
00180af9
0af5e303
e7100302
f920f0ec
301dece9
0604f908
fdf2fd0e
dfed1611
d305f3fe
0a0de7f2
1017f509
06e513f1
eb051515
f1061bfb
e3140fe8
d3e9e604
0deaebed
17f823fa
160408f0
f4fb04fc
271d20f9
f71d2e21
d4e80c10
ecef0bfc
16210414
051703f8
f0ffffdf
e3090808
fc162507
fb000c10
14020fed
11cd12ed
fb040af4
f6dbfc0d
fe10f50c
00e50112
cef5e2db
fb05d2c7
1ce3f9fb
f82001f1
12ec17f5
e9e7f702
2325ef1f
c9190913
fae701eb
f50f060f
f2f3ea05
f1dfe511
f7eef917
040a0a15
fed2f01f
14081720
e6ed1303
13f219f5
d3210bff
ecf2ec01
e115f9f5
f318fff6
00002814
e2eeea0f
fd040024
3cf50718
201dec0c
ffe3e1de
0025f2f4
f7dcece2
e71612f1
e3fdf3d6
f9f419ce
1d0afcfe
07f8eb0a
e2e3f5f7
06e0d8e1
1c0feb01
eccaf60e
16e6df04
1b00fbd5
0304291b
0a001a08
02dbf0e5
dadbe703
00eb1f03
f105f811
ece2f40e
1be506d6
21031318
071615ff
da1b1dfd
e1d919e6
e3bbf104
ff04fd0a
f51312e6
e1e71d0d
0fee0800
f6df2ffa
3319dc07
201700da
04f0fc11
ef190c21
29c7f9f0
1527eb09
0eea1316
f9ff0510
ecfff3f5
f3e3120d
f108f8f7
f3fb15e4
0bef00f1
de060df1
00df1b0d
1ffc18f5
faf81403
f22c0f13
fe0716f6
ff192321
1bf809f2
0a292613
eef0dc0e
14e012ef
06e6fc06
0207dae6
1115e6d8
09e3fb03
01f6fb19
feedfe00
2a000715
f1002109
ff1afef5
feea1b01
130b2202
00ec1a0c
08d90b06
0af2f1f7
10fd07de
2714e117
09001618
19eb0108
c30103ef
17f517fd
070ecf02
d8f91c15
01f7140e
1a010f20
191b1505
05f814f5
0a0fe0f0
e5f8ea11
f62ffb04
140dfcd0
e4e801db
fc0aeee8
14f1030f
16e818fb
130be1e1
f5ee05fc
ee18fb25
10d5e5fa
ed20decb
e70507f9
fb19172a
12f42010
ee1123fe
f4fbdffc
0e00e2e4
2116ff0e
18e008f5
e2000b0c
f406fd00
f92a220a
d8f60509
cde71d03
eae219db
3fe01604
0011ee0d
de15160b
d6deedf8
09ddd40a
0935ea0b
1918ff0f
171c16fc
1f051900
0a06f418
e5fbc41f
e8e422e2
11defafc
0cf310ec
fcf811e7
0e21f0fa
dc0506eb
f316dd00
1e1102fc
e0e7ee07
11e0f10f
ff04efe9
f1111de6
e5e80fe7
bbe2ffe1
e1f70efd
f2cce2ca
16ec0724
27efe040
f4fedff3
d1dfe912
12defa1e
0416dbe3
f4de0b1b
f4f9e703
fe01150b
14efeaea
dbf311f1
10c80315
012cdde1
0ef1000e
fd0ff4f1
07f8fe0c
1fddfa1a
e013e40f
0d051113
04fc1404
e512f301
13232803
f7e012ec
0cf6081b
1e05f2ee
0016020c
f4ebfc20
f01e0e18
f0f70a3e
1b1dfb17
1c081ce3
1af81418
1d04d722
0eec030d
1220fc13
031e1c01
1614ea00
ee1b0e03
ffc8c307
fce7fdf5
14de0bf6
f201edf6
1507090a
f7e7fce9
21f4180c
e4fee1fb
0ffa0ce6
22f6f80e
130504f6
191ce307
07111102
121d1f26
f20df519
fff824fb
00f21612
00bcdb02
e20ae3f2
e3fdf9f1
d700efea
15edd9dc
12eeea00
10ec09e4
08eefaf3
0901ee0c
fffeed1e
2df00b10
0c08d710
f80ffd08
0a430bf3
f8ffdef3
dce203ef
05100406
0c071d0e
f4e6ea0b
f1021c06
fceefc03
19eef5eb
eb4eb8f0
bef503e1
ed08f800
f6faed17
1d1000fb
0cc7cefd
f419f6ef
041a0bda
1a250a04
f4d4d303
deebe5ed
0cf615ed
08f1f2f8
250df4f0
f6e1eaf7
ea1c2507
14cc0c0e
02fae82e
09eafae6
16f11cf8
0c09e0f9
10ed1709
ede7fbfb
e2ebe207
0e05ec10
1bd81af5
001f04f8
f2f2300a
f2e219fa
0be9dd22
e0f70511
e6ec0eec
f604eb30
fcdb0220
01f002e1
00da0b01
f3f5e103
ee170df1
0dd6c90d
050e000f
fc160505
dd17eefd
05e8dddb
f5dfea0c
f016e61b
edf00917
edd7fafb
f9040116
fc08110d
32f1133c
efe4061b
f305f1f2
0e2100f3
141df3ef
00ea1a14
e419db08
ede21001
0710050d
20e6f4fc
04f2051b
1beeee01
0a1d260a
f5e5ed0d
1cfb1beb
eb000603
0e20f9e7
f5fd0f0f
f1d3200e
dbf4ed23
06f9e21e
09e215f7
f3fcfa23
e30afbee
0100ede4
f2f4f1c6
1dfc0825
0f1c110e
ecfa0918
1a08f9f6
16ece412
06e607eb
e100101e
fc070d0b
dc00e8f1
040fed07
f31c2e22
e61df502
011ee3fd
06dae207
19140119
ec090d0a
08e6e818
022a1200
1920f607
c21114f8
e12a2b19
1d09273a
f6de03ee
270703ee
01fe09c7
e6e9e3fc
ffe807ff
e506ddfc
18f500ec
d715161e
f30def2d
f00f0af1
0015e613
e60a2101
e10b03fe
19ecf40d
ef2608ef
05ef0e12
1e201719
1ae90cf4
d0172523
eac8f9fd
e6fdedea
cce3f008
01e9f2fb
ff040a11
2802fe1f
1a0f12e8
f3e40b06
ff01f6ec
eb0e12f0
e6f718ea
110c3228
e3e6ec07
d7d41d0c
e2211e10
00f1ca00
cfeb23d1
9ccd3d0b
eabae2ee
04d0b00e
c6a5c6d8
3d23f2c7
f015dafb
eb2ce4e1
11dc14f5
e010d500
3b2814e6
ed09ed5a
ce01c820
dc13e9db
e7071607
ac10a7f2
800ebf80
e70fe4de
50104dec
5f1b0646
1b36651d
1cd20b4b
e70f2f41
462b1b1d
0f01fb23
f1ebd412
f0f727e1
ed16e810
427fdfd5
250c684d
ed091344
80baccae
0be6dbe9
f9f3c3f0
1e15dae4
1103ed2c
fe0800e8
d8ebe1f7
e5c4cc10
fb060c0c
0a01fe34
fa2f1a0b
3fe6ff3e
290c28f0
16fc1722
1e99bb93
24190ec6
eb24e003
22fb08f7
04dce815
ebd1ebe6
96169900
a7c0bd90
bcec3b00
fef2e22c
34d1fcd9
d7d3f5f4
0cf9d0f6
2a1d16ed
dc1bf4de
00e8e2d2
ece2d715
e5a0cdde
05e7ee1e
07171432
f0f2f71f
5715e6ef
6b202434
f5455031
1121dcee
38131f10
41234837
eff1a615
dac70fe4
efcc18ef
f313c3d7
f015f0e9
07000cfa
06f10011
14edfd60
d1f4e900
dacb180a
6317c5bb
c501211c
feb2b8ff
e6def812
f5fb0703
c6bfb1bd
b3e8c180
fb37cbec
ea3d7f1f
a5c6000d
280ee7e9
4ee1f3d3
dc094735
19d70d0e
40142b60
192e0eea
35155afb
e2212124
fef9fffb
f7d4fef4
c0361132
009111c1
ffb6ef01
1cf94e3d
081c2141
263c2628
22e8ecf1
d7ff1209
1c1a0215
2914e916
2be3233b
e3f0f2ff
20f9563c
0df90960
d6fdee05
c5dac7f1
bdfffeca
d3f1eabe
edc7f1c5
3c08aa49
c2aad4b8
f503d6d2
3623f3a9
547f612b
3ceb0243
7948041c
0eed284d
42dc0d45
d40d4d24
2f09e03a
f414010d
eee9321a
120210e6
e618dff4
0006e80b
111d23da
07041ae5
0a2ce8e1
ec2a0b37
0fd6d20b
e00c0115
e932fa01
3b16daf4
0f003c49
06fddf1c
0024000f
e4d5f203
edece9f2
e3d9bb9c
021ff71b
12f218f5
e615d30c
f3380fed
e1d30f1f
fbe72704
f11bf335
1ade0ce6
0fff5b1a
feca4848
f43516dd
08000fdb
f136fc1d
18eb11ec
03253e34
0cc70323
101205f5
39090b26
fb0206f1
f1f82afe
fa09f4e3
ee1c2203
f83ffeed
f225f3f9
240bdf19
d5f7d0ef
270022f6
0500dc34
1ff50525
f123d8fd
21090603
002be901
1ed405f7
98c3feef
e4b0c90a
221cddf0
f91eef21
f0e200f6
fc1c0e12
d0cb02fe
f300ca16
640b21e8
0e2c3673
041c0e05
cc0be2d2
02dfe9b3
c2ebc01d
e4ec58fc
f31907fe
f5a7d4e8
002a2f34
0ac9fd08
205221e5
db67131b
cb0928c8
26080a7a
fac7d1e0
0b26f6e1
6b7f720e
2ae14a0f
21181cf9
c60401f2
e8e13400
05f3f220
0cd4f0fb
0d2002fe
d6c81024
fd29c7df
ea05f40b
18f6d0d5
1cf100d7
f346de0f
1a0bf207
0b2d34fc
e60e3e2d
7f31081d
18576dff
0546ea3b
f7ff0c4d
cdf31009
05fdc9a9
22e8bfc3
531c221c
0926f1d8
0c0c0e10
c0451cf7
a9fa30d7
b3aec48b
f0c501a7
2ceb45fc
0a252e39
e2a9bf27
deafb7ee
0f060af2
f9f10df6
0afdc2f4
252e101e
f1fb0cee
5970714b
611e497f
2b0c38ec
25535638
20f2131c
f5c402ff
f30ef907
1300ed07
f3b5f6d7
180d180a
ed0fea17
ea13eadd
84c7170f
6748f4b3
267f4214
1f0c3c3a
f431e5f9
1ede0de5
711b20fe
f4e42169
b031cadf
d6c05606
f124c70b
f7d3f9f7
312203fe
ff12ff06
f4f4f9d7
e0491d77
084205c2
e6fed938
c200cce2
14f7fff3
efde0c30
fc160409
f31014d8
11132528
e3e01c0c
d1f30c22
ead705bb
eef23608
291309e0
07030bee
e2ed3901
e81cbd08
0df6e7fd
f3e800ea
161bf8e3
de07e508
f61a0b18
332b0c1e
2913f10c
1412f6ec
420b0e02
221b0e4d
eaf105bb
16170016
0bd00016
eb12eaf1
ee07251f
08d30025
6943f3de
7f3c7b7f
3c51395c
ece91514
fe0006e9
e1b5ad1d
e21ab5c2
3d3dcec6
f9423a1d
e62c132a
041cdbe2
2525fa17
00c4d800
17d80cc2
99d995e5
ddaed5e6
f2eab20b
0e0ef5fd
e3f01008
06d7e60a
fbf3f8cf
01f4110d
2f081804
3827cc1e
062e08dc
fdfb451e
e6221beb
b21029cb
2e10d615
ffdaeb1f
39d3d9fb
f7edbdfd
c0b5edef
00da0146
0d2bea12
8baeb0d0
cef9d1d0
decde1f4
f62100e0
f5dc001d
1a17e8f5
305743e5
f02d6b32
d3e7def4
c7d4dcef
18d1ece7
ddf701f2
f2e9f60c
ed91afbb
20029680
08f32f02
e2edef1f
001ba9e7
ebebdf2e
1ae3eefa
2212d0fe
f40f00d3
fde81af0
2af62a1a
f6aed6fa
fad597d2
dab1e108
03762bbd
dcabecb3
01fe0c35
161c1509
23fc0b12
17e90021
f92b0e0f
db375d13
1812f12d
0be21d27
afe72808
c6fb0db1
040fd0e6
cf0fe508
2f12fc1e
30144b1e
ee0c0524
1b280812
fe381210
0608f7fe
ebe6f613
e2eb1103
b200140f
c0faac98
10f1f201
1432eff5
0012062d
ecd9f00e
bf01bfea
07f00bca
e309e1e0
b4c9adce
dfa5b58b
dcd914fb
12f7ebd1
3a0cfbf9
e20800ea
cf07baec
25062d39
00edfa1d
e615ce03
0c080010
270c3006
ed2d05f4
ff021f41
caeeccd5
ed37fbeb
2f1a1cf9
12e72c19
131d1bd1
c5cdf6eb
d1dbece9
0709ff69
f2e41342
04eed8fb
00383177
c9f1f9fa
19cbeed0
18e0f0f0
f31df203
48d506f4
f926c129
dbaa2400
041819b6
27ea02cb
3c3825f7
fce628f6
ff0c2bf4
fa0e19fb
33400b0c
33020148
ee33153a
2450391c
bccb5e0b
c380d8cd
d6cba2b0
15cbcff4
e20bcadf
3c1b7fd4
e33c7f22
7fe00f5f
477f72b4
36f95c2d
f70fdfe7
ee001acf
bdf2f1e5
0ebff8d3
3f2031f3
4afcfa33
ff16010e
42ef0f12
09102423
f2231815
24fee438
31f37917
55e53268
d1f3fd0a
dc167623
e8d540e2
03ecf6fb
0715e020
b700e314
98eca70b
ce5abd09
fa45f7dc
c297a62f
0a21fb13
dadcf94e
eaa2b618
0719b3f6
f3fdfcee
e6fc9905
03ff32ee
27ff3220
cd2108f8
1c090214
e8e40526
1efc2bf9
11092108
90e72203
11b5ffde
6331255e
291a0b3a
99a2aae4
48251300
fb0f4140
ff0fec09
2bf60d0a
0a36144b
342e3715
f51bfaf0
f6f90111
236030f8
2f117462
01222b61
e5dce5f9
80f12103
5c0dbf2a
d71a0c03
3bf00e0d
d3041244
054034d3
27145a47
7f49e6fa
14471748
b2f8fb1f
03f411c8
1b5b1ff1
dedbf5b9
d706e5e6
09d8f2f6
22f7dee4
20defb07
1f3d0710
57002644
d3dc5bfd
22353805
e6e1100e
a1e80056
2ae4ebf3
1ae3ea07
110afde2
09260d03
1f07480f
bcca4400
3a2f2d0d
bca98097
acd0c9ba
25c803de
25f8030f
e0a02538
d6f3a009
17f4d5b3
15303019
062029ed
ed05c6d1
4ce5230f
dac7ff2c
fac200f2
36b9131e
ec031cdb
14c509ec
25f62327
200af841
e6f2c5c2
e5110001
0a38cf00
c0f22bfc
7ff0eafd
1256e316
e61e4dd8
2930274f
e62e2e21
ec182c0e
f8f0ef1f
d115ffe2
0ef017d6
d01304df
e1d216e6
efef19ff
8cd8ec09
17d3f511
26fd0e0d
16f90012
e7eb00fa
fae4e2ee
250bf2dd
0a10f306
eb0d22f0
ee08eef6
f7f31411
fd1cf926
12fe000a
f4f70a12
08ef0af6
0f1bf70a
fe0dfaee
ed00f9f4
f5fd0cf4
fffafa13
fcecfefc
1912fdfb
0df9fe2c
e6f4cdee
ee0a02fe
f7000515
e1100ef8
0206dfe7
f50929fb
1d181a17
fb0b2b14
05f7f404
0e03170b
fdf715fe
fffde5fd
f4120d06
ebfe06e6
fe10f90b
f0f7f3eb
e816fff3
130c0f01
f8000008
1437f214
1e2c2b0a
f60ff004
30130dfb
1d11fb06
0d030506
0cfdeff4
feff0e01
f80f00e7
00f0f8ec
05040ff9
0d0efef0
09fa071f
010217f7
0ee7e3de
f8fc0aec
00031204
fde806f3
15f0fefc
f3f513fd
f5160200
fdf1f2f4
10f5fe04
0407fdf4
f617f7f3
10182211
13fe0d07
f2eb0e10
00ddd5f0
01e5eff1
f2f3f3f5
10f5fafa
f5eb1df8
f9fd0b19
fa05fff7
0402021c
e9131115
0711f010
e9f9ec05
020becf7
ec0f11ec
f3fa0004
0b13e101
f5feea09
fbe5c6f9
e6fbf2e7
e8f1fb02
0a0a1903
fa0f000a
0606ffec
dceee7f2
effff8db
0cf108f8
161510f5
11f4f5fc
feffd811
0afefcff
f502fe01
ecf5010a
e90209ea
051805f1
fbe7fdf0
1df10b03
eafd13f1
f305f408
eefaece8
ff030cfb
f6df2f05
ed1cfb14
03fff615
00fd05ed
ee01eff6
1000fd08
ffeaea09
0dfdff15
f316f802
f9fc0efd
0b0f1100
1afd0701
e800f712
1a002034
f5100810
fdf4f10b
fe001c09
00efebed
00f1edea
d6070706
2527dee8
00fc121b
e01103ff
ebec0d05
e6d3e004
f600edea
0dee08ec
04e500e2
080d1f28
070bea07
ef190afb
edf7eefb
0df3f80a
01f10cf8
fcfcfa00
d8fb01dc
dffff8fc
081107f2
0a0912f5
120c1419
110af5ff
f7f4eb14
0e120203
031cfdf3
0f050307
fbfefe20
f50511fb
18200008
03fb000e
f1150603
e00111f6
f9f2e6ea
f9fd2904
fa06faf0
f3070ef5
ebf8ecf0
f8070ede
01070df3
f30cebf4
edf3eceb
080cfe00
06f505e8
0d150efb
f116faf7
0a0b14f7
f3f8fc02
ffeaf110
ec0bf806
eb170512
011013ea
04f3fbfc
fefbef05
131717f4
efe9eff8
1403ebfd
f60df2f6
18fb0710
fa021807
02f51004
e90cfff1
e8ccf8e6
1e1af4ef
0708fff2
f8110106
0ce4def0
17e7ebe4
12fb09f9
1a3224fb
1709fa08
fb0fecf1
e711f0ff
15011511
ef0c1015
111420ff
0508f109
faed04e7
0aeee905
0dfcf4f6
e4fcfa0b
e0eadbe1
ece6e510
00e406e0
f3f90809
e30ef6ef
05df15f7
ede6e20c
1205e5f7
2936e403
f61c26fc
1310f519
f714f513
e7f6fc04
f011f9ef
e3f9020d
fde2e910
fef2f801
0fe410e7
0c080f15
fee3edd2
05fff300
12001501
fcef0bf6
130400f8
f7f3fc00
12f7f401
fafffc09
131e0208
f9ffe706
1ffbff05
f8fdeb04
f5dcdac1
09f7fad9
edd9fceb
ffe8fa0d
fcdc0ae3
ee0608e6
0bf6e2f8
fef5f4f7
09e3f70d
170ff9fd
11ff0521
f1060716
06e8fce9
120f0ef7
ee0be90f
0d0bf0f0
fa0318eb
f0edf7f7
1ae70504
0911fe04
fffa0aef
e9fef7f9
fcf3f5f1
1c0dee00
fc0403f0
ee0a17f5
fe110d12
f504f6ec
0406f6fa
1303ef00
0e0eed00
f7000400
f505eef0
fff7f305
e30aeed3
fbfdfb16
f2f80505
03ea110d
f9eb0bef
feff03ec
1207f40f
0808f5fe
ff0ef806
de0a02e9
ff0efcf4
e6180e1b
04fded00
1d1a2e1e
0909faf7
12f5f900
0bfef800
eb01f111
fcf0eef7
0103eb07
e6ecfbee
0106ebdd
08fcf001
020a0500
edebe400
0f01edf0
0402180c
ed0a101b
f3ebdc00
0ce0e5ec
03faf8f5
05efe4e8
060d040f
fc09f41e
f8e6ecf4
02fa1513
f50e0513
04e80208
ef1dfee9
1114ff03
ff10020c
0412fa0c
f9fa0feb
071c1911
0603dee8
0c1007fb
e2feeaf8
04180b08
ed061610
efedfd13
0fecf5f6
0bfeff06
0004fa07
02f8fef7
ea0bf8eb
faed04f2
03ffe4e9
0bf40e16
fe02f409
04f5ec0b
0d101605
0509f1ff
f30f0afc
0501dae4
0dea00f9
0e07001c
e717fa0a
08f9f0f5
f307fff1
10eaf5f6
fbf60617
f8f21b0e
043af400
130c000c
1315070a
0f000413
dcf8e405
ea01f1e1
02f615e5
f1080115
13f40f02
140610f0
fe06f302
f3fdeae4
ffea16fd
f00a15e6
0c12f614
ee110bea
fc05effb
f8090913
f201f20f
09fce8f4
0ff3f908
fe1618ff
fb0f06fa
05ff07f4
171d0a09
09ee130e
f41a1bf3
0d08e9fa
fde6f310
160ee2f3
22e50d10
ed2005f3
f41a02fb
f10819fc
0ee50114
e70013f4
15f904e4
fdef0816
10fb05fe
0a0c13f3
080a0c01
0cec0304
1412f403
01363815
001f0a18
131f08f7
f4f4e9fe
1903e0e4
14ed0720
1f2cf904
ef1c0c06
1e000ef3
f1f9f21a
f810fe04
10f1ecf6
01fd1304
0712faff
050608fb
efdaf410
eff6ece1
06071a14
1ef707fb
f006f00c
0f1bf8e3
0308ff1e
00f4eef1
1000fa0b
f01508ff
0bf106e0
06ed0b03
03e60d06
07f411ef
f7f1fbea
000bf606
112119f5
08151107
13eaf408
0102e1f9
fc16f6f5
fef8161f
081e0d1a
1807111c
0bf8e905
0a0a09eb
fb051615
01ecea0a
ffdfddea
0c0dfcf5
f1e70303
fce7f9eb
eafa0a0f
e90ee5f6
f1fffe02
0df713da
09eff2f9
0306170d
edfe0402
14f511dd
0ee90304
f20d1202
f602f5fd
0beaebf5
f3dbf212
f1c6eee3
01ff08f3
00fb0c1e
100b1ced
0817e7f9
03f409f4
efe4da11
ffdcf0ea
0bdb0208
0fedf0f1
eff9091b
f7000cf2
14fe10ff
f7f7f9f8
e0060b0f
08f0fff8
0b02fdec
fde5ec22
fddfd2ff
111f17f1
0e0d1b02
e4e5f1fa
f5f5141e
e5dafef3
0e16ffe3
0c03f805
f8030e1b
0d07e801
e20804f3
02f1f5f6
0e1904f2
ecfe09df
04eeff06
f0d30216
23000404
05040713
04d8d4ec
02eff3ef
d6eff2f6
1c05fe0d
fef9fd0d
fdecedeb
04ed0d0e
12f9e609
201210f4
0317f0fe
ec0e0ff4
fdf8e9ee
e8fa0df7
0008f306
dce0faf4
031b0bf8
f6fbfdef
0f16f7ff
ecee0ae6
0e1017f3
000ff003
0ef20bfd
ffee061d
f1171119
f406fc03
f8eef4fc
ef12f7e6
05e7090f
fef6110e
f1e40003
0d12090a
09eb11f3
f21109ff
f10d19ec
15eff8dc
e8f900fb
180110fb
f4072219
e5ee00e1
ff06e8f2
10161210
1019140d
140afa05
eef1f50b
f91609ef
0205ff09
f00d0a10
f00c0606
f8f710f5
eb10ee00
021dfe01
14fdf70d
fbfbfc13
0106150f
f005f5fc
fb0500e4
e6feeffa
fdfc04ff
f5ecdfff
f90509f2
f90e0efc
f81a081b
f0fa1e1b
00160303
f60cf908
0dfd1814
03ff12f2
f301d702
0702f90c
0803f810
1515f8f3
03fd0916
0c07e612
f304eb0f
ee08f7f5
f8fbfff9
12171e14
fcff0bf6
f7fdfdef
0e100913
12051317
ddfff00b
f9e6f0fe
ee03f8fc
03f413e6
0ee50803
f110fdf3
f50cfaf8
10e90516
f30e1412
ef1115f3
0b0b13fe
f1f3250b
080bf613
e820e1fe
0cef1817
5ffd00f3
1400c1cf
d1f32aff
d5c2fbfe
28dbf301
c52004f2
d9e2dcfc
290a150d
ed2f01f0
15041f15
1309d210
040ef8f1
070214ef
180ef82a
f9f015d8
fcf420f4
da0cf4e4
f9e4eb2f
0af7ddfa
2ad1dcd2
8dc50be8
d8aeafe7
d009b3f7
7f42c33e
be06bdfd
e8ddec0e
e5e900f3
fcfa02e3
080c091a
762deffa
257f303f
50435233
25dc00d1
15c2f3f0
deebf020
dae9eff3
11e9100b
0e04f900
24420918
eebf0114
02d9cecb
becad3db
fcf9ed07
eee21403
2916db00
ee16b520
dcff433a
fb0e040c
fefe1414
de3514f8
0fe4d11f
dcf3ee11
0e227f3b
14003704
01ead700
f84ee01a
11111aef
28062af5
dd1419d6
1f1c21e5
14013d0d
13e7e9fb
de020df1
1cd1b82f
ffd3d9f6
2934faf2
271f2d3f
03eaff17
a9b700ee
b4addaed
e2f0eddc
d42ce904
e7acc2f9
47fb8fdc
cefd4e16
f00bcff5
ef162c13
f4fff0e9
e0fb1615
b808d1eb
8914ee8b
0a02ffe3
e309b9f5
02ebff09
14b1b934
0fb79be6
09281807
ec0ce7f2
d6bff0b6
8095df7f
f4a7cfbb
ebbe80c2
3218e70d
24c8ef25
8e4df951
8fa8fbb5
07d40714
e225abfd
f123d5df
005cb62f
fff6fb0a
1d0efc2d
1719012a
04243040
b91dd1f9
e2e7ecfe
06edfbf5
f8ffe6c5
0c120900
0cd4e21c
cff80ef8
eec62c24
040cfee2
cfd30801
141b19f1
f4e517e7
17423ce5
d42fdb10
4d1d4e1e
d9d7403d
ef57f6e6
efddb5c4
f7fff811
da0f0ed6
17eee9eb
1cd82efb
141a0a04
fb1a3c59
62dd04f9
1b5a4cc3
d60717e1
520abff1
d33309be
070c0510
0f4404f6
0de9e942
d0dff3c7
101f00ec
0e00e7f0
0c0fd505
673fdb5f
093b3309
0700e7db
13f71d00
df0ee915
ea0d1a19
0a16fcc9
e7220600
1800180a
e4e80cef
030a0f25
c11e9bf8
e2430880
f6f6271f
e712e801
00200b23
39484c28
f8261e02
7ffce267
eefed12d
efd7eb40
1b07e11a
0102d203
f2f612fb
f4fae020
320cb3dc
12f406ff
cc2300f4
e7d9fcdf
dd12fef4
e20feaf9
0e01f4e0
150d0b00
30ffe628
001f0c0a
ff221b05
30171036
041d1929
d2fa22d7
272b20ea
f7f80201
0be712fe
0ee91307
411cddde
0ef32ae4
3f070435
3d160114
d2dcfd01
1306fdd1
04400308
39302f62
f8003516
051ce90d
de19fded
1647f9a7
ff21ea06
f2ff202b
d1f60a02
fed404ef
ea02d5f8
260602f5
1e1f3203
ff36554c
61f6ca97
d1ea0221
063b061e
253f26bf
0847190d
06473711
b31cf5e8
a880d3f3
13e0b4fc
eade0a44
ffd6fbf4
0addd814
d118e803
17170cf7
f4f6df1f
ccd4fdda
03210ae9
06f71603
d7d906e8
1616eb18
30ff7fd8
2d364e49
d80cdb15
ec01100a
061d15da
d5ecfa27
faebfa0c
231c09e5
ec03ff02
daffec0f
dbe0c8ad
e5fac110
1fbc3b0c
c61b0d0f
efc2af00
35510215
aee50219
b7d3b1d6
d10ed2d6
160416b5
f63f0ff9
07184431
e3fd1a2a
25f711e6
e9efed00
10e2dde3
16f20130
10fbdbdd
4b29e3e6
2a3f2519
2adc0ae1
001d0a0f
f6fe2209
dfff381b
08000712
bee0ef24
2c0be2f0
0f2128e6
eeb613f7
f0eab0dd
eb45240a
ece9234c
0bf92c14
e7effeeb
e9eaf0e1
aeddb0ae
ac09da89
11f4dd19
d517e6e5
3821c6f1
120c3002
f6cfbbcc
363df4f1
03fe0b1a
f126022f
0e0bead7
f2f910e8
f31cdaf7
c722edfa
01113415
db00ee16
fb160a09
e719e50f
f90adcf3
b50cf2a9
0002212c
eef2e1f2
4747df14
087f29ee
201e7f2f
2f03edf7
fa040e07
b6f5d0d2
d9ebf4c5
09d2f3e1
ce082807
ff44fffa
e7d611f3
2906ddf7
bc25eab0
3218370c
de18030d
0b21e40f
e8f3fffa
1127c7ee
fb351703
d90a0a02
aacdfbed
02f2c3c5
e9e8c4df
fa02e6e3
1e21f2dc
bf1d15e5
fa4042f1
0ef1ec02
fc0efb02
fe2a411e
f9ed0de2
f3e214e1
2a473a49
06e8edf9
d5c0c3f5
e7dcaed3
def8cbcc
fcfbf0f5
efea20de
f406050b
f8f6fcde
300cd3eb
5427f024
3527252e
22f5b5db
f6ec01eb
fd0a0c16
2029ff1f
ddcbd199
f2eaf3fe
dcf67b1b
fdf3d6fc
1f2ef916
d63f0adf
da381fdf
fd123e08
17dc1612
0a0dfb17
f9f2f21b
ccea9bcb
e3f1008a
2de9ed07
1800a7c8
0cf01e48
f3fee40b
0fdfdd01
e0e2fe03
f2fceee4
0d11d855
ca15cf80
0c20d001
0efeed1a
d4e33611
fed1fbd8
050cced8
d61616cb
5715671c
e5b830cc
4120c749
0ce9e40d
f1537f1e
e6f610e8
d180b0e8
2241034f
c4152831
22db3d27
ecd40017
e7f319ea
fc3b1cfb
e5e6204d
f90df634
d4eafa14
48e5e6df
e2d63d15
f206d6f2
f9efc51c
e620e8c7
ebf716fd
2dff37ea
f2ee2224
f2c7eedf
2eff00ed
02fe1c38
f1f720f9
04cdf1ef
2612fc39
ebf8fa28
e7d8f50d
ca0e1a1a
4d2a0b25
302e1a17
33182a3c
22d81a37
f1efffd3
dfdf0609
e60af5cc
0ceebce5
f7020a03
16f8fa00
03fef2e4
cafbe32f
12d805bb
1206fbf8
c80b0423
ed1af0e6
3a143015
0721255a
21091042
e901efcc
08e2e2cc
08131001
fb11e9d6
d8160e05
427f32e1
48d93822
cd1bf00b
eef3dd13
dce6f1e3
191b10fa
cde7090b
d0d4c8d2
f21bd4d9
e4e6240d
c6e7eee4
3503c6de
0ff201cf
0606cb29
fd1408f1
19ff2009
e2dc0501
d9f00200
09d60a05
08010dd7
f2ef1fec
d159d9d9
e9efdb0a
f1490727
1e2521ed
e60ae90e
f425112c
c5c9e619
c5dba6ab
fcc1f41e
df56f99d
eae4f1f8
0312e2d5
0915d106
d1db1706
de01f2e1
d14a23f1
17075f62
d1fe1113
1a231be9
c4254031
0f11f913
0c363fd6
d4eda704
f71acb9b
f5c501ec
fff3b2f6
ff0bf404
00d1d239
f7f20613
1a37f20e
deddf402
34296b33
08e2fa53
fe25f23f
241f1ced
d2f60c0a
e080d522
1bed8002
000026f6
ebbf1704
1b2be91a
201d10f7
1affebfc
0229f1ed
3b492b09
522f4f1f
d2f90e21
8f9fe1d8
1ba3cfbd
a823b78a
11f308af
e3d105f9
0fc8acea
e2fc0fe3
c7d2f7f3
09f5fdef
d9fe26c8
ce0feae5
0d0e0a19
eed1e7e0
f4d0c700
e8fec604
1df125f4
f31116e9
be060202
27d825e9
f81c4917
1b2608f7
fc04eb07
cbd6c801
0eb3b5ca
f6f822db
1d463232
152920f4
29060a42
beee0a04
ea25e505
25eafaf6
0011e8db
0805d3de
f33bfa1d
bf1415fb
fc14e8f2
d7c12cb6
4b1efa28
cdf6dce1
5c03dd80
0f020741
ffecfae0
e6ffeff5
e4e3f3e5
eaeb0826
6540245b
f3d0bc0b
e10528de
f21d1d2a
d1d3b8dd
e5d3dff3
4c46f5f1
03c2e42c
f7f7e2fb
ede1d8ee
e6f6dd0b
d80f1016
1ffa1a12
0cf416ca
2807fc11
e6c9ffe0
09f511d6
ce1a5323
ddd8f803
131833c6
f8f90301
cdef13ee
0fde24dc
10eedff1
e551092c
f7e12ded
03eacfda
addd0c0f
fe09131b
01e40a0a
f2d8fcfc
13ef0c18
ddfa1b09
08fcd4f1
dfd71303
b0f3eddb
ac80fbf3
d9b8d8c3
f11916fe
081e1824
d8ccf919
16d1d40d
0c0ceb25
0f121602
0e0b2419
dbeb0ff8
1bec05ec
240b212b
2cfd240f
14f2f223
fa09090a
f70d00f8
0e0000ee
fa0b04f0
01f9f50b
05ef0d03
f7ead6f4
fdff0dfe
12161006
fe0a00e6
ebfe03fa
d9ddf8dd
fa00103d
d9d2e000
0ef902f3
1bfc2200
f2171916
262b040f
fa0f1a16
0aea16fb
06e7dfe7
f514fcea
2af6ecfd
0b2519f1
1214ea00
eefc0802
e60b16e8
faf11f12
e2190ffe
eeea11d7
eee90fe2
e611f1fc
f9f012f6
051301f6
f507fa0f
f8f208fc
deece9e2
e612fcd3
faf31a08
0605e407
f7120818
fe0d1002
d4db06fd
fc0ce9df
1500f504
0012f6e5
1510e4f1
1426291b
0d1e1112
fa1ffffb
e8060c13
f40015f8
e8eeefed
161afe08
26161410
f309252d
f3f9f0e0
e1cbdbe1
0ae1f4f5
dd14071b
130af519
1916140a
05f3e718
22e9001a
11f6031c
f20600ed
f7d9d800
fc02ea06
0ae5ebf4
e4e40cff
ebdafac1
0d0e01fa
ddffe2e5
06eef4dc
efcfea0b
e9db0100
e204edee
f40916ea
02f3f7f8
ea031000
e21c0b01
e0f01cf6
17f9fb03
16140013
ed0af026
2409efe5
f21f1510
120befe0
15fd2403
eb130b0c
edfbf614
1bedef1b
fdee19f3
e5edf5fa
e2da02f1
e8e7d807
0e231bf9
dfe507ec
12fe020c
1007ff03
12f513f5
22e4fefc
f516fcf4
1105fd0a
f60903ed
14d4fde4
cf0de7df
0f230ce5
0903f1f3
0af20603
07dedee7
13030809
e1e9fdee
07e60af2
ef13f6fb
0fff0ce6
06f30316
f4fedef5
e4fcfde1
fac5d0eb
dfe0ddde
e803fae0
06e407f9
fff30f06
f8eae308
fbdaf2e9
f909f0e2
eae30ffc
e7efe7ed
0a08edfe
f10dd1d0
0ff910d9
edf9fa0d
1408fe10
f7ef0411
1b07f21e
f6fa0eec
fbe01a02
00f416f5
24002120
f9200602
16f02131
11150725
f307fe1d
00f208f4
fd02fd0c
ef11e9eb
e009e016
d5fef5e1
dcfc02e4
18dffde5
00fd15ed
0dff0a03
e809e6cd
f9fbffed
eb05e40d
e2f8e506
16ece70a
fd13f116
eadef5f2
f017f014
ecfcfb07
0b05e0e6
f00bfef0
0e05db02
040cffeb
0cd8e500
09e5dcf6
fa191804
0af8fd02
05ebe0fb
e90ddff9
e700e9e4
f8e0e21d
dbfaf2ff
d6fee7fb
dfe1f4d7
f5130315
e418e900
eef603ea
ffec160b
0306f11c
2802030b
fff9f50e
070ffc06
000e0619
f000181d
00f20307
e6fcf5f8
ebeb0900
11e1fcee
e7f0dbf6
ec13fefc
fcff0feb
d8dcef1b
dc20fa09
fae307ff
0cfdf806
ed0efa04
fbf1fbfd
e617f2d8
febb01e6
ffefe2f5
fb102000
e4041600
eb15e5f2
09f609f9
fefce411
fdf6fa0a
090dea20
e7f206fb
f5000f0e
15f9f307
fd10f104
05f0e9d0
141a00e9
09151706
06e41df0
fbd4d309
3fdefce3
021d2255
2327301b
061909ec
0a08f316
d3f1f926
0c08f9ee
ff16120e
f9f20705
f709f3f6
efe608ea
17ffe9e5
fd1309f3
fb0af7eb
06efe921
0d1215e4
00f1e1fd
ef1af4ea
f400e20d
0aefeef0
1a1af022
fde9f1f6
f7e8f902
ebe5080f
031608e9
fff91b2b
fe0a1aeb
00e816ed
e000ffcd
0100e4e0
f20005f7
03001107
362414f6
f412f2f0
ff1e07ee
080128f9
f312261e
ea15f915
14fcf8e6
f10f1ae8
f6eff0ea
14e812fa
01ebe7e8
e314efea
f6ed09ef
df07ef2a
f60a09f5
e70bfe00
1f0ae9f8
06261f20
114904fd
231c3819
11081f45
f61ff91f
00091de7
fd12faf9
f7f806f9
25eee50c
3920eef2
09000513
0a02f6ea
10ebf2f7
130819f9
f4fd042d
e507faf9
dfe503d8
f1f5e7f9
150dff0a
e0fdee08
ff0ad41b
14f7e3f2
faed0a0c
eef903f4
0808f5e3
d4fd0ef8
0600fedf
0711f70d
00e203fb
ee1eda06
0ff325fc
16f2120d
f20008f8
001ce9ef
04ff120f
0d05e125
010b0607
07080c12
0b000409
f5280013
fbf2fdfc
f107f107
0ee3110f
00f70510
ea09e5f4
080bf1f8
0ef8dded
14ddf4ee
09e8f1fb
15e40f1a
0012eb0b
e8e4fa0e
13f513fa
0608f603
00fbf5ea
0a140ee4
f0f70dec
eae9f2f8
f8051700
0b050df1
e8010d05
ee10f2dc
e0f2ef1c
cff7e3f7
f8ed1913
1503f2f8
f2d6f8f7
f8d0fe0b
f5f3e706
f3d7ec00
f701f4fa
e7e8f4f7
110df4ee
1b150205
daf814f2
e6e304f5
09070be8
0af10de5
15ebf1fd
0df901f9
0a05ebec
0e13f1ea
f5f0f7fc
10edea0d
e809e9df
f10cf10c
f4e507e8
070b13f6
f6091b22
be0de3e6
e5f2ebe9
fdd90b09
f320191a
010af00b
f50d0d0d
fffced22
f21800e5
e1fc180e
e2fb0d00
dcf6eef1
15061ee2
f01f20fb
06ecf31b
02f40503
0009e8fc
0500e80a
ef101614
fb00fbf0
e4f61ae7
0df1f101
14fbf3fb
f9ec00e4
0223edfc
34e706f4
0d161405
14081a13
e91539f8
e906de0c
fbf113f7
d9e500f7
09f30fff
0811f8ec
ea130be5
0516f4fd
dce60ae9
fbffe814
2d231d36
d7f6d60c
f0cc15d0
ff0dfdfa
eaf9f209
11faf301
e60d02f5
0403f003
fce400e1
0c06f405
090a08f2
05f40606
04f90e2b
f8f516eb
ff06e803
0026f603
0819ec13
10f50a00
03fdeaf5
1600f709
00fe19f2
f6021d27
07130619
e911fefc
f4081b0e
ff1811fa
fa10e406
ffeefbf9
e60ce9fd
f205f1d4
04060605
26fef1f6
16f70ef2
15f91f16
0c31f2f8
e7ebe604
09fb0fff
01fcfa17
020a0c00
1202eef9
101b07e7
fce9d4f4
06d5f5ef
0c1bf3f2
e210eae6
03ed12e9
e1050809
d5d41702
060100fe
0edd0a00
f2fde50e
0809f306
0701f8fd
00ed1700
fcfbfc0d
01f4e9f1
11fad3bb
e00a0ae9
f6deedd9
13e5f7f8
14f8eb00
fee7fe12
cee1e801
160803f6
0117fae6
04f70dee
f0def312
13e4ebf2
071bfbf8
f9060006
d2eefceb
ca04e7da
f5f4edea
ede60bfe
06ecf1f9
dbe6f400
0501efd7
fb000003
f10de5de
07e307da
16130fec
03fbeaf6
04e5e406
0e14eeff
1e231c15
09481124
01264a2e
f0f91ef1
ecdce412
10f9e701
f70705f6
f3e903f7
1ffa06f4
0819dae7
18010613
f0e72006
fcfaedec
f1f1f107
10fafcf5
f4ef00e5
fcebf8fc
f4eeeb0f
e2def401
0cf1e2fc
fb0512f0
ff0f05ea
f00406ea
f70d0cde
1714e7f1
0eded1ed
d90cc5d6
1a29f7e4
10f5020b
fff8e1eb
ecefd3e5
e2e5f300
f3e914e8
0ee6f0e4
0910e800
07ed0afd
0802fee8
01f51312
231f0019
0f0a1b25
ebedd817
f7f4cbde
e402f9e9
18161505
e7fbfcf9
08f9071f
eff2eb10
11fa09f5
e81af0fd
fb191311
e6f000f6
e2f0f600
0f091ffc
140d092a
0602f506
ec021704
f8f2fbfb
e60efa00
0ef9fbe8
e20dfbfc
07fc1e1a
dafc0afb
080be2df
ecf10a12
0af907e6
1ce1e31a
191000f4
f21d09ef
0f0df9f6
f815fbf6
10fd20ff
0a0bf6fd
00fceb05
fd0a0ef7
f5dbecf8
04f60e06
14f8e8f7
e6fddffb
e8fc010c
fa12f50d
f60ffdf6
0d02fb19
f3e10dff
eaffe90c
050e10f3
0211eb0b
ed0fea08
0802fdf5
0024f60f
e0ec0409
e0f2f2ee
08ec1cfc
fdf7e603
eee3ea02
1bfc11ff
1e02dded
dbfc00f5
0aea17e9
0f1506e9
ecffe103
15051cf5
001e00df
06fbf9f5
170321fd
010b1afa
0fe41706
db13e7f9
eee5e6e5
d6d60bd2
fffc1be8
07e8daf0
edf9030e
fde1ee04
14fdfbf0
0518e600
f524e6f1
e8fd2c1c
ea09e126
dcdb1ada
ecfb0005
da0a0911
04dae8de
06e91df6
1422e3da
e523f6e6
faf913f7
f906fa0d
200d26df
0fe8fd0b
def8ec04
ed0e09ec
21e6170e
0126eaf0
fa1def13
0410f50c
2412fae1
111820db
fd18e7e9
04090515
f3fc13f0
070af614
01eb0509
ff01e1e1
0afbf305
f7f5ebe9
eb15e8f9
d910f70b
e8f9ece9
0217ef10
eef0e6e1
1b0d16f1
e701e9df
17ff15f7
1dddf3e0
e826171d
10e9eae4
fefbdef8
f50812e7
04f30108
db0b190f
0a16ec07
fe011c06
e80d0017
072d1e21
e0ee0520
1dfe22f2
e5000ffe
dde6e5f8
df0dddfc
1d0d00d7
2027f2df
d6fc21e0
11df07f6
e404fa02
13ebe0f1
171cf6f1
f7d607f0
ecf507e3
ebf5fde0
06e60cef
d6e9edf3
e1dd1518
e912ec1e
dadd0606
fef3dcf1
14171213
eddbdbde
e516e40f
f4e7f000
e4f9f2ee
edf9e903
f5ef0119
0b18140c
1202160a
0ce40518
fb1de41a
0c1ee8fa
e31bf901
fcf3f807
0811051e
dfec10f9
fa141601
eee11afa
f2031314
fb1ffadd
e5ea0c0a
e10001e1
0609faf2
0609d6df
ebe1fd0d
f5fee3fe
e80de2e0
03080f09
1806e608
f41dec1f
1ce9100b
0a092514
dc130c04
12fbe40f
dddfe3f5
01f0091a
0ef71e15
1ce3f8e7
251af0ea
160afeef
1a14fae4
df13e709
f8e21df9
001ef909
04e7f5f9
1600f40c
1d14f709
0cfbe915
f009f303
e6f50606
ea03ff00
ec04f919
f4120c0d
ffe4eed9
f6f52105
1fe722f4
eafb22f7
e6f31706
e6f115f4
19f714e5
0bf3e8fe
edeafc06
0cfefcf7
22060300
e1dd1c01
def0f010
e8f208e1
19ed0df0
f3f20619
050902e6
01eee82a
f3f51d15
0afef719
100e130c
0bdd1ef4
0604f00a
1ada241b
fbf803fc
1019030c
fb24e604
e7e1f6fb
fc2014e4
f0e31e0f
e61f0eea
ebe3de0d
080b0814
21f20ef7
f7fbe81c
061202f8
e4e109f5
1ffbef0b
09e0f821
e313e5f9
dc0ffe0e
15d71ddb
04f6fade
faeee323
05fff517
09fe180a
05f205ed
fa0de314
04fefdfe
00ff00fb
1adf1b21
14eef21e
ecf50c0b
061018fc
1aebdcf1
0bf8e6e9
21e8140b
ecfe00f1
fde600fa
02ebfc1a
1010ffe8
02010ef0
e80220d7
06151be0
df08e311
edf0e40f
0205f60d
22e21a16
151623fe
0ef7f00a
eedfdced
0d1b1b20
000f021b
ee0b1e08
dc13e9f0
fdd80edf
07f71516
f6fd18e1
24070125
f00afef9
1319f4e3
07e600f0
200fdd16
16fe15d4
19051610
01f2e706
f703db0f
0814eafd
1e0e1704
fb012706
dfedeee2
20dc1bea
0e210c16
18e8e226
17f312ea
0f07f1e0
160df7ef
f2e7e8f4
0bfc00fd
e6fcf9f7
ed1801ec
15e8e510
e803f9dd
e61be90e
e3dd0409
f400ea17
e51f1f11
02faf4f2
0a0ce41a
f5ff24f3
0201e60a
e30afc01
0de307e2
1aea0b18
e120dc0e
fc0ce8f9
10e701fa
e8e10b04
f305030f
e206f3d9
e41a16e9
eb1add06
04f20dd8
f4e0da18
ede7e90b
12ffeb1c
23e9e817
08d70dfb
eb0e1704
dbfd01dd
ed0314eb
0508091b
1916191e
dd09eae9
071d0dea
e0ec1ffa
1be91518
0edc10f9
09df060b
efeb14f4
19dfe404
00170af1
14e20cf5
0d11fa14
0cfedff1
0b020a1c
0cf608f4
eae111f8
e521e817
eb001012
f0db0800
ecd9191e
eb2513eb
141b02fd
02feefe7
1108ff1d
f8190306
190bfef4
ece914e2
21fbed17
e8e2ee17
de1e211c
e501f8ec
f012e10d
190f0400
ed0efddf
eaf41cf7
15e40ddf
1ee7f0db
fc1ddde6
f7050100
f919fd0e
fdf818ef
1b0eeafe
ece4e6e8
16dfe518
1820e7f7
20f41bf9
e2f421fa
0dffeafc
f9e61923
e8e80cd8
12f0f41c
e911fc03
e01f0a09
25e1ea03
03e2f6e6
fcec02ff
fc15f1f6
e003e3e4
da1817f6
e5e309f5
e2fae3f7
fbddfaf3
db16e813
0bf9e1f7
fce5ebf0
19ff11fc
e51bf50c
fbedd8d7
f80204de
0a0ff9db
e6170cf7
f6e3fe1d
fc19f51c
19f1f6e6
151fee13
f8f0ecf0
11131512
d6fc00f1
fcfafcf6
1114001c
1ee80514
0d10fa22
17ff0a04
00e80a0f
1cf41ffd
120f12f6
ecf7e4e5
fe1ddf08
07f72306
16e8dff5
f6050608
15140cf1
de0bf005
f9da0ce8
0705f41b
dedb00fb
0d06f3f8
23081bf5
24f0f305
111defe3
09180b02
eee50cee
f8180cdc
03fa1be6
fef2ddea
00f1121f
f30007e8
fce6f618
fbeb1ee0
0f0ef50e
e5e7001f
050a0af8
0eded40d
eeecffd6
ee1b20ea
f90d1af7
f407180f
e8e7f1ea
f5f5f51b
13dd2526
2703e826
d5ed0a03
16e8d702
fdea1d12
221ade17
f2e123fc
ed0ef3f0
fc1600e7
05f6f620
0e060ae3
0008150a
07231c13
ee01141c
1f040610
fce7f6dd
2214e3e2
0403e3fc
00efea15
1a251ae0
0bfd1f12
0422e216
13f60214
dbec031d
f7e6e10b
e21907f4
0c00dc0f
1303041f
ecfadf02
1a11f1e1
2012f21d
10d7da25
f8d7d3e3
fbfc1afe
20e91b21
19060ef6
21e92012
f21c1ff5
eaef0ae9
1621ee0c
18eaddf1
1ff41221
e011fc0f
d9d5fae8
0c20ecfa
e8d313d7
e0f8e4f6
13240602
080df00b
00fd1a1d
0809f6fb
ed0a0b12
dd290718
18f51df3
06d90be4
1bf51bea
26fae0df
f9011feb
10d5dde9
18df000b
0a13e5f0
fbffe5e8
f9e7fdd9
0bf70aff
1a0a1516
e0faec16
e9dcfbf6
f1d5e6e4
fddb11f2
e91803db
0c08dee6
faf5200d
faea2c0e
f7f500e8
e2fbf4de
ddfefafd
03f7f9fb
f00cf3e4
d91aeaf2
0bf5efdc
f3ea07ee
f70f15f5
1d00f7f0
0124dede
0ee10205
efd80c1c
1df3e120
030514f6
11d714fb
13e60e04
f5120dec
f1100b11
e32419e7
f2fadf08
f9f717da
e0202006
f8151f15
24f6e20f
01f0e714
f41ae21f
04f91b21
171e1c16
f0e9ee0c
e1f1e1ec
17ffefe1
1d150fee
10fbe017
d61deee6
0af8ead1
0efef3df
24df1a12
1b1cf824
ff08ebf7
14f8ffd7
160f1500
e31a03e0
2921f613
06140527
f3fe11f5
fafb06df
e421ec22
fc21fa14
f7ec06f0
1f00e2e8
f21afef9
06d908e7
fade00f7
e113f1e5
e5de1800
fb051fe5
111e1f05
fa100023
e9140824
131714f3
f8ea13f5
fff4d8e1
d80ff40a
220001f8
eb07f7f6
1310f312
f318ffdb
08d607ec
fa29eaf6
1fe4fbe8
f1dae01a
deeeff08
0ff71b21
fa07e5ec
1d0bf90e
030112e4
e9eaff1d
0de1ed19
0edadcea
0212f301
09efeef1
ebe322ff
0be51700
f8e80404
1800eadc
0a0501f9
edff0c04
ef0feedc
e121dd05
fbf4261a
eee2fc12
e40ef027
1fe0eb00
f7071413
fd00e200
2513eef7
ebe40df3
f10bf701
13031111
fe0ae907
f6ff1206
e8221d00
e410000f
08f7e0b2
f421fc0b
fcf9eef3
d8f806ec
fe04ed07
0dfdf21f
09030fea
e0e7e407
ed05f6f0
0f090209
f7d2f6e3
e009c2f2
f8e1f8f9
0016f6f7
f102fa0b
03fb0cfe
072d04f2
ec11dbf3
0af20bda
16150ff1
f2f0dede
de0beaf0
f9130809
ffd8e0ea
0d0dd5fe
ef08e10d
ecf81cf7
161ffc0c
29fe211e
16fffce9
38041c24
0eb60103
fa0c11f4
eb01f81c
09f412ee
1df9ecf5
e8f80afd
e80d09f7
f5050206
0914e4cf
f3d2e4fa
f41e00fb
dff2f825
00dd0de3
1d090001
02f0fb19
1d27fff9
08181c0a
00f80b00
05fdfa00
09062310
e31123f6
1400fe0e
fff7f917
060c190f
13f9ee08
0912fd01
daf9f835
efafc4fc
f9fd040a
120b0801
f8eee6f8
f90d0a0f
372d0000
23371b08
ef02f9ee
03f4f102
f7f9fcfc
160cff06
02eb1a00
e4100417
e5fd2304
f1e704d7
0716f6f9
ed060416
fa0ef6e3
160508ea
20ff1907
db0c0d09
11f8fe13
0e03fd1a
d1f2f2ea
ec3201f7
f2f528d8
eef9fb09
0bef0e15
0a02fe09
f8f60f43
00e41701
08f6e603
faf6052f
ff15d91c
121fd6e8
3503f61a
f9fb1510
06fb01f0
fe000d2f
0f14f400
f606ffe6
fe1403f7
0ff91c22
0b020917
10f2f517
1e1b0a08
090af2f8
ebedf60e
1cff0008
1600f70e
0aed24ed
eef1ed08
04eb09fb
ebf20821
04efeb05
fb1604fd
0d160bfe
d4d5cbf4
f6091737
02d8f7b6
030703d6
04f71116
fd00012c
00070b14
cb1b07ff
fd14e7b8
0d030f02
fff206fd
1915fa0d
08f6f40f
02000008
f6f70918
e1e6f804
f40a0911
1e16000f
0b00f61a
ece60305
06100bed
fce2fc12
f60a02f5
230f070f
00f4000b
fd050b00
17fae9e5
1002e713
200010fd
09f00f1e
f0f40ef4
e8eafa03
f40adddb
e9031b06
fd030208
f6fa0103
f9ea0c0d
0fe5f6ff
09fff1f8
dbdee2ec
fb061bf3
0e00fcf3
151a14f4
23ffd8dc
fdfffbef
0a0704fe
12041b0e
f105061f
fe0300f8
10100fff
07fff310
f7ffeff9
04ef18ed
0ef806f9
f8f80bfa
0802e7ee
e7081b04
e8f9e3fe
0c000f0a
d4e911ae
f018f519
fc05e501
fe1cec12
ee0deb00
edf101e1
f90d110a
fdf8edf9
1700081c
d30ff303
1adf27f5
02fa07ea
0d0ff509
182407e9
fdf3e2f8
f9020ff1
e0eb0607
10e7dc0e
0cf70302
fd0e08f9
1de80e16
01fae214
012b000f
00190217
f3fcf2f8
ece200fb
09f5d7ee
7f321e14
0efbfe11
d528260c
f6f70802
ebe9f40a
f1f7ffed
19ef1213
040deef2
d1f5e80a
d8cfeccc
0906120e
e300060a
1bfaf5ea
f7e20311
f7e9e7f6
c9f6f5f4
01f4ecf6
01092118
ecf3ff03
f5f7fce8
e9fb3714
aafcf9c6
1b181ddc
12f3f5f7
1f0e1105
001f270d
170b0100
d107111e
d8d9ceff
f2030a10
f5f51602
fd332907
00191806
0508fbe2
fb3704ec
09f005ec
0dfdf115
08effdf8
efef02f8
f4e60eec
1a1700fd
24e2ec06
ffe80802
f3ff01f1
ff1c251b
06defddc
21151c08
0a142b22
0ffefde7
fd1e1e1d
f4f4f4f3
030f0cd4
e5f1fa0c
110a0905
f8ddf3f3
f20d06f0
fcedfb14
230b0410
12070b20
eb1ff10c
1226eede
072108fc
0ffc1802
eadfedfb
e6f8eafa
08f500fb
e3f10c06
ed0108f9
0f1e1a15
08f5060d
e9e4fb0d
efffcbe4
f5fdf904
e00f03fe
22fd0f13
effbfeff
f0030400
03000711
bce206ed
fdf706fe
e901071e
0007fde6
111817fa
fcfb01f6
f401091c
0cfe120f
120dfc06
091ff735
00111012
20221101
3a1e2107
01fe060f
fa00f7e3
f4041ff8
ee11ee0f
ee060aff
1f140cd8
f210fb11
fce6c4ff
2913fb42
f0b9e204
faf10bee
07050fed
1f13020c
e214fcf6
dcf51bfc
070806e3
ef141719
f400f71f
f8e6f502
00132319
fefa17fe
012817ff
faf816f5
1808f7e1
1ffb0122
0afaff15
eaedfe09
f6ebf300
1400f4fa
faf5f803
27261613
f50de6fe
0ffaf3cf
0e07f8e4
fef4ef14
fd08fcf8
0a04eef9
edeefbf3
fe26100c
f3f7f323
ea041021
06000e09
00fdf9f0
1ff6f6f8
0dfd1307
fe150209
f10812fa
000508df
0707041e
f4fbfeff
e3eb0704
edeafc06
1716fe03
28fdf80e
f8f31714
020c0e0b
02f4fc02
19fdff16
f6ea090f
05f800fd
090013f8
f2f8fcf2
e8fffaff
f605eeee
041f120a
c8e2093f
0afdfcdd
00fefcfc
ee0c0c0f
f401f903
03ece90c
11f72217
13e5e3f0
15fb03e1
e70809f5
170f1900
fff0cccb
f011fb0f
1b290605
ee02fb0f
3c211507
f1f5f215
01093d2c
e6e70801
ee0b13e8
0204fef2
edea0000
0e0afaf8
be120efa
eedff0cd
07fb0c02
00f3fcf3
020004e7
09e9f5fb
da0bfc06
c6d9fbf8
f4fd05ee
11f611f8
00fbfdf9
19031209
f7170100
f90dfce4
f9100620
0000ecfb
f5f2f9ff
0e0e0501
1b0b4b26
14050f17
03fbe2fb
f4f2fd05
e3f100fd
ead9e9ed
ebdef609
c30b04f3
1d2609fb
f6193431
e7fdf603
f8d9ffe1
00eff6f7
fcecfc06
0412f409
030e0700
0a170809
1528111d
110e0c1a
09fc00f0
0dfffa0f
00e6daea
0cfaf513
f8b5f600
13f70400
02fc1c04
fc3d01db
fa101b0b
0ef6faf7
15040d0d
04050d14
08f80010
fd0121ff
eaf0f107
f70fe8de
0e1b1103
e8270f05
fe0de607
09150302
fafddf0c
170ae611
011e14fe
13fe09f6
ecfb170c
f105e5f6
e8ee11f9
fbfe09d5
00bddcec
e4ed04e7
07fb13f3
d6e0da11
00fb3af5
00210f10
f51a0711
09f8ec04
d8faf5e0
f10109fd
ed170b0c
453111e9
05fded2a
0a15ef1a
5d40f71e
fafb261a
17d895d2
0c0f11fd
ffecfbfb
100416f0
06edf322
142e22f6
f2dcdfe0
fbe9000e
10ff0c03
0201f019
390bf844
f692c505
15f60bfe
cae32618
f81d050c
e3e1f90a
160dfcd5
f027f106
fefbddf0
4622fa00
c080891e
e608f9f6
1109e80c
edfd1201
05ebf701
070a0802
edddf4f8
16f80f12
36030832
1700f105
1afff7e7
e7f5f900
02612c0e
e4f21001
d8eef493
fd10fbec
f60cf7ee
0e161007
02130e12
0e030b01
ee1703fa
11f4f4fe
07df1b0d
00e6160b
0b0210fc
e30507fc
2307e7e4
eeeadff0
f2e7fc0d
210d0609
160a160d
1227faf8
fb0b1ffd
e4ddecf9
06f4ffe1
e1011cfb
e4d8e81d
fd08080b
0c1dffe0
130f0c17
12f6f3fb
fffc10f9
e7e90412
0aedf601
0c0d1420
f2f9faeb
02f1f3dd
f1e306e1
0df913cd
0fff0c0c
04110f13
0b25f0f3
02fcf90b
fa160713
f912fcf1
e4eee0e4
0717f9e2
fa00f017
e7df0de6
21100014
fd00f913
0a11fed7
f30b04f3
11021609
e1f1fd15
1d0c02dd
1011f106
ebfefe0e
fd00050d
efd8f1f8
0dfa1015
0afe1315
f9f707f8
f60ce3fa
edef12f4
13fa0f02
0af9d6e8
e80a160e
0d3de408
e5fdfe12
0cf804f4
fc00fc1e
fbf8ebea
fdf2f901
220409fc
02f0eb06
e7f30df1
fcee0d15
01f505fb
1d05fb13
ef040114
14f4ebdb
1116251e
efdc1df5
f4e2e229
00091efa
141e06f7
03f2f6f7
08f70c1b
000f28fa
220a002d
2bef002d
fafd0709
f400171d
020df2f3
f0390515
f6cbf311
16fa06e8
08130b0a
ee143f05
1fe9f7ff
190f11f4
16ec89d1
ece6067f
f810e406
08022301
cede1122
e66e00cb
08fd04f5
ef0d0e0c
00f30117
ffe9ff21
00e8090c
d4d0ed00
fd000c03
36070017
e741e8f4
ea04def0
0009fcf3
181e15ed
00ff0c05
0f1a1104
ff1f0814
24e6e0dc
4c42e7d8
e511e40b
0ae8f505
05ced503
101e12b8
0a111313
050d04fe
02f7170e
1f0400f1
031b201b
0cf40204
0ff31ef9
e3c50163
f2f41af4
e107e5fc
e4fc0a02
fdfcfa13
0af31300
2debe8f7
f3f3f812
05f8e124
0c2313e0
17f8f420
fd112bfb
04e50200
fcccd401
eefce6f3
0b0af4e2
fc5206fb
fcf117fd
bc030b02
f80d02e0
f9e307ec
0e141f12
f21d0302
0511e91c
f3f70deb
effa0007
f9fd2b26
4718bae0
170d1615
d3e1ba00
ecdae7d7
2d0e22ea
00fbb807
10fe0515
1e090d0d
e1faef00
6f14ed8e
f9fcf50f
2407fd06
04071930
0b37f0e7
f40440db
eb01effc
1e30ec11
d903fbff
5f1cfac2
f0d60f02
090000ee
0617e601
06f4f11c
03eaf9fc
e0ea22f0
fdfa2d1f
efe112f6
0000f80d
f30414f0
1a0606f1
0efbed1a
15faff11
0beedbfe
f7e5fa0d
27f7f6f6
07f3feff
ed1319f9
e8a8cdf3
d5147f18
f40cf313
05e0f2fa
04f0260a
d3f3f3fb
cb0316f2
ec05fa00
6b5ae0cb
fb1ceb2a
e8db1909
ed0f0b2f
f1cc01e7
fd0d564a
ff0005ec
ff1cfafd
e0fb0801
ddef03f5
fc0507f9
03f604f2
06fc1102
ebedf5fc
1b0a0317
faec2a27
14242c05
fc0b03f0
010af5ed
09d60bf4
11e9d1d8
f30b0b3b
e9e5faf1
27f10002
04140300
0d11000e
f31611ef
2cfd05ed
1a130108
f901071a
02f40cf5
d7bff408
070d6b0a
00f1f505
ed42e2f6
2ceaa11e
d2f02d4d
0a1917ea
c81c06ef
140bd1a2
d3eaf11a
05124828
ce031bf1
eddef30e
f317051a
070e02ed
000d0507
f7121706
f7f818ff
3012fe12
f5ec9ae0
141cf8eb
17d3f61c
ff01121c
e9f426f4
f806fd0a
f306eaf4
ef0ffdfb
f6e81afb
13f502f4
eae909f6
2a35fcee
f20215ee
0601f3fa
fcf9edf3
1d03e8fd
e5e8e01e
ff1a07ee
3900f00d
03291d25
08d6ee1d
18140109
0810f4ea
e9f60009
0bf2f102
0001f0fd
faf8f004
f7f9f8ea
a5ff14fb
e4f8ecb0
32d4e600
d0e51862
170e0900
e900f209
e600f9f2
dbeeea0e
0aee5420
311ceeed
00140338
1d040d15
eb180df9
12f81bf9
0013e705
141f06f6
b88dc715
fb2f6245
ff14f616
070010ef
00ecc5eb
f2dd1933
e9e4fbe9
17f30fe7
0f000900
ef122500
0c0724ff
0803ddf3
eaf3f9df
f2f5dbed
49f1d5e9
1717f40d
d5d6e7f5
0101dbd4
ecda0afa
f80b180f
ea0b062b
11fe0d0c
04f4d7f8
f600edff
0b0afdea
fad2f6f6
fd10123a
271603ef
f10abff2
d721e3fa
1f3207e9
f118f213
1ef4fcd7
10ebcc01
12f91910
1615fb0e
21e809f8
08f50d1a
fb27e8f6
250afd16
0ffdfbfb
ef061401
1401fe06
faf1fef8
01ea06e4
fad4eaf7
05f71a0e
f5f11d1b
f1c0e1ec
e80d01e7
3fefedf8
02c902f4
fff5d900
1f1ff204
0032191f
faecfcd5
0be8d901
edf914ed
ddd3191d
05e8ebe8
1728080e
f30bf90e
fa170ef8
06331ada
0409041b
14f7ea19
fd1ff7e3
00f40209
0df1e9d0
181a11fc
e3f2cbfd
0e00d494
fd09150f
15ebf2fe
d1db0919
f0f8def4
e711f202
f2e20b09
081614f5
2902e7fe
22122c32
e0cbf200
111b4114
fb0902f1
0624faf6
10fd220a
1726ff08
1c25170b
faf20413
fd14fbf2
0a221cf9
ed080bf8
1bedfefc
f725ff13
fffb0614
2ce4f800
f2fcec11
da180008
f2ff1936
070204e9
0803150a
fff8f812
1d161a0b
f20e08fa
0408f5ef
060809fa
02e6d3fd
08001860
fff3fb03
0e1c0a17
ee01180c
f107000e
fb0e0314
dffff1e5
e70003db
f0262127
0df5ddbe
f7fb200b
f0041914
fa0d13e3
1c0004ec
d4111823
25e20c0f
13f5f4cd
0502efee
141c1ae9
eb020cfa
ec010ad7
ebe2ebe0
2308fb07
eef90d00
faeaf600
0c0b08fd
2809d1cf
0ceee90d
06edf9f2
0012f712
21211e03
2217fdfe
10eff20a
0ded04f3
0ffc29f6
f5f909ed
f615030d
f5fefb0a
0feef9f8
f704f611
e51be4e3
0509f11e
4620bece
0e19e9cc
23dfa4d5
e2110015
d9ca0007
100033ff
cef2f717
0209d90e
032a020e
1ced04d1
ff00030c
ef02fe18
00f70af3
2009ec06
16f5f4fb
f024080c
070e2711
161f1821
0f040bdf
051503f8
f4f6dadd
300bdfec
18352b25
0df71619
15f609ee
edd6ea13
e3f21810
4ff9e7f7
0bfddff9
e3f7edf9
eaf904e8
fdebd8fd
fafd1add
f71a0d27
1413ff18
0f08ed17
1726f5cd
21ff0025
291fff08
0a052610
0cef0202
18ea91c6
f5110ae9
f004f0e8
fc080009
0a0411e4
1728feff
1102edf2
13ff1650
0b1d13f3
f2fcf6e0
0002040d
efebfd15
200bf409
180e0c26
dee6ff1a
d0073917
11f2eb8e
fe100bf7
1c0302e4
d20e2115
f80f02f3
09e1efe4
11f3ffe9
0002fffc
13c6ebe8
0a060213
d5d709ff
0308741c
ddff0000
1bf9100a
0904f9fa
e9faf607
120cf2f2
fafa020f
2521080a
cf80fc06
f71d7fee
03f412f4
14351103
00eb0f00
0ef81311
11370d15
f3e4b1fb
19f5ec14
c4ddd9fb
fae663fa
03ff0e0f
151f0f18
190203f5
8caef5f2
00dcdcce
06090807
be0ff029
da8eb6e5
f6fd11f3
f0f0f7ec
e9f91313
0e09fdee
2ef712e5
1a2f0200
f21311f7
1aee1bfa
111600fc
ffece4f4
ccd200f3
f541f9e4
ecf6edfd
23c8f60f
f7efe4eb
ddec0bfd
07ecda06
e0c5dfdd
011e190b
9bc716f3
01fa0f0f
faf8f312
e50f1202
eaf0e819
fcf8fbf9
0d04100b
181b0004
17f2141d
cce2f102
122bf2e5
0c1600da
9bba2c52
e0e5f1c0
d9e3ebda
fd18ff1a
fa011efe
040f10ef
0cee0f00
f6f0de04
e7f5ea26
fc0403fd
080b0120
fef0dad2
0c131115
0deb0100
da200024
d3f007e4
0605420f
eef60df3
f60ef406
01e7f906
fd18d41d
1620f702
f1dc0104
fe112323
ff0704dd
06f4de01
19f60303
f2f704fa
0d0a2300
fdf109f0
02140510
f4d2f0f7
03e50ff5
261d0131
ff481de6
f5071ffd
2cfdf823
0df7080d
f219ec18
f61b1e05
09f11011
0904f208
0102f7ff
e01921ee
0029220b
50eed8de
0f01d5ea
02f3fdf9
07d8e7fb
ef17fc01
ffe401d1
ee0510fa
090aff00
de10f712
1d17f3c4
f1fbf312
09180cfd
14f3fc0d
e3f1f416
21040af6
f5f8170b
e5160716
18f0fbfb
03f112f0
00fbf216
13fdf5fc
e9180003
e2d838e8
30141b27
fb28061e
184d120d
08eeec03
00fa06f4
040f13fb
14ecfb11
0d000c1a
11f818f0
f613eefc
1bf6fd13
13170613
efe6f338
09051c22
251605e6
f1ff2bbb
dfe71b26
044805f1
eadd3912
cac605e7
230e0efd
e9fbc3d9
0c07d5c6
12220ff7
0ad5e305
4cf314ed
f1d5ea09
1508fdf8
12fff404
0bed2706
d5b2938b
9387d40d
f319cfaf
0ae5ccf8
9cd32b2f
c8f9e4cf
dbf3dc04
f8e1dfe1
fdf6e43c
130011ed
c8fcd4c1
15ecc8dd
071dfecf
786510e2
45527f71
0d364838
0ce4ea00
bdb1b5c6
0adce617
ebea0802
0dc5d409
04000a09
f5171dfd
1608f8dc
1210f31d
d01107bc
fe00dc05
e7374b10
1212fec4
88a7a1fe
f2c793c9
0a12ff00
230ef004
f10cf6fc
da07fff6
00030df9
3e5a2e69
09263200
fffe0805
14d0f5ce
e6f60019
1c0afbe9
e524f31c
f63ad713
1e1c04e7
e4f1e9d7
d4dad415
10151510
d9fdc3c2
426cf4f3
22572d24
90142c06
aec5b180
ac93b8b7
19f40822
2efce42c
23dff609
d109500e
17011fe7
00e8091a
1fdcf104
f9e9000d
181606d1
20f840e3
12153450
ffd91b18
e4ebeafb
032bc3e7
2e071703
d4d4ea26
011edf22
1cfd15d6
08260e20
0d0d27df
ef22f107
dc0922eb
0d10ccce
fcf3e718
1eece3e9
3a1c0024
1c3f1b1c
155c2957
1d5b1cf4
48495f1b
de020133
1523fbf3
eb1e20e8
c4420a21
f3e40dce
dff7f7f9
dcd2ecf1
e7d8e8f4
03fbeee3
37d1ea17
fde92a12
f0f2ef04
f81d0f26
19041232
110f0bf7
25485d4d
eb2c2819
dc144548
2bf50c2e
d4b31325
f07554b9
10161505
53141b1e
1dfd2621
4b28283e
0ddc314a
34fa4b0c
3505030d
7f271429
1b7f2edc
26044f0b
f83f5522
fefefb3c
00252c14
fce70211
2024e00b
fe00f7ff
f7faf7e5
e7161709
e3151e0a
4c24f9e6
cd08e343
19fbebea
e71df1f9
e400161b
4723addf
d6cd4c50
d8e024da
ec2219ec
f7fdf221
f2e2311e
000b31ff
1a10f57c
c9cddef4
fcf2daf3
ee001626
f2320bfd
a3eb18fa
0000b5d9
cd0f01ed
25d713ed
1a15f243
163e3014
291fe7fb
0813f03a
041127ea
ef1aed14
f6000f1f
07f6dfff
1d16e820
ff040b0c
181ce320
18fc04e9
e313f004
eb150101
23e01427
f40cf642
0ced0615
2526102d
5324161f
2612f101
dbdbe709
ecdde2f1
12061427
01feeb0d
c00ee60c
f9d7f403
0105e1ee
1506f1ed
030c17ff
00f8e736
2ce029d8
212dfa02
5efd0e33
fff93b24
f5bbf2d1
c1101ffa
ba04f8f6
1a21f8fb
e6f729eb
eb29eff0
0797c21c
db0af1c9
e3e22339
0be41ace
fa741812
32163801
1c20233c
01ffda07
52e9e0fd
04501dfe
2edbfee2
f2e8ff02
f0db0d10
06e7f3f0
ece42213
f502daff
1aeb13df
06ecdef4
041cf2ea
1fe6dde6
d9efd40d
e60a02f9
a71127dc
dbdeb9fc
0d746bd7
4ff0175e
c2bb1b2b
f8b6acc5
25dbe2d0
f9c80dda
08fc0503
f13208f1
03d023f4
242d21ec
1a0442fc
55e7dffe
064f1003
200b2813
3219f217
36160524
fbd303eb
1cdf10d9
ebd9d434
1b220bfa
eeeeebd1
f7eaf7e5
12e4dd34
ca17ff0d
fdef14e5
2a332d0c
3c07543d
d6b8a716
e10d00f3
fc2c0303
e728db00
cff6fa0c
e203151b
cdda9002
f1162125
f11902f2
123c3ffc
091022f7
d93efce2
efeffa24
29f419f0
31e6d31b
fae5e6e8
60ee7324
28192b7f
b9ddbaf1
e6b500fa
1a20d4e0
ea1d10f9
d802181a
e801f4eb
c5d9c6e3
f927170e
4828034b
f2e3e015
171215cc
17e600fd
d70dee1d
0ce0f11e
102cff07
f514fe15
e4153333
f915fdcf
190ffbfa
0cc7f7d2
ff31f0ec
304a17f2
e20b1230
de13e1ea
fcd1f3f9
11a7e3fe
04fffde3
0e22e8f6
20174c15
e3d4133e
2a19211e
b64b6645
04d9e180
d8f200e5
1508dcde
f90ef7f1
00fc1adf
120b11f6
131c11e1
dedfe5ea
28ddf1bd
f922e8cb
dffc110a
10c81706
01dcdaf9
493e0200
001132f3
4907dce1
1a252d0b
03281245
041902e2
dff71f20
ccfed5c3
13cb0516
eeb0d5f5
bea38087
eaf6df87
e320f425
0c182129
1613dd00
f91ffd06
fbe4cff1
070c04d7
1b110800
2bfa3f14
1924f358
0c14171e
0906031c
cd09ee2b
e7b9d6f4
f1df04ff
03d7f1d1
04eff5e9
0f0f0718
5058ef2d
f51af222
1d252824
f5320dfc
0710090c
ff1a0325
3c2bf029
00e1e2ff
c2e7babc
110f01f6
e7eff905
20ffdad1
0603150c
0315eb26
37cd090b
e200e1cb
12e51af7
f0ea0208
122ffac8
2d062604
fff7d707
d0ff0ef5
e8f3ed1c
19e4dee2
1f250ad7
e1d4ea0b
391af622
fddf00fb
0a1ef1d1
f41ce80d
e8ff0021
ff19fd0a
2308f820
f0f71c05
0304e11e
f53043f5
04dc0de1
f3f3ead7
cff718fe
e1d8e4ae
eb22fe14
e60de2e7
02f40ad6
591f0e1c
08344c40
d1f81d21
0bfe20e3
c7190ce5
0d05f8be
befe1d1c
beadfdf3
f8dce7f8
3e0e3bf4
e8c30014
d6bfe4e3
dbdd2309
d107f601
3909f4de
d4edf306
d8e9ba19
e63a1cc3
03e51b24
ee14fe00
040607e3
ce00a4fc
18dcd8e0
43182b44
222b2211
d1da00f9
faf6e7e3
eaefe6f4
daf90719
e7f8ff05
c7d704e7
0a05ea1b
09effd3e
0301ee33
d1011ee3
e6dcffd9
edc0332c
f7d5aa0e
a0ba05ca
1efa04cb
b90500eb
cce4f8f3
00aaf1ee
211ee4e1
19fa1ee7
430c30f4
19fafbfd
11ee261f
487746f7
d73c5455
001416e9
d50f01ca
2adef21f
3f252206
f924261b
052ff9f9
d39c0be6
dfdfdddf
c5c614f5
b0d0e5d5
0e19e3e9
fc1e1e05
e40e1a15
ff140bd8
43fa0004
03ff283b
f6eee5f5
2e41f933
d0170521
e5041be9
dace28f9
0f07fa00
dc15c40f
f7f4ddf2
250aebd4
e4020c33
20f7e2f1
0e26f2ec
21c9d7f9
daf6d2e7
c315f9df
d91e0b17
f71916f7
29eb031f
d3321829
28061c2f
00ff243f
e902edeb
b6f180c8
e1fbf780
0df0d5ee
03f2ab00
c615fac7
9c80dbd6
eddac3e9
011ffbe5
14120ffd
01f80ef6
29ea03e0
032d3001
0f3b16f8
ff2bd8ee
140f1b12
f90df326
54e2f600
df02c4e7
c213bf1f
be0c16e7
0f06f0fb
3bf6cafe
e503f7ed
0ef9fa0e
16d811cd
0aebf610
dc03f2e9
ddfdfcf3
2733fae0
fc404824
36e3f3f9
e90a2824
fa1b1519
db242819
e7eb15d6
09d508fd
1707f9f5
e8f00f15
ffddec09
f01003d9
1e3df300
efeefb0f
f7f7eed8
0bfe3724
fa060b15
f3ece7fc
20e6f8d9
f9f21cd8
dffce6fc
1e060421
0d1415f3
55edf6f5
612a1151
4c36443b
aff0a992
e106dd8f
ef171918
f41edef4
f9fcf406
f3240e29
ec27070f
cbbae1f4
3e0517eb
d3dbf608
babceafb
edc7d6da
dbf3d8f9
1b0eb3ea
0ef8040f
e709d4fd
1929e70f
272f06ef
f10feadd
e1e5f4e8
bbcff2e9
c9cbace3
16c7eabc
d3f2b8c4
04d7c7d9
08e0eb1d
0cd9e6e1
0f03d4fe
d510e3d4
033c05f1
fbf81f1b
31dcef18
04670137
d6073906
1a00ede3
1c05fd18
0b122912
dae602ea
25f015f9
d8d30be3
d112f0e3
2a1fdbe5
43efefeb
fd29034f
002403e4
e61ff714
fdeaf4e8
c6fccc19
1bdcf6f2
cb27ef0e
e5daf603
00031219
022b0611
0bf01012
1d061524
0a222b1b
0ee60707
ec0ee00b
feed18f3
f400132e
e201fff1
14160fe6
fdfae6e4
f70edc2a
f8121e07
fff9f71b
e217cff0
f40923d5
e8e4e2e0
10f0f01d
e0e600e5
f4ffe0fe
0c1a0519
08160bee
1ceae30d
1e021a15
fcdb0f1c
ecf4e40c
11fa0d09
0ae4141a
070227f2
fef2ec0b
e4f3f8f2
062d0515
051ef71e
ecf7f904
0e051323
fbfe0e0f
f809ed18
e00e0c08
e9eb28f6
e007efff
111a1bf0
d4e6f5e3
1c151fe4
08f1ec0f
20ed111a
022f160d
e91b2315
e0dcf00f
e80e0ff0
19122c09
11150832
01e6270b
f2f7ec08
110420db
f706fb08
f8c410db
fdeee00a
10eb0e1b
0c0e2fe0
03241124
0800f51e
0f03e7d2
ef08f8f5
d2fc2df5
21f8e025
1d151b11
17f3f62c
0df8e71a
ee11dcda
05f418e4
0ce9e8f1
1adee4ea
0e151be3
13ff0418
ee040af5
e1e720e8
f918fbda
2e2fe71f
000533fe
22e6be2d
1d0ee1fa
091cf916
f2fa02ec
ea1a0ce9
09f80b1f
3913f914
e20800e8
f2cd090b
f4ed04f7
e2f0dee7
f9eaffe6
fddcf1f9
00001710
00032df4
01e60c06
0209dc17
eee5f7dc
f9150909
13ef04fd
fbf2fc1c
eef8f2e3
1bf3e1fa
12f00be6
f2f91d1d
160806f3
fff8fcf0
11f5ef13
060d0401
f20b011c
fcec1cfc
f6d8daf0
ff00e1ea
13f9db00
00f702f6
efe6190e
e901e0ff
0108fafb
10da06f6
0000e225
f718d80c
10fbefdc
08f20a02
fb2302f2
47e206ff
1522e506
df09e8da
f1ebe3ff
0211edf2
f7ffebfa
f5201419
0cf914f7
00ff00f8
0deffaf6
170b0603
0be6e705
e8e915e5
00fc100c
0301f6fd
f4ed1719
ee080506
fd0d0bd9
1ef50a02
0d11fafe
f2f3e7ee
f118f315
0310fc0b
1d0ff3f3
f51e02f3
13e205fa
0810fde4
feed00e3
2108cb26
f71805e9
00f1010c
fff0e52b
c00df3e7
06001e0d
fbfa0f04
0d0a16f4
dcef001a
0b120910
0114f91c
0c1a0de6
fe150c0e
07ee1ef9
22f1030b
fe12ec03
0905e30b
f1f3fc0d
14eee107
081308ce
03dce3eb
e0f6e4ef
0ef315eb
15efe5e5
16fc0dec
13f911ea
f003fce4
141fecff
e606f50b
07eee005
e402fadd
0c160f06
1508f401
030bdbec
0105e0e3
230b04eb
f7eef5fb
04f1fa08
fe0b1215
eee60510
edea0bdf
fef9151a
f1ed0424
02f1e5db
e11df300
0c06f610
daeefdf4
01f10ded
e3fa0109
dfd6b7d9
0af900fa
15f203fa
e1df00ec
1d0b1617
0216daf9
d4eee202
eed53623
08fff423
08fe2528
1d041214
1613f5ea
091109e9
fefc1216
200101ed
eaeb0700
dd08fce4
ecfce4f7
d1e811f7
01cfeefc
1ff31514
19010712
0012f6f9
f1d1dc27
d3f306f7
20f4161c
f42b0608
f112dbf3
11fed60b
0601f41b
ed01f5cc
d7e20b0b
e2e8edd8
f41e0b1b
e7e826bc
1b13e421
f500eee8
f214f4f1
24e0edee
04fce1f5
f61b09ee
fc2321f1
11270c1c
e80dfe17
eff9fbe2
0dfae512
140607f2
eae2e112
ed06e511
0a010ef5
2701f9f9
f5ef00fe
09f90423
04f5d209
fde0f911
fb0ef2fd
0801f802
20fe1e26
0b14d3f4
f8091cec
081901f7
feecf70e
e30fe80a
020500f3
f3f708ef
25fa0713
e81efa06
edf402ef
01cde615
102ce210
fc1829ef
10f1f8fb
f3e304cf
e7fff8f3
10ff070b
10f4111c
2ce0f222
0dfbdd14
e91f1e0f
ee0deeea
1d0c1114
031b00df
04fef314
0fe3fb22
29ffddfc
13ed03e4
f60c1cf9
fc080821
d8f104e2
02f5e718
faf8f500
f9edf007
09f7f7f0
1100ffde
f3def8fa
fae10921
dfff06f3
fad3f2c6
0de7fd1a
f41af81b
1600f414
00081311
e6e409e9
0ff2eb00
eceb0e1c
ee13f4f3
f907230b
28f404ff
1c26fa1e
0df50bf8
fb1ef6e3
05f73309
ed00011e
e5edee12
f3db0ae1
01f20f05
e2ffedfb
11132616
e9e60502
fa1707fc
f0f3ee1b
1009fe03
f8eae80b
eee3fb0d
faf40a0e
e5e8e607
eae0ee05
19070c0b
210e03f6
df20fdf9
020d2303
fe171604
ec1b2602
07eb1c29
1603f1f0
f90fd8ec
ddde03bb
0cfe12ff
e9f3e611
dfefda0a
16efe905
22fdfafb
0f1ae50e
0010ee1a
0d10e0fa
120de613
1aeee0e4
f3f011e5
e113070d
f816fa0f
fbe010ff
0811e8e2
e608faeb
ea0ff7f3
eee6e1ec
0a0504d3
120c00eb
fff4031b
f30ff9f2
13e70afc
f71a0be7
0ee80df4
f7e3fafd
e3edf8e4
f5e71cec
0a17f5fc
eadc1717
0226ecf9
dd0bf80c
080715ea
0902ecfa
f0141b1d
fb05d914
e8eef8f5
f9f1f825
0104e606
0500fa01
00f4f2eb
ddff1bdc
02eefe15
21f01e02
f829f6f9
f100da04
f41020df
e5ef1de8
fde102e3
1a0c0bfe
020de4e4
fa001f17
f5f6d310
fefa12e1
17e72015
e9e7ee24
1e0ceb0b
2d36fb1a
1103feeb
2d1f0c34
ea093516
feef1517
1001fd0e
eaf0150c
1ee6dc22
fafc20ff
eb0713f1
ecdce0e7
ece6ecf4
141502e0
05f7fde9
1b1419e6
2511e8e7
fdfde71f
fc0efb1a
02fb0900
f801fce7
e71d19ee
f40ffaed
09f71601
0bf2251a
c8d2dae7
d3de05ed
f802f3f8
0b15030b
13121300
f42502eb
1521fdde
f2fce4f0
ddf8fef8
16eb06eb
f7021b04
07070102
e5effc1b
ec00ecd6
011cff00
1b230501
e71af422
150e1fe9
eedef412
f0df10f6
e7de01fb
00050dd0
1af40afc
1417ea01
04f20cfc
02f61310
f10ff418
fec5fbee
fbd5f1ed
f0d5010a
0e00f10d
03fb18f5
f9ea0c0e
e9d705f4
eeea1a1a
031b0c0f
fbe30528
f1fde5f0
f2dee4e8
08f7e4e6
0bef0001
fd1104fe
f9041e03
0b17f40a
3f051602
ffcef612
0d2eeef6
030a2021
0de7eff0
e4ea0e1e
f1f03815
e9d70038
e6e6e7d4
fb00e60a
132ada0a
e81d12fb
d90d2011
0fedd5f4
fd0003fd
d909fde4
fae01909
0be71ce8
e717e1f8
ccf1fbfe
fce6e2e6
16f5e5e8
0b040fed
13240b3b
d3f9f31f
fcf3f6ef
0f02ddf8
d6e009ef
f6f6e5f6
17defafc
f2faf5f4
02f11804
ebfc09da
0808ede4
0e03f00e
f5fd11f2
f00be3f9
03e71219
1921f8f1
efeaedf8
e0fb0311
ea04ec09
04faff04
fa03ed0f
e9fce4f4
ff0cf801
11dbfe00
03e6d606
040512de
02fae337
ecf0f0ed
dded181c
1b01e41a
000cf312
0efaeb18
fef70402
e5ebe1ec
e90aedfb
1101201b
efedfc11
f7e80901
261de0ed
101aedfc
eaf30218
0de9fd11
fe0e0607
fff9f704
06fa0717
010d06f4
fbf2fc08
0ce0150b
e411ef16
e5060e03
172344f1
13fb014d
f0e8021b
fafb1dd9
00f304ff
fdec0601
14060ae3
d4f2ee00
1921efd8
e911f7f7
13ec1318
deeb040d
0c0409e2
1ae6100a
f31c0d04
eef433eb
fff4f5ee
f6040e02
2af1fff9
f7e207e7
eaee0000
d3d7eef4
f1d501df
f9faf4f5
1af30df7
26f9de16
e9150514
e21beaee
f9eef317
14f8f615
1bfa04ed
f612e60d
00eafa1a
ea0000ff
00fafaed
fd07fb05
05142208
fe0423f8
f80c13fc
18ff0223
1303fe00
e10b19ea
170801ef
04f50311
041213f7
fbf1f011
0d000b15
fff912ed
f9ee01f2
1008ecfe
f307fe03
e406130a
fd100d1e
fae40df9
1600fa0b
1b10f7ef
00f4ff2c
0af9dfe4
f1f7ec00
ede10a08
f101eaf7
0918fb10
0f050301
f5fdeb05
0109e4e9
0cfae4ee
dcd3fde5
f005f00d
f4f6fcf2
0cff02e6
f5eb1114
f4ff0de9
fa16f3ed
f6f1fff4
e5f5f6f2
f6fdfb0a
de0e100d
f200e3e4
15020b15
fdea1202
01ecf002
f11fff03
14f7fc13
fd0e1d14
f5040507
fd021c0a
00fa1a0a
05f10af3
faf3f911
ea07e8f2
ee1306fc
0a040d26
0703111c
fa26250a
dd11ff28
f7f4e0ff
eef106f8
fbf6ec18
e6ff09ef
eafd0aee
f6fd160a
110dee0d
ee0aff04
f20dfafc
e4f3eaeb
04fc0af3
201b1e0b
f9081023
1b10f3fc
fcf6e9e8
1015e500
0e1c0717
080a0bfe
16f6ecfe
0c001115
dfe406ec
00e90800
030f1205
fb1ee811
f6f20b13
cede04f5
17ddf807
000c0aff
0b0616ee
e2f90008
f5f4deee
12faf502
f3faf2fb
e8f8ffe5
f1e0f011
e61604e5
f0fb0d09
1a0104fa
1ef8f7eb
f81b0104
050ce30d
ff08f1f3
2d230f10
06071514
2612f0ee
0c0dfb15
09051dfb
12edf7f5
0e0714f7
17fb0df0
f109ed04
eefdeb0d
0e18eced
0fff0000
09031cf8
0f0909fb
f30e0d03
10fbe9f0
fa1c05f9
0bfefa00
05fdf3f4
10eb0c10
25f5fdfd
2d07f520
fbfbdf05
fe17fc09
f7f4edf9
f302f7ee
fcfde004
180ce608
f3f3e2e6
eef5f4ed
e3e5eeed
f3f20bf9
18f5f30a
01eb1a12
13efeee6
f1fb03f3
15111508
17051af6
f7f0150b
e007f2f9
fc16f2f5
e715e415
f10deee7
e901e508
f9e1fbe0
09e50efc
ebe4e403
2af104ee
393d1b3a
152e331a
fbfcfc0c
eee8eb14
f8f4f3f7
11e5f7ea
09dff100
0ce5f0e5
f100e3fd
fcf80f07
fb0e1105
f6db01df
ed0504eb
091910ec
06ff151b
fa03faf6
04f8f401
fa0c0ff0
0c0bf907
ede8f5f2
0af30b0b
f4efedfa
06eaf4f0
f6120d05
ffe8f4f6
0f202518
e5fffbea
fb040d00
1ff22206
11f8f2ef
e31d070c
fff40af2
1514f211
000c0de8
2114f603
0cfeffea
e9f800ff
1a050a00
ed1700e9
f203f3f3
1af40801
041c08fb
dff605e1
f80a09db
0b0ff5ec
e60bf7e3
fef10de8
03f70a1a
0924fcf7
11e81013
00e4f9f7
00f10cf7
fbea1dfa
08fffff1
de0011f9
060defee
faf503df
f209ebeb
07191c1d
fdf5271a
dbf00c1f
0eeffded
05f0ef00
0903e4f2
fe061115
e904f4ec
f2fefff2
f2f4fefa
eefa100e
e1d4e90e
e6f4f1ec
fa08dbfe
e60ffb10
e8ebfb0a
f5ea0f15
eb0bfcf0
edded9fd
fb02eee3
f801ee0e
f000f1fc
fff30000
e500f8e9
f0ec04ea
ebfc03e4
0103ffef
f61025df
f607f0ea
e7f8fefa
f61310ec
f2fc0500
ea08ec04
ec0aedf2
13fd0c05
02170c09
f7e7000b
13f8ff03
f625f60e
182c120a
10120a0e
02f4f209
f200fcee
190c00dc
0d1c0ff0
f206f701
0bf6f7f0
f705f105
14eff81f
eb00f110
e8e9e8f5
02eaf4fe
e804f9fa
ef00f309
01e80c12
eb02fcde
15000c15
f21a1112
fe07e703
03f2e9f7
140010f0
dee1e3e7
ededf0df
0e03eddf
0ef3051d
ffd60eea
f7f711da
e5f71424
0be9e2fa
ed07e8e6
03fbf3f4
04fafc10
000b1c15
17f90b15
f3dd110f
1303f5f3
070d0901
07ed02e6
1afb12f5
f50920fb
f3f5f10c
fcfb0511
f20cf714
f1eff510
10e51e09
15ffe310
e90a1be8
02000c01
f8081004
f9030ff9
e2fff8f3
fbeb05fb
fbf2ef04
f9e1fe08
0e11f104
f5f2f710
0300e5f4
ffe9f41e
18fd0a04
f7f509fc
0210f8ea
19f303f3
2d0a1c01
18000afe
0dfef016
1807f007
f620ec0f
1902f608
2517ff0b
0b0c0a00
0c06f704
f6f61009
f60e021b
0bf2020d
feeff008
f1f51405
010c05ef
170f02f1
ebfce6e8
15f108f4
1af414f4
f00d0200
f70aef10
ee00ea1b
f1250125
0a07f4f9
e915eee4
00eee3ff
0016f5df
0d0803e8
0bedfc06
ff09f310
ebf90000
05dddd04
ef1111f1
f4eef5ed
010b1d06
09f2fd04
f81bf8ec
fc141522
fdfbe9e6
06f3fdf3
070beafe
e51015fc
04f31315
fd0001ed
f7090a08
fd0e05f6
eaecfd0e
ff0a0de7
03ee051f
d6fee2f2
1afbd0f9
f8effe26
0412ecf3
f5eb0908
e4f8f2e6
0a02ea08
e9eb1214
0af4050f
04f32b11
fce4f509
10fe2305
04def8fa
10e90602
e7f5f909
0603000c
06f0e1ee
13091c11
04e3fc07
f4f5f4f8
0df404e4
13e9f322
f402f8ee
1f1af713
e80df3f0
fefdf3de
f3001705
f6f503f5
f8f104eb
fdf2f8ed
f2030300
00f0f2fe
0edfe30c
190e09ec
3026fc12
fff8fe04
db07f9e8
0308fef9
00f21603
ec0201fb
ef250208
13020903
1009fc08
edf0e4f0
0cfc0ef1
f41709fa
ebeef801
f0e7e9e9
01f1df0d
06fe1e14
2008fb12
f8fa13f7
06f3faf2
f2f8f4f7
06000503
0a080e08
e7fc19ee
f907ff08
f3f2fc13
0002fbf5
00faf11e
140a0df5
f90bf000
f4ecf3e8
11f5fbf2
ecf4cdeb
f7fc12ee
1604ff26
09fa07f4
0afe10f0
21f02011
08fcf707
05fcf701
070705f4
1c012717
ee02ed21
ee020b00
fb04fd16
fbeb00ff
ed0c0317
f5e3f313
17120b14
090aea07
e70014f9
e3e7e3fc
05f70d1c
f7f6fff7
14081ff4
00e022e5
f7000d08
f5111317
f8f7fb0d
edd6e4fd
0af613e6
12edf511
f40f03ec
fdf30000
f6000b04
f401fb01
0408f40d
1e15021c
ede1f423
03e6f2e2
ecf302f6
faf2ebe7
11f6d8e3
ecf403fb
16f71e06
d9ee18ea
fe04ea0c
001e1113
fcece2e8
000903fe
e7f21705
02e6f7eb
f7e3f7f9
1607ffdb
d5e5efd8
14f0e515
f6f2f5e9
070ffdd7
0efdf3ff
e9e3fb17
f804f1eb
ebefe4dd
0be8f4e6
0807f505
10eee109
fefc1908
0ef4f3ef
0e210efc
1a1b091c
1c1aeffe
e607f008
f50af0f9
1eea0fed
ea030e1c
ff11eef1
00dbeff5
03f722f3
0cf4eeed
1a1312f7
faf512f4
fdf60006
04fb01fa
11f1f1e5
f50006eb
f11c05f3
f311f10c
04ee0eff
f312fd07
f100fbec
0c0a190f
f309e9f0
fa07e2ed
07f2f500
e50cdbf7
fb0ee8e8
03fcf401
08eaedfd
0a0f0cf9
fa20051b
ebfaf7fa
05040d0c
f00c041b
fc10040a
feec0bfb
04ecf1f3
e6eb02eb
eee11913
16eefbed
df0100dd
e2f9f5df
0b09f4ee
ec170714
2316ed12
0322190e
1a03e80b
0a1616ff
14170a01
16303228
e6fffeed
ebf20ae6
f5f5200a
f7f2f814
08f6e5e9
fef9fb11
fdf51706
e6fdf710
07f61402
0c1cf8ed
0c10dce7
ffeb07ef
fa02fe11
e715eefc
160efa1e
0a1a12f0
ef03fa06
011501fd
0af80f00
ee10f1fa
fd010002
f9fc0207
d8f7f107
df0400ed
e6eef4fc
0009f715
fef014ed
e7feebf6
0200f603
0ff5f1e8
10151107
eae90efb
e0e7f6eb
0507ff00
07eb11fb
ef2b0bf6
1412f10b
d3f11200
160c0121
f908e1e6
0e05faea
f8f80c0c
eeec03fe
e1ebe8f2
4c281629
1f0e1010
00ece8ef
fc0ff0ec
fbfaf802
0306def9
050eeafd
fc04f4ea
08ff00fc
f407f5f5
031411f2
20e60cfc
f012fe0c
e506fc0c
e8dafce0
f5e3de0d
15e81306
fce10412
120efb09
0d100616
23132510
17141e01
e0f10d0a
08f8050d
fefef9f2
fbfa000a
feede502
0e1502f0
0d091200
0f09f80c
16f0ef20
f8001616
ed00fcff
01fffe0b
daf5defc
eff9eabd
ebf6ed11
f5e1d9ef
e6d6d8ea
0006ded1
ed12fbed
f4f0f20a
1e12f208
fa10f0fd
15faf302
f50a07ff
160c1005
0af1000d
0ff8e409
f81de3ff
fd082e0a
11f81d33
f203ff02
06ff28da
f209ee0b
eee10afb
2a2a03e5
161127fa
f205191d
f6db2108
01e7ea16
f6f202fc
edd0ff08
0f1af3fa
0b111800
0907f608
00010009
f5f5eefc
cfe206ee
f4ea06f9
f50aebeb
001206f1
fe11fd04
e900140d
1ac804ec
df19dbec
fcfd22c7
e6e1d3fe
07dbc3d0
08e50af0
14f307e5
110cf8e1
ea000a21
0e041eef
03150d0b
12f0e3d8
e405da11
d218eed7
f7daf1d1
f4dbfe03
0f1d01ea
021f2102
e8fd1302
1609d619
15150000
0c0f1a10
f2f20fef
18ecfdf9
ebe60c18
0005e819
fb04f0f4
01f4fd09
f5f3e802
df17f312
f7f70be9
0be709ea
fbe4effb
eef50ff2
d6f5cfe2
0300edf3
411516ec
07090800
f3d715fc
1904ee17
030303f0
000013f6
0e17f3e6
d4ffefe1
f7f13b00
081c01f8
0c13fafd
02ede5dd
2313ea01
f403f3d2
f1e824ef
dbd1f9f8
12070df9
ff140002
ecea0007
e8fcf50a
040000f2
eae7f9ed
100afaf8
d2d63411
07ce0418
f0eb05fa
f3f6f7eb
fdefffea
0a161507
fbeddded
f2f6e1fd
26f9000f
291f2a1d
03160b14
e61bddfe
f404fbef
e803ea17
060608e8
f2d30010
1ee3e30b
ece8faf7
1412eb0c
db161ee1
d4fd03d0
e6ecffe2
070e1ced
0414eaf3
00f82df0
fd0c0003
f714fd09
06f70205
fe06eb00
eb0d1103
f801060b
edecedeb
13e501e6
02f6e9fc
050ffc1b
ec07e72b
decedae1
ecd4ec04
14111f18
f7171bf7
eee2df0f
1606eee4
0a010603
e5f10e16
f1f6ffed
f9eb0004
f702fd01
eff90e03
0ffbf407
0102d306
f9f90aec
ff07faee
e5ff050d
f209f3f6
f9f1ec0a
fd140eee
e5e3e9f4
e30809e7
fcf700f9
08efe006
e00cef17
d1e0e6e4
06fadcff
fa0e04e3
f8f21bfe
d2f9e8e8
fd10eaca
0611f703
f3fa08f1
e7fdf6fd
04ffe208
00f9eaff
fcef1de2
12f50208
fe192217
001709f5
e8e4fbf1
e7eef7ef
fe13f4fb
1425e11f
e9ecebf8
0309e808
f9f004e8
0020e400
1c1b09ef
2c090319
f801f0f5
e8e40a0c
0ff8e012
2305e1f1
0aff182a
102c1614
f0fcfef3
f5f300e9
f4fce61e
10070e08
020723eb
04e20ecf
08edf700
f2efe5f4
1af1120e
0df714ef
10ee10f1
fee30804
012900ff
0405eed6
0aef16ed
09f9e82a
0d0bfff5
ece1e3f8
ee0518f4
d9000f0a
fbecf6d6
04fc1207
e500f6fb
08d800ef
e9020901
f3e409e6
f8fa0809
fb0104fb
f416fb0a
f9ee16ed
27fef9ee
ee0407fd
09030f0a
00e50735
f9fe0cf5
f9efeaf9
111bfd13
e3f3ecec
fd0d020b
0bf9fc15
1215e90b
f8eae2eb
0ff0ff1d
f80ee6fa
eafd3d00
e800f708
0cebfc03
1e2d0c1c
0a09130f
05fd0e09
06261a1b
01f01a13
0717050a
f5e32dfc
03e0ec06
fbecf4ea
f0190701
01070bda
e9e1e202
f0f9eafc
f1e5e10f
0007f214
fbff0bfb
fdec1303
0a0ae5f9
05e2f312
2114f107
19f7f8f6
09e3ee1a
fafeebf1
fbeaef13
f5fbf4db
edeee3fb
0e0afa08
f308000a
eced0206
f4fff515
fe12ea0a
ed07e802
e7f700db
effcddf4
0602fc23
f31defdf
0b09181c
fcd604e9
0502e8d9
f3f4e5fb
e612f2fb
f8000d04
04e9eaf9
f201ddff
def6dffe
11fff50e
05171ef0
fe160512
0ffb12ee
f005f107
000f05f6
03100502
1609fd23
da22f006
06f804d3
0a0de40c
ed01fce6
e8fde006
e711fc00
c4dcf1db
e2f718ec
1404d00f
e70d18c6
ebf5060f
1cfcf5f6
03d1edf7
0eecf3f5
f414fe11
e60303ec
0efee516
04f30026
fafff2e5
0dfce0ff
25fe0603
1305d7e5
edf504f1
eaf7e8f1
df08fce4
fcfe1018
df190a07
f705e7fc
faf50be3
13fa0708
fcfe0df7
07fa2300
0008f101
00fef7ec
e50df008
f4fdf8f5
e9c4e4ea
f30112dc
0210092d
e2e0dded
e708e6e0
f4ccdffc
14080009
0306fffa
0901151c
e8ecf7fb
12e30808
fbf20311
1b11d004
0be60813
05ef09f9
10ea34f5
fef8ef12
0110fc15
f605f3ef
2a09e312
ea1001f1
efe6030e
22f1e20a
1d0b0702
2316f9f6
10154906
16fd0510
e50007df
e800f90e
fef2010f
fde20f1c
0ff1d5f7
2b08feef
132c0c0d
e60227df
001f00f4
10df1824
e1d7f8fa
fe0d07df
ff080b02
01f4e3f6
fbece7dd
f4f41ff1
18ecdef6
f7ff01f8
fc0006e9
00cae9ef
f3f2e40e
e811e5d6
07efeffd
0ae6faf8
e703f703
e307e205
00050aff
01faf905
fc07fafa
f7eefe04
f7100707
d0d800f5
fce9fd24
02f1f80c
eff711fe
090cfff8
eaf403eb
f6efdfff
032102eb
eb00eaf8
f7c1d70d
150ae4e6
13e9f7f7
2600ea25
eeed0e0e
0b09030f
0dee00ef
0004e0f9
ff0219f5
1b020218
19e7d8fc
0b082821
080c0f1a
f8f8f8fa
00e5050e
fddcfc10
3f00ff13
0affeff4
f6ebeaf2
15e70aec
dc013203
e3d3010d
e20efbf0
f80006e3
f7ebcc10
03dee2d6
f3f0ffec
dedfe802
01dbddf9
e2030110
fae8fce7
f90bdd00
011f00de
0800f7f9
061adb06
0d0c0603
06fd2201
fb13203b
e3092f0a
00021c07
0bf1e4ea
e5f1f200
fcfcdeee
fa0ae8e0
f610ebfa
e8eff218
f7fde0eb
f7f9ddea
e6e410d9
13ebe7fe
03100cf0
f01cfc00
051a04fc
3e240ded
27233b13
03081f07
fcfee9fc
e60015d2
19f8f3fc
1a19edd8
fb00e427
0fdcf9f4
080a0007
15f8ed00
fd0a10f7
fbe401eb
13fcf5f0
e1f8fdfc
f1e2e6fb
04ee0be2
1e04160c
eafcd304
ec01f50d
f90e05df
f91ff9e6
0001120e
f31a0af2
02f5f5fa
1ef40910
e9f5fcca
eaf310ea
22f8de1a
cfffdfe4
eeeb00d9
05e3f8f8
0ffdf215
f50808e9
edf20806
e806fbf7
03060001
fde712ff
e6000b07
f6d807fc
dccae90f
d0edd3d5
ebecfeed
effef0f9
fe1aee00
f9f1f10d
f600fadf
f4dd05e6
07010bed
020d021a
eaf7d4db
d8f40ae9
09031afd
0be7fd05
03e611ed
f1f3e9ee
00eff70e
00f9f404
0beb08f9
eb1a0503
fdff16fc
050016f6
0ee8f1fa
08050b15
0c0cf7e8
0e09f915
ff0e1a10
0ef90703
070bfff9
fbffe1e2
fcecfd00
f500f8d5
e9e70015
d9e1cbed
f5deebdd
f0fc1fd0
10e0fe20
1bfffa04
01000ff1
0deb0d04
f218fa11
f6e9ea04
e8e9f906
0a0407e5
f63c21f5
fffa0c00
19ff10ea
0d0c060d
e9df0c13
16d0cc04
05eddff0
f4ffe408
01e008ef
0904f9f6
09fe00f6
1106f31c
0602011b
0317f108
f504fe16
00000305
12120b08
02f7f9e7
00001307
0e14121c
0b250111
f4221d0a
03aef9f3
f625c5fd
fdf310dd
28f9c411
fb09ef00
0300ffe4
0efdea4e
f6e30cec
1b0cd929
21011ee7
0214090a
d9101403
48ed1509
ff1a0e03
e0f90508
ffe7221a
13f01102
060eeef6
132105e2
12212000
34f5f212
12e40115
00060b0c
de13e202
f6191faf
d0fd8000
a1e03c80
011ffc1c
29db0af6
0606eb0a
e01320fb
fef3fb03
0d1c10fd
16fd17fc
0713e70d
13ee08df
17190204
eeeceb1b
feeb0bf3
f1fff1e7
fd10fc1b
ffe503e7
fee40ce0
21ff000c
0c16fd1d
d5f4f3ef
1618e821
dcef10f7
18f9fdea
0b04e1f5
03fbf3e6
0101f80c
2501fb01
04faeafe
f5ffffe8
061b1109
1510f103
c60502ea
11daec0b
f30a0f06
fa1bef02
2bfde70f
ef051200
01eef8fd
f2cccbfc
f4e00fde
e400fd42
1802eeeb
21210008
11120c0b
ff0cc304
e7196310
02de0718
0b08d900
a8f6fdee
2fc701f6
1305ee03
2ff2e80d
2515e423
fbf9f71a
f60a0ffa
f812df1a
fb2f34e2
fa03fdf0
0719131c
effaf811
682af945
1149ff00
1cf10ef0
fcef10f7
e90428ea
fffb14fe
fb1b010f
ef00210a
1509ff1d
000d04fa
faee0af8
f547e0f5
ede50dd2
3bf2f5f6
fb1ad5e0
fefc22f9
02ede000
ca07f5f7
fc041ffa
02e9122c
d51fd3d8
b1d22ae5
12070bfa
12fa0304
14ddf10b
3b1df43d
0c1c01f4
f90c1bf8
05e80d1d
17150d11
f50cef06
03191705
fdf51916
ff09effd
f5000412
f914fff3
0dfb0811
e1ecf1ea
1a12f725
0cf90915
0d1ae8fd
f8f30f03
0207ecf9
01ee09f6
1ce114fd
291a1724
fd08011b
00f5fffc
0e0024ff
fe020812
14fbf9f3
f904f60b
18dbfd0a
f60dd324
d9c51ec3
01f3f128
07fbffe0
fdfdfce6
16effcff
18f90015
12f40c28
1aff10e5
08111300
190e040c
f300eaf1
ed020eea
130b0b23
1a05ff27
f0170910
fc1ffa01
06f70c0f
eee90002
11fc261f
ff071703
ea1bfded
f31ff705
fd0006fe
0ff4f80f
0df70512
f6140d05
f319fb0c
18060b08
22d803f8
151c200f
0c16ff13
ef071400
ec101af7
d2040eff
05f61301
eb061a00
ef1cfefc
f21d19eb
0b0c071c
09f82305
19f3eb0b
04f90e0d
e9e6fcee
dfe7f119
0d00f7f1
fe0d08f7
e90a0007
23fbe9db
f122c5d7
1bfeff01
11f50c01
f815f608
ebd5e4ef
f431fae6
f4de2817
0b060af0
13100118
210e102c
fc12100a
e61c1200
04f3f315
02f50001
f7001d00
041f170b
f3f405f5
041a15ea
e2f7edf1
e3fdf0e5
fb1c11ec
f3e9f4ed
2513f4f9
f21a05e6
1400ddea
0f06fefa
e7f915eb
e5f920ec
eb0af6fc
0b0bfcfb
e9ed0700
1801e4e8
14fe0204
0a02da11
f4eae0e8
e7fc0a07
0508ecea
e8cbfad6
f403f811
f80cf3e8
0ffa2603
1bf8ecf9
e205f80b
f9e70003
08f4fe0d
0802ec1a
0d00ffdf
00320fd9
06fefb09
1f10f101
1a11170b
c5081807
f1cb0de3
0c13ee07
0004f906
e9effd17
090f0918
dc0e0e18
2af60efe
15f92d12
fc1a0401
1ffa171a
dbff17eb
edf34b2d
efebfefd
0807170d
140004f5
f5f10328
f5050003
fe1fe910
180c18f4
ea220000
0e18f8ed
f00005e6
e3ff26ff
0e09160e
1711f516
141bfe25
0717df07
ebff1024
f0040bea
0903e4f5
f01ef8ea
00dddffc
0315f6e9
19cd00e9
f9fafa16
f7fb0901
edf0f41b
100d0000
021f0401
000d06f3
ffe81602
db1afbf1
16fc1e20
f7fef617
19f8fde2
1015000d
07f812f3
0ce90afc
d3020700
13c1231a
04f8cb1e
dc170500
13ddfcff
0f07120d
09d50111
e50df408
010d1f02
06dfe705
f412daf0
e8ff07f7
180c02da
1700faf8
f2120704
fcf5f10f
0f04fbf4
0ffaefd6
0bea2f03
f52a0010
0506fddd
11021afd
1511f6ff
00f913fc
eff3e814
130afe00
0afec8e9
0b22f704
feca24da
17e70722
f9210514
f5022801
ddf8f31b
c4fc07f1
cd11e2c8
e0dc2a34
de030af1
f1fd1f03
ef0f220c
12cafb1a
e610e70e
120117f3
fe19f916
f0f5ff0b
f6f72024
f100e906
d51067cb
0ce2d801
f6121219
f914e500
0d0513f0
1b211efa
1102df17
f70320eb
1a1908f7
131f1616
1419131e
171f1517
05060603
fb06f9ee
0ff6120d
c02fcabc
00e27f3d
ecf51717
1308220d
d104f0f9
64d2e5fe
d811e003
f008ee05
fb17f906
010c151a
07180600
d8e32af9
f9e3db18
f70afe09
1505fde9
e5140008
fef3170f
060e0808
02f7f621
0c1019f2
0209fc02
ee012424
1306060d
fd0bfd1d
19e7e9f2
03012824
040905f6
f50b00e2
08013b00
f6eb060a
182ffcf6
eb04100f
f9ca0c03
22e8deeb
00040ef2
fd0a070b
fef4fff2
09ebed16
d50a1210
11d9d722
fbfaecd6
f0e9f100
fc071612
ecf21e0f
f6fe0217
04f7f814
0609fd09
f6ea0311
33ffff04
0406fd02
f8e5f8fc
0d0c0115
1f20021d
f701230f
15ec00e1
0e000df4
04cee6f9
2be8aae4
11080cff
f7f42202
00d9f4e7
e6e4fc0d
181f1700
f609fa02
faf3fb1c
08261dfe
f7fff5fa
f50900f2
4101062b
0a25d1e9
d4ff00ee
01ef0e0c
fb13fd26
01100e26
eef1ef13
f6030c13
c60a1d17
57e800f4
f813d00d
edde04e2
02f9e20e
f2fb01f2
f1f70c03
fce31102
2818fb12
ed02dce9
3c190115
09f701f1
e51307e7
17f1fa06
eced040d
0000e210
fff3d7fb
e81a27b3
f2f9f6fa
0d00e8e4
12dde4e3
0d141908
23150a03
fef905d9
e9e92821
1df4faf4
151418fa
0ffff019
d33df0dd
f7e60cff
dfeff7ba
0cf1e82b
0b1af7f1
e6112719
1303f0ed
f202f3d3
180a12ec
f6e8ea00
dcf4ffed
fd0adacc
efd8f60d
fb171509
19110917
c1021000
0eafeaf4
0ff4de00
fa1c0a20
00fb0825
2bfb11e0
00f1ff37
f4ed1bf7
ef09ef00
11e802c9
fe49f3e9
1f06f0f1
00071bf9
ff00f812
0016eef8
f1f9fbe9
ec15f610
17ea1714
03e9171f
ec0efe25
f1e1d2e2
070005f3
1fefefe7
37efed1c
ef0408fb
f3fb0902
0aea0416
1e211511
1424ec05
f9fbfc15
ec12f2f1
f90d1303
dfe4fee0
eae308c2
0c060721
1df60afe
f51cfaff
0df10505
15ed13f3
1af80af1
0b1309f3
fcf119f2
fcea0ef2
fafbf5fa
fb00f2f8
0af2020c
0905f9f4
f0030c1c
0ffcef00
fcf5fced
30fb0c2c
e1f70c00
0513cdf3
f4ed18de
cf03f60f
ffeee7f4
dff4efea
34d5b03d
f50ffd17
fd050100
05e70310
da06d1f3
e7031101
030e2fff
0dea0028
05fcf31a
ed0e27fb
06080a21
06fc060e
f5eb0e02
0405efe6
00f0230c
0c2ee407
f5f5fcee
0e191af2
200325ed
e3240102
e0ed11f4
15f7fb16
190ff1eb
f0131d17
ecf91df2
fdfc071f
f4fdf907
090af80a
0ef7f310
1cf40d0c
0efdfa25
000aecfd
f013e4ef
efb8e728
1e3001d4
31e82441
c31efc04
1310c803
d0d0cbce
e92fe0d4
124c2917
f90d202e
d5181205
0f10cfd1
fd3c0203
05ecfefa
19ed02f2
f8fcf7d2
25d90c1c
17363e7f
220a1c30
e1220418
d31f7f0b
80e7e0e5
0280c9fe
31120f3e
d5d9fdca
f1ecffd5
dfabbec0
beffc9d5
06e0fddb
20e4ea24
587f3548
17862875
b2624c58
91cea98a
fbc519e8
0ff400df
cffa03bd
002e1bf5
0013e8e1
b70821df
172339e6
30ddefed
32412153
1c4d4110
2eda12ff
2a36f6e6
80b18025
ed97b880
09090ae7
f11620f2
ea001433
dd02f11d
05f80c06
11285b40
c9c6fb7f
feee44d2
f81cf938
c2cd1be3
dbbabb01
6501afdf
02fe297f
bb14ddc8
20e1dc1c
e0e8d5e2
df3d0421
05c3fafc
bee7ffea
192aef07
2403cfee
7f273e7f
fd3bf40e
1702f123
d91507ed
ec80cfd4
120ac08a
2eee19eb
fc4601e3
e3c9e62f
e51e1c00
ecd42525
33ecdef7
2106dd05
dcebeeff
edf20edd
371cd6d3
040dd90a
0ad8dff6
02d5d4e2
f6f81d13
43100d7f
207f4aa6
ccd4ee55
dd184b1e
d5d2df1f
3626e714
a9ec13df
b6dfadcc
a7e14a02
b64bbf4d
a6f5f680
7900750f
1b227238
3c00182f
1034d908
def615f3
1ef7e8ff
27302403
e9b8110c
2747f005
00000cf9
2df5c406
df00fde7
daca0529
0dfc00e0
2ce92cf4
14f0f815
befb0895
e1e3abd6
9e808ba7
e7e5fe12
80d312fb
bbdbed84
bbedb3b1
c4ccc6a8
ffcfcce8
06f30704
2ef0df11
53ce3a19
55281a01
f3d01829
f5faf10c
7fe9d9b5
b4567f20
31e74d2e
1606d7dd
09dd2000
e7050ff0
c8b6dfb2
32f2f504
15ddfefb
c6f1e5fb
e9a9d49d
fef3cff4
fe28ff20
fa2a19e1
bcb4802b
19e533ef
d0f9b6ed
f0dabda9
09f000e1
e2fd1503
142714e4
040068f4
2608387a
d4f1d00c
e9fde1d2
f548def6
c7932413
be1f2737
c62dc9ac
e600d4fb
f300f99f
f7ddff33
08efffe0
a90114d8
1a1afa04
d7fd610c
0af2f00e
21171405
fb28ebfd
21f61b02
dcfef8f5
24f010da
1be10ae4
f0151212
1f354024
03e6e8fa
4b59ff25
c1e6b614
0de60cf2
010000ee
eafc0edf
eef4e2f2
b50ff5e9
e6deead5
bf1219f1
0bd9d1a9
06e0cad9
e90b0e15
1d1dd2e7
00a5ad07
d915a0b4
27f6e4c7
0715f313
261cf7d4
003d7840
cffbfe11
c6b8f5fb
d0cae3f3
3fe03edf
120f2de8
231a203e
fdf5f4d1
23e4efff
1b66382f
c1e40600
3c0a4750
d9081410
c99bf00e
d6aac4be
dfc8e8c2
d57d0cdb
1cd23cd9
0c01eb0a
13fc1fe8
18ec17f1
01e6e61d
d518e6f7
e1efd40b
0d1226f1
3f220be9
cff4d0ee
d911ebc1
e3d6e9da
de58f138
eadb06c0
0df539fa
0bd9e204
3538e603
01321008
ff073012
d1c9cf8c
d92022e7
23e5b1d2
abfbf4e7
233b1fc9
201d270a
20ce2c00
217f3fbb
f2325e3a
f4efc307
edd7fdeb
1cf124fb
f02f122c
acf9aa24
25e1b4c1
25faf5f6
15e6d30f
dc15f218
faea10bd
fa1e0e45
0d12e8e1
daf22234
f8c3a8d1
c8bccbf4
fd3ce2ad
30c6f727
80f5eaf7
f4b8a4b3
04b7d2b6
28ecd5e5
d7eb03f0
e9de021c
e105dc16
17eb2508
ef49fd25
f9e100c4
c2eded26
ea3016f8
06f640e6
f0d8407f
d6d0bac9
c7e8a6fb
2224ccc5
191fea33
0c25d8f9
efe6e835
ccd8f6dc
ff34c40e
1437e1bb
faf2ef10
05f4eb01
0308fd08
02dbea28
560ef638
4013324e
3d323805
f6ec01cf
e9c100ff
fffc10a3
1af3133b
45ea060a
5b50371f
df656537
4f0ddaf5
c209f807
0526f7e5
2bf4ffd4
08d3f404
054ff32c
c2ce2f31
18ee1afe
03cd28e8
310f3d0d
b7d406f7
f6d80aea
0c05fe00
e21ffbe0
dce434ea
e2dffa23
2e13e90e
691b1327
06e61257
2423fd36
dcbd3a0e
dfba0cf5
2ba9e6dc
f90080d9
e0c5ecbb
f3e10d1f
10e1b8f4
fcecd204
e70a0416
521d470c
fd085203
2d242019
03d7fe18
16d4e3cd
f7f9081b
00ee200e
fa0717e8
1bfee609
030805e6
d3eebee6
382f3cca
33f5e6de
0edc0109
f1000617
1fcffd07
64472761
42136104
14beeb01
37ffbd05
fc0e27e7
341e4b4a
99dd0a35
079301af
f20cd435
e6b50003
24e8efdf
00e6a1c9
1d082304
c080d92a
bac3e9bb
eae606f2
beebcb07
f2edf7cf
e7d31011
1be4041c
acc50eb0
e4dbedf6
0fb71aff
dd22dc05
0fe3ede3
07e42520
2c0edded
72fc0040
f7f8f5ec
e7fb272e
da0f1406
0cfcdcff
39262b10
fcf33234
09f30deb
15deeee6
f814f0e9
3a33fe26
ff4830d1
340b1715
e8dd0af0
07c415f4
fffaff14
0bc9ca10
17e926e8
4b672639
31283737
05300d03
fa470047
f85c4e25
eeea5957
e3061a0f
181cec09
e7dcf214
0d0536ec
fcf701f3
04fdf138
ff241612
1bc0c8fd
1123cb15
cfd812f0
b3f1f7ff
e7fb161b
f4d024c4
f60bf933
fdeaf0f6
25e9fd4e
d4e6ba05
09e4cbf9
351cf1f1
042828f3
e2bc0ad6
cdf618da
e61017e1
041b4147
f7d511e8
f7d62522
f20332d4
ecd3dc01
d911ee1a
dc195544
f0dfe8f8
f11726db
dd0ce5b0
2c011feb
0fe9f225
fa18281b
19024c2d
20dbfd16
df562420
2018f8c7
0a110d04
12e20ee3
e010efec
4a2d39e5
faff1110
115406bf
37f52a2c
2ee3cdec
21392a00
cd064804
1700eb0f
1a20eb1e
dcdaad52
0fb6deb5
7644d304
70342e5e
4b164b15
7bf1f54a
d0e0922b
cbcdc5e1
091c15e7
195a2f18
def72df3
a137d059
dfc0ddf4
fa3b023a
0eace834
c90dc1e5
eb1df7bf
2611d2dd
01183a0c
4cfedadf
02062e31
19d8360f
d12cede8
00fbf6eb
17f1f4e4
80fef5ef
c293b896
edc5deaa
0f39f3e4
e31dfdfa
f6dffb04
e23a1eee
9ff62aea
1fe3000c
dd1e1457
b6dce687
dde0eb0f
ca2ac5ed
f2b323f0
fc0c2af3
270e6446
16fcf0d5
fd09bf02
03e421e3
c709fc0a
3c1125c2
ed4ef31b
fc1d2ce6
28211f14
28562010
61f0f751
ec444de7
48c94a47
0dedda60
ceb6c711
6b2de6fa
2c14414f
2ef110f9
031defe4
d5d0daba
f31b14bf
23cedb21
fa09eee9
ccf4fc07
3f2d5d23
08211450
12e8030d
a3f7000b
eb4691bd
bc0b11d1
2409f9fd
251b3707
c1a49f23
d20ed9da
07fde0da
f407160c
2406140f
0ed5f4e7
210b0706
121ec6dc
0e2a0bfe
f6e21a0c
130309f4
1c0c2a14
e620dfca
7f14360c
77237f7f
2c510f50
16ce06d6
17030040
f5e6fbd3
02e631fc
380339ec
0866f327
9bee03d7
abc9f9a0
0ad3b3cb
24e6f009
602a4952
23ee3015
201a2227
ff2e055f
361f2613
1eefd5e3
fbfe0d0d
32100807
171bd3f4
21ec3d28
f4face1d
0af5eb05
b880d70e
135ae7ac
e9f00b07
ceccf4e7
e8fd11fd
17eaf6e5
25f6c9c6
1dfd0c12
eb13f201
33fa01ea
e6a0c7e3
fd34d815
2b2dee10
eb2aec40
3321040b
1f1f2813
dedbf51a
05cee6e0
d114f6eb
eafcedf4
e51bf605
aabd090d
06dbddfc
e2070ac5
eef60130
e2091024
14f204df
e504fb3f
d5fd00ee
16051703
39032e14
0604f71a
200d0016
e1ca00e6
e827f7cc
1f072006
00fbf109
0a2aefef
17172ffc
e3f3ddef
f52de218
dac393ac
ca04d0c7
1a3afbea
fdd1d5e0
fe19dc12
f4f0f81a
eddf34ff
07ebda2d
14ec20ed
2df9c708
122303ed
fee8d0de
d8f5efe7
f609d608
00e7eee7
d728e01c
e4e002b6
f908d6d2
dcf40322
14120e05
e22ae6ef
1708f305
0003f725
fdcef7f1
03e2e7ff
fbe3ebd9
eb03f80c
ff28c1fa
db082f8e
0af8fed4
00e4f8ce
0e2100e8
01f5ebde
f023f928
2d02ea0d
28f5f609
fc264f4b
ef08173f
ef1d0fe0
f9190ef1
1521f21a
ffde0714
f2020923
eaf434e8
0b09ecf6
22e80011
02f2dfe9
0d30ec1e
13ee08f9
51f2eee3
fcedf62e
f40f09f6
00e2d2d6
1200f50a
0b07ff0c
1f24f123
2105e901
ed0c210f
12f40309
23fae5ee
f6d80408
e1f00fff
2b000df2
0c394775
f213fef1
08ebe21d
eaf307e7
eaa9dbfb
ce1fcff3
09ed13d9
00001f0f
192ef3ec
1b32170a
fc12eebf
ec34f90e
ff10511f
fd1f282e
fdded92c
2e18162e
3a565f7f
3807451a
ced100ed
d6e4e8f3
f61f0011
ffe52fe5
4e341c5f
2b511b3c
e9ee3905
21b6dedc
07f1c50f
ea0df814
29ead918
2621ffdf
e41e04ee
c10e2534
12ff19e9
1d0d08e4
2e15e8ee
f138ff09
14240238
2e0bef34
cf17f2fe
1b000ef1
09011dfe
0a0be103
230cfe0c
031809e6
121d0d23
0c023d03
dde6e027
ec1aea2b
0a1bf6f7
3a15f7f2
0dc7a7fe
c41f041f
bad6fac4
fed702de
1cdcd91f
1ff6da05
1e15fefe
f605ff20
15e624ee
fa1c11ec
301cf1fc
c1c41305
324517eb
0010f625
faf2f608
00e8ecfc
08cebbce
22f0cdde
1d2cf813
070ffaf5
22fa1d2b
eac5f91e
f21fdceb
43f7f0c9
eb07e021
0ee523e5
f9e22aec
c5c9fee1
d837d500
d906d50c
ee00e8f3
0ad2b6f9
09f0de1a
fbfae801
c4fcfdcd
1c15deae
f80cf1fa
1ff812e9
f705e2ef
1cefe315
1712f1fa
30ebf10c
ff00232f
1ee923fc
f9d4e6eb
dbf80412
1bdce8f6
4f27f636
f3fde91b
12f6f617
0af6fde2
18eaea01
ebf8fcf4
e4f31cf3
152f1723
29250eef
ed00dee9
e7f814da
ee1d1702
f02edf27
0d0000fc
f92130e5
dee9f5dd
0ff8e7f6
01f928ef
200d280d
e7d7f8f9
d202dcff
fa071df4
18d8e909
e907f22b
11002300
f9fc2222
01ea22ff
b205edff
21c8e9e6
f90444dd
b4f6f3e7
ee050515
ed1e2426
4441fee7
e9092814
fd190b36
172de705
06ffe1fc
e810f9fd
f2e62f02
e3191b1b
e914fb05
1cc2e1e1
f6aecbb9
fc0a1d19
f72df52a
28fc100e
dfc7e0d2
19ebc1ec
1845f8e7
0504fce9
0fef1024
064629e0
151d29e9
2d221be9
1ff938fe
28343f48
25263562
01e6fa0c
080deef4
e4f3002e
07431de0
e3182a21
0cdf130b
d71f08eb
ed2bf0fa
e70e19f4
b7d5e0df
15cbdadf
0a0221ef
23370df7
05d800c7
d5071a10
c4f6fbf2
1211f103
3cf30830
1a0dfa34
25220a05
05ed1e33
e4f105ff
15f01bfc
171dfeec
fa0fcf1a
02141508
ff0203e4
0c20dd0f
27246360
00f91f2a
2d49fe27
312a3634
0328fe18
f31f0035
20191730
3f481af9
3c452433
12222cfb
fdc4f819
f9dbe6c8
e7d9d5c0
1cf504d6
e405dcca
0e17001b
2105f6e3
0cf82428
04fee604
ed1cebcf
1e36eafe
f50929e1
e1f3fef7
f20bdbdd
021c3609
02d52943
cefa08f1
eae0fa20
b5ddc5b1
e4cb01c3
eff7ede1
d1c9f7e4
eac4c2d1
ea08fbe8
10e01c1b
3601001a
1cf10012
140208f5
ebfc031d
dcf73415
fd13efde
e3eaf014
1cdf0128
f015e01a
f6dc19ee
1a04ebe1
d6ded510
d4f0dcd2
43eb02e2
2eeb264b
2717e6e0
eeea0cfd
da04dcee
ecf1edf0
12d4e201
303edad7
2d240ff6
eb2c3b03
e7e8ed22
0a130002
d80bf10e
fde023c1
f8fff0e1
fdd0e00a
211bf500
f6dffdfb
e402ed0f
f512e809
2d0b071e
02011403
e6c8c8d4
1dfee0f2
e40d202d
edfed712
25fcd1f5
16fae7ed
0329fa0a
f81b09fa
e4042f07
f82df1ed
06fae80d
1b24deff
0329e5df
19bada05
ef1b2537
f01f0d06
1914faff
e0162516
0f1ee316
0a342b0f
313c3919
01110728
ec211205
140e2dfc
20fc0bf6
eef4f6f8
04fd1d00
340d0606
100affec
1ef7f5f6
28e3f314
f81115d7
e3f5e3ef
e001f5df
16fc34de
d823d90d
17f32bee
ff121720
1ce6e801
16182111
27d51d69
d3503955
cd06f40e
0710e811
131538f7
1b1df2d3
de02e021
da0709ec
fdd12019
011cf4fe
fefc0708
ecfe3226
e80d0df6
10e30d25
00e70af9
282c4626
160bee22
1dd7f8fa
f92507f9
f303e6e5
3a32dad0
03151c12
f7da3202
2aedfc0e
ebd70108
f6cfdf17
fce01409
ef2318eb
02e1f82d
f9e7f6dc
fad206fb
1eecea21
f4f10a1c
e00805f5
f1cfef00
f509b7e2
2d051b02
f703fb05
0e25f421
0011fd0a
06d5dcde
e8dce90c
e00c0903
f7fee327
0b0310e3
352836e5
250407ef
1ff9e10d
100000da
fb182016
f2f6f8fd
3116d404
2dfaf136
c3f92913
eadce303
f6fa16f7
0af2130b
d90dd20c
ef09ed02
2c25fbec
ee36f800
12013f0c
274906bd
d9d1f3f8
083d0a01
051b00e7
d51bf40c
e5d7170b
350b1b2c
1d05290e
28f00111
0905f920
fd9ccf00
fc1b1d4a
fdee02bd
e9ecebf6
fbe6e11a
18da1edf
d4fdebf8
2ae9d30a
16062dff
1417f007
0eed1728
3105ee44
f1e909f2
29ddd3ff
11f413fe
fde2c117
d9f8aea7
0407f301
bfda9d04
170d06f6
15eb1ce5
e302fc1e
0c323224
351e20f6
f3242817
32343703
bccd2155
dff8b6df
0a0d070e
aaf706e2
18222af4
e617f400
02f312ee
f01df313
10e7e91c
2cdaeee5
e93a1cc7
eaedefe9
a5f20f0a
00142114
01291a22
0e0a0cd4
ff0de313
f01610de
29fffe0c
e208e6fc
fbd5f0ed
d5e81714
25000d14
2cf8d8fa
f1f2daf4
05e0e5db
e600b302
1af9d9e9
e7da13e9
fa251f11
21ddf508
fb1610e8
f01cfee5
29e0fd2c
22fc2c0c
e713fd1d
110d0900
fbdc0817
dde9ea1a
09db1617
fbf0f0e5
ecf2e20a
2afdf91e
fcf1340e
30f2473d
08050019
f5d2c90c
eb012534
f9f9c5ce
00c8ebb7
1214f1e2
e5e21ef1
211ce20c
122320f3
db08eae6
1af92203
e106211f
d212fce1
f0251210
18dc291a
d4daeb16
cf23f008
e2e719f7
fc1ff904
121511f1
fd201332
0cdb01e5
eed8b1f6
c81ef5ef
d9f9f4c6
dffbd70f
c2f7d3fa
f7f2cae0
1de7e50f
e700ce0f
2425e007
08f1190d
e019f5f9
0cf32e21
0911e8e4
0ae9dbf0
eb0404ea
07fbf0de
25fff4e2
000bf609
1802df22
ed05231d
eb21f7db
1237ef0d
27eb1845
25080917
03e02618
ca332d0d
11d5b6ce
e7ed11d3
12f808c2
271aef2f
de12141d
fd11dee1
0c1a00d6
0de30109
3d07ee06
11371d06
0328e70c
e7112a0a
efdc1cee
067feceb
f632713d
5140d602
056c4202
f9e2d1b8
002528e2
24441d00
fcbcb609
003cf9ca
14f119ff
e6ebcc0a
dbc90af7
dfbbe2e9
dd05e836
f41001e8
012926f2
e63ca44b
a13e1180
b52d1226
ecf4113c
42f1dfac
d71f300d
0331e105
8095229d
1f9f0d9f
ee44f312
ecf8e9df
fc233a03
17ef294a
0f7ff521
f480175f
b628eb47
80a1dfd0
efa5ddc4
062201f5
db08eeea
f92717eb
f2270727
002af4e5
f10de40d
e8da1000
d1d8cee1
f40c2ed3
ee08f501
dbe6db0b
c4afd6af
2913e5d8
e5dd1027
ee1cda00
ec032002
bbf2fc0a
0d14e404
d81a2813
d312eec7
e1431a04
e7f9022e
0613ddeb
130dee26
0a26ebdd
ea192919
1be2f9ee
fab9d515
ff1cbdea
f12c21de
14f6c509
1e2919ec
463832e6
ed0a47ff
b3f3ebe5
23f40ced
2d01172e
bcfcf10d
244736dd
00166715
1deb29ec
0f1ee616
0a28f620
fef8dcce
1aeb2204
0b9820ee
e9e7f36e
04ec04d2
1601e3dc
01e8fbd3
cf071dd8
fe00dc12
dce7e9d5
e52606f3
f7d6c94d
ce49f183
1d3e0220
050d0c15
2e0f17eb
e34afae5
e30f02f7
570ac506
e30ae0f3
1f15fbfc
413e2a13
e8ef071c
36fbe1ff
fdd845f1
0309fa0a
4bde0025
fe4cff35
fa1c58e7
ef21f4f3
d70901de
0bc612f3
0d10d10b
fce20829
ecd4fa20
e2dad8ed
f7c8e120
e7101214
16053e06
ccdaeff9
167ffaf7
222f7f38
182bf64d
fd4121ce
53e42709
22323f38
310221f2
28040613
31eb292c
192f112c
421c7f78
43f41953
1c1f24ee
35f91cdf
80bc0a9a
fedbf0ab
040c4e2d
afdeebf3
141c0ac1
2811f50b
211a0fe1
10fc031b
c8fce02a
5f380afb
d92a0344
06eaff1a
edf42619
142bb7f3
d7167f04
e2ddec1f
f6f8e207
e9db06ec
f1e5fd0d
31c4efd7
02f303e7
23e5174c
10ffe7de
24230e22
aecf05f1
f6efebf6
e1ddf2dc
6ae72745
0401f43a
0b183be8
12df2037
e5f5f0d2
d8120c08
180ab1ec
161d2200
0df7f920
ed282207
e91304f9
1c200721
e5dedb0e
e3f8fe1a
d614f907
0a051fe2
0908de2e
0de6a0c8
8de305d7
fee6f5c9
04eaddf1
1d180130
fffedcdd
211fdf16
2f04e0fb
19f40a0c
d01305d6
8de1f1f1
fea5f6e8
06e31003
0af00904
f1f6f5e4
bdc5e0bb
40e6e9c5
0e21002b
16f023f9
fbe7194e
dcd207e5
0b0bef19
dae81102
d7f7f002
fdfbf2fd
1c00f9d9
26f405f5
fcdfac9c
d72005ff
ff0c0c04
e0b1f5d4
32e8fa55
231e12f2
19e7c0d2
180a46eb
ee1d26ec
e0fdea05
05082418
0918eff6
f4001bc9
e0f1f80c
f6fb06f8
ee2014f4
fe0b1cfa
1b15372e
f90beb1c
edcb23f0
07d5e01b
abea928d
e412d280
123434da
f113e511
3c10f7f3
bda6de16
dbd0bebf
e6fbdffd
1c06e704
0c1d1d07
1ad3f5ef
1e4f28d6
cc253315
b2eff3e4
b3a6e004
b528c4f8
ddd1f3d5
341a30dd
f816d8db
d31ee2f1
2a11641c
22d6a808
28102e00
09f50609
36f0fdfe
00373110
cd01d7db
e9d2eec2
b4cd00e9
df88af11
c3c88080
15e527a5
fee0ea00
151a2401
d9ec45eb
1108e714
0af9d8eb
35360804
ecb7f0f8
10f9a9f7
e0ba0912
c6110feb
00eeeef1
fcef1808
25072cd0
39126048
f5deff5b
0e735109
e61a7f26
7f483121
f64ee43f
08f6e4d0
0a3f11f4
fc03f326
feeae904
e302a3b5
04e5ed00
38dc1c28
38fe3742
f9a9cb27
24f10d1a
faf642fa
eee42528
c9f9c5e8
f4f50bc6
eb0fff22
2d24ddff
d8f3d929
e780e706
c21f9e14
f511e5c0
d4b6dfe0
ec01edd9
09e6e9d4
f22a01ec
fb3e070f
2cbae806
5a7f03ff
f07f7f7f
4c28075a
dce209d4
f81fe4f0
0a11f1f1
144bfef8
2f3c1316
0c053115
250539e0
dd06030f
eaf8bbc1
cb0c07e3
c0dba9e7
e7bff9ef
f84eb59f
e6b50a08
d603e6e2
28c3e50d
1af122f4
efd128fb
000a26f5
23e819f5
d70a1fdf
d5c39dd9
caf5e19b
0801f0b4
f5fa0921
e01b0e07
e9f30b0e
07e103f9
1a3ef92b
eb3807d7
6c68643c
244c7f58
07140d4c
05060ed0
ef11cf28
bccdf6f2
9fd706e7
03d3fd26
2f60e32a
14031a04
311b2c35
11d8fdfc
0367dbe6
1ffe6201
f61b1afb
10fef7f2
401a18ee
32fc2249
eabcd323
afffbbbd
e61dd4ca
d6cf0803
1cec0bda
f000f4f4
f4f00c06
02e8cd2f
caeff7f1
d40412fa
ef08fafb
ec0cf8db
0c13df09
f0e6f9f1
1f0db8d0
fc20fb03
f80af7cd
fff3e6ff
c3fbe6fc
edf4ec23
59f2f0ef
257f30cf
a3d841c0
d3a3d8b5
1beae0b3
e50bd5de
13fb0d32
c7b2ef08
0225cbe0
f03901cc
f9e40424
e9dd0f0f
f117e7a6
02e7f40d
ea0fda04
fdf4c6c9
15031ffd
bb25502d
2246cbba
20113f1d
0dec10f5
19071003
fde72818
1ff539dd
20061831
120400fb
e5ed02fe
e5f2fd0f
0bf925d8
0b4e11f9
0611faf4
fa23e425
fd2ce9f6
fbf4078f
fbf01600
110e0b08
fe0e2a1b
d9ff1617
1b0037de
e1e3f011
14d3eafe
f1f3042a
0f0acaeb
45040e15
16fd2802
12da0674
0ff6ca23
290b0233
f5fa1117
120612df
172b1b32
1308f4fe
f1c9b013
17fcabee
bcf50138
06decae6
e9d9d9f4
0126e3f6
12070bf3
e714032a
dc12eed8
d82d28fc
0ae7f9c7
94d62d1c
3d000006
07420b16
ef1109d1
ff24072f
16f6e903
f11eede1
f8e7eb2a
e8d5b3e1
daa80de3
2418bfdb
dbf802dc
2740c134
dac9d6e4
e4efd7e8
e2e13200
f7ccd439
1c361904
e5f2f819
eb6b3add
fa00d2fa
0022555c
33ed40db
0901ed30
46f71ff3
e89eda30
32ee9397
e0df0720
e97223fb
eededdf6
391508fe
0dfcf111
fde8ede7
e42cedd2
0cf7e31a
f2dbcede
073fdacf
ff2420fa
df1fdfee
59fee414
022335f4
5ef2096a
223d0f4d
fef6173a
e3edcdec
b0b035d7
d1b2f6b9
f0dea5bd
4019f8f5
111203d9
3404f530
3314f6e5
e9fc0217
1d1afe03
f32c03e5
04be0320
1219e1ec
f92345ab
dee34706
dbfe2def
06ea1ee5
b9ccdc32
350b1cd2
e1d82ac9
c4c7bde5
cfeef101
f8d917dc
1305f1ef
f4011df1
200de40d
cb9dc216
dfcd321a
1ce5e212
fa1811e9
fd22e51d
235202e5
f1090213
edfaf406
271520f1
11edcc0c
24f59c0d
f6f3e02d
fb829ef1
2cfa999e
9ea00cf6
c5d9fdcf
ddebf30a
020ce0fe
e7dbd4ef
100be6e0
2c330af3
05fce014
2cfe2f14
12fe0e22
26f911cd
0bc1d9c6
012ce915
260bf914
1beee0e5
28f417ee
2a2b0605
dcffdaf9
f7d5b20e
d895ab01
fcee58f1
e4fefb40
dfa9c7e8
f1e2c8d5
eaffe505
dde30000
f3fa00f4
fb0afb20
2606e8ff
eb0801eb
ec15df1b
01f70024
f61919f3
18fd1cc3
cc00d9ce
2936e412
0f080afe
114af2f7
18e0e3fb
e8f50207
0ff1d00e
db02d9bb
1935e2e8
3cc55825
d8f7de21
f6fbf7b3
03db0213
03173bdc
fd020eef
3018d538
e2f208ee
20e00b13
19ee1604
900226f9
eae5e5a9
eafd29fd
e2f203dd
e1dd2009
dbe2e507
eae4e00d
ec28021b
f4e4efd9
d110fcdc
12dbd100
e9d0ef00
1a04dfed
eadd0bf3
19ffe227
01e4fefc
22edf40a
2532f0e2
0e2033e5
07e20ef0
ef00091d
d1f2eee6
d9dc0df4
e1faf4e4
1414f7f7
feea2415
3619ec0f
0117272e
030cdff4
ee20fa06
0ff6d9ed
d91325f8
ee180a07
e425f1f9
d5d7fff0
f600fef2
dd150004
def00006
ed2f1f08
e5db0a06
18fd18f4
f61df7e2
19fade19
fdeadc11
f9192bfe
f503e600
fdfdee0b
101105e6
020be3db
05250710
e8e5e6fe
090ef2ee
ddf4f9e1
1dfd2419
17f117fc
d9ffe5fb
d803ddfc
e5f8060d
ed0a131e
0cef09eb
101012ed
d305e1fc
0122e323
0bf9f6eb
caf1defe
1be9d009
eadfe628
0a0ef00e
210ff5cd
0ae20c0a
18ece105
e3001808
02dbce06
dce611e8
28eef0d5
ed2aee2b
dd1e1810
00e600e7
faf00107
2a0e1df9
f0fa2cdd
17e5f70b
1313081c
f517070d
f3080ae3
13f3f80f
eacb1b2c
22f70122
e4ed09fc
dbd60ae6
e50e18ea
16030dfb
dcf0e1fb
f838450d
14162b3a
09e00ef8
0c12f3ea
cef11bef
c7e6e208
f516e6ed
f2f4dad3
f006d311
d110d708
0d07fed9
16150628
e7f70b00
0edc191a
0fe3d806
ede111e2
21f31935
df13dde4
0af9fdd7
08f100ec
1213ff21
06fe162e
dff70e15
fce1fd00
feedf5ed
fa07e5f5
d8dbe315
f600f303
0ad3f111
0fe8f1da
0f0400db
0c3c00d3
233203f1
f5eaf5f3
d7f1eefa
ebfb180a
dee601de
ca0e0829
00021ad0
1f0cfd13
f7040107
eef3f71d
d0f6f0ff
1b04ebf2
0e20051b
ee101fde
eefff911
0de7f61d
121e0a1a
16f1f7e1
1ee41fe6
0005001a
d5caf9ee
dcdec0e4
f1fce1f8
e21f07f5
f6382be4
03dde4f8
16e4dd11
2702190c
17e913f6
e0d91012
22ebff0f
d9e3e5cf
d8010d0c
11fc0616
f004070b
f5dc21f7
0a00f00a
272d2ff0
d0f84709
dde608e5
16e92200
ddf5150f
01f826ea
01f70f23
f6ea14d8
