f4ec0c00
0b10f602
0100fefa
f2e6fe00
0efeeaff
f700e80e
fafffff7
ff06eb1a
01050009
f202ed0c
fdf506fd
02fd01fa
000108fc
0000f709
ee00ffff
06f91eff
f3fafbfb
1c01f2e5
00f7f800
01ee0500
010002fd
fef1040d
f5fdf812
fff7ff12
00fd0200
fd02f905
02f40117
00ff1102
f307fe00
ff08ff00
1ffaf314
f3fdfc0c
09e70c00
ee0ceff5
f7fdf707
14037ff2
0ad7fbb4
fafbf7de
f4012796
fc2cfb25
ceebfe0d
16ed3429
0ef2ecfa
b8e30119
0beee9e4
f80bfdf3
d2f10c17
f7000015
ef17e600
0acbeeef
cef9030f
0cf80217
fcfdcde3
1708fd02
24f80b04
daf8f203
16f510f6
0b008e1f
1525fd11
22f1d0fd
0304ffdb
f802f5ef
13faf642
0f0009e2
0d05010e
10f60026
fa0704d3
fff40207
e6d5fe40
4ffc021a
ab48f4e5
0c1b222a
10ff40fb
180af507
0bf402ea
0d60fb0b
0e0b070d
060117f9
f20e29ee
04f101f9
20e2e929
9001f201
0669fd00
00080eef
e5ddd1e7
23ecee00
e9ee1202
f1cd0ffe
3402ec10
2f003f3b
010afaf5
2204e822
f9ab15dc
ed12f4d0
00eb521b
163410f6
10fbf8fe
060a0100
ff03000a
f7f2ff03
faff04ff
f207fe17
0000fc0c
f9fefaf6
0009fc05
07feff10
01f90016
ff07fbfa
0202ff08
f109f7eb
fc000101
feef0cff
02060600
0df61c1b
03faf507
f9ef08fb
f7fffdf8
06090602
09fbfb02
ffff0004
0dfef90f
fffc1106
00f8130d
02fb01f8
06fcf9f7
fe230000
0004f800
04ed00ed
fff9fafe
f956edfc
fe08070d
ed17d9f6
1afc0e1a
00e9ebf2
0323bfec
1fc0e72a
f72232f3
18ff0e06
fb06fafc
eaf4fb0e
0000eb35
f1020000
ef02f9fd
0ae83307
110000ff
1000ebe7
2bf5f3dc
0c1807f7
ebf3f900
f826ff06
cd0224f8
131cfafe
f7096f0d
f30afcf3
f824edfd
ca0bd505
12e9b0ff
08ff0c15
0406090b
0506edfe
ff17f4fc
f2080639
f3fa111d
eb00ef0d
fffed0e1
ecfdef04
0405100d
080afa07
f3f912fd
150af2fb
040cd718
0be80016
cb17fafc
04f6ebe4
030e1fec
ff0811e7
f001f9f2
ff2c01f3
edf7c103
0f070c03
35f50600
00f9f6d9
f5f7000f
edfdfb7f
ffffff05
0f080a02
f6f7e107
1300090b
25bc1d17
0cff13f8
06f80c13
fe1b08fe
020d0002
0608f801
02000009
ede20300
00fffa01
03fb0b03
fe0000f5
0200f7ff
0003000a
0e0201ec
17fd00e8
00ec00fc
010000fb
070dff06
daff0005
0410e4ff
f80501fd
efedf0e7
f8040c03
00fdfcf2
fa00fdec
01030303
f100fcfd
00f9ff07
0900fffc
05011500
01f9ebf8
fdfffe02
fcf0ff05
00feff00
16fef911
fcfe00e8
02fef902
0409fe03
f100f5f0
0011fe02
fb11f9ec
ff0105e9
fefffde7
06071f13
e6ed06fa
0108ffe7
ffffd800
0cfd04fd
fff8f30c
ff03fc00
00fffdf7
05fc43fb
fc01fd05
f6f700fe
08fafe0a
f8040409
09fafe0d
ff00f9ee
0e040002
fc1006f9
0cf20ef9
01f2f3f5
f8fafe00
00fe080f
0605010d
feff0103
03fbe7ff
fa00faf6
ff040aff
fe030102
0603fc02
f3ff05ff
bef3000e
e1fc000e
f8f0f6fb
ecf60714
030103fa
ff00fbf6
0c050700
fef501fb
fffe1202
02020903
ff020502
07f40ced
fff909fc
03f704eb
fcf210f4
f80403fd
f6f400f2
0204f7fa
01fd0203
08fb267c
b8f302f7
f8fef6f0
fd0be800
f40002ff
2bfa0400
fd02faf7
00fcedfd
02f90305
0cfcec00
fffcff01
000301f6
1b2400ff
0d030f02
f402f202
0000050b
feff0802
02030002
f600f60d
e710fd0e
000f0202
040002fd
f1e20c01
24fd00f9
fdf530fd
0afb0607
0dff1310
fd0202fa
0106001f
ff00fc10
04f802fa
0a01f802
03030302
000503fc
0000edfd
0005f8f5
fe00fdff
0e0efc0a
02010000
f4020603
09fcfe0f
0003feff
fee4ff00
05020a08
03e70efd
01f30b0b
0600ff16
02fd0916
faea04f2
0b0efc0a
00f1fe0c
03061b01
07010206
080105ed
00000303
03010505
0102ad03
fefa03fd
03040105
f40001f5
0b0602f2
f9f801fc
ff000a15
f900ff00
02ecff02
f00eec03
0107120c
f90afe00
fc01fcf5
010009f2
0207fd01
010716fe
06010000
0500f205
05070505
02fdfe00
0a010002
2b13fafc
1609fdf6
02070105
090505f7
f4080200
0101f90e
f5fcff00
ff07050a
f005f000
01fd08fa
00fe0002
f806f813
fd03f508
07070111
fb0af805
09fbf80d
0503fc1e
ffff0707
0201fcfd
fb03e380
4f050006
12050213
0200fd00
0500f9fd
d3f8fe00
fefd0507
04021400
0000f8f8
80a680db
fd918a04
f2f3de80
80d2f3ff
8002adfe
8008ba80
08ffc380
0c198880
e8ccfd8d
87f28797
db973b80
f58096f7
e203cc85
78bc8680
c0162712
1680802b
80c2d180
9b15aa8a
99368080
0080c196
b8f48080
db80e280
94e19015
e692fd90
fae3de80
850a1618
faaab9aa
30edb8ea
808b167f
f680fcea
f1e2b880
fe80f286
01f8c0d8
f680de0f
fadbe29b
ec2254b2
cde08029
c4f4f58f
f5dc24c2
cd80803c
ece9ded7
22d524ef
09d4e8e6
47e9f0e8
89fbdad4
08d1c2ce
c81b0215
d2ea4d00
b8eff305
9f34069b
d805f538
a507eaba
fab1d582
c2e8f09f
f296c0f0
05c502d7
f0a87fee
f9bde980
f180d0d9
c6b12bcb
1bf0800c
05c08022
d9e08080
cbe78e0b
00efd8e1
e29bce87
d20de2da
d000dcf7
a33bc380
0fea00dd
80801bfb
80d58c84
ede484d8
fafeb9ba
f3112b27
137ffaf4
5980acd7
fc1ad7d9
200356fe
02da8080
fac280ae
59bdf60e
c8b702e6
e4c22c80
ed3db880
df8084aa
e5f797fb
32f1810e
7fb5d7dd
d7f6f201
f480be1b
0dfc04d8
a17fdea5
ee12d3f2
c393f82a
115cfa30
ec10efee
ea0ef1ef
dd29c701
e7eeddce
0bcb0221
00150f07
c2d3030a
cf35fffa
d0d320f7
10d1fef8
f30bccff
faf6e8e1
2800100d
f6edf910
09c6fafc
bbf8ed1b
1011eb04
1005e6da
07d70802
e70f000c
0020fcff
01f3fbf7
eed305f9
f0f044f3
f0d4d60f
f5b202d5
c1edf300
d7db11df
def306f6
af05cb3a
f9fdf9f4
f5f7effe
f9eef309
fb0cfc9c
f3d5ecfb
07ebd4ce
ecc3faee
cfeee3e9
d507ebfa
e806e9df
0207e137
eef5f2d9
110aef12
edfeb808
fcce04fa
0309eee0
db33e5e5
1af9f0d6
fdeeb4e5
fe0ef607
eef633f8
f4f8ea06
f207e20d
f2fde8fd
efedf3f0
02ece6ea
f9efd5f6
45e9e600
f8ecdbe7
eee3e1ed
23ee10e1
e014e9e6
f5ce05ff
d6e9feeb
e5de0008
0d00f202
d40bf702
f1fbdeec
e3031ce9
f8d6fe02
15f4dded
e9e8fbe5
ffd408e1
b6faeff4
eddae9f1
d7cff0fc
f4f30310
d4eb14f1
feddd517
eb00f80e
f20608e6
d6fa1de1
f1ff07fa
12fbdd16
19f103f7
feef01f5
e4ddfed3
cbe80302
e3eed4f5
ead607ed
e8f10e0a
12f9fce0
02f9e2fb
e8d904eb
d204cde9
edd1f0cb
e9faefe7
f2ea10de
d9eecc09
00e604c6
f5a90ce2
e71b0b05
8ce500f1
e3ecf20b
e8cc25fa
faccfb00
1008db05
f2ff0ae9
f2ed0702
06f9f801
01b8181d
c7f001f3
0e0ce6f5
08feddc7
f3f7eb04
f503f113
0506f7ea
d602e006
10f7ebdf
f7e7cd06
f6bed5f3
09c0f4dc
d3ea14fd
abe408c1
0611b8ed
cd07d826
f533e804
f10b4e0f
ede6f906
ee10001b
11060503
09e9f9f8
00f1f2f5
1b09e801
fc06e8f0
e8fff2d6
06ebe2ff
fdf1f800
0cffe9d8
f3ee07e4
fa0cfe11
fc13e7eb
e4e20afc
d5fcf112
f9df1612
f4f9d8f8
070dfef5
eafdfff6
e20bf10d
fd12f8f4
01e7faf7
f9ed43f2
e5eaeafc
ecfaeaff
e5f3e8f4
0002f0e9
c3edf7f8
7709f6e8
fa0a010a
02d407e3
f0e0ed00
da0cf1f7
ef18f100
e107edee
01eb00ec
06f90de4
ffffdfed
0c010cde
00c709e9
e7dfe1fb
fce701fb
2b04b7ec
f60610e5
f300fafe
14eeffff
f7e70a09
f1f60b0c
e600ca03
f900f9f1
e6fde014
ff01f0fa
07070407
dffbe5e8
c6f5eb09
dee8ffed
e7e1eff6
d60008ff
0fd3eef8
f7060eff
ebdbecf3
04e3efdb
1d13f406
12faf3ff
fde8fe02
e02b1ef5
ecfbcec3
fecf06c2
0b010506
b4fb00f6
f11e0111
e3d2d7ef
14c3ec07
ff00f108
0808e9f4
fc10dc10
09fa0bec
0aae6403
b6ef03e2
0df9b5ef
e81fefe9
03fdfaf0
f5ecf603
0ad60a07
e4f3e10a
0bf6f6fb
caf333f2
f5c3eded
07b90cc0
b6f9effd
91f4f7ca
e00c2a07
42f48f2c
00f409fc
0b04e105
e6d0f4f5
ff1a01e4
f725fe09
f0f4c715
fa24eed6
f80afef3
e1e4ebfc
000eecea
ff0411de
f3e40ff1
dbf9fcba
e8f614d0
f6ebf70e
fae4eb15
ca92efe7
eafe0afe
ecf361d0
e6003b00
f9e9ebf3
e201fce5
43fbeb08
e5feda09
02f200df
ee061d02
16fcfbe3
ece6d6f6
dfeed7f5
0000080c
50e1010d
f3ec0dfe
edde04f7
efe7f4e5
fff61206
000310f0
10c20b01
ee02e0ef
e0ecfd09
f7ff000b
070bf0ee
0b0fe311
f3cff502
e8a00308
11d8faf7
041f4de0
16fff1eb
53f4faf1
d70a03e9
e4d0fbed
f3edee01
d7dfba09
f709f713
e6ea14fd
ebfe0cfe
f7e9e905
1ed9feb3
8eee0efa
de0003fa
e5e2f8d5
14fdefea
fbcafdfd
f21abcfa
eed5f8f3
e70105f8
01fbe6f1
010f04bc
e9fdf3e6
c5e7d400
fefecf0b
01d4f0b9
fe1eee00
af17e914
100204ed
c2dde1f4
04e005ec
08eae00d
f2fe01fe
e70de806
d5000e00
eed7f324
b104ed3d
fc0ae5f5
ffcfe5d9
fadaec04
e3000e07
0c02e3f7
25f9f6f5
fefff6fd
0c00db0e
f9e2e50d
f4b600d2
0e0aeb10
c6fcfbf5
db08e7c4
f9efc536
f5ef02fd
0a02e509
eaee0203
ec03e0b3
f9e0fde7
06f9e1ff
fe05fb12
e3f3ef04
ff12efe2
eb08fdee
edf8e607
04fbe3fa
18faf9ed
09f1eeee
ede5e9f5
fdf000e8
fd2100da
f701e6ec
ecf8dbd0
000b02ef
fae6efeb
fdeafde6
d500e20d
fdfe0007
eaf5e9fc
0800fae8
0808d0fe
e500f8e3
ffea10f6
eff2def6
dadbeef0
e8e011fb
e8f9fd0e
e2f6fef7
f8e40201
e300e2f4
e8eaf91f
f9f9ff00
ffcd00fa
fcf3eefc
f506eb05
030918e5
004dfef1
cd40eaf7
fbebe30a
e3f1d33b
f2ee010b
18e716fe
cdde0000
ef071106
00f6faf7
c6fe1afd
16f403fa
06f8c710
14e90407
f4f300fd
eb08fbf0
05f206f0
e2f8eee5
f6da08df
0bf7f80f
ec0f01fb
0efdedf5
efdde6df
d5e5d9db
e3f51ace
01e8f6dc
f5e6edf5
ec22d200
06f3d0d4
09b80f97
0022f4ea
85e90f00
2cf0feef
c4b7bcfe
0fbdfaf4
e814ef04
0207edf0
d30e07f2
ef0c0007
f19e4318
c8e9efd0
0703a5fb
fd110200
f1fdfffc
dafdf807
01c7f90a
2410cdef
0ceff000
0504ffff
03cfe6e5
fc86f3a6
fc04130f
9ff3eef4
0e04f112
f3f9f12c
f7300a0b
fafbfdf9
0c01e9f8
f5ed00f0
0db81105
fce9f4dc
f6eb07f4
c1d308f5
090715fb
10fa1ef4
f5ff011e
f1f8f1ff
ca08f85d
eaf5dee9
eaf0ef00
0007daeb
d412f30a
000cf7bb
eef1bae9
f6e0dc0b
e5ed11ee
f8ee030d
05031205
071d12f8
de120b37
f7efcb07
09ea2be6
eef4e2fc
ffe0f303
fa000b12
ad01f8f1
d4e2f6ee
02f400f7
e0f9e4fc
f4d4f200
130cb606
edcc1211
f8f8f20b
fbf507f6
feddf700
f8f9e411
03ec00fd
f20be9e6
57be0105
0ac80a27
d2f51ebe
fbf0ed03
c4f10437
f9f8e2fd
09f9e5ff
e1ecf7f0
ff06edec
faf00bf3
1ceaf000
f7e1f1fc
ea00fd0a
dade000e
67ec03f2
d4f8dce6
00d6feeb
c5f4fd01
f131f213
f7fecefa
fdedef04
dd0bd7f9
d4fdd5bf
08e901ca
e1f7f8be
e3b70e0f
f4fbc6ca
f4caf00c
f43a0513
960eff0b
ce360701
bcf4feed
eec7f7f1
010bb50a
1f10f2df
ede0f304
f50c0af9
06cadefb
d0eeebf1
f0f6eaeb
ecf9d6e0
00ecf1ee
d3fa07fd
08f6f3f7
dfecf3f9
f0d702ee
0ee80e0b
0eedf20d
ffb1f2ad
f1eb1bf8
d301f81b
de0624de
19e0cd43
edfa03f5
0e12fdf8
04ed09f1
fffbdfdb
ea12fe0a
ebf9f0da
f4d1e70a
07eef500
1ce9f1eb
ebf601e6
0808fbe8
e7f3e9fb
f40500e2
f2e8d6eb
0e0ff3ef
e704e107
ee46fdfc
f6e4e906
0bffabeb
ffec0afa
f403d3ef
f63c00ee
f4fa03ea
f3f3e1e3
f1fe0ff0
fc0ceb1a
eaf715f2
c303e700
e7f0e6f0
e7feede3
d1060afc
d5f000db
f8e0edf9
e0fff708
e8e0f20d
ecfd0b08
e6520ded
e4fadfe4
e2d3e0f9
e9e9f909
fbf40aef
eaebf1e9
0ccef0f5
bfe3e50b
d3f0e436
dae4c8d9
f5edeef5
00e8eb03
eeeefef1
eafbf0ff
f7ffe904
bff612ef
fbe801f8
0304e2f1
ea0c04f8
eb0009ef
e3050a0d
aafef1ea
00fee7fa
f8eaef05
e50613f4
02e1fe05
0a1bdef3
fefcebf5
e303d8f0
faef192e
edec09cf
fdf70dc7
cc0be60d
f404efe4
05c3f5d7
ed0bfb0b
e3eaf809
eef20cef
dff6effa
e9e50cef
0defdaec
01f20bf7
fbefe8f4
fceeed04
05d4edf9
caefea09
07ece700
0006f8e5
eddd0e00
d2100508
01f5f30f
f0ebe603
10e9f4e9
e0edf101
f4f8e10a
00ea00c0
d906f901
c7f804e3
fc03f4e8
def4faf7
fe05ec12
ef080bf8
e3fb02eb
0b06eced
04e1fa08
f0e6feea
04ee0401
e6f0f0f8
fce8fcf3
07ed05f6
0909fcfb
e207f2e4
e2e6ebe8
ecfcd2d7
f1ee0606
0403e8ee
fae7fee6
e70000f2
0109e502
f0fcf7ea
eaf9fbdd
fbf3eb01
d502f3ea
feebfbfe
00fb03e8
eb09d600
fd03f7ea
f107e7f5
0002e3ee
faf3fdf5
eaf9ece0
e8f30cef
e9ef0d00
fcf2eee4
ede6ee0b
f9ecf801
efe606ef
f1e901e5
fdd20fe9
f7e70505
0505edfc
06f0ed06
e1e9f4ed
eefdeff0
fbd8f6e7
e7dcdbef
01e7f6e8
f8f4f1e6
faf8cb05
f4f608f1
eafb08ec
e1fde7e7
ea050404
08fef40d
ef0001f0
dcecede7
e50404ed
0fddf4f4
d8e0f6e4
09f006e1
ee0feff2
f2ecf7dd
f0fcf0ed
eed5fff3
02efcddc
ef00e1d6
ee0605cf
d90fefde
dffd04fa
030be6d8
0ee5f9f8
0808ecf6
d9ff0dec
e5f0f9f5
dcefffe3
f7dcf910
040dc9f6
effb04ed
f1f4eff2
f2f1f3f6
fdedd5eb
cd0b04f2
01ead803
0d08f8ed
ede60a0d
ea0b0efe
fbeceeee
040cef06
eee408fc
e3fded03
e6fdf5fb
eaec07cf
d7f1fa04
ddffeaf4
e3e9deeb
f9eb0203
f10bf903
e8010404
e9dafc0d
0efb00d8
05dd01fa
e4f9cdf3
f6e7fcf8
00e7f3f5
eef0f701
f0f905e1
04f7f8f7
0203f6f3
01090ce3
ea09d0db
15e0eb01
eb11e2f4
ddddea0e
f6f107ea
0deffef0
0401defa
ea00fc06
f3f3f5fb
efee00f8
0008e809
fc0cf3e2
02ebe9f0
edfbe903
ea0be4ef
e0fce7ef
e9f4ddfc
f5f7fbfd
dcfe05f4
f2f5fbea
ede504fe
f0ea02ea
f40cf208
ece9f203
edfa06e7
0fd5f8ee
eae1fc0f
0800f3e0
f9f301f3
e8ee0ced
e0e2fff9
ece9e405
e0efe3fd
e8ee04f4
f1f7ecf4
e1f3f105
00000002
06e7f9fd
fce1e8e9
fcf3fe02
0b09f706
09f1eb00
effc01f4
e0eb0af2
f2e70bf1
e905e4f0
01df0a07
e3ed03f1
efce0cf0
f6e3e6e8
f4e1f7ef
f5e5f4de
e9fedef1
f7fcfdca
010d07c6
c1e0f6fb
e8f7ebac
0daff2d7
eefc0f09
b6020503
ae36000b
b82cc8ea
00c200ec
02febc00
ed05000f
0e00e5eb
10e8f2eb
03d2ac10
c3eeee16
01efd5ff
0feef6eb
efdb05f2
d60ef7fb
fbeceefb
f6f6d409
eaf60ded
060114f2
0ad1e9fc
fddbfd9a
ea0604f2
aae0fe42
f6fe05f1
0a0b0cf2
0c4df305
f100e20d
f8f911f4
fff2fc00
e60311f2
06e811f4
0201f9f6
d7f6f5f3
ef03fa00
f5e4f5f2
0f09ece5
fdffd8f1
eafa07d9
f5f8d3d5
fef7eaeb
f8fee600
f006e902
f3ffe5e0
faf9e4d8
0bfef201
0201f0e3
e7e4e609
f3fbf7ea
ddf8e4f3
0afaf311
00f9daff
fff1ee02
f8fdeced
e8ece0ee
ef0118e8
d3e9f4eb
c3fd01ef
efe6f7e9
ede8fcf4
0f240704
f1f8eb0c
f3ddfafc
01f7fce6
faf3f4e2
edf707e9
fa05fc06
0e0bf8f8
000b04eb
d00ae7ff
eafff909
e9ebe900
fefd04fa
f0fbf8ee
010504f0
e20d03e5
ece5f800
e1e4e9fe
e1f3df0a
fcede5ed
f80006e6
f801ecef
0002fafd
14e90cea
07e5ddef
fbe4f402
03f9f0ed
fde500fe
06f4fff8
e0e0f908
eefbe4d0
ef060bd9
f71002d2
db0611df
f026c7f9
f70de6d6
00dd0657
15e2fc03
ec290df1
e4361300
b5182af7
f2cff30f
e9f4dcfa
ecf90afb
d9e5d903
fded0d03
fddcc8db
befdf40c
f004f1f8
fde7f4dd
f0d5f704
f0f80df0
09d3e0f7
f1fcd8e9
08d20ee7
dd0bfaf3
01faec00
fbc105da
d20602f3
caf6edfb
e6000bc5
ed00dee8
ec210e0d
080623fa
03eef6e4
faf7eebc
dbece8f7
ff0dd2e1
e9f3fafb
ec06eafc
e8f9f307
0eece5f5
0006f50b
f6e8e0e7
d8030de8
dbedcbd3
0017f90f
f70c01f1
de00e1fb
f8e4fe29
02f4e6dd
eee8f40f
02f736f7
fbecf8f0
f0010009
0e020dfc
f1edefe1
f6eec8e6
e314fde6
00f1deeb
e909ebfe
0600d006
09d6eef2
c1f20ee5
f1fef6f1
fbff03fe
12d704f7
12fe1507
ecdef0ec
eaea2adf
f600fa10
fff2eeea
0309e3e5
edfe0003
ead7e9e9
4ce8ecee
09f60ceb
c5f355df
e609f4f0
d40aec10
e1f5e6f8
e8f7f2eb
f3f610f7
e8fdc7ef
0af2fc08
f9fdcefb
e108f7f6
e0f6020b
10f2ede3
cd0307e8
e90ad208
0eec05f1
e70808e7
e3c4f3f1
07e1cc0e
d4d3000f
e9fbee00
e5e4d02e
f2ff01c7
04efefe1
e5f2000d
f608ffda
07d0edf6
0722ee0d
c504f703
e136f7f9
cae5ef12
f7dc0d02
f10dc20a
e3fa03f9
f1de060d
e601f500
0ddbd70c
cef5f6f4
0a0beef3
ffebf60c
f2e1f1ee
e8f0130d
0604f8f3
0d11ff0e
06ed04e0
eded21fa
f4db05fe
0ee304e1
00ecf001
d1e7ec00
ebf1def8
edeafee4
f1eefc09
e90fed0a
e8f8eeee
f40cfc00
f5f112f0
0813e2ef
f2f0e804
f3fb01f0
010aeee8
f10cf8fd
f2eff3fa
eaf2dfe7
e6030ad7
cfe9fae1
11ea0804
00030900
f0ce0903
defff6ee
00f6f6f1
1105ea11
f0e8f4e4
ecdef1f5
e107080f
0aeb080d
010dfbe0
f70d0411
f80ad7fb
f6fef3f6
fee7fef4
10faea07
c900fbe8
f10002e6
e8fafcf2
ff0800ed
e3df0503
f11300f7
f2db15fc
fdf0faf8
eff214e0
130af3fe
eef3fe00
0a0e0ce8
dedef001
f2ece8f8
e8f0f902
e4dce6dd
0efa0af6
e801f7f2
e5f1d4de
f910f9ec
00fe1205
f0e8dd16
f5f609e7
03fdfcf8
fb0debfb
fa1009fe
f000fbff
e0fafc06
fefbeffe
0d011000
ece80fef
02d9fadd
edede1fd
fef4ec04
f2fbf3e2
fee6efe7
00ecfccf
def1fff0
d603eafc
f7f824d6
05b20200
0e00eef0
be33ed06
d62f02fa
bffedfff
ebdc0601
0212fb11
c7e9f4f2
e5ffdee8
08e3ecfc
0cc2e7f1
b300fa0a
ff12c20e
0ae906ed
fdd7f8f5
d801fdff
f90de411
dcf3f0ff
06cdf6fc
cce448f4
fc3adb07
eac0edd2
dd030704
eaf5fad7
f00412e3
200825d5
fbdef0f2
070209e4
00ecff13
ef0afcd7
e2e20608
fdf5deea
0b21f500
ebff05eb
1d0af6fe
0409fdf0
06fcf0d2
05eb2aef
18ec00da
e4e80deb
07f60500
ef18e6ed
c9aff0fe
defd02df
fae8dbdc
f7fbeafa
fd06eee2
ffc8e909
c600000f
fbfae8f0
030df7b1
080bbaf0
03ecd302
ee03e8f2
0bf2fcea
f8fcf103
151c07e0
ece20adb
efece9f8
e3fefc03
d3da0706
f102f9f8
10d20712
f0081d0a
12e4090e
ebfa0301
fe10fb24
0b0903f4
0428ffea
21cdfc0b
f3ea04ec
f20cf2f3
e5faf0f9
cdfef7e1
e4f6cce9
00f10400
f0f8f0f5
07ffd6fe
10f1f6f4
fdf4f51a
04fa0ee8
f5f5eff2
22feebd1
bc00f3fb
c4dae3f7
f2d90010
ebf1f225
f50df9d7
f7fbefee
f1d6fef7
d8fe0be7
e9f7edc5
030303d3
da0903cf
c3070111
feece1be
f1c1f022
070f0bed
0407020d
dc080d0d
c011ecf4
05b70b06
e908e609
e7020ce7
1e01def4
1ce710f5
fbe0b1fc
bf09e615
0801dae9
f8f315e8
0ed5ed08
d907eae9
0914f8fc
d209e509
04d5fdf0
08f525fe
04f1d3f0
02c6fccb
de000b0b
f4d7f912
08e7e0e0
ecf3291b
ff01fef2
eef018e8
ead9fdf9
e811e4e9
eb0a0008
0a01ecf6
e7eb01f4
ebeefcf7
f4f2dbf6
1001f5f0
f8f0f6ec
f0fee3ff
fdebfae2
ebf4d1ec
0b0e07f4
0000e5ee
e6fef6f2
000ffcf8
13e7cdde
11f001f3
09f7f9ec
02f6feec
e4f8fb00
ec0203e5
fafefff9
fdeddcf2
0801d4ff
e60ee5f5
01fbeaeb
faffdc05
e3fa0ff3
e5ececf4
e5f50b05
f70206ed
d203ffea
e204fefc
fff3e505
ecf8fcdd
f1ff04ee
03fae602
fa0b0305
e9f3040a
030ee5ec
e22a0b02
e2eef1cd
e8d2eaf4
eaeff5f6
ee0ffef9
fff2dd03
e90900fd
e8fdf301
d5f809f5
e5f8e7fc
ecf0f50f
0cebfcf2
e304f5ee
dfe2eb09
bbf0e7f9
f200eaf1
f203f507
05f8f0df
f7effddd
f5e300e8
e9e500f1
da00eadf
ecf806ec
1104f6c9
01f1fdd8
dcf6fd08
f1f3f1c9
0ad1f1f6
0dfcefed
dcff080c
e51debfe
dc05f6f1
07e00911
f902b7f5
e8030604
f5d9e5ec
02e6eef0
00e2d40a
d2e9f303
0304de05
01ee01e4
f0c410ff
e8fc0003
0b21fb09
050af409
03ecf2e8
e4f2effb
ebf9fe06
0fe2e9cd
e4f000ea
cff50501
de0de2e0
e60703eb
f0fe0b0b
07fbf8ea
0208eeff
f80df5f3
f6dde8ef
1002f706
eade02e4
daf602f0
f8f6f903
04fe00e2
f8fef1e8
ec07ef06
e50d0cf0
e8f3e0f5
fdf9f2f0
0005fae7
fffbe2fc
e5f1e106
f5f5f6e5
e807e6fa
0af1f7ef
f9e500e9
ca0af40d
f203f90b
000deef6
0105ddf0
00e6d9e4
fb02f7fe
f00608e6
fcfee6fa
e5fdfff4
e902f6db
ffed0800
faf3ede7
f414faf1
ed04fcec
deecf7f6
e9fbe3ed
0bf2f100
e9f6faf7
fc0adffa
fd04f3ee
07e70001
f7f4e3ee
010005eb
00dbe2da
00010afc
f607f2f5
f1ede9f2
fde6ebea
0907fd05
f0f1e9fa
e306f20e
ed08f701
ed080008
f4e9070e
ed0ef9f5
eef6e7f5
e3e5edf6
f40603f0
f5f304da
f8e5eaf3
03fcf506
d3d301f3
f3fad9d6
f908e3da
0404eae7
1f0f0410
09d6f6f3
f0f8d5cf
f9a5f4e3
0bdb0e07
bdf61f02
f7f300e8
cebec1fe
f5be1109
09ebd3ef
c306f60f
db0b0501
f1f5ebfd
dfbcfe27
adf8e3e0
fa0ddffa
fcf5e80e
10e90800
eaf2eaf3
110f0405
2af4df0d
ff0105e1
ff00250a
f2e04402
0af3ffe7
1b071212
e6060cec
0000f900
250719d4
f9c806ff
fe02d512
ed19eeea
fd16ebee
ef0e0af7
ee14b408
01e4f7ef
e01c2eff
e3efecfe
08ee030e
f5110603
0bfc05f1
dde6ebf4
f9f6cd05
eb080306
ebe4f209
db00e4e5
15f6e004
ecece6f5
0400f2f7
04fce5f9
08110bf8
2604f5fc
f0fdfef4
e2f908f1
0ef1ff09
f5e5f2e1
f5edcb0b
f0fcdbdd
f6e5ed15
3429e813
b91b0007
fad914fc
fbfd03fc
e0c5fdff
f90618fe
0e17040b
f0fd0bee
fcd5f50b
f9c9f6ea
10f0f2eb
0e00fbf1
fad310f7
e4df04fe
f4f200e5
e209e1e3
eff3f428
21ec0120
0de4f9e3
21f012ec
dfea0605
b8ee16e6
ef10e9fe
d9f912f5
fff3080a
e80af6f3
f4fd13fe
a5df0203
bb0feef2
05fee6d9
fe0af5c4
11e9f60c
ecf4bc0b
1d3eeefd
ef0a00fb
1412f332
ff000cd3
e1f5f5d3
ddee0002
faf500e3
eeb80614
ebf40f10
b126150b
e20de905
0fecf50d
0ec80df3
fd03f6eb
d5eae809
ebff0a08
e806f800
09db06f6
cb0eda10
f206d70f
f8e000db
05db080a
e1ebe808
f502f406
fa06dce9
10d8fce7
ec00e0fe
08fa0cfc
e9d10af6
d709ee07
bae30bf0
f1f9cce7
210303b6
eaf6ea01
0503e2ef
ffe7f9f5
e908ffcd
0cf200ea
e200f1f3
fdffe8fa
07fbfcee
0909eaf1
0af60ae6
f7fd03e3
0bf7df02
20f7e5dc
06fbf10a
ed00e8e3
0ce9f7f2
e1df05fe
0809fd0a
f2e016fd
07f00c0b
f9f72100
fc1710f4
00fff5ec
ef05ef07
f601e4e4
ffe83c04
090bdb2d
e901dff9
da02d7ea
e5010a13
eee8f6e6
0cffef10
f3d4edee
f4f2ecfe
0dcefded
050dfc05
e409faf4
eef8eadc
effd09ef
f1fedee6
0df8dfd2
f502ede7
eac0f0fa
e0d4e4f2
00ebe102
efffd5dd
df06ea0c
f0f817f1
e7f7fdf5
e7fc0c04
ecf603ea
dd10d100
f4edfeea
f505ef03
0d01fb04
2dee0dfa
ecfcfedb
b8fcf2ed
ea0afa0c
ffed09ed
f00be503
f4def6f9
02efe6f3
e5d6f101
e402ee0e
f80cebdf
ef090bd1
ec060605
d90de504
f306dbd0
04b20bd4
f5f1f6f7
ba1301ed
c60904f2
bae8d6fa
0be00ef3
0bf1ddfd
02eeed1e
fa05fae8
f90404fa
00c6db10
c4080204
04ebdbfb
fb00f101
06ce0a0e
d504f111
0825ecf8
3bfce6eb
0e0d06fc
d8000801
ed030fee
f1dcf5ec
e610fbf3
e3d8fff0
d9eccadc
e50836b0
0ad2edf6
06eaddfd
ea1309f8
f903e9e1
0bdf05e8
f3efe4f2
0309f50c
e0f2f00d
d3f9fcf8
00eb00e7
fee909ea
f908f2f1
e7f0fffc
fae415f6
07d8f803
03edfceb
fdebf1f0
f4eae8f9
f6ece309
f3f6dcee
fbe1fe04
e4f1edf8
f409e904
010d1609
f2fde7c7
feeeeef0
fe09f3eb
54080501
ecf90810
f60cfcfe
c8ef07f1
d0f3f90a
f7e9ecf7
fadfffec
f1fcf1ed
f5ebf40d
e8dbfcf8
ed11deeb
fee7f611
ee000903
ede900f0
01fbf1fb
fb180100
e40e01f4
e4effa03
dce9cb09
ece5f5f7
d5f11bfc
3dfce306
f80bf6eb
e5f8030e
fb12f8f9
06f007eb
00f1d709
0101f002
01ebfbf0
d7e004bb
47dfea08
e0e6f904
03ee06f1
cdfcfc1b
f5eaffe8
f4f20cef
dad612f9
ed04e2d8
f7f0f6db
f111efd9
f708eed6
cee61b03
f800e8d3
ebc41111
02ea0e00
b437f1fc
df090cee
dc0fe413
fce20011
0b0cd610
00f00000
ea18f8f9
03f5fd03
12c0def6
d5fc0823
020ed203
01e0f8f1
ebde0912
ef1000f3
0af903fb
fb08f2fc
ecc80ae7
e80d0202
f8050a08
f6eb02ed
fbf8f502
daf0fcd3
feebd7e1
19e115e7
eee2e800
f500cf02
e6f9f502
fd04f7c6
e119e8ec
03f2dfee
e6eafbed
fef3faf5
ffe9e003
f5f8f6de
0403e010
04f8ee0d
120ae7e4
e4f0dfeb
0beffffd
0300f6e5
e90dfc0e
f902e1f3
0ee6ece8
0a0909ff
06fafeef
f5fb0801
eee6f7f8
edfdf7f2
00faebf7
060be2f9
e7070200
ed07f0f7
fc10f8d0
f9e4e00b
12e0efec
d5fffc02
f1da0106
eaeae902
f4df0b0d
f600fff9
f0f9fdf5
e600e5f3
eeec12f2
e8f6f2ec
08f902d9
0ae6f804
01e2f4ed
e7e70df4
e5f6fa02
e6f4f600
faf30404
ea03e4ed
f102e70d
00f90c00
fb0808f2
daf6180b
eff9e9fb
f3eef80f
03e905fc
f1000b02
13e6ffe3
d5f4f6f1
dc01edfa
0bddfcf2
0c10fcf8
fd0ae5ed
f4eed004
dcf9fdee
f30efdf6
f5fbfae1
04fc01d4
f8fb00c2
cff425ee
f809d4c4
fae20901
0ed8fc0d
bfe4f2f4
e7fc11fe
e11600f5
edd604eb
0404e1f5
f3f1f61f
282635f2
1802f9fc
fce8a9d9
a9ee0927
f006c9eb
f0fbe0da
05000109
dbe9ea0d
f8ebfee9
de0ef1f5
0ff307e9
d80bd3fb
f4e60bfa
f8c200f9
d3ee00fb
cceaf2d8
f2e9d012
f10a58c6
e621fa03
ecfe0402
efdbebfa
f004e8b9
e0da0ef7
f1fc03dc
020401ea
d5da00fb
3600ddf6
0af0d8dd
ebeafbf9
eb00e202
e2f7f9f0
eee7f3d5
faebf803
e306ddfe
1fcc09f9
e9f5f3bd
f2ec15e4
fe01f500
e9083000
f8d60605
d8e9f2f3
07f6f5f9
e4f6f330
f9f9fe10
e7011ffa
fcffeeff
faf8fbef
06f40eec
c9c801f2
def1fff6
f5d9f2ff
0ad3fce9
1805ff0a
0804cb0a
eaf9eb05
fc0cfd0d
0cece4fc
f1e30a02
fa08f1d4
fee90e0d
e6effe00
d9d8f305
e6ec030b
e6171402
fef9e7e5
f62cf4e9
eee51fe1
e7f1e907
0707f109
17eeb900
02030400
e9f5e901
0ff7e406
1bf2f401
f9f2f7bb
fb0ae9f1
ebec19ef
f7daf4f9
dff3f5de
d5dafff7
fd152206
eaeef403
f8fff0fa
ff05e2de
000f13f0
f212f9e1
c9edee0a
0aeafacb
f1de0c00
0bf707f3
d3e7ff0f
f7d30bea
d5fc0205
f1f9fcf9
06f5d308
e400f6ee
f6e600f5
f2f4ef05
0decdef3
c70900e8
effbdd08
faeff1f2
12cd0008
d9ee040d
f4fff400
eb0cd904
10dd02fa
dde4dbf9
0bf2ecf4
fcd7fcee
ca00fbef
f5e703dc
01edd5d5
f8ef03dc
0bfefa00
06ebf9fd
0af6f7f0
e8fed8f0
00dfeaff
01fed6ef
fef507fb
def80001
f5edece7
f8fbece2
fff6e6fa
060101e6
eeff08f4
f4edd7e0
feef000a
fd07e2f4
edd1fdf8
fa0ef8e5
0ff0dff7
12ffdced
eef8ed05
f10000f4
e903f5f6
e0efedff
f408f4da
02ebf007
f302e6df
e2f5e5f2
f9faf8eb
06e9e6f5
eae70402
e2fd03df
05f100ea
ecf805f1
eeeaf5ed
e208ff00
dcf5ed00
f80607f0
07d1f3fd
0ce4000a
030ff7ed
01e900f8
f8d70705
e7e70703
f6e7f8e5
d9dddeef
ea07f2f7
eeee04e4
ffe7d5f8
f1f8f004
fc110114
de08e9f8
faebf0ec
fd01dafe
fbdff9fb
0010f0f3
f7fcecdf
dbf1f6ed
e907ed05
edf6090b
f2010fe5
01dee9e4
0eeae900
f5eeecf9
f102e6db
0507dbcf
fef70854
0d02f116
f022c4eb
0eece4d1
0bb4f1c6
08b005ff
f5fef9f5
18defe00
80cedeed
eab1f20f
0afc00f7
e705fa02
cd16fb09
17ef00f7
048e16da
9709efe2
0f0e29e6
f001f005
fc02ff09
c4fe01ee
03e7fbf6
e2f7f4e9
ebdefbf9
d709f708
14fa0bea
fe2b0960
d3eb0afb
cd2301c1
ec09a618
a31cf19f
faeaed04
f4f3e00e
f912fdea
fc19ede9
f7df08ff
fdf4dce1
df1ef2d3
e1fbe7fb
150d0af4
0517eae3
fd100730
e9f1f8ec
c60af3d3
f70af9bd
e7e5f4fc
f7f2ebe8
eab52505
ff2412df
12dff329
eae1e2f0
f5e708f9
f3cdfa0d
da01dce6
d90709f9
edfd05f3
eaeae30a
04f208f3
01e7fe08
e20af601
000d1804
cedf00e5
f3fa11f4
eefe0afa
f9e7fbf6
134e03e2
e6ffd40e
d5e8edf7
ef04ed22
f2dee4fb
00fc00dc
f509eae7
0ee5f811
003af4f9
ef01fdf2
42f907ea
fbf5cdee
f7f30c06
d319dee7
dbddffe8
17f4fce6
04f1eefa
00f50e0d
0606fcea
11fed901
d4fb080a
d0ebfa12
db06f5ce
1ef71a00
faf8f3ea
eb0eebfa
16ece1fc
13ca0be8
03ea0d0a
fdebe0f8
1b04e9e8
f5fcd6d0
08feeeed
fbefed08
d1d7c7f0
0defeed9
0ac9efd6
ebc4f9fa
e304ec06
a9bff103
f82ada00
10a8f309
fdefd9f9
e8f5f6f5
e20ae906
e4f0ecec
e5b3c6e5
8005f310
f00bdef7
fee801e8
0fdcfefa
e200f312
ec2eed0f
c6ecdef1
04a000f2
1b0fd3f1
07fe00fe
eb07eb5b
e50ff8fe
05c6f832
f803ae11
01012ba1
00ea06f6
e8ecbafa
08fc10e0
f80506ea
e6f40b00
ee0a28fb
08f0fc1b
19f2fded
15e505e8
fa0a00e7
f0070ae8
f905f006
f4fc06bb
00f2f0f8
0d08f602
00f6f5dd
f8e2e303
f40afce7
08f3ccc7
00e2e8fe
08f1faf3
01d208ea
f01afbff
d800d1f0
e8fc02ed
f0f3e5eb
f7e8d803
b9ea06f9
f5e4eef0
00f500e9
cbfb15ec
e700fc0a
ecfaeff7
091f0211
101600eb
f0f9f1e8
f920f807
e00601e0
fdda2c01
01f3f1fd
f2f3f1de
f2f10df5
f01b01f5
bb31ee0f
e7000ee5
430bc4f9
f4f1fbe4
e7f4fd04
f1f21300
e5eff602
feff0807
0e0e2a05
ff0be609
efedfef4
2ff0f8f8
d708f2fe
e8f70fc3
17fbf0fa
f601ede6
f62ef7f2
370eee1d
1dcef7e6
ec0507fb
e6c8f2f1
f60ae4d1
ef0900ce
e9ff0ce7
1cfe0fee
eeeeeaec
1415ede4
12b2fcfa
f3c4f60d
c5ebef01
dddd0b0a
ebd3e2fd
f50405f0
fd02c310
d3f9fcf4
f204f4e9
dff7fb05
f8c8dee8
d903ebfb
0bfe0800
fde1ec0f
00e009ea
e308f0f6
f4031802
0500d9f6
f8d2eef2
ef0812fa
f80c2002
09de1b32
eaf4fb04
f4ff1000
e905c7f4
c5e8f5db
0de9fbfa
040ee9ef
f0f306fe
f7ea00ee
dfdff5f3
e900ddec
eaedecf8
00f0f6fc
ec00f102
fd0af100
0b020aea
faf8f9fb
e509f8e0
d7fbdbf4
10eeebfd
fc0c0603
06f4fc06
eee7fee2
0aee01f2
0403ea01
f6e9f500
f5e90001
e0effd03
13e3f5fc
fdf8fafc
f314edee
03edd3e0
effbf7f4
0dfefbe7
0eedece7
efeffaf5
e0fef6f0
e208ec0b
0afd0afe
eae90009
f102d4f2
f3e2effd
f000f0f7
eee10d00
f4eeecee
e5f5eeef
0e10060d
f7eaf2ff
02e207f8
fa05f0e5
f1dce5fc
f8e800ee
ec05fcff
faeadff9
e5faeb0a
fc070ff7
f2f4fc09
e804f0f2
ff0712fd
e9fa0600
e1fe08f2
ee090606
f202ef06
d9edfbea
0a0e06fb
ec0907d3
f2d50704
0efce7fb
e3fce3ea
f900f4e7
e909fedf
11ec0f0e
ed0be9e5
dda90e0c
1315c8cf
09d9fa43
0bbefe0f
3bf3f9ee
f9c3fef2
8f09eeec
0fdef8ec
f602e3ed
dff801f1
cf3ef3f1
f905fdfc
f3a5a6b7
a70bec16
f5f5bbf2
09ec07ed
efd3080c
d8ecfcf1
0ceef1f9
c8f4e6f7
00c9ff00
39050006
fbe40610
08b0eee5
ca0f14ec
5de8ed18
eef5d4f9
e1e6f812
07daefec
fb01dffe
fcf809f2
ebf3d2a4
e3f9f107
f5f9f2c4
e4dc0bf5
e0fe0ef4
f0f9e40b
fb0906f7
0cfafd13
09eee5de
32f009f0
0ceaccef
08fceff5
0de00be9
e72df1ec
03eee9e8
e90ec5f7
f50afefb
ecf000f1
0c03eef1
e3f9fffe
faeceaee
e7efe741
fbead8f8
f3f80007
d3fdf4f4
05f807d4
0700e8df
f70ef0f8
e3f1e9e5
eceb0aea
e5f8f8e9
05c9eafd
0709e9f9
ea03e8f7
ed08f8fd
00e8f1cd
fff2f9ef
0410f6f8
010204ea
e30a03fa
c61d0cf2
d7d7dff3
cfccce1a
0003fbfe
42f500d4
ddfce61a
eae6e603
0e02f605
c00540fa
e7fa05ef
12f5cef8
13d7ea00
efe9ff0d
e7fefbf0
fcfdfff1
f80ef1e9
0cd6edfa
ede8fa05
0714fcf3
f2eee5f6
e1ccf0fc
d9ebd5e5
e3e800d3
0efcfcec
f604f4e4
e325ea06
01f0e5d9
ebe6fbf7
0bbdf511
06c6f7fb
e4c10cff
e0f6faf0
0eea01f0
02ecc0f5
dcf2f1fa
1cf8e009
fa08f6fd
eed8bbe1
cef6f80f
0ef4d804
ecf6ed09
08d611f6
d80d0af4
fa4ef00e
ddf8effb
05dd0801
e40e1500
0f0d08ed
f3b3f14a
d810f7eb
ec250afc
e60dcdf7
b704fac4
02f5f9ec
f8e8f3f3
0012ef07
f6e8f2ce
f6e7e9eb
00f7c903
00e9e9f8
eefce4f6
01f0e1e9
edf5e9fa
030a08ff
efeadcf3
f1eaffe6
d407e00d
0ddfedf8
fff7e3ef
e6e90d07
f9ef1100
e4f3db3c
f1f3d8ef
fce8f8fa
f7c9ec09
cdeff2f0
fce60400
f6f8ffe9
f5090006
ecf6f0ef
17f9f5db
15f9ec0b
0704fbf8
e4fef2d7
f1edfad5
e004fcef
090404f2
eee61100
f1feeb0a
ead1e9e7
fff3e5ee
ebda01f4
faf807ec
fff8f8f1
e9060bf8
fae80509
eaeaeffd
e9ddf2e7
04c9e4e6
e5e604eb
f10400f7
f4f7ccf1
e9f6f3e9
edfd0cea
ecf6ebf0
e1ff0ff9
f703fdf9
def707fa
ed0df403
e600fde4
30f7080b
e2fafcf3
fadf00fc
e5f904e1
e2cce9ed
08d9dfe4
fcdc01f2
f403f7d7
fce7e0c6
02f407ef
f111f9d0
e7fbfbf1
0109efea
eeeb0809
f7cbfb0e
e8ed02eb
ede81012
f210e9fd
08eafa00
fb00d90b
e5edf6f9
f2faedf2
07f9fe0f
f5d3ccd4
e6eae4f7
0a05e3f2
04f9e5fc
06c7eded
f3eaf2fc
020cf604
e501e314
01de09f5
def2e80b
0320da0c
f4d3f7f8
c311fe00
e901eaff
f2eee0e8
dc07fdf3
f1f5ebfd
fbf6f300
f7eaf1f6
f10df6e5
e3e20bef
f0fdcdfc
fb0303ff
f7e5f6f5
e3eddff6
0d05f8f1
fefa0a04
ff07eff8
db07e7e3
eaf8dfdb
faeeede7
f6f5ef02
dfe9edff
00e9eedf
08f2fdf2
f2fbdb10
f3f6f6e5
09db0c06
f6f0f5ed
f9f4f5e7
e80d0bd7
fb0ffff1
00f4e6f6
fc09fcf4
e50fe3f0
ef0ddce4
e7e1f1ef
f8e9fdfa
f7ffecf6
fceb04e7
efe5fd0f
01eedefc
e4d0eaef
fafbe8d9
0cd800ed
fdfbf3ea
feedf2f4
f2f0f6ef
edebfa04
04d204ff
e8def202
f4f5f7e4
ecf80eec
f70be9f0
0bf3eefb
deeb05f0
fbf50bf2
e7f2e9fe
0bfd0105
e8fbdfee
f8f50bf2
00f9f1ed
ddfe0dda
f5ea0cfc
e5fcf601
0cfbece7
f70af8f6
0cd0f1f8
f7f2f3f0
dbd90408
ebf8f9ec
f9e9f1ee
ffe807ec
f0fa0be7
cbe1f8f4
0a0bc712
febdf7fb
ecc9f9f6
f6c3e5f5
d6b5040d
bb59bf05
f2eef70f
f4f5d401
f2eef4e0
bae6e205
0beb090c
0cd6e6c7
c3f2ecf1
06022105
f00ed0ed
edbcf6ef
f2060302
10fa0eea
eaf1ca08
0dd20ef0
f103e302
fd3bffe7
030ae646
bf0a03f9
0ed5fedc
e2e8b103
faf9d1ce
05c80af1
09eebf0c
f01af225
060bd80a
03060700
ff08e102
04080d27
dbd4f4f1
f3e2e6e3
fcf3faed
e70a0bef
0a0918ea
dbfefdd4
01e121f8
fce0f0ef
ebe4f002
d100d30d
fcde04e0
fcfcc0c1
00231009
f2e3daf2
ecdc1401
0306f3f0
dcfceaf9
1212fedb
e5f6b5db
03f6bdd4
4a08def3
f9f40517
e3f909eb
f91800e3
d5f0f7fb
f0d9fcf1
ea060308
fac4fe00
f7f8f004
01e3020c
00f1020d
ee110c05
f3f6cd14
feeaea79
10f708ef
ee260ef6
3dccfceb
18cf28d7
06de1ddf
e500e4f1
cdf8fee6
3be8f7fc
f7f0000b
fcfb03ff
f91315de
f2f1d600
ea00dfe8
1b00fafa
efe6fbf6
15e0f3d1
d0dff6e9
e9faedfe
fa35e7fe
c7fffde0
1a5fddf3
ecd4fdfc
eed3fae3
f0051805
e905d6af
010f11dc
e00cf3c2
eed7e6ea
f302fdcf
e8cf0a4e
01ae0deb
28c4fcf7
d4b402ff
e705fcf7
eeff0aee
0d15b9f4
c4f20302
ed15d2ff
0eeeeef3
ffb0a1c6
dd06e3f2
edf6f010
fdecdfe3
fad2ef03
e3f1010a
f1fa0de7
c705d0ee
08dc0c05
f5f0db0f
e546000c
fcd3ea36
c90d04f6
10f9efec
e911c8d4
cbf008c7
f30213fe
eaf447f3
eedeedf9
0004e7f4
ecfa0008
faf8f612
f2e1fee4
0b1aebeb
fae9d5fa
f90ce8ef
ee04e8f1
e1e0fee7
d70605ce
e904e9ed
e9100e0a
0b00f8f6
caca0502
d802fa28
e7e91f0c
f8f9d5ed
fff7ecea
f104f7f1
00fdf5f5
f805e7e2
effafad4
f4ffe4e7
e3ffeef6
cdfbf5eb
f4f5f2ec
01efe3eb
11df01fc
2025f2eb
0307fa09
f2fe0000
ffb6f2f6
f5fa0f09
19dd0f06
ff0c0acb
ebe003f5
0008f7f5
fc0dded1
f4e40aff
f8c3f0e2
f4e1fef6
02fb01f4
ffffd700
f9f8f407
fb1aec07
fb06d6f4
eded0005
ff0308ef
02eed4f3
fbf4ec01
f50dfa04
dcf5fdec
e30ef0ed
eeecfad2
b2fe07e2
e8e8e8fa
0304faeb
e5f5f9f2
f0c5efc8
0b06ef07
eef5e8fc
0a0600f0
05ebe717
080f09d5
e0fc0dc7
ddfa3afa
0f0adebc
f312e8ed
f4bdfefb
ead412ef
c6ce0409
f337daf3
060504f8
00f6bffb
e8feeee2
0901e0f9
e6ebf00c
0fd0d0c3
c6f7dc18
0cf8d8fd
fffce2e0
0fbd0f0a
f609ffee
07ee0c0c
d70ae4ee
12cef604
fa00ecf7
f34005f0
e8c2f1ee
d20e11f5
fadf050e
ffeed7f4
cdeb04cc
fe04fdf2
f9fe02f1
f9faeefa
0900f924
dbe00000
e4faef00
ea0303df
f9eee800
e4f9ebfc
fbffdf01
00e5f5e5
fefafce5
f70607e4
d403dfcb
08fb01e8
fd04fd0c
d8f5dfef
e1f8eede
07edfcf8
09f9f1fa
02f8e7f9
05dafa00
d8ee00e9
f30be200
080bf8f5
f9efe617
fbf4e1e6
f7f8f7e2
fbfb08f7
fafa03f2
c6e80dfe
def5f4f8
f4040207
e5fcf3ef
f8fb0401
fefbe9fb
01df0eee
eff200f2
f8d907fb
0c04deec
0900dcf7
e9f3e6f3
edffec02
27d8ed04
23f709e4
11ee03dd
ffeaf600
da0fe6f4
fbe9dfe7
defe00f2
f6eef80b
ffead100
0303fa02
02f5feea
f2f4fcf5
e5e7e507
e4edf4d6
e9f1f204
e5ed0bfd
0ee809f1
d3ff0efd
ef0d0af6
f50afefd
f9e4e2f6
e4ef02d8
000be2d6
0decf520
eb02f1af
eba317f2
03f8d305
f944eea4
009600f3
cdd1f4fa
249d070c
0700d3d2
f11bf30e
e8f3e903
cd0cfcd7
a96dd60b
1c050607
0293d4ac
acfaeef5
ee021aee
0107e8e3
f10401e8
00fb07f1
03e5ed0b
de0daf0d
f0c00ef4
e8fde0fc
ef30d80f
e884ecf8
d6ef3e04
fed2fe00
e8f2bc2b
0dfcc0c1
fcbdf2eb
fcebeef3
01e00af7
00060501
ebf70700
f4070b11
10ec01dc
d8f800f2
d80328e8
12080ee7
0400ff19
1ae6cfec
e501fa30
180fd9d4
f2db06f8
0505ef03
e400f114
0801f8d0
130a0010
fef4cafa
19e7eaec
f709e4fe
0a0de7e1
ffeade02
0505f263
f2f929f8
f8ff74cf
f1ff000c
e2e1fcf5
f8121d04
d3f30421
b02df303
f5ee09f5
e0e2ed03
1ca30cee
02e9c60d
11deef10
e4eab3fc
f1ed00e0
fbe100eb
e80001e3
0c02e908
12e4f0e8
d9af0607
f9cb13f1
c5163bd2
08f9feff
01e3ddf6
e4f0050c
ebdaf9eb
f7fa0e0b
b61ab70e
f40904fa
d9ec00f2
010b1003
fbf0080a
fe1d0856
c91a06f2
fee2c310
fbb7f7f2
f105fddc
09e40425
0045ee00
d9e0e3f1
e7f8072e
d51ce20b
030c0f05
eeeafec4
c9effeec
ee0e01ec
0323020d
efd209eb
f8daf603
d5c500f6
3b2611f9
0306f2ff
f603eb0e
0c00fff1
c898dcf5
13f7f4ed
1020eec0
bdfcf309
eaf0bdff
0d1300f8
f3d2f211
d9100306
ead6ed0c
e301dd04
0ac6ebdd
c8e2cd04
e314e8ee
0ba8042d
d8ec0fec
be15e8ce
e6ffb005
0afcb0cd
05fef9f1
f0e6afe9
08d6f706
f50e13ce
f3ed1004
fc04ebfe
dd01f9dc
00e7f901
fbfbfbe6
00edf6f0
14f9f200
eaebedea
3600f6c6
d6f405f5
edf5f7fd
e70be5eb
d9cae1fc
e8fbea08
1d084f06
f8f301f3
f400d6ef
ebe8f8fd
00e50c06
f2fbfbef
f4e3e7bd
e811dd03
10e60807
1d11e4ed
f90cf000
f7edf008
2ff1f7f8
0fe3f7e4
03f9f300
e3e3f8fe
fb02e8e9
f6f71be5
00d1ede7
daf32be1
ec2f0bff
0511e4ed
1205ecbf
f1f304e7
03cdecfd
f3b7efe9
f6ccfae8
0d03fae1
e0fc040e
c7091001
4c03effe
f1e8f2ec
fbf8ebfc
18ecd1ea
f1e802fe
ec05f4ea
e3fbf100
32f30ff8
e4dcf6c4
bcedeaf5
00fd23e9
f3dcf4f9
bffb10f6
efbee0ef
00f5e6f7
05f41b00
d4ef01eb
f4fff2e5
0b06e9b6
eee900ab
bbd222fd
e9f8d4d3
ef0008c5
04e1f805
08e3f8f0
d8c40604
fb48e0f4
f83b0d0e
e802cbf9
e0ede90e
ebc8f20f
0df108ee
0dd3c3b9
e405dc1c
f4f5ebf7
0507fce5
fce3f401
ddee0cf5
06d405ff
e7e9c509
f8f9ff0b
09f5ce01
ea3ff807
f5cc0bc1
ca0b26f4
38000fcd
fa10f306
ef08d4c4
e8cef2fd
f3e9b6fd
f7e9fa08
0011e11a
0c040bee
fee502f8
f609e8f3
f4fae7e5
05f8edf0
fbf1fcd8
faeb02ca
fee002f6
01fcebdd
e50245d8
05120803
f4f2dbea
dac2fd11
ecfdf5f2
ebf4e300
eb03d7e9
fb09d500
f8caf406
f1dffeef
db10e1e5
06fef3db
e506daf3
f7eaf918
f005f3e1
00f5f9eb
f0f2f20a
e51ef2f6
fff5fff0
e911e9ea
d5e00300
dbebfd07
f207e6f2
18daef1a
ffe7f72e
00db01ff
fc01f1ed
040df2f3
ec0af5f1
f0eef508
f4c5020c
0df5f2df
1e31f6ee
04f1eef2
e7f1d9ec
ebf4eefa
f2f6f000
eee3f803
0fe3e0f5
06e7fde9
0100f0fa
f6fde60a
ff070ae5
1fd7f0e0
b1fae9f0
fb000105
0700edfd
f700f5f4
ecfbeae5
fa0417f3
f0d1e806
fd03f5f4
eef7dbec
01f7f2bc
0efc03be
e4d0d0ec
02fdbd01
093e0bb4
f7ce020b
dfdd0412
c3b502ea
fdeef203
f231eeef
03f7aeef
c2f504fc
bfa30ffd
000aedef
01c0f4bf
3e0d02f3
fa0004f5
0f28d114
f3f0eb00
c603070c
f8cbfaf3
18f8deef
0b0cf0ef
2bf2bfeb
18f504eb
fd2e031c
9e0006fb
b8eeed17
ebfeb305
860caae6
f6ed0feb
fbfbd300
e1c5e3f6
0808090d
d2d7e2ee
06f8fff0
05effafe
e0e9e2fe
e4010401
0112ed01
0101f7e8
fbf7f9f0
1b00facf
e8f6e6d0
eb04e4ff
0c09eff7
39fad601
0b0904f6
05fbd1d7
f4f30b13
091a1818
ebb0f0fd
c21d08f4
22efcbf1
fafcf916
ebeefc02
de0e15f5
e8f0edf8
1801e2c6
03e5dbf0
9d18f904
e7d2f2e8
dcd8f9f9
e7f704fe
e34404ed
eef7d015
db01f4f6
00eb02e5
f7eeecdb
0b02f1fb
f8f5f6fa
f615fde9
10d4f7f6
e832f606
e1fcebf8
f918e9fc
1ffd0003
17f20108
d806fbee
df0007f0
e8f1f002
f8d60bfb
0ffd050c
ec0911fe
0cebf900
18ef08f8
eefaebff
2301f3fd
df0b3a16
03f6efe2
24f804f9
00defc03
1539fe05
08d80405
d4e3dfc7
e30049d5
f10601d5
2a0d0351
bed9d80e
05f3c665
02ef08d4
03b70a03
fa14dd0b
01a4f602
2c8dd403
0320eb01
f70fa1fa
e4eceaf3
decdefe7
ddf6f300
f19d0c91
17ebeffa
12f994f0
08ede3e4
f800fafe
f10ff603
08ed0fee
feebeef4
fee7ee1e
3e08b8f6
fae0c5ef
0cbff0dd
f5f5fb05
4f11f2f1
0e00b6c7
5ad9b5d4
f0e3f50d
0107bff5
eff8fd11
f1e81f43
04f7fcfe
f8e2d922
f6db0505
f615fbf2
1f10ed01
0b111434
00e50001
f5feff0e
44ff01c0
ecdae0fe
e0d7f8fd
091531ee
f231070d
f7fff8fe
00fd17e8
00db0711
0d0bf0fd
e10dfc0e
2916f51b
1ff30bdf
e4f723d3
120b2e01
f1ea07d5
eb04d002
07f909e6
070be813
0c1e0c20
e8c0050b
2204fb0d
fcf1141d
bfbfecf9
dfe9dffc
e3550d18
f0e8e408
e2b5e00d
fef2e107
1009e5df
06e8130f
fbcc07ec
eef9f4fc
f1e2d63b
04f6b704
fcfaf3fd
0fdbf11e
11f303d3
e3090c01
d4f410fd
c2eeff04
10f9f114
ed06e50b
16fdf500
e6f2ff16
c511e5cb
80d215cc
a3f6e906
e3e407d7
eb011c16
004df948
0624c9ef
fa19e7dc
e318e1db
05041347
f7ecf6f9
f9fb033b
d9fecaef
0bf2bb3e
fa13e8e7
04b802fb
3af41003
1ed40d0f
2fafdbe6
0d26eb08
f20b07f4
d810efe1
dfcbecf5
f0fff1f9
06b80faa
0bf1f0ec
fa01d705
ea01ea00
fbf4f2eb
0df4e9fa
ece40503
f5f1e705
f3190c00
d212d1fb
00fdea04
effbe6c5
b3010ff2
07ea0be3
e101c6e2
8408c3cc
ecc4f606
eff6d6f7
1205e23c
f7f1f9ff
0aed0511
00f1f6f0
eaf61114
edef00fe
e20705e6
fa07ebfd
f1ebf7da
e2031a05
05f1fb0a
0701dad3
ea08f6fb
0308feed
00dfd4f3
2bdf05ec
0102c4fd
11ded309
f601f8fd
ecb6e707
cdfae30a
02ea1ff5
f509fbd7
0e05f4ee
13fadb06
ea04fef5
fefde23b
1309ebf1
abdb08fd
02dc13f2
d90009f7
ced8f0ef
e6bdfef3
f800ecef
dfb8ee0e
03fb01ea
f0f707fe
e8efee0a
05f0ebf5
06fdf3fb
f9fb030b
083902e9
f505ef24
f0e9df38
ff02efe7
e8f60ff0
01dacaef
2ef5fbf1
e5f70010
eceec2ec
fb04f10d
ee06faee
f2e1f112
d6eaf0f5
e0e4edee
63ea0cfa
bfffebe8
07e700fa
c9f6fafa
eb3eddee
08ebfefa
f6be01e7
eb04fff9
ebf5f9d9
0107fef5
f2faeecc
ddde1dfd
eb0af1e5
ed1cf535
03c3ee12
53fdea03
eda308e9
1de908eb
071309f4
11f7c3f5
f1ecf007
10e5f403
15f0f3ef
f1e9b8bb
bfede6fe
ffffd2f4
00f2e5e2
0de2030e
e900020c
05c3f0ff
f300e901
f4e7f9ee
eff2cf00
e9cdf60a
f5ca01a8
bfecf3f3
f0fa01f0
ed11f80b
da00cc07
f8e90a0e
eef52ff3
e5db01fe
f3fef7b4
081cfc0e
ec0addde
f9f505fe
210fe8f4
e9faf0ea
f400fee6
fff605f9
ef0c06f7
09e9f8e6
d303dcd9
eaf0f904
0ef600f8
ffd806ff
d7f0e0f9
fbfe2ae7
ec08ef00
f7011501
0205f50d
070006e5
e503e800
010aecce
eb1002f7
f2f8f1fe
d9ffede8
e201e6d2
fae4ea07
22dd0a01
f9eefaff
f9effa00
f3e601fc
07c4fff3
ee010609
e6f4f102
eef207eb
f6e6ebf1
f7e2fdfc
00f5e9d2
0cf0f5fe
0bd4ee0e
00cf030b
fbe801cd
14da1fe5
fdefefe4
ff00f700
d6fdebf8
f3e80d07
de00fff0
e6f7ddf2
eee2f503
e5f2e5f2
eb08fbfa
01ee08ea
fae60ac5
b5f6fa00
00f8dfec
ebfdecef
fdf510e5
09b4fde6
f303b7ed
dadcd708
f508e3f5
2900fbf3
f2f4e8e9
f0f4efb3
d2331fee
f80de2e8
003c03e0
04cc080a
3be001eb
fdc3f1f2
df2719e7
f60005f0
0201e0f7
eee9fdf3
f9d8eff7
110bf8fd
e6eec0df
e6fae8e9
f9f213f0
090ddeeb
03daf6ef
df09fd0d
03cef6ec
e8f2dc0f
f4d106f4
cae5d20f
05dcdef4
07cdecbf
d1f8f700
f404eeee
f3fbec0d
b409c6f6
efdb00f8
faf8f3f0
eae90cf7
04e9c8d2
00d8fcee
f1fbff0f
f3ece8de
d204fb01
e5f5e5f0
f3ecfbf1
07fbf1ef
f8fae6f1
f5f7013d
dbebb9db
08d7ede7
f106fe10
d320e000
eef9e1e3
e9fbeef0
eaf4df08
f600e5f5
f40a09f0
f1e4ffee
ec0311fd
f008f910
f10ce414
fdf905f2
de04def3
ef01eaf7
fdf1f3f2
fbf3fafa
ceedfdec
fd0ae7e5
d8e003fd
f3b500ed
f8ee1009
0cde03ff
eff6fad7
f8d3fbdd
ecdaf00b
ec070502
02fd0df7
f1fbfdf8
2ed9f6ff
01ee02fd
b9fd19d3
f9fcf5fc
fbfbf402
f3ffe8f2
00f0f1f9
ebf30ee4
dfe100f4
fae413fd
e806daec
ece0f1fb
dc080409
ecf0fce8
dbec04fd
e5ebf600
0eea00eb
dafe0cdd
eff9ecd8
0000f1ff
ec15f1e8
f8e0e2de
fcfeeeed
0beb0ee7
e7060add
e909e608
f5f7dce6
e818ebfb
0cd90d0a
f603f9f2
e7cdf7ea
fd02ede9
12ecf1f2
ee0bc9fe
01feeff0
f5cee8f9
f1e801f4
ed06e4c9
e308e2e8
05f3e4fa
10fef0e6
0dd0fdfc
d6ed0004
f0eaf00e
d003e511
f7e8fcec
da00f300
fcf0fbee
06e5f3e4
d802fb0d
d70c08dd
e4f0fad8
e1eff2e4
0902f4f6
fc0de8f5
04e900ff
0600f1ef
e3e9f4e7
e2e9ce04
f3e9f40d
ee03eeed
def2f6fa
11fef1ec
0907fa06
e7fff0e5
f1f00ef3
f8ffe4e7
09e60a00
07f7e5ed
e7e9fe09
02f0eb01
1102dd04
ecece6fa
f202f1ec
f1dfff00
e6e9fbf9
f7f4f401
ece9eadc
f60de1f9
0bf4eded
e710eb04
f2fafaf6
0604faee
d9eb08ed
e90404ed
edee0b07
fffaf5ed
00f4e810
ea10e4fc
e8ecf8e7
00e9ece1
f4e7f9eb
0a00fde8
09ecebf7
fcf507ff
e8dc0000
ffe9ee0f
05efeafb
faecf2eb
00eafd07
fc0608f0
00fdf0e8
edf0e900
f600fc02
dff8dd02
00f10cef
ebf6fef9
ffe2fef9
fcfd04f9
d9f2f2eb
e2f600ec
ed00e7e6
fde2f7e9
01f1f5e3
02f000ea
01ecdeec
e7d60600
f8f9efd3
eefbfed4
f4ecf4dc
da08ebdf
e037edfb
0300ccc5
fb260dc2
eddd040f
0615e4fc
aabbf7ee
34f9d5f4
06e3f7f2
10fdedf6
6406ecfb
dc8fe0e9
ebe90909
ed19d9bb
f7ff03cd
eef2df0c
0b10fae0
fcf0f901
0612f9fd
f627e6fc
dffced0e
1034f6f8
be01c1f0
edf6d305
edf8eaed
b8000200
df3200bf
fa09d706
b105b5ee
03b90501
f609d4fc
00cfedf1
04f5fc8e
f1d90ae9
e80002f4
f9330011
e9eef107
f7f9f9dd
f90ce6cd
f9fdf4ea
f2eff4ea
f2f7e7fb
f20af730
f8e7f400
0104ff03
02bf1cfb
1504f6f9
edfd0a12
f1f0f907
0cec01ea
eaca12fd
c1fd08fb
dde50602
fb0a02e5
0ff0e910
f211fcdf
c6fcfc00
e40ef5f5
ec07e4f2
b9eef6da
0deb0003
f4d6f605
29f7f5f1
f8f20bf5
0ff3e3ef
e1e4f10b
0202e8fc
fffd14f9
f1f208ee
00f0f0e9
ebefec08
e2e10903
0dc3f6f6
c4eaec0d
e809daf9
efebeaf1
e50300f0
e9ff10e9
06ebe3e9
ef03f10a
ef12d602
fef0f3f8
fae8ed00
faf2f10d
dff3ef04
cffaf0f3
7af7eae7
dfe81af4
faeb0303
c7070314
fec801e9
f407d8f9
ced408fc
0ff7e7cd
e9fcdfc8
ebf60cf9
e4fb06d0
bbbd10ff
ff0cb5ba
0056f82a
00dcf5fa
00fae90a
c9befa00
3633d0db
facbf40d
0702bc02
48f8faf5
eca6df0a
fb0300fd
0303c7d4
a3f5eecd
01efe005
e82ae6e8
f2f200f6
00f6f210
12b6e6fc
d4f32603
fcc2ecf0
f501ba03
e5b3eb04
fddc09b1
ae0820fe
1be1ede9
0002f011
63eddad7
01fa01e7
02ebb9eb
01ec08f8
f403efb5
2a18e903
01f6ffdb
f500ec15
bd0dfce8
d50ee1ec
faf202fb
03fc000f
e91758f4
ed0b09b9
faf60b0d
0ad80402
0501e8f2
fcfdf4f1
0004f1e4
f90fc2c2
f5095efb
110d0b02
0ae9eeec
e9f8ede4
f0e30806
fdf7ede7
0b12e00a
e2f1df03
f6fbfe09
16fbf5dd
05f308e6
d0aaf2d8
ddd205f2
e3eb0f0c
1be6f6f1
2931fff5
fb07e201
d7eeecf3
000211e3
08f516ea
0bfd2319
06f9fbe5
05ff00f0
f1f801e7
e0d00110
e9e3de12
2aead232
18f9ff04
1300f3f0
c2e604e2
f2ebfdf8
dcf010ee
1ff7dafc
eafefc02
e507ebf0
f7eaf3f3
cce912f7
eeddedc3
fae708fe
e600d004
0db0f5e3
090e02f1
eeebf6ed
f60bcfe3
05d0e7fa
e908e1db
c9f715c5
ec03f4e7
df0903d7
ccd8efef
fe0dedd0
001c06f6
edd50411
dc59fdfe
e9d7000f
d637f400
f30606ec
e908d5ff
48050203
06d4edfb
e2f9f8f5
0effcfd3
e203f6f4
eafeeb10
11e7fcd5
f5f40ef6
f100fefb
fbdbf2ed
e00ef80e
fdfd0b00
e1eec4fa
0cd5ee04
f8d400c2
b806f805
e9edfcd7
0f0402e0
fbfbcceb
05dfecf9
edf0e8f4
fce50405
e7f004c8
edee10f4
f302e9dd
f002fc0e
e8e2eee7
02eee9ee
eceaf4e6
0411e7ed
f701de02
ed0d06ff
e5f6df09
10dfea09
e6fd01fa
ec16f0f7
f200e2e5
f0f4e2d8
040c1e03
04ddeefd
020cf403
dafdeb01
dffaee06
e70ff100
09fde5f1
fd0fe4f9
38f0f3f7
e60cf4ed
f4edebfe
ffec0df5
e4000408
e5f3100e
f2daf503
ddfcec0c
ecf200fe
f2f9e8f6
020cf00c
ebe3eee5
01de0004
eded03f6
edfef9ec
002600e8
dc0b06f7
eb00f610
f0cdf60e
ebe9fa00
e9ea0710
f8ebe00b
f5ed06fb
f10403ef
bc00f8f4
f003f100
e6eeeb03
08e9f5f6
f0f1f9f7
d1eef9f3
daff03e5
e900edf5
fde00bff
0b0703fa
08e7e0fb
0cddccf3
d8dcfbf1
fae4eade
e6e917d9
fc0eece0
de0d0eec
d4f5ef04
eaf5e1e4
0d07f5e5
ffeff80a
fd0b0af6
e7bf0a0b
fa08e104
02030710
ee12dafb
14f4f4e1
f9cbe408
fbeaf400
eaf5e5d2
dbfcffe7
08f4e509
fef2ebd5
0de8f70a
e8fa0d02
05d804eb
dffde4ef
f6f1f204
f400f4e9
f1e7fcf2
0deae5c5
c609f7fb
e802f3d9
eeeffad2
e702e2f7
09f9ec0c
f605e8ed
fdf6f5fc
0100ead7
eef8f70c
fc06d3f1
ff070f07
e8edfe00
00f4e0fd
f8f7e6fc
090de4f6
f4fdeff4
ea06f3f9
ecebe0fb
f1e5e9fd
f905fa02
ead9e10a
f90e03e6
fbfdfb04
f708defa
f30500f7
07d8e6ee
f0e5f2ea
ddf301e9
ea0206f4
0006ec01
eae8e3f4
d9fcfdf5
fbf8ebf3
fe08ebf3
d3e10701
dde606f1
eae807fe
de00ecf6
00d60ffb
f7e8f60d
eee6f5e9
070deaf8
fdf1f6e4
ff03e3e7
f70ce502
0bfd05f8
fbf400fe
f3d904f9
e20001e9
d6fa00db
e8060ef1
010c00e7
e9f2f0df
e7f10ffd
e606ee03
d0f8d50b
e3f1ff0e
fceedeff
ece6e7f2
fdf40e05
d9e508f3
e6f100fd
eef7e6fe
f9f7f0f1
ebf8effa
05d5fcec
f9e2e200
dcd5edf0
feeee0d3
03edf2d0
05000dd4
01ecfbd5
cce3f004
060ee8d7
effe11fc
ffd4fcfa
ec160015
fbe306f5
f3ee00fa
0506f3ea
0b0ceb07
210105f5
f2c4f806
df0007f2
00ebcdc5
f9e9ece0
0b10f808
edf503e6
11f3f4fc
eef8fc10
f9e611f0
ebffee05
ed0507f5
f2f5de0e
e7dfdc04
f4d70fd5
d5f2e5f5
fc0101df
f0ed19e5
eeebd30a
eddf00f4
080df2ef
08fbf8ed
00f6e1d7
f90501ec
fcf6dfd7
eefffdf1
ebf308eb
fbf9d9ff
eb00ef00
e80ff5f9
fffee7f7
fcf7f6f1
e0f0f8e2
f8e90fef
fa0bed06
d4cbe7f2
e4e9f9f0
07eedbe3
0ff800f4
ef02ffed
05ef08f6
ea0bec0c
f2eb03f3
f000ecf2
0ff6e804
e802ea02
e8ebe3ef
e0fe00f9
fb0bd8fd
ece80ae0
dde2f9ea
ebe801fc
e1e6ffef
e5cbeb11
0400e3ec
f1dded0a
f71202ed
edf0f1fe
0fed04f8
08f3f5fb
0c0f000b
01d70cfd
fcebfaec
f6f5fbfa
e2d5e5f7
02f40dfe
ef05f706
f8efd205
e600e903
ec0f04ec
f006e2ef
02f8f3f0
07e9e403
e80cf8f6
02fc040e
e9f40400
df03f0fd
e209f709
fbfb0aef
06edf4da
0ce4ecf6
fae2ecfc
02e1f6f0
0af5f3d4
e602e2d2
eaef04fd
e5fa11bd
d8cfe7f0
ec07d4e9
061c10f6
00d308f9
1f1af2fd
cbfff4f4
c30ed700
f3e1ffea
01eab0eb
320ae3d4
eb8fe50b
0c0ceaf0
f637d5ba
3c03fbe3
03100500
f71cf6e4
11e7e90e
e0000aed
f6ae09f0
c5efe5e8
01000bf2
f8f3cef7
feb6d0f2
0c3ff3ea
c50be7ff
e5eef9e4
e6f8fb04
d006c1ce
0115faf7
ef03e610
0c1dfae0
f50af4fc
f2450300
f202e1da
f104ead3
d3f0f501
30f90fea
0df1f3f1
f9fde8e7
02fef30a
daeef3cc
f9e40011
0ae708ea
04e8e6fc
c1ea0408
cfe3e5de
ede2e2e8
060719fc
f4ede3dc
ffcffdf6
f8f6feed
fb14ebd9
15e900b1
eb0cbbfb
14fc0317
53f1faff
efee03ec
e4160506
b4f700fe
e2fa04e0
eff102fb
0027fced
197ffaea
f700fc07
dff708ec
e10000d2
fad8f4eb
f2ddf511
e4f8dce9
08ebf103
04ce0006
e5ccde0d
ff1df109
f1dde0d3
060213eb
c703e00f
48e8eeea
f9deff01
f903f7f9
f0eee506
00fafce4
1d0de6f8
ef0003e6
f4f9ea12
f0e702d7
c7f8fee7
f2f11907
0d0af202
1a05efb1
0abffe09
fbe0c8f8
f0f51307
e8fff0f8
dbfff2ed
f1fe07f8
ddeef1ea
d1b6f103
eef8e515
ef3bf9c3
04e003f1
0911faef
33ca0ce9
a1f2f7df
060307e9
f510e600
0dfdeff0
f19ed805
1101eb0b
f9cad4c8
dc0ff1c7
fa0b38f8
0707fce4
00d7eaff
e20cfef4
00cbea04
e8fedefc
eae205eb
10efb1f4
eed1ce0d
ec26e989
de0220eb
1ed1fcd8
ec044c24
27eab518
f0db0c0d
f205c4f1
0dfd03ec
0801d4a7
ed14faec
0307ddf9
00edf2dc
0fe6f8fc
de0909e8
f0fdedf2
060d0bf3
0800f100
f1f8f9d6
0808dfc7
0aeceff8
12ee04fe
d915fef0
d4fce5e8
11e7d3dd
f0f8130a
e7e4e7ee
fe02ecf1
eef10bf8
f500ebfd
eafbf82f
f3f4ba0c
e7edf3df
d8fd0b05
c3ee06e7
f40301ea
c6d3fb00
c3d2faff
d6e10605
cdf3faf9
10c7070a
f10af0fe
eff2e302
eefbfd0e
eed9f2dd
0efef3e6
e1ebfcee
e8e814f9
f158ef12
ef18f8f0
dddcdc03
b4fbe83d
f1f60d00
2fef16f4
cafa0d13
e0e51000
e8f804f0
deeaf8ff
fce9e4f4
d5f7f8ed
0be20aff
f0010202
e50cf7e3
cff0fbf1
f9ede701
f5dde902
0903f9e1
ef1ee115
07f9c30a
f0eddeef
f20bfad0
e10122e0
090200c4
f0e90dd0
cf3334f0
010924ca
021af4bb
f1cb0500
01d8fc00
dac8110a
d64be2f9
f0bf0210
edf8aef3
d109ebdd
63ced6fe
00f5f710
004dd4d3
ff00f002
f9fdd0f9
eb03eff9
06c3e801
e40ae9f1
f0dffbed
dc09e30e
04fe0c00
d10dc8f2
ebebdff4
f9a500c0
e0ecf806
daec0bce
e50c16f7
d1fffa06
040d07ff
f2fcd30f
f1f3ffff
0708ec06
00ef0fee
edf4091c
06fdf7ea
ebf604e9
ebf1e205
ecedfce8
00f9f7da
fdfeebe7
e5f3f6d0
edffe2e0
ed00f6e5
f101e9f6
d5e6cbf8
d3efe4f0
ecfdfee2
0bfaecf4
03e6e2f5
e7e90804
e6ebf7f7
e8fef4ec
09fff418
f80ff210
0afff2ea
eb03edde
01fb00ee
f000f405
dcda09fa
e0d404ee
ec0fe6e9
efeced03
ff0d0d07
dd09def6
e7dff4e0
eaf4f4ea
f9d30afe
00d8f6ff
eefae1f4
f70106f5
e9d6e1fc
0cc5e8ea
08ec16f8
43ff08fd
0beff3ef
e323e2fe
dcf0def2
f0eeef0b
ecfa04ef
fce1f900
f1e7f8f8
d5ede013
fce5f402
d9000302
e9e0efef
e8db00ed
f00003f7
ea08eff8
ddf6f3f0
e3f0f3f8
0206fc08
efd7ed02
fcebeac9
f0f3cedc
06ebf3d2
ed05f9e1
e3e3df09
ff0bece1
f107fcdf
ededf406
e600ec07
f9dbf4fb
d5f40df6
f1fc11fa
0603deec
f3f6f800
0fd3ef09
edfef70c
1002dad3
00fcf6e5
11fc0eff
08e416f5
ffdb0902
cc090af0
f2e2f8f8
cc0ae002
0009fc00
ed0cdae8
05efe0e9
0addffca
dafa0cfb
ecefeff1
e5f804dc
cee9d5f9
00f3e903
f8ede5f8
e5e80303
050ef0d7
f6e3f4ff
07fbf3f1
f10410e6
02f20ded
ecf6e6e3
f308fcea
fff406e9
e8f0e9f5
fffbfdf1
ec05cfe0
f10900e7
01e8e901
f6d9edf1
ece300e4
f60cf2f8
f4fae305
efece1ff
eb00e6e7
eaf40406
f1eff4eb
07f8f302
ecf4e5ed
00fddd01
db0ddbf2
e2f4e1d3
0bf0dbf0
dfe6ff01
f0f505ff
e90710e7
edf409f7
f8cf0ce9
0900db0e
e9cf0bed
e5f400da
00e20400
f8f9f9f5
f004fff6
0a03ee05
eadb02e2
1bf00808
fbeae2fe
e6f802f3
fd040cf4
e7efe4fe
fff600e2
db01f110
fee50b0f
dbfdd100
f1e6e6e8
03f60002
eef8e908
e50508ee
f1daf5ed
dafe00f2
e5ecfbfa
0ae7e703
eff0f6de
0aeefce4
0ceee402
f5d9e6e8
02f7e5dc
eef2d2f4
04fb07e2
f5fe07d0
ee25fbf0
e9f6f0bc
fc2407da
f2ccee0b
11d0fef7
21c30304
a027daf0
ebcd090e
0dfddcff
ca120afb
56e4f701
fb000ded
f208c8cc
ea09e5e5
f3effff7
f7eff0f5
fec50a06
d704f104
f4e5faef
dc06eaf5
edcdfaf4
e1ec0805
07ced4e8
ebd9fea0
cf00f9fd
26d9f108
def21bf6
da19f915
eae5eafa
e9eee8e9
edf1000b
fef6e0ea
00020f0a
08fa04e8
0609070f
e1f20205
d5f5e901
09effbf7
f8e9e7de
e9e7e0ec
fc090afa
e4fec5d5
eee4fcee
f3fc07ef
e4f900e8
100af0f4
ebeabff9
eef0e100
fa02e9dd
ead5f903
e3f0f3f1
f7e003f7
e903f12e
000eeaf2
f2e2ddf1
ddfce7f4
f6e5f2f4
f1ffe9e8
bfd50ff4
ccefebfa
f006f0fc
f5f0fa05
fb11fb00
fbf4e00d
f5e4f10f
04efe2e2
02eff5e4
e3e1fafb
0200fc04
05f3edec
f63de7fc
e30c0900
fbe512d9
e8ecf3f2
fb07fb0b
f7f7e3e1
e5ffdbfe
00fcecf2
01ffeff6
dde800e6
e701fce4
e7f1ddf8
fbf7ec07
d70cefea
e4000422
edf3f2ff
fbead7fc
fb0500ed
f8ff01dd
0b0001e4
f4001ae5
f5d4fbec
e1efdddd
effcfbd9
feef09cc
f90eecd8
f4f5ec0c
f70ffcd5
110107f0
f2e8ec06
d9fa01f7
efd0f3fd
dd15f8e0
01e00f06
0500ebf9
f3eefff7
f4cffcf8
e1f20b0f
16eaeddb
dc00f8d4
0e04f6f1
0df30de6
f7dfe806
f40606fe
fefbe4ff
dc04e10d
fdea0fef
f4fff400
0af1defa
08eae7c7
d9ecf3ec
f3f10bd4
ffeff7ef
cfe9f301
f0ecf807
07e6d9f5
f6f701f5
03f4e5e0
04dff507
10fbe3de
e3fb03f0
dce2fdfb
ebfbf9e6
ecf3f6f8
06fd07e4
eafcfaee
e2eb07e0
f5eee1ee
04fe06f3
fd0de0f9
dbcbeafe
02f4ec00
0001feea
0700e202
04e303e5
00efedf5
dcf3fb0f
ede6ef00
f801eaec
00f6f6f1
fcf1d5fb
e3f5d9ec
dfe9e5fc
fa0bf1f8
f7f6eee7
f4e90deb
ebed0c11
f5030304
ffd1f005
e4f1eaf3
e3dbef06
eb00e8f9
05d4feed
f9f8eef7
e90701e7
f8050300
edde0b04
ead8f5f9
f0e7f8fb
d2eddef7
de0408ff
e8f9efea
fff4d4ee
f8f0f00a
f10600ef
daf8f80c
ede8e8fe
faf3f2ed
f9000ffb
f5e8edf4
cef2fddc
f3fd0bff
ebf0ebf3
12f8e9f6
dcf2e8e5
eef3f6f6
0801f4f9
d7db0402
e1e6cfd5
ea05f1ed
0608f7d3
f90604f3
ebd0f204
09042ec2
f0cc04ef
01e4eaf2
2fe1efe4
fed202eb
d1e3df1c
f90f0b01
f004d804
ce0df60b
04a0eb09
000cf2fc
0407bed0
1aeef0b3
fdf8e508
01f5eee8
01ed04eb
f5f90ff2
08e205f0
c4f00801
f2f705e6
d3ecf8fb
fb0edaf5
11a404a5
060018f4
5dd509e5
fe052cdf
e3ddd700
1ae91301
e8f0dfeb
ece30a0a
09e9f4e9
ea1c0604
0102d6f0
09e5e901
faecf8ed
fbf7f500
eb11fb00
eaf4f8f3
ef01fcec
0ef9fee5
e2fec310
ecf4fef9
1112efe3
d2f3f6f4
faf8f9e8
0410e7f6
01f6e3f4
fd08dc00
f707f3f7
0709ef0b
f1fffc06
f5f40400
fcfedff4
f103ec04
0607dd07
21f6e800
f1f0ee05
1c3df60a
e32ef0e7
09f5f5ee
e70fff0b
eac70b09
04f41eec
000a0504
eef4f502
fded06e1
eedde906
f608fd20
050a00eb
f9b1f203
e6ca0bf0
f9f3f1e9
f1f2ddcf
ee10f7f9
02f5f8f9
e906dbfb
e4200108
fafdf3f0
d5e1f500
000a0200
db0bea12
f9020309
d3f40cf0
05e6ed18
adf7eb13
d501f209
02f409e5
f9f702d9
1603f6e6
f0fcdb03
f8eae9f1
ec0ded02
e1f2f441
02f606da
00f7f2fc
012fd90e
0b0f30f3
0cd5fdc9
f4dcf205
22daef08
1ed10dea
a2aee40a
f2f8feff
f8f10ff0
d210ed02
0ac2fffd
1305e6ed
e800bdd5
350aeeba
e90ede01
08fcf700
f2fafe0c
e1ea0608
00ed10fe
c3fefd06
f4ececee
b61513f9
0a1a00f0
eac8fda5
05f4fb10
21c1f2d4
fd081be0
9e07f7fc
0dbaeff8
f614e3f6
e4feef0c
00eee62b
e5dafb0b
fbf9c4f9
06faeef2
dce8ee04
e312e402
f408ffed
fbe7041a
e10ce9f5
03f1f1e7
e9f0ead5
fe01ea09
ff010e0c
cfd8f7ea
e30ffeee
1a04eb28
0317e1ec
e8e6e8f6
0dd4fc15
d5f7e7fc
e5fef0eb
ed09f3f7
fc04d9fb
f2fa00f6
ebf2daea
08f40137
f400df10
b71cf200
cb0ff5df
ed0ffae7
d703ede2
dacafa04
0efbebee
31da04fa
d6eff110
ebd2150a
f7ea0401
f9fee311
e70ef4ef
0a00fc09
0ee2f70c
edf2f5db
e1e1e8ef
eefcf7ee
0203e7ea
f0dbe0f7
f3fbedf5
07e50708
fad9effb
04fbf4fa
0404f305
d7f0fa04
00080afb
dbf2101f
e9f6ee13
ed13df09
0efbf3e8
d8030ce2
0631f4dd
f3e7f903
17f5f002
f2ec00fe
fff2ebfc
0dfeeed0
f40b0aa1
fed11f01
050a20ba
e9bf07ba
efedf200
03e80409
edd1f7fc
e031f4f6
f2d10200
eceaecf0
d0e90c17
25aedd03
fdf5e9f7
f868c6e3
fbeffdcd
eff01efe
09060ee8
ebc3fbed
c9fce9f3
00d4ffeb
e305db10
0dd7fde8
fae8d0f7
02cfdcee
f80bf69a
ccff100f
01d110c7
02f8ff06
fa20d9f4
e5d40202
ea0acb0c
ec06ece4
f900ee11
ef13f3ea
edfa02e9
e30809f7
fa02efe5
00f9e7ee
09f4f9ea
edeaf1fa
0300ed05
f103f4f1
d002dfda
f9eb04ea
00f5e7f7
0803d90d
ecfbeef4
fffafefc
f304e904
ed06f0da
f2f90003
000500f8
e90fdfef
0d0103d8
f1fbe7ee
eaf2f0f8
05f606fd
faf3e5fd
ff0b1ee4
0d1c00f3
e6e7fbf0
03f208f5
dff4edf7
f5fff500
fcf500ef
f7ee06fd
e3eae1e1
f4f2f5f9
07e4dde8
f5feea0d
e6f0e8f1
0cdcf6f1
efbdff08
01ee07fe
d90ffacd
08f803eb
f3f6ffdc
1e07eada
fa00e4f0
e9fbea03
da020109
ebfbf707
0df0e1fe
1300050a
e8ebe307
f8ece7cc
dcefecdb
04f1e9f2
ff09ee05
f40100f3
00ca0b07
0516e202
f5f30cf7
cff8f708
e9fdf704
06fb00a3
f1f8ef12
0bebe306
05f8d9c7
eaf70cba
041af608
a4e4f910
08eb0bf7
cad7e9ed
eeddf9fc
f80534fa
e3f01005
30a0e20c
08f2f0eb
1944bfea
e4f7dbc7
fcfa3ceb
fa1c0cfc
eee8f3f4
e0f307ee
02ebf4fd
c4f9ef00
ffec09fe
f3fddd0b
09c6d30d
f7280f90
ddfb0ef0
e3c406a7
fefdf4e5
fe0d33f4
fcc81003
ecf6bbf7
fcba0bd9
03e4d0a4
0ae3f5fd
f707faee
10f6eb11
e7faede4
01eff0e2
f2f009e2
fdf4f3da
0c00b800
ecf4ffd7
110849d1
f8def3f4
e7e4e306
00bb14f6
f10cf9e9
ee02f8ed
e8fffb06
0e140402
f3b90916
df0df30d
fbf8defb
0500fe2d
f408e30c
f305fdff
d2f71104
06e2dfd5
060bf1f6
96dc00ef
d8f2041a
0800eaf3
edd90dfa
282911ff
01ecf010
c8ebe7ea
ef13d31a
f9f9eae3
ffeff5f5
f3e709f3
f9fbf6ef
eb12eef8
db16ed0a
c3ef1708
e105f1ee
f8e9ff12
10f5e905
c1df1adc
d209fa03
f6f80f03
e217bff5
f7f2f6ec
eef8e4f7
fcedf901
0be9f9f8
ea0cf61d
4ef7ee06
e90fe8fb
07ff18f7
01edf820
1bf2120e
003e08ef
f3caebed
fbf2e4cd
fd04deb4
ee0100e6
fa0af01e
1fb1e40a
00e91eed
edd1f0c4
ffdffdf1
00ec0ffc
29ea000a
24b701ec
fff3f609
0bef46f1
c2faf3fe
e1b3f5f3
f2ecf4f4
06060219
22ecf3c1
f00a2cf8
ee09f8f9
0af80b12
08fcfde9
fe0eeeec
e8f3d4ff
0103efee
ecebe8ed
04dde807
f225fba6
0f1211f4
fcd6fabd
ea090dd3
e7fad9fc
f5e0e8f4
fc04cdf2
f100fb1d
ef0cffed
120af302
ec0a8bf4
f9161819
f0ee0310
fbfaffec
f6fb0d02
fe09fe08
010b5504
f60befa3
09f25bc7
03f20d13
0f10e7f6
dc97e600
e302fee9
f800bddb
01faf2f9
f3f1f609
f5da0303
ed26e2fe
ede0e6ef
f30209bb
1408d2ea
14efddf5
faf3ecf4
dbf91ed4
fdfaf006
bff5f10c
f3d50af0
ebe51100
f2fcf001
e4c20ced
ef02dd0d
51ce071d
f9ff190d
ece8fe1b
0a1214f9
110c00ed
f7030412
04ed10f8
cca8ff00
fb04ded1
e30ed2d0
05e6f1f8
e0eae4e4
e205d600
f4ff0302
0806efed
f00abafa
01fd030d
fbfff3f5
fcf60dfa
02f6f8fa
3ee9eae9
88cc12fc
b4f8ec0a
f611f4f9
f5ecef01
0e00f5ed
02081f01
e0c8fdef
cefaedfa
18f6c1d3
0110eef1
fbe9090b
03d9c5ed
ecef37e6
f1ccfac8
eafd0701
c3ba0904
cbc909f0
0ddee32d
ecc00612
f7002506
ee010815
1489f4ef
060a06eb
0a0dd40b
efe9e1b3
edf2e7ed
f5e9f4f6
00000908
01fcfc04
0dfff407
d1071bf9
05da0d12
c1fce7e9
f4edf30a
08d0ffbf
25f8eaf9
0cd408de
01fdd7f2
57eb01f2
f5c6f6f1
f8f8c1fc
fcef14e9
08f9eaca
210c0b1f
ebf9bee9
de0aeed7
fd0210f2
ee020004
0d0703fd
ff00fb18
02f0e1e5
f309ebca
04062200
00ece8fa
f505f4eb
c2a1eefd
f0f2f4f2
06e9f9fc
fafff5ff
0a000812
00171507
17f0fd12
0017fa0b
0c01e9c4
effae011
0b0118df
fbfad2fc
12f1ff03
00fe1105
3e37100e
3b0402fb
40eff106
03eaf009
f0fbe7ff
070ff90b
03c816e7
d205ec09
ede202e6
f22b0614
f9fddefe
fb05f804
f4d4fdf7
faa60ff1
e3c8fd06
2409e4f7
f400e510
ea0ef3fe
efebed0b
feff0807
08f403f8
fee4e3f6
ebf404e8
01e8fcee
f8f1f700
f40ef306
f1edf7cd
c4fcf808
c4f6e200
ecf900f8
29f6e402
e9fbefe5
0306ac0a
08eae3f3
e100d410
eaeae1e5
06f2fcf9
000e0dec
f6f2ec10
040b16d7
ebea0ff9
f0ededea
ecdc04f4
d8e104f3
df1108e6
ffeb0403
05f1dd10
e9fa0d0d
00cffd0f
e5ed0d0c
ec25d1f4
e9ece1dc
fafcff06
fb0bf1f2
03cfef05
dcf2feef
eeed09f6
e4f3ef0c
eded0b04
effcfe0c
f4d6f904
09e4ebc2
e0ff0bf2
edeb07e8
f40afdf1
d1faf4de
0df3ef10
03fdffe9
07ff0001
090bfde7
03e9f8fb
0602eae7
06f3fdfa
f80e0d03
e7fadfe9
070de6fa
fa0007fe
e2ececfe
dbe6fcfe
f405e6da
0dfbf9ef
f802f1f5
faece30b
e0f7f3f5
0ff1f0ef
00e9ec07
f4fdeddd
0be3ff06
dd05ee0c
f707f301
0af7f3e8
f5110e12
09f2e4e8
e0fdec07
dff7e3e7
fe0cf400
ebf20aff
00f006e9
e6fdfaea
eff809f6
e5e905f0
edf0e0eb
f7e7fee7
e0f2fcdd
fce3edf1
0bf0f702
fe0debd8
f6eef6ec
e9daffe8
fee20506
f8e9eaec
fef004f0
fdf9f00b
d8fde207
fff7e9f2
fc140606
e7e6fbf8
defde4ec
f7e7f306
e3f9f5ee
02020c10
fb09f0e6
ea00fae9
d7f006e6
f201ebf4
0cf903e5
e7f50ed6
fec904f4
07f3f809
f0d7f2e9
d6f0d1fa
f9fff3f5
f005f817
cde40009
f9b91f00
070e3bfe
05d1f100
0414080b
16db040a
13e6f8fc
00e513fd
eca706fc
ecf544eb
c212f4e2
f6a0eb08
f8f40bf7
ef1ec1f1
c20be5b3
08f5e9f3
f209f9d2
09edf108
ecfcff00
fdebf5e9
bd090003
f2cbeafe
dcfae7f9
f1cadee8
e7d8eeae
f60afa01
00ebf5df
00fb0fe6
32e9fae7
00d5e4f4
06f6bffe
edd309db
0df2f4b7
0fe5f8ec
0e10fdf0
f9e8f80e
da13e801
f9f7feed
f0fce9c2
fbf3f6fe
f5f0f2e0
24fafd5c
f5f3b2fc
fbf1e6fd
ef01e2f2
ef21e1f6
0ae9f11a
feeceaf6
001105fb
00f7fce6
f23c0bfe
f3dfe807
fff3effb
ebf502fd
f4fce9ff
e7fd2cfb
cd11f8eb
d6f5e8d2
fef90204
09d205f5
b5000adf
edbffdf7
d8f8fcfb
fcbaf1f6
03ef4cff
ffceff00
e0fb01e4
fef308dd
f6e4e5e8
08f4fed4
01ec19f6
fcaffbe9
edb0f6f4
d8e9ee16
b8eb1e09
ec00e9e6
19000010
eafeff1c
c4f5ff08
160507ef
b70018ef
03fef70e
d007ef16
eafaf6ef
f6fbe9eb
16fe10f1
b3fafdf6
00f2f100
ffc4f1f7
d7fa00ed
0adaf7e9
0310c107
d9d8dcfa
ebe1d8fb
df01072b
f512f40a
e90be9d3
e80bf3ff
efff37be
00efeec2
fcf1ecf6
00d00000
f2d01009
1b09ffe7
02c006ed
ff050a0e
bb02f10a
3fd1f2fe
04f70403
f521b6ea
c410eff5
000de1fb
fbf1e8ec
0cf30d10
edeefef0
07f8dbea
d1eae505
f5daf7fc
d2ed0006
e70cdffd
f3cbe69d
d3ef070f
dcf6f5e8
db06e4fc
bf0124d6
09e2f1ef
fdec10e8
e6f10fff
09fde201
e8ca03fa
eef3e6ee
f3f8ecf2
da110c09
f9e7f6e7
0008e7ef
f002f5f2
e4ebdd05
f8f8ec3a
ecf2ccce
100bfee5
03eae2fa
eddcedf3
f4f3dbf3
ee003362
f7f1c2fe
02ed1be4
04ebff02
cbfdefee
ce05fd01
ff0be5da
04f127f0
e5eafffd
f4fce8e9
e3f4f813
01e312f5
caf106f3
0c1f06ee
e604e908
e00a0000
e6d60c07
0008f3f8
e9d5ecf5
ea0fd4d7
fde50006
f4e612f4
fef6f1c0
f301f4f9
f9d6ddf1
09c7e905
24d70eef
f20000f5
fbef02f1
ec07fbfd
e4efecfa
e6eee707
050006e8
07ecca09
e40002f1
f106e7ec
e90ee9f9
fc0de806
e4f8f2dc
e5f4e4f2
f3f0ee03
ecca0303
d8f109f3
f0dee3eb
edf90ef5
e3e5f10c
d109e716
f801edd9
f10aef3a
def20cfe
e814e10a
0809edbf
fed4e602
eee803ff
56d40e18
faef1200
9809e4df
ebb40ff0
0c0400fa
be04f7ef
41bdedfb
00e9fcef
f550b1dd
c30100db
f306c1ea
0406f6de
e9e70904
e1eaf7e9
11f6ea08
c4e9f5ee
04cbfaf7
eaede1f0
03cdebfd
003e01c7
c507ff00
d4e60fe7
f8edecf5
b201fb0a
03de06ff
fd08dce5
f6dcf8f1
fdf4fdab
02dc0c14
e4f5faf7
edd3fd19
f4e9fafe
080debfb
f2eefee6
0110ff3e
e8f3dff4
0202ff1a
d007d3fe
ededf3fb
f5eddc08
0370e7e7
040f05e8
15edfce1
05f30007
00fa3cf1
f407f306
e6faf2f5
fb01de01
f5fffbe5
ecf2f3fe
e209eef3
1e06f3e5
ef00d0e1
080ee9f1
1bd9fdf3
d0e20fdb
d6db06ff
e3ed0cf0
ebf2eefe
f1f5c6ee
e25403f2
f7fdf6bd
f012eadf
02f2fdda
0c07ddd1
00f106e3
ebca11e7
d81afcf5
fbd9edde
e9dedfe0
ef0505fb
bbe4f8e7
d9f507e7
d90a0d12
cefaf006
e116e904
e501f9fd
5301e9e9
1ddefbf9
e904f905
00f6f3cd
c9e8f4ee
f5e6eff5
00ce1105
cfffea28
0417eef8
fbf7be04
f5f2fbf3
d901d7de
ebdaf6af
05ffff22
19edf4ee
3dbef8f9
0cf818d5
f2cbeec1
f3ea08ef
fccbf807
0be10f04
fcc0fee3
faa800f0
fa0219f0
ae14ecf0
e593f501
e9f1030d
e8eff440
c20302b7
eb0d530a
01fae8fb
f705f60d
251010fe
0e2105e9
e70900fb
fad01207
cbfce305
11ca17f9
ff41f9a2
3fe8f104
dfcde6b8
eefed5d9
cbe4e0de
f0f2f0f5
f806e207
f7f0f91a
f50d0a7f
e3f90fff
fa04f81a
00d1f5fe
cceedb01
d5e6fdee
fe0005fd
f106e6f2
fb07e9ee
e606fbef
e6f0c5eb
0411e1df
fd0a170a
1614f51d
10d9f7f5
18fcdee6
0cf4e8f5
f7e6fafe
f3a7f2f2
cdf2fef9
e0ef0003
09fdfc39
e8eb16ed
0c0d03ee
f208e0f3
e40609e1
0404edfc
90edf502
d9ea0014
eddefeea
ce050301
cbe80700
f200daff
d90d00f6
fb0ae1cf
e0c618ef
e1e3e9ec
e801dfe2
e5f50103
e5fc0810
cf2c0602
0a4ff6e4
f6f6f704
00f7fb09
12f2f4f7
0ae0e7cd
09fdfae5
00d90be6
daf80000
0af015f2
f0eedf04
f5f2080b
1fe4f8ff
d6f9f031
4a0eff00
bbe9ece4
0cd5f0e6
0c060cfc
f41cdfff
08e30fec
e1e4f5e4
e6f8f7dd
02f1e2e8
07f31300
02f9fdfe
000001eb
10e4ff01
02000701
bafff209
fdff03f6
0000fff6
00000000
00011500
000401fc
000a00ff
00ff00f4
fd011341
f7fffe00
02090600
d90efff1
fc000400
0e03ecfa
000afd00
05fffefb
01f2000a
f8000e01
fe0401f9
02000110
05000100
000a0600
00000d00
00f40003
000bffff
14fefdf1
010200f9
01fcd9f8
1214fd00
f705ef0e
0c041800
00dc09e1
f7fa00a8
fef32be5
f929ebfc
41edf4f9
20ed06fc
09283f00
80ec0a03
0cf92aed
f702f217
09f80309
03ff1008
fd00fffd
edf2f7fe
cffdf400
00fdfe05
fdf6aeec
0afaf9ff
14ff0d01
d0f80013
f7fd0000
00febf0f
f8e8030c
0e02c835
08fffab8
00fef909
fa02cd2e
f9081f72
0500fdff
fa09fa16
0208f6e2
f4fc0102
f41af643
edf9002a
b81effff
0b340d15
00003eec
fe02dc04
040002f8
0239fd06
1efcfe07
05002c03
fefa6e0d
07001c02
02e8083c
e705fffc
eb69ebe8
04f400ee
dff3cdfb
1117e733
f1ff0dfd
fef5fbfc
1f0cf4fa
2105b435
fce403ff
1f01f618
00c2f901
f500deeb
02f0ce1a
025afd00
25ecf9fb
ff0b0a00
000000fb
01020001
fb020601
0dfee114
fff9ff0c
ffff030b
fc04fb00
fb01020d
2ef80117
000901fc
000000f3
e60cfb0c
0602ff01
00060c02
07fb00f8
fbfc0d0c
f6040415
ff0df104
f800e104
0100010a
f7fdf7f4
000001f8
0ffe0004
f6fe2306
fffc15f6
02feedfc
f904fdfd
fe2e0001
fe00fd00
00db00f0
fcfffc0b
f94aff05
e5fc11e8
f62aeedd
03272013
19f101e7
ff10ba09
f3ccf44b
fb220dfb
1bf417fd
fa24f900
f0ef0605
02fb011c
ee05fd16
f406f307
0df1b8fd
0dff05fa
2cfd1dfc
2dfef8da
12150deb
bc0b05fb
f40e03ed
f8fb2007
100302fe
042e4813
faf9f1e0
ea2dfaf4
bb38b5fe
11f9bf03
02080d0d
0906fa1d
05fdfff4
f4070c03
000d002f
f9f1fc1b
faedf202
ff00d7e8
10f9f605
1d110b0a
020e0f04
f6fa18e5
0c00eef4
fe00f223
00f90813
c8f6ff02
fdfddbee
04f617f8
2e1605f5
f1e9e206
eb4bf8fd
f0e8a30d
020df720
2ce5f7c5
05f6dfe3
f406f805
f7f0f37c
09e1fe03
f7fafafa
0603f6f9
fc000c11
fee120f4
0c0d27f6
07e8060c
f91201fb
0004ff01
fa0b0100
0000000f
f9d10000
f300fd00
1eff0ffc
00fd0103
0000fff3
0000ff06
03000409
0ff3fff8
02f4f200
010001f8
f41afd1a
f6fffe00
000edc00
03060105
04000114
00f1fff9
00ec06ec
0f0005ff
000002f2
fb00fd05
00000002
27ff00fc
0b00feff
000406f7
fe01fc02
040a00f8
00070000
fa000301
f70001ef
000006fe
fc0b00fd
f701f9fe
ff00fa07
0505fbf0
fefffffc
0000f605
0605080f
03fc0502
fefefefa
fffe0300
f0f7feff
01000208
00000400
fdff0101
02fe11ff
fd01fd00
02ff0200
01f401fd
04fe0200
07fef105
02fcfdfd
05060300
f8ff0101
04fb04ff
0000efe9
06ff0105
0800fdfe
fe01fe06
ff0106f9
03000000
0000050b
00000000
fd0300f3
01010003
ff010200
d6eafe05
fe000208
fbfefe00
ebf7fe01
05fd0300
00000201
0402fcff
04f30000
fa000501
0000fc02
01ffeb00
09000ff8
fc010def
fc0000f6
06f60ffc
00030100
f70200fd
02fffc08
03000502
00021351
ab0100ff
fb0005f4
030701fe
fc0000fb
fdfe0404
010002fe
0000f6fd
01f90200
06fcff01
fbf30000
000001f9
0d230000
04010600
fc01f7ff
00020105
00000404
00020002
f800f90b
e70bfd09
00070a00
010102fe
f2e2fdf7
070000fd
00f222ff
03fe02fc
f8f90308
f9050000
00fcf60b
ff00fdf9
02020010
fa0000fe
0203000f
f90201ff
f400f9ff
00f80603
ff000400
fc0d00fd
00000000
f701ff06
f7fd0014
fd01fd02
00f40200
05020605
04f906ff
01f8060d
03030107
00000400
fdfd05ec
04ff0001
faf7ff04
02000001
0c040202
0001fef1
03020502
040000fe
01fee900
00000301
fe00fe01
f50b02f7
fe0000fe
f9070303
01000403
fb03fc01
01fcfdff
f709ef03
02010e10
fa0502ff
fb02f9fe
ff0003f2
01030002
00030400
020007fc
00000003
0006010a
00fffefe
00010000
2d11fd01
ff02fbf9
05030200
0c000302
01020100
0000fcfe
fefefefd
ff050102
ee06fc01
01fd0501
00fa0403
f903f710
0201f70c
0001fe06
fb02f000
03fd0006
05fcfd0c
fef804f9
0101feff
fe0102ac
44040003
ff02020a
00fdf900
ff02fc04
03f9fe00
fc000203
03040cff
000000ff
80ba8002
e9b7a81a
0afdfa80
80ddfc0a
ae0a9b11
80edc880
01eee780
000aa080
080ef523
80ee8080
a6a63580
fe8091f2
08ff0b80
d2ca8680
80ee1f15
0b94800d
80a10580
80809980
a0008080
fe93bd94
adf08780
fc80f9a7
c6088fe3
fdb1f380
b80fe680
8fff2405
1080809a
fc01dffa
bf851361
00b6fe03
2ee8ad8b
e9800980
e80b80dc
b380f527
80fec080
0e987f0c
266b80a7
fc002980
08d5ded6
8f80c57f
a89fdef1
f3b01a82
1fd4d11f
7ff040f6
98f9c8cc
5ca30a1f
e302fdeb
2ac567fc
8be80900
88c8199d
808a01d3
bc390280
1aa0a5c6
d635f080
fca0c70f
f49215d3
e08022ec
1c901480
d480d902
90b53dd3
2f0c800e
0b15caef
bce1809d
020dca80
4704ebf1
f1e204d6
f62ccec5
dafc070d
be2fa71f
cd3eca18
8080d6fe
80b8c8a6
f213b3a9
f70c8086
4318ddc6
e8ec1b16
afc1bed1
19f352f1
0b2df666
18cd808c
e7de8fb3
7fd32fea
94807fd5
e9bdf4c0
c2cba885
ea919dd7
071fc2ff
11f55734
7bd2ec01
d70299ea
eea585f3
912dd0b7
aa800abc
db1ebec5
f98d040c
091df414
09f10014
d2050ac6
c727e5ef
ea07b5ce
10bcfc3a
ea070cf3
87c3e509
bd50eeef
c1c147e6
0ac30d05
f8ed05f1
30010ed3
1b190600
05090c0d
f998e5e2
cd11f932
ed0ed5fe
ed17d4df
f2e60ef1
d30be906
e742d1ea
00fee1f0
f7b0fcf1
e9e621e9
07b9a416
02a6f5cb
b80dfdf8
c3da0add
dd00d61a
99009025
f83100fd
0be4bc08
08da04f0
ed0103c5
f5b20522
06e6baaf
d9c300f5
add5f602
cc0aeeea
e41df81b
f11b0050
0604f0db
08fd0b1a
e002cb0d
09ed02eb
e300fff5
e002cc25
40fbf3d8
0d07c5fc
0419f81a
effa20f7
0eece7fd
d2f9e6f5
cff3baf8
f5faf001
0510de07
f5fe12d7
441208e4
ea12e4d2
ffe50303
17f912df
d4fff4d7
e4c4f7fa
e9e1eef1
c5c604e3
2ff5bbe6
c80213f7
df20cb2b
fd1a15bf
faeaedfe
fe17dfd5
f1efdeeb
fac00700
8bfa0709
efc8eefa
dddad9f5
fe00f611
cf0f15df
f5ede6f6
e0eaf312
fdff00ed
c0f72ae1
eb030af4
72f5dd01
24fb0a13
0bfcf70f
c6af0bce
fdd80eec
fedfedf4
0faaf1fe
ba130d19
fafeecbd
0901df18
00cd0b02
d7d9ded9
f9ddf700
01040ab3
f2fe07b3
f3bbaeff
feedfba8
ec8b08b0
f00b0605
80152ee8
f6e00704
07912300
0bf20fed
eb0ed5f6
000ae2cf
f7df0008
fc07fae7
0080413a
a7f706e8
e70ede05
ea0213f3
e901010d
07fee809
f513edec
bf03edff
fe0ff5e1
0cebaaff
fc90e106
ea90e6e8
96ed070c
9cd507b0
05fecbfa
b60b802b
db5df0fe
f4032fff
f7e30aff
09f70f2a
2338f106
09f541e0
8ef4fee9
1ec53a00
c9e3f9ed
fdf01dd8
00edd7e5
10f8ddd7
e5eee1a4
24ff4dc6
f908f1eb
de0bf9dc
e2c30d02
d000ebe5
00f4b2c3
0de9e0fc
0efdab02
f6d1d0fd
c5ebf900
021ec7e8
0bf9ff00
0cf57feb
02111fcf
cb00d91e
eb1525e5
d73f1f11
86c50510
7f28f9e4
f8e5f5fe
fecffb00
02fce709
dc0decfe
c8b206fb
e7d30001
f7ddf7ef
f2e21b10
ed0016e2
feede1e5
0accf7e3
fea8f0f4
f7cd130f
46088cf2
0ee30b0d
b0fcf2cf
5008090b
05edeefd
ffeee70a
0dfb9efd
02f2eefc
00ecc504
f8eff1f2
cc08f0f5
d6d30617
89ece7e3
ea14f50e
ebfef2ec
180fe9fc
0bd4ec46
0e1cc7fe
da9c1ae8
1129e025
0627e6e6
0afffe1d
000bf7e6
ce062f03
fbf4e4be
fba8cfbe
facaec0a
a7c80e0b
e7000b0c
a7bb0bc6
fbc1020f
04f1cc01
08f5f1d2
071dffff
0405030c
eeb471ec
b1f206be
ee13bbf0
ee10b1fe
031604ea
f1efedf2
0404e613
d80cc006
0fd1fec8
c9ff23ed
eb9cee03
f5bd058c
ce11f303
a8f9eec4
f6f40800
7fe6973b
00fffb05
e5e7f5f8
00aafddf
1e011ecf
f0da0025
00e6b6de
2000f5de
2427f200
efd9e707
07ebdf27
08eef7d8
25ffd30a
c3f30096
eee7d2c3
ffb02c07
eb0dce05
c4ccfa0c
93070d76
e1db7fb8
0317fd00
180aeafc
12caf11b
34eaf0f3
08efd602
01ece6ed
f0f22e09
f4f2d50e
f9f2d50d
f0fdc6d3
21083e18
45b40524
8dec090f
00f7ece3
96e2eae6
e5a606e0
2df1cdee
e88af6fb
e7f4cdb8
e7c60a1a
1163e90d
00e6d7f2
0308e3fd
f5b405ea
a4d2ee08
34b7e303
af396ffa
fbf2f108
7f01f1c5
8c0d0011
c3e11a00
efe5fe0a
e1d7890f
f3f9fdf5
ce011f0a
edf5f3fb
41e605ff
06b802ac
b755d4e5
dd0a051a
07d4daee
a01609e5
ef8df1ee
eb13e00f
f1981004
d5fb0ad3
38f000ff
01ecee94
c1f0ff18
b4d8a200
08fbcb14
01de2e80
0352f700
9a00d912
38f403f9
8e93a40d
fbb6f709
f410e600
0aebfaae
f90ae0f6
f2fce8f8
03c4cf58
9e00fa3c
0805a00e
fde3fec8
fcd80ff3
d3ee0af9
ecd9e506
370ac7f6
0ced0bf3
62e7db0a
e4ceb9f2
f9a1fac5
2613f500
80e4f2f6
e2f7d7b9
ecf6bf51
00f70812
0afcc6ff
030213f9
e4f6d991
f9daeb13
2ef5a7cc
b5d50316
03f7d70c
d31d07e5
f3fd04f0
fdf9f209
fc03f6fe
220600de
eef9bac3
04eeea0e
f80600e1
e06121fb
ca100bec
eff2c0b4
f3f40405
01f9eada
00dafb00
f6ff0b19
2107d706
f0edf5ed
060c06e7
f9fd21fe
b308f914
f1f82af2
f3e9f6e9
a0c116e3
ece31ee1
e0f317fa
06d00707
e8bbf701
06e7af14
d40afd11
f5da0f02
ffcafcc7
0ac00510
ffe6e3e6
090415fb
d97f04f2
9a460ded
bd91f111
f5faa563
ebeef3f5
070b07df
bbdc0404
e1ff130d
1efef807
e3ef0915
17e712f9
dff3e7ee
e811050a
e6000a03
c530ebbc
4ff713df
e4fae2fc
f3ebf9eb
f5eff600
fb25f31e
fffcd5de
e9f116fd
00e2dde1
c1f445c9
0402fee1
0d0f09e5
2bfee4f1
04fecdc9
ed803780
f02802f8
80d22a11
37d00df3
a69bd603
fbcbed11
09f7c9ef
f6fe01dc
c20729f6
ec04f2f1
08947f1a
bd1203c0
080da507
fc101c03
09dfeefd
aaf20d0d
0da00811
1d08fa0f
12eb12fc
c4ee0b0c
11a2f203
f59ef18c
f4f30df8
9dd1f80a
1907f80f
e9fac709
004117fe
05fabaef
055402e2
e8f5d8e6
29e4eff0
f3f1ea0c
eb0ef402
99ddc007
f5fe0fd0
ffee28f8
fe08ee16
f701f0f0
ab08067f
f802e7de
f8b0f6fa
c3f78ced
dd2ecef7
12ffdcac
f7ec1eec
f305ddfe
0402e004
09d3ebf2
1decf9c3
e6123cfb
11fc0840
11f1ad17
faf514d4
e000f310
cbf0ea09
ff2926ee
aeecf003
c9ad03eb
23e105e8
f710e7f5
df34e8ed
ffec9902
be9b03ff
0a02b0eb
edfcd904
14ddfb05
0406e70c
03f5eb09
08a5e9ec
7f80e607
20a20311
cf16f3c1
fcf6e9f3
d0ec0618
deef00f2
4ef3fc02
dfeb0804
e31bd100
fffc00f2
2804f8e3
f8e7f107
8ff2f6fc
ddb400df
51f3deca
e8feb700
06a8f306
b7fef2ee
e041faf4
090bbf05
f6d3e5f5
b4080bf5
93fb9cb3
effbfef7
f410f80f
cc902304
06ecc4a4
f5f2ced3
f42810fa
a21300f8
f3640bf1
af98b1c2
02c60a09
f2fbf9f5
24ecfca3
d308c400
f7f5110d
f3b2d010
abfff5dc
010aa10a
f0f5d8cb
03200311
dcfa05ef
fdc3d211
dd11e7f9
12e8fdfb
0c06050e
02c2ff03
ebc2fa80
cf050e15
9317e759
ffff14fa
1afeab7f
00e2070f
0a03b9ed
240c12ff
e41ac4ea
0a4e1302
dd0d29eb
2df90de3
f6a508f9
73ef13f6
0beff7e9
f7ff16fe
fffae312
e407fcaf
0cfab7ab
ffd8f90a
02efccd3
01d5d705
c200fdaf
3a03bbd4
00fb2315
0de9d224
ec1c1dfe
f300fbf5
eed4dcf1
2c0600f6
ee11c008
f1f4ffe0
9c0ed5fe
def43bef
de14040b
43370f13
c0f9fc06
ddd2e6fb
dee1e4e4
80151201
f20402f4
d35a16f2
0decd733
09e108e8
ebe20f0c
f10902f6
0f1be816
f380e3f8
bd80efeb
e6add5fb
f5fca8bb
f7f2080a
fcebe0e4
bff7094e
e9e3ef0c
e5170be8
c5e405f6
0102e3ef
4909ea16
1c010fee
fb0af5f0
f6110ee5
80e0b602
161fe81d
f1d1020f
d60c0dc3
15b70ee4
fb0cabf5
ecd1e4e9
ddccdcbf
f9142fa1
f51007ba
d5feecb2
bb7f98e7
080eb4c1
f78dddc6
ed1c070a
acfce405
da52ede8
9600fcf2
0ec4ee0e
0ff4b6f4
f008f1ec
0fbad302
f704faff
e8cca5cc
9af9f92f
fefdb000
f9fed1ca
0ad104ed
b80ceb0c
00fec804
f808d701
fe340ae3
b703f104
ecc2c9e8
f6bbee98
c3f00b0d
eb3313d5
f6fcecfa
b605d80a
0026eceb
efeb02f2
e8eb030f
03fdea24
01dc0004
f9050bed
eafaf4fb
e1cbe0f8
c8f2fbe0
f804d8f1
e8f9e1e4
ff1006d5
cc02fcd3
e80ac3ea
f0daf305
fe0901f0
e8b5e8f7
f70004e9
0c01a42b
00f3d7e7
0201e9e7
fedee607
c500e8ed
e7eb2a09
01fbf1d0
0901bff8
f200ebcc
e307ebf6
1502d41e
e0f1de07
d3f4e7e8
d2ec05e6
daebf6e7
26ea0700
d21510de
e00cdaff
fdc4ff0d
ee0be305
f5e70010
eee901e4
03fae807
00f3edf4
fcf9ecee
e6fdef0c
03f70604
d3e3c0da
fefbe9f1
f103e1d5
ddfec5ef
ddf9ec03
e40ef0f5
26d5ecee
00f203ea
f90fce06
e8fcfbfa
eef1fefc
e2ce0c32
fae5ebea
0af9dbe7
11040500
ce0105f7
feeffcc6
06fa00eb
e0bfe104
14f0dce4
daefcee4
08efeda8
d90400e1
a338c8f2
f1101cc0
0ee6eebc
08f0110d
b6fd1df9
f404ef10
8510fde2
f7d9f9ee
0b09de06
b0eb07f6
d83fd4ff
11eeed0f
f9b1a6cb
b3fc0667
fffeb3fb
ee04d8d5
10dc00f2
cd08e8f4
0fcde405
abf5d0fe
ffbb0df5
c8fff907
fcf2e3ec
05e5ffa2
c90406f2
c9b3fa1e
d501dcfb
c0fd0302
f71a0907
ea05710e
01ddf8e6
ebf8de10
f3c0ea07
e4f03727
eaef0afa
c3f6e60b
c80fd7ee
f3f9f3d7
e40cfee7
e7f0d9ed
e007080b
ce0ca8f1
07150d0e
00eef5f0
f4c609f6
04fe01f0
0d0bee2a
eddac609
0105f100
0ef4f209
c0fc0efa
f6ef150c
0eff07f5
ed0d2bfa
f0eafaf1
e9fddd00
fcf9e019
ecf8dafe
d7d1edd6
002a00ce
ea510cfa
d8da09eb
e0aafa04
eef4d9f8
e4d105eb
0502c600
ed010c04
06c5e2df
f608d6f0
06f1e6fc
000bfcf1
eab70206
eedaf6e8
d9cae5d8
e2f00d08
e103f0cf
e2e9dfe5
d2dcfb02
f50cf8ea
03ceb906
0bf8fb03
f3f2d10f
f10cfef2
e4fd0103
cce70a0b
d8fbfbf5
16ecd9fe
01cbee05
ddfafff0
ecbf00ee
11f01bea
d7cfef05
d202f1e7
e6eedcd9
11efffe4
f500f6d9
d9b1e00f
13efdaad
f2ab1a93
09f90f0b
ce0ffef7
89fefafa
9316bbe8
079c1009
05fae5e8
3106fccd
be0425f7
0e001103
f4b28640
8105f6b3
fa05a304
e71ef3d1
0c14f6fc
9efe010b
fdc6e417
f5fb92f3
020afbec
e9f02006
0dc2c70f
fbe3fa80
f2fa200a
80bb0b7f
e5031334
ef1328a9
ea6207fe
f6f4d4ff
fd680f11
f7ed1ea7
ece6f3f7
da1144ee
281701ed
bd31d302
0fe109ed
37f8c0d5
0afb1417
14ef0919
a9f7e883
09fac6af
febe1f08
defbd4ec
cdf6ef0b
f711f7bb
ff06f6d3
eb121fec
00f4d623
fed0cb0c
01e711ed
f105f208
1deff344
fefdc309
1d1cf1b3
ab060df5
ccffdede
16033ef7
c0d70b0f
b6e3f9fb
ced202f5
eb1b00df
f641fbe2
dbf3c5fa
c29bedf0
1aeac8aa
f3fbe424
0b3d00fe
15ecee1b
fdee42f1
d721f4fa
bdd9050c
e6d40611
d0ffd114
f8e3ef09
7fd9ec02
c6ff02e0
fb03fee8
f3feebeb
ffe79c05
db0bf307
000a13eb
ed09ed05
cff102ef
0a42f01f
ffd9fc08
1124eaf0
08070700
db00ebdb
02b31004
09112103
e6daddf5
ecf701bb
2413e4e2
15eff2ad
e505fbca
c810b900
14faf6d1
12baed7f
15f1ffee
d827eb06
f75502f3
80f821ef
ffaff40f
f509edff
bdf30bf0
bbcec1fb
0afc080f
08f1c3b1
bdeadb00
fb08cd01
f00ce9f5
05e7f0ff
e30b030d
f2ebe901
ca00da06
11e5f212
db03ecf0
0ad6d2f2
0dc608d4
c10504e9
bb0102f6
e2010df8
c9e0c1d2
02320af5
fa023cf9
fccbfaed
f8fcdfc6
e1dcee03
fd09cf24
c0f4f314
d4ec3ef6
e3f0ea00
00fbd5e4
e5eb0015
07f8dcd4
e81207ce
ba04b0d8
ef1b0a09
fb18d900
e825ee0a
c8001441
08f5bbcd
110510fd
10f44700
0dd8f2e7
fa03f4fb
07eb26f0
e5ea00b9
f102c701
070821d8
e20de3ec
f8f81bc4
0d01d804
e9d508f3
b20012ef
d5e90900
d6050d02
22d5faff
14082a09
cba31006
e3f556da
ec12ff20
0fa5ffe1
f20ef7fc
fb080503
fba803f4
5cf20010
dcee1307
bfde47eb
f1f1110e
e3fdf806
d3e9f7cc
f43119fa
ebf5ff06
e5e0d9de
fd060504
0701ea02
f502f106
d80101ea
21e6e9d4
d50300ec
00e5dbfa
f1d0fdff
e8050ab1
f1aaede1
fffea407
f0de0400
00fcd1e8
ead8d558
10ef03bf
edeef5fd
c7bd181c
f90afede
169400b9
0706e7ef
a11402ec
bb74ee0b
b9a4c82b
e5b5fcfa
1c0ecd13
96f803f9
c4b3e2f7
250f0f01
efd5ded9
b300e81e
fb0ea9f4
e914cff3
040e00f2
c510f3f9
f7f2bbe9
1807b20e
104705e0
d0e923ff
edf028f0
138a0ed0
09ff10f7
bff4f9ee
e4edcf07
17fb07b7
dff508f7
041ecc14
012c1a00
e0f7087f
dcf212ec
0814d402
bae9ffe2
b2cddaf5
bfff020f
fc05e6f6
ee0c1cd7
0f07cddc
f010fda7
d6ef10e0
f5f9140b
e204c306
c1c2e107
b30321c0
ef0cddde
0c40fbfb
00fef51c
f3ebfbf0
dae600f0
fa07c100
12def1a8
f8f5ff05
fcf0f012
fff0cbea
e2e62f5c
fee0e6f7
a73201fd
d7c6fef2
f8eeec0c
c911f0d7
c2f30cfa
dff9dbe7
0bc30af1
ee13e51d
fae808da
0c10ed18
fd09f32d
03f1dae8
ecdc041d
daa3f60e
10ecebf4
68f8b7c3
0807fce8
dfe6e5d2
23edd6c0
e71cf0f2
10f804ea
f8fa90ec
0afaea0d
150f140b
d30beef5
57fbf1fc
e49001c0
0122064a
1af240eb
f94b030b
dbeaf1f2
fe18ecd9
1df3eaf9
13dc1309
d5ea18df
dce802db
0c0a01b7
dbe8f805
cd05c3f8
04fe35c2
fbb2f6c4
f3f8f50e
bf3a0714
f2160f0e
97faa51c
efb10a09
f80429ee
0b10f6bd
ef0db211
2bf10cff
22b81e20
960accdc
f612b3ff
01000fd4
e7ea0b02
d8fd080f
0d06d6e5
d20babf5
f0a8ed01
c0f53eef
074c01fb
f69ef7c1
b8fc05fa
cbe80dcc
f6e91ef0
3cfd0ed0
ebce0c0e
f000f004
fecb0c2b
f5f2d89f
10cf0105
e8f2c5cb
d700010d
efcdd9ef
0ae9f0f8
1605d6e5
070df0e4
e4fb45ec
2df5ee98
df04e4ef
06370507
e406d7d9
c5b6c305
cd06f9e4
fc040bbe
1705e012
f5fcdbfa
f0adedfa
d62b0311
eee4b303
f51cfcc5
09fa8df3
110aeafb
e30ae8de
fdfdc106
13ea0c21
2bcd07f6
fdb60600
d0ebf718
b5fd080d
80d60600
c70adbf7
2e9dfd14
f6f540f1
19efea00
02271303
1211fae5
fcfb2600
1a4b09f7
7fcff3f2
f4d200f9
e73dd0ef
fef7f8e4
b810fca1
01ecf100
fdd1e903
eef21503
e2daba08
0cfdea1a
c809e70e
1cfb17f9
0a061309
0ab806d6
c8051a11
fad50006
19abfff1
f1f8047f
263d01d7
f61f09fc
05baee05
c0f620c9
d21206ed
0904ea81
bcff05d3
caf5ebf4
fa12ba98
fa89e335
0f2b0bfb
e131f414
c7eff0fb
9007bafc
11b40f03
fa18f609
d91219dc
39f3b1f0
23fdfef2
01c99716
a40ef324
11fbb1f3
101814b8
06c60d0a
a3eef709
eefcd507
b50c9ffc
f8c412f3
32fb1bf4
0acca803
f308f6a1
c2e808fb
f9d9f910
fa04d1d7
2b132a0c
01c8f9fb
fcf52008
f6bb0e06
04fff218
e4f400f6
e6050c47
20eef406
d0f3e105
17dce90b
f90dd3fe
0907ebd9
f307efd1
530512a3
d2179cf7
f8eef5fa
fcebecd4
dadec9eb
d5131be4
f3eec7dc
09f81bfc
0008f5f5
fafdf402
f205ec0b
c807af01
2c0401e8
0106f4f4
fd1bf9e4
c21203eb
f7e9dfe3
0706f6da
cb2300d7
d5ccffdb
cdd600ee
bef614eb
c0c114f0
e1ff24fd
ed29fdf5
09e2f1eb
eff7f4d8
0de0ebf7
ea0b4f3b
f80302e1
f364f6ef
c767f70a
cde7f0dc
fed30cd8
f6ee01e4
d1f9fb04
d5f2d7e3
ea01ff14
f0ebf3eb
f41616f6
eeedf60c
d902ee11
1bf208e2
ce0ffefc
b7d60e0f
95ec0efa
25f300db
031eee18
5402ecce
0d00fecd
08030ceb
f6c6ebed
c3c9ecbe
1ad92fe3
060910b3
daf8fcbf
9a0e4300
0e0df3a4
00a1fbc2
0ceb05f0
dc080aea
ba3afcfa
9637eeea
fba3f70d
e9f8e3fb
bc12f1d3
07fbcb11
000ff5ed
f809aea2
a4040537
0cfec210
f0f005d9
f5c805f4
d602eae9
0272e902
040cbd09
fcf206f8
d1ebe8f6
fa9cb100
03cef29e
e1100a13
f401fe46
f4e9c100
b100d0c5
0628e9ff
e8efaa00
f3f9f309
f20beff9
fcd10707
f0f33635
f3ecf913
cf09daf0
bafcfff2
06ebcfc5
ebe9f2f2
03fcf7fb
ba001332
dc05c5fe
f9df06f3
f8e5ec0a
f710d1fc
24f217e9
f6e62b98
110905f3
ffedece8
edf92f00
d8f8f9f9
deeaaf10
ee08e1ed
f1f1b806
0a16ebe9
cf051a03
da0ffce0
03f1f2f0
e7010e00
c8fd04e7
f5db0103
6ce11400
e4290cf6
f0f44b06
e9c0f004
fffcd8e8
110ff5e7
00defbff
fcf1002c
f502f0e1
04c3fff6
dd13fb02
b6fcea08
e0d838e5
fced060a
c3e7f010
0b01f5e5
e4f6fd07
dc0bfef4
ebe227f5
0106d404
e113d508
f2f1f006
00fdfb02
e5e3efee
0401f0fe
1efd00e6
f204e7fa
d20609d4
05b803f9
0ee0e0e3
e8dffde5
dde4f2ea
e6f2c3eb
060afbf3
140b0929
f6ba15ff
f810c4ce
0b82fa1f
f4fa09fe
b4f20801
f1e0ecfd
84d1bbf9
f880f403
fdf08c05
b209ea36
e6080906
03f4f20b
f9b30e13
960201d3
0eefc1ea
04edde01
1114fff8
f0f5090c
f905cf0b
2d07f103
fbd8f2e0
d70c4cee
15b85506
1cce15f8
390cfc07
e2e8e9dc
ed09b400
4dfac48a
1c9c0408
edf1d7fc
f4eaee0a
0aeecbd3
ff101101
f81fc9f5
1007f102
be091104
a7f9fa15
0ef7c508
0ef9f19e
0c05d7e2
ef13e324
c9e6971d
f921fa00
de01b3ea
c0eef3e7
1f0bfafb
0c14c1f2
f1efe915
00fdb9f6
04700205
6af3f30b
dde2e601
db2018e6
09fec7e9
02fcf2c7
ebecdc03
0001d8c4
f8f4f303
f43f0b0f
9c3c0515
d0d00500
cb0ff908
bd9cf5fa
e0fc63fd
22f9fc10
fce40dc9
eed2f7c9
fc80f1ee
fdeaf4e2
10001022
0ac713d4
d6cb1507
d6ae0ef3
edfac7fb
f2effc47
fcf809fa
0e1c00a0
e5e007e7
e5e8fafd
b0fd2ee4
03fe00fb
cd07faf4
12f8fb07
0b1ff016
9ef4fccb
97d2e303
d4270e00
0ddcf5ea
fdf80cf8
1da20c2b
090e99fa
227f1afb
05f7f7f4
3d0e0f56
edefffce
e01006d8
cbffedfa
f20713b9
0a80ef54
0ccef801
8313241f
d1f6000a
03a9e305
00b7f20f
e3f9effe
b8f2f2ec
db000f0d
06eefeeb
00b6db37
ba04f1dd
01f2c400
08da01e8
f2d2f9f5
d0eee7fc
f3e0f419
04e8f3fc
12e8f700
d205ce07
04d314f1
ebdb1617
b4f6f5f9
9af0fcc0
e102a5d6
7a0f3880
09df0111
0e0ef003
00d9fb06
f1ffd5c3
2ad607ea
f3febccc
b0fbe1ee
e94a1b02
f8f7f21f
dd0325dc
e9f80213
eaf2cb2f
6b09f6b0
10e2f5c7
f0180ef2
fcf5e3b8
c990d900
f8f81006
eadf12e5
ecdff7e4
f1f57213
0237c5ef
e807fafe
fbf5e0e8
21fa04cf
ef0772cc
f5fb0f17
fa0ae4ed
ebf8a7d9
d8ea38f9
d0d2f6ea
f99bfd3c
e9c703fc
b1090bef
43bafadd
38fdb70b
ce53f502
f0d6d0cb
f61bf7e8
eadc0ef1
f00b03f3
f0fc1b00
e2b5fce2
a7c3efe5
d5a6ee1c
e011baca
10f0f60f
d3fe31ec
d3131ce1
d3d40108
bfe809f0
dbff9e00
00ede7eb
e8002dfa
1b0005f5
57ec090e
11cc08f5
b9032cf3
e6fd251c
f4d10211
dbe704ec
04c5fd03
effbefdf
f4dfe3fd
dcc9ed05
26eed8c1
eaf6f98d
eefe0314
d907e403
0813c7d4
07bbf4c8
00ebee01
8500fdf4
a4ee04f8
b7febf13
f8bfef0b
feff0aff
e0f60d0f
f6df2e05
000408f6
00d7c935
9a01f3f0
ed11a0fc
f403e8ee
00d9f006
0bef0b06
f121df0d
7f0fe7f2
f932ea19
be0f0002
ecfced04
0000fced
eef70f10
ddbff4d6
d8eba707
a900628d
f0a4f512
1306d5e7
0f040602
fd02a5b3
0dd40ef0
f6f4dddd
d307070d
f4cbb1ff
afee0d0f
0d07fce5
02091921
f6eeda04
caf6feff
16db53e0
ffc7de00
f7e909fc
fcbad004
edec08f1
f4f1f21f
00e2e6fd
f5fbe200
fedd1200
dd14ebf2
56f91cff
01d6eaa9
f008e3f3
e8f516db
5c122b18
effecde1
d4001cfb
89c3f5e3
eae90e37
14d80300
bfc2f3ff
edd8e10a
ef12e6f3
cfc0f31f
d9fcdf24
ecfbf114
07d305ed
f3f5e7fc
05f0caee
041bf9e1
a02feb00
9ad6f2ff
d2ef9b15
e9010bf8
c6ef0a5c
62f917e0
0ffa07eb
fafd01fa
dee03513
09fcf9f9
ecf801fb
de01e2f7
d2f4fbf5
adca0f83
47f500ef
e50e0fe1
efd4ed00
870f0200
f4e6ead3
100a2905
dbe12013
31e200b7
cc22d9aa
f0060004
e4efe3e2
d5cb7f0e
f7fc9aab
12a816db
07defa01
9b1fcb00
e9dafb14
9113bbf9
0f9c08fd
fa20fa14
db060808
cd1efc04
f305eb14
fdabc715
8afa1235
fcfac1f1
02f60aef
f8bef00d
b3f906ff
f6dae307
1305e0fb
f0b80902
27ebe4ff
fce5e911
06d1ecf8
28f0f2f7
b5f20488
f30b00ff
3aea49bc
05f4f0f2
0d009ff0
fab600e4
fc11cd19
0641100b
19e8eaab
aeea1302
f400dafd
f9f4e3ff
e71dd9e7
f10ceb5e
00ed03db
210e0ace
17f09df9
f7cfde0b
ec05e3dc
142defe8
1d1018da
0bf309d1
0e052e18
17f4f9ec
0aecd009
e8e4fbeb
d314c810
eafaeed3
09f3f311
eff55121
e9f7f20c
f0003fbc
e6ec1d04
009ceae8
b2e2eef5
fff60efb
0d030cfa
d500faf9
d9020014
c2ee0ff5
f0f3ab06
00030cc6
eeb6e9f3
f6100cbf
120c04f8
f4b007e8
ced01bfe
f6caf515
2223c8ef
fee90cf6
11fcf9ed
b8d4e33e
29f8f90d
441601fa
f502f2fd
f700fb0e
f00be2fe
11f5fd0d
ede71502
4ea9f6de
afd525fb
08fcc80b
f8da13f6
1701f8e9
ef5cf40d
ff27a004
dcb4ed04
d8ecf04e
a714bb01
09fd00cc
f8fbfecb
bbcf1604
06f3b6ad
f5bde6bc
f9d702eb
9eddbae6
06f0f9fb
041f03f3
ecf20df8
0de80502
1603ecf0
f9467ff7
0a06ed04
e8d897d0
a0020034
0910b8fd
081bcbd3
0007e8fa
bb10f6f2
e8bfe4fa
bce88f09
fccdfacb
c6ebcdec
e7b6e210
fabbeaff
d40f08f4
d0f506cc
d5f39f28
d9ff7fb7
04480907
fafb2302
efaf0dda
f705e9a4
00bf0600
ecff00e2
0706ebfb
87f0a9fc
7ff8e7da
fbe6ddfb
03f0f3d9
0eeceeea
b4f3f03f
10fb06c3
fdd509ef
fe18c459
55b449eb
e90a0582
02f5d09b
f4ebd3f7
020def18
faeb40ee
fbe3f4f8
faf1bff7
fa0b1072
ebf2f5ff
f8f83df5
3107ecf1
e60512bb
01131fde
e280fff1
e1dcedf6
199c01e5
58d3f802
2bdc090a
e2e4b801
e8ee07fe
0b5c3dfa
f90af7d0
f2db1a0c
f1effdae
03e1e4f0
cdedfa03
cdf5f3eb
c3d50218
ea1e26e4
03ebf3ee
c10ff1db
db0c19ce
d81f03ec
f5ff09eb
0d0eaedc
0f00fde2
b300d207
ecfd0d03
c90ee9fd
fc800180
bdfc05f0
17f32ae2
f2aafcf9
d8f70cfe
e9b80e0f
f51c1002
eaf3f8dd
37d5f70f
0004d9e8
f7fd11d8
d3fc0bd6
c0283d03
fd09d1bd
08aeedd9
f2c7eef3
ea0def16
ba0bfffb
9a23deee
f0d21001
f10fb805
d80300fc
3f28e3ea
01f2f002
0ed0b9c9
a1ecf370
0806c2f1
ed06e5d7
12bc0305
c80b0af2
0cf1de04
c0f4d901
07ccfcfa
d6085009
0a36d1fc
fed2f9b0
cc00edf1
e7f0fdc4
e4edf2f0
eef9ddd6
fae2e709
f6fffa12
04eff1fd
07facd37
e6f80eed
01fafade
e6e104e5
dfe3e7e8
caf5fbef
0e04e9de
0709fff3
f308ecd5
e600e6e9
c6f5cde1
0b00e906
00faf5e8
ddd2f3e2
c9f2fefa
0be3300f
f8fbefee
0703f7fd
04e70c0a
c8fdfef1
faedca0b
f5f5fbda
e9f1cae9
fdeedbe7
eb0ee30a
fa01f501
0203eefb
c91ef0dd
d51005dc
020decf1
f6040bfb
d8d6ee12
e100e8f3
f1c8f1fe
0905d5ec
0f04eff0
f1e909fd
0010e208
0bf30702
f0e2fd06
e0e3f406
fee5f6f3
fdd6eedb
f505f105
d00cd9dc
d000e7da
ecffef07
eeeefe05
d7010202
f309f20c
eaf2def1
f3f30fed
e904f7ec
000200ed
daecfcfc
0807f5f7
f7fb04f3
e5ffe9dc
eee300de
eafbf203
e1f2f4f1
e1fde8bd
e1e2daec
0bede845
0a18f624
22cad1f7
f810d7b1
eaaa23f9
f8a00ef5
b9f3ea18
45f9f6fb
b69ae6d2
0cb0f7f8
fcff0812
ed0cefff
9ef406eb
0afaf0ea
1b982fe8
80ebf5d2
f703380e
09fc221e
0bedfb0f
a0ffea07
ffe11606
d6f99900
10c10af5
acee0815
00dffef6
0731fe69
8cfd0008
e830f280
f7f1800e
802cd587
04e1f9ff
05f0fffe
0b4905e8
f7f5d02b
18e70005
eee214f5
a1ec0f10
aee0ec08
9d110df3
07f442b3
fef3f20d
02e3e0ec
d0fee8c0
280c1680
03dfc7de
f4ffbdf4
b2ad3dfc
f12304da
f3cf0d46
f2edc8f7
04e9e803
09be130e
e502e9f0
e10fd8f5
08f2feba
f806d008
001613f6
a1e6e914
c1f4f708
da2229f7
afc615f0
d8e60af3
dc0ae4e1
6af100f2
ff45fb03
e103e510
c5a0e9fa
f80cde25
fbd1edd5
0daae2e9
11ea11f9
fcff1b07
063fefe7
b5a4f001
051ff6f1
ef299807
05fc0aec
ece4f5f4
c104f9ed
50fe04ed
f4ed0d01
d801e800
001fedf7
08f100ee
1b05f20b
c8fa0913
cb1df8bc
0afcdedd
dbda0c19
037ff0ed
1cfb0815
07b9fefd
f124f504
059aeb1d
4e0edacd
bafbd2b4
e8f208e0
120af236
ede29deb
08eacab1
edde0fa3
e881f5f2
bcf6e500
96c2100c
0e14ce27
0ebffd07
fc06cfe6
c1fcdfc1
c8f2e6e5
e3ee03f1
0597c5ef
80f2e6fd
010eef0a
f4f7f3f6
06a5ff02
c311fb05
011108f5
a006c910
fa800fde
2605c2f9
fe01f7ef
014d0673
b8fb0aed
0a94ee3d
c0fc8315
23e23e80
01c700ee
f1009c07
0de70003
faf769d6
e0ee04f4
f9d914bb
3df402fa
7ff1ef07
58f22ef2
f206c6d2
e9fa24f1
13f4d516
b7eaf980
13ff2a35
f5c80d00
b1cdf7c4
d4e4c0e4
aa070ff1
ed10d897
f5051b00
faebc7fd
eec3e805
2f02f0ef
c638fc03
0c0302df
fd008014
fcecf7df
90036721
e009c2fe
ea0a1d02
dd43fefd
c9e0032b
c2f600fe
cc31f7f6
3c00e8eb
daf6cc00
ec610111
dbb6e1b7
fecced07
05e0f0ee
0be80cef
ed0611f0
fbe30001
ca7011f4
c5e011f6
00f7b304
09e0ef15
0bd907e0
d10128e1
d7f1fde9
d406ee0e
ef1df611
f400ddfa
c60428ee
f7da0213
00e9f2d9
e9570b83
10dfece9
f31107f8
1349fcda
0ae8f5e7
d29bf9f7
f0fa22dc
fae8f7e6
b3dbf9a7
f617d4c5
10efefcc
0a1d1011
e9f7ebf5
08fdd6c3
1495cfd5
eced0e0d
bbde13fd
e2edf1f3
a89dc7f4
042513fb
0fedd2f0
cbf4fbd0
bd33cbf0
f102f608
e1acdfac
bef9f621
fdea46ea
fde8e9e8
f0fff612
e40cf607
0c10f3ef
f4f59907
fdaffdd8
e4ee260f
f4e6240c
f5d1f802
b0ff0e00
1d2cfafe
0200abfe
adf2df87
f1e5f9f6
06fbee0f
f4ec0206
fefaeea1
eac308ff
0b02cb55
d4e4effb
b5d5df13
bef8e1f9
0c01df22
fbe6f0bf
0300ebe5
e0ff00f4
bdfdb2fe
ebe706fe
f6f540f2
06ad12e6
fae9ffe8
0d18f682
0f070308
f3fbfffa
0ebf44ff
d6eaf9e3
e9ece51f
ece61910
f800110d
0703dfe1
1cfae0e4
fe0d33fa
1cedf7f9
abb00801
d9e60ce6
2a13fe09
d1dde7f7
c1c10df7
e3efab06
ee98f418
f91bfce7
fad3e8ee
0fad000f
fcfaec3f
f50bf4fe
d43bf71a
23f6f8ee
cbe2f908
e3f6c1c2
0aede9f1
3efcd8e8
eafbf3d9
a9d309fd
f50f14e8
e1bb5fd8
f5ff0605
da07410b
f70211f7
f4fa0b0a
c02a0936
29030a2d
0ff30ff2
ef00dff8
d4e9ec05
00ed0d16
fdef14fe
1265fbee
e0ca0de1
cd20f2df
eb080e59
e9fbe9ce
cd9303e7
f3f9aef7
09e8e238
018705f4
2aecf7ff
f5920bee
801cbc02
00c1fafa
f6e60f0f
cffdfaf2
8771b8e7
f30a0207
008099b2
8902f1f5
ffeab2e9
e7faffc7
0eafecf0
d1ece8fb
08caf4e6
bbe7c905
11b0ebf2
32f22105
f1ede8f3
0d90eec8
d40f22fe
7bdf0a2b
f706b722
efefeff5
f8af050c
fdfeadf3
f6e10ce3
f2fbe2c3
05cef10a
1102e6b9
a8e8fce1
1ceb13f8
fe04f7e4
f8f40cda
0d030009
02f7f807
3bfe0db4
05f5b4e4
f2e9ed04
d8f206e0
c5434f09
0111ede3
f613dbd7
f8e9170d
00f7d913
00f6e70d
c0ff03f2
00cfcb09
09f3df05
0b13d005
fa0406ee
d70e1507
eef917d9
d6e426ef
df0d18df
edc607d9
dbddfc00
d71be9e3
0aeff20d
2ef6f6ec
22f2e3e8
f111d41d
fc0cecdc
fee1010d
f7f2b6ce
f014d7f3
e123e8f7
b5e3fdf8
0795f9ef
eaf0c419
08f305e1
540becd8
e014003b
cdd91af1
fd0eeee8
eafe2d12
030609f3
7906b90e
03d8e80a
11f1f4f2
f5e6eecb
02fcf407
0403ef02
0c800aeb
8d060f2f
0a09fec9
010ad800
e9b61706
b8c9fca9
fb0417be
0708ef00
0b0a10d6
e642930a
0001c3b9
0dcbd3cf
f0adffed
4ed7f5e8
b1c8f30c
c995d007
ffc2ec06
fee8d1f5
b003fdde
ba04dc02
f9f500ee
d3cfa49f
eb06f2ef
ef03a0fc
01ffdbe1
e8f80d10
c3fefdf8
f07febeb
b002bff9
11cdf805
bce30ae3
061e0af9
0ba40b6f
c6eae9fb
1435fcf7
f411be00
b6eb0cba
e5c316e7
0503d4f4
26f7fc0c
f20aebce
eacf07fe
fd32cef7
d4cf0f01
ce00ffff
da09e4e9
1a0acd14
01fa020b
f70deeea
0002f526
bbeab641
f9e90006
d1ebf822
fa39cf02
00e319e9
061dbc7f
fcf8edf5
f809e5e7
01c6dc05
afeef502
2de60d05
f200f115
fef5e1eb
0001f9d4
f403dbe8
37e4f71e
0dece6e5
c9510304
facb00ec
ebe8f104
140f0900
93c303ec
effae6f6
08bdf908
f805f7d9
00f6ebe5
04d8f903
f8fdf6ee
00f9ecfc
d5a7f916
de12f503
cb24ee05
faeeebf7
1c0df1e2
b6edf7ee
0100dfce
f7e9050f
fafaf5ff
06e5e6fa
faee00fd
04fdb1fc
fff1e7e5
e400f400
c009eedc
3017e040
effff1ee
f8a1eaf1
cc1211f2
ff9cfcd1
180afc00
0ebdeeeb
cffbf1e5
ddf20ad3
060a139d
e7f0fecc
c54efdf8
ef03a2f1
0c35d909
f1cdf205
0ad4e2ec
d1d206fa
0107d3f0
edd10e08
00f9d110
de08ebf5
2b27def9
01f3edee
ebcdc7a4
a4fd0c4b
1105aaf1
11f0e6d4
0fcf00f4
c4f3ef06
e82bde07
c4ffd500
ecabeaf3
def2b611
053dce01
ecdaf002
d60cf40c
0ad7e9e4
d2f0b3f9
90ff0e81
fe1a0006
0e0aebf2
e9d3eced
edea0ca7
fbc70ce6
f6fdd1fc
cffa010e
bbf1f3fa
b3fcf5e6
08f4e60f
06070311
020d2fe3
d3ecf7b7
d0f6fcd4
09cbf3fb
09fddadd
cbc9defb
04050ab3
050b73f9
f91cf704
f0f7ef2b
0ae3e2f1
f0fff201
ccf0a404
f6eae8ac
edf520f6
0d0bc9c7
e1f5eff3
29edc7e5
f4e6ffee
dbdce8e2
ebd5ffe8
dce5fb09
2300fcf5
46bff912
f405d603
e8ce0bdc
e4f8b5ec
f6dcf300
fbdae3fb
1201e826
f5f1e3f5
e9b1fe09
0bacf0ed
0507f404
2cf0cbc5
eff016f9
d1ffe2d3
e9d9d7e9
0602f6f5
e5fa1014
efceb902
fd0700f6
c0fe2001
06ed0d00
090701ee
b3ee09cf
a4fe2af9
f4f3fad5
0adb00fc
eef40913
14bdfcdb
0b07b901
ebd8ecee
380d00c0
ecdfcedc
0d0206cc
d50705ad
dbece500
ff0b8058
07e0fee8
14acf908
f1a3dc14
cbaf02f7
a237b432
fac80a0f
eef5d002
ebfff0f0
9cefc300
07f3fb11
16f8f794
d3f507dc
eb102dee
0b00f7ec
ec800604
0c0b0008
07ef1c14
f5eba40c
0abdf6f8
f300bef0
0016f2f2
04ee057f
bd0708fe
d2a9fce3
ff0f8000
d604ca9d
f9d314f5
fe05c801
ed33e509
ff1397f9
fef90a11
d400bae9
00d5f12d
e9ebf2eb
fbdbdaeb
fe08efeb
f911111c
f3062a28
cfececbb
e9e434ef
0a9dd4fd
e6f4aaeb
c5eea7e8
e929e5d1
020fe798
fb190cfa
f2ede20a
12ee0cf4
0a15f609
f20dc80f
1110feed
11088bfe
24ecccca
34f8e2ee
12ec50f9
dd19ef00
2c47f4d7
d3fbf223
ea80fbf6
ade81a11
d2f2fbff
fcee0b01
03bcf8ef
01f1d506
e43e0cf1
fee5df15
0cfec36f
0a06e400
003f0a18
7f99fefd
12a403e8
e0060aca
f7f8ede6
cffdf8e6
39d70eaf
0df6f30f
f4f801f6
c0e918fa
1304e608
d8fa06e5
42ec08ee
1b050800
70800bea
f7ec48e9
f2101e0e
fc2a12fa
bf0afcd6
0e6a0340
0e02e4f6
e5c213f0
b8ed24ee
f80adbaf
f807f1da
f0fffbe6
dca6c2eb
f6ee0cf7
06d9f149
eb80eeeb
02c70a07
cb95f1ef
eae4bcef
07eeee0a
e5ffd6f1
b9f616e4
b138a008
0a12fcff
04a59580
e609e2e5
eff1e2f7
f8ecfad7
04ddfd0f
c30800fc
000ee0e8
ab0f8ced
f8ddfe10
f3efc400
032bdd01
f8c6f537
ace71606
fc1e03dd
f90cb909
20ebe299
0dfd0ef7
08134df2
05b8eee2
150f97e5
070a0600
e6e80a40
def3fa00
2c55e711
ffeddd0a
0808cae4
f9f819de
18fee0fd
df08009e
e1ffbce2
eb6a02ef
ddeee5fb
c38ff6fa
afed2b6c
0be4f4bc
f007ea12
09f4bb17
f6fc10fd
c7fa02f2
0300e7ec
fef6ffef
fefcf400
dbfe16f0
8ef6ddf7
d8f702ce
f506e0ee
dac3f0f2
34660ee7
f61500fe
cfedeaf3
0782130b
d3f249f4
3decfcf6
10dac0ef
0ced1ce8
f53cfde7
ecfc18de
080d01e0
00b00c01
e7f20ff2
07cadaf6
261dc82d
0e00eff5
f724edd1
f61be4d5
d11b1806
eeef0c09
0e32b4fd
1311d5e8
e601e9ec
f8eeefea
f4fd07e6
00c8fbb5
b80ae20a
123911e8
f2d5f0ff
eced0bc6
eddd1ac4
f4150be1
e0bef509
e1e90700
00eedce4
090514a3
ef0c00cd
d0c46400
f500a4c0
08200dbe
17ba00f9
efcd0cef
cea9fb00
0d499025
e5ce0bfe
f0f8f7ea
c6fee7c2
9c0ec1f5
0c030d00
f1cb2baf
d400df0c
02eaa5ec
f613d9cc
ebc30f00
f00309e8
10bbf600
9f03cf0e
08a804f9
c6fcd50a
f947e1f5
13aded00
bfeb01ea
e2f10351
ecfe9f0a
def6de85
fd010308
ec09e40b
0011e8fc
e80ceb20
ebc306f5
e5090b15
c31800fa
fdd9f3f9
e2f9f8dd
f812fdcf
00f1fb10
1804fbf0
14f9e9a6
d4dea5ab
0ec30af4
e209e9ed
0128bf03
9bef13bc
0209bbc5
001321f5
f3fefc13
0cc3e3fe
f90416fe
fa22e2ef
1604e84e
ea01b9e2
22f9f719
c3f8f5f2
d5ef17ec
0207db06
bfaa07ec
e4b600da
9132e305
ff471300
e31ffbfe
f6f60af5
aee90504
10f01bd3
01030705
04fbf6f9
0107f49a
f30c04f5
f5f9ef06
58b6ed07
22f4050a
5a00ed01
0cfb01f3
f0eb04b9
f0ecddc9
0eeff30d
0b01eff8
3004bbeb
01f7fbee
07f50311
d10d07f0
ea03f103
dcc10cc3
eae7f913
eddb0ee2
1238f901
d3f500fe
0c0b10ec
eb06e20b
eadc0d0f
f23916d4
0a03ddde
f310fe24
0beae2da
5c8ce7fc
ff07c727
0f49eea8
f99100eb
94d21cef
1c8defe8
32e0b8e0
0724ebf1
e302d305
cae8f8b5
897fe3eb
15f5f804
f282df80
f106e4eb
070d10fb
ef03d6dd
f90deff0
2711fb01
f5c90602
f6eda610
eacbf9fc
def0be0f
f400da01
fd90060e
9e0aff0b
d2d003f8
da028f22
50f6bf94
0bcafdf0
f8f3e701
12dc0620
14f307af
06d1e9fb
e1f70fe4
3c12f9fc
c4d5f8f6
e60409e4
ff0315dd
0a11f939
0dfac413
acf4e361
29078bad
e8bc03ef
20f100bf
e6182f04
051825cd
03f5f6f0
eafbd100
11fe15f3
fb3bdc06
4106fc01
2b11dfe7
0ffb007b
091125f7
f5f838b0
defee212
e004c102
f81f3ff9
dea3ee1d
8934040f
18d1f9fc
94cfe410
b4a9f5e2
360f8009
d4bbff00
03ddbbf7
02ebe419
f89cf115
f1ed3b0a
0d050312
e504fce0
808206fc
14a20914
891dfb0f
02dd0310
e4fd0308
d2ff0460
12c3f403
d2fafa00
de2f9016
fa0bd60c
12fe2d11
ea090406
f409e8e0
cef1fe7f
80ddd2f6
eaedaf27
009c1705
bd13f8e9
efb70613
f5241edf
e2a3f6dd
06e60b0e
ca3cbdb0
0c0fe829
e7f7fdae
d2bfe9e7
f40210e7
0d42de05
e8aced0e
c2ef2b10
cecc06ec
52382cf1
f6f3eff8
f909f4fe
f307f5d1
85a8e9f8
14f4fe05
07142b8e
ae01f702
08f296fb
f00204dd
f8e505ee
daf3f10d
fed6cd04
aefe8e03
ebd3f5f7
cbf5d311
fa20ea0b
f38fed3f
c002fbea
a8ff0ea0
0e02982a
eb149a98
f50e03fc
ee0c80f0
fcc7ffec
f51431cc
00d80ce7
fa07e2e2
e7eff4f7
cfe7d9fe
11fbeff0
f307d2f2
010deff9
fae900ea
31f504b6
dcf30a0b
04bcebeb
0912f5fc
97c4c40b
cefcfdda
11fd4562
081bdaf1
0706a3ef
ecd7cae7
10041c02
ecf8c70e
22030eb5
f807e2f6
fe061422
28f50bf4
f80bdbcb
0c0611ed
3bc6ffec
19e3fff9
06c20802
cce71001
0df9f3ec
e304fdee
f6a6ffea
f6de3dd9
f42e00f1
eeef00ee
ff13dda1
09f8fbfd
0db9edf8
a4d2fa08
f1bc0e09
25ef65dd
01e8faea
b5f313ba
65f9f0f7
0bc8ffe9
010003fd
25e8980e
fdf6fb02
f3f7ffeb
f308f210
3110ff11
e2eef3a4
9c3f14f6
1bfc1313
0180040b
911403f8
f5aedbe7
ee06d3f7
e6d3f31a
dafee8eb
c2e9f8eb
e8fbead0
fafd0691
db9900fb
eaedd1d2
e9fef8a4
04c9f8ef
f8d450dd
b7aafa05
1644dab5
043103f4
0bfed2ee
caec07f2
b4a8d1fb
45fcf006
15a8ae9f
ba10d83b
ea0e2308
fd24b6ea
07ddfb03
ccee07f2
0edad5e2
ca0d8700
03eeee00
0dc3b6f9
ea36dffc
0fbbeaba
96082e00
3e2b09b1
f4039c1e
231bb2bc
e886ef06
f1f3a901
e1d80ae6
eeef0a39
04420ae9
00f53eb7
da2bf8f8
d3cccf0e
cef4ebee
eef5bbcc
f6f1f1d1
090be1e2
fc03efa7
140f50c4
ec3ef1f7
d8fb9b02
d9d8e6fe
b80c00c2
ea22ffdd
0604ebff
edf8d817
03c8fcf7
12fe0ef6
eae1ce09
f9d8eade
fd03c010
d2ff1935
b70ae7e8
e0f00d2a
0100fff8
edee04ff
27ecede6
2b540cf5
afdcf1ec
8500f7e7
e3f7ec06
12ce001d
f207ba31
0cfee9d6
032602f7
fce917f7
e8ea05fe
da120aee
d4ca04f5
28c6cbee
0a35cee6
1405f7f7
dbf9d1d6
c2f408f3
e2000207
05e805fd
2d01ba04
f3fef600
ecf800fc
f9e6f300
f90308ef
34caf816
c303eae5
1b031700
0319dff7
06e8fd1c
f3eafc37
f5052b00
e7d302f4
cfffe7fb
fcf1da03
04fbfaff
23fcfbb7
d898c711
0005bd11
fa231680
f0aa10f2
e3dbe602
c49c0aed
2abff1ca
0f2eeb02
060795ff
9bea0df1
bdbb25fa
0d1af0f7
f8c4ce80
3af004c6
000ed705
0011cd12
10fc08f3
a0120908
f0d90e03
570bd90f
0d1100f6
3af489ef
07cdc8f4
1b3d0e1c
800800fc
9bdb0334
ed04c612
80148add
010609ee
080fd5f3
e803eee1
e9001106
fcc4ebed
0aea33f8
c2e6fb30
bae1f0f3
a0fbe8d0
faee011b
01f0f8ef
05e9f3e5
e012f9e0
0f07e5cc
12f6ec06
b8efe22e
2016d10a
45030fd9
f4050ab3
0e102703
09f8e716
f48335fd
be07f1fa
1becc906
f6fcff0f
f9facef0
e80608b3
0ee4e6ef
fbf1e0d4
efe11ceb
80730d19
c4bbf50c
de8506eb
3fe30900
804ef200
e6fc9527
b2efee11
fb0cfd0c
f9f6f5cb
00e23f19
f105f1f4
0ff0cfdb
fbc9f7d3
c1a4f8f1
d8000e06
4033abd8
24ea01f3
61060f24
caf7fdb5
cbdaf40a
eef9f9f7
ec996ef7
00fbe0fe
c3ef030d
1904000a
0406ff00
8e180adf
f1e1081b
ea1467fd
f4f9e1ef
f5faf0e1
059af910
f62ee0ea
e9e6ff05
8ad400c8
830c6dcd
01fe04d5
230c0632
add11306
0c17937f
fca428aa
17d20dfd
e5d9c910
dc80f40f
4280ddd5
0c0c0702
110b8012
e50700d4
dcf7c5ff
e9e5f802
0ac4fb80
f20508ea
f910a4f7
05e0f90f
07e10b09
d70a1300
09ee2de9
d9e90308
08db071b
5f1a800b
05e7c708
0adb1baf
fefcf503
3e1cf5f4
1aedaaf7
6ef987df
23e60510
ebea96f9
e2ac05ec
e20ccc7f
2203f80e
e3fdce3e
e1f0fe0f
fa24c203
41f8001b
0e08ea1e
0500e5f7
ec06d61b
7707f2c3
dff8b602
e8c402f4
e909eadb
e6371be3
c72a0ce6
f1f924f3
fade26f6
05fc9e02
fe1ed7f7
1b190f11
090408f7
f51a08ce
17087ff6
fd1e34e8
ed02de06
f500ded7
e9fefbf2
0accfa10
0f80fded
190af10e
bb10f600
8380e1fb
d9fe1dfe
ba771120
1afccdf7
e9eaecea
05aa08f9
efe1ccec
fb0aeb19
e4bd08ee
ebb40dfc
0f87e62f
c1f580cf
f4f60ae1
0911f2cb
0ce71faa
dbec080b
fd0af506
b1f5d5f5
02ed00f5
faf8d9ed
40f709ed
d5f9f714
b302f9b2
80c8f3eb
dbd2dd0f
0dfe16f4
bbf406e5
f86d1038
ed20c4ee
2b0df400
cf02f1d5
040dbb10
0000fced
fe00f33f
a7e5dae9
13e29139
f0e90aed
eddf0af2
41f40ffa
4edc0305
15a9daf4
09550c0d
230daafe
a60ee4ba
caf2d2e6
1bff0011
f3ab0180
130b0df8
09fbd00e
0718f70c
00130009
130c0105
00c72cf6
21e9ebe8
0f2efe0e
b71ba706
02d1c0fd
ee10f9d2
8003ee16
14f103e5
100eb7f4
87088aba
f9d6ecfd
04f6d0fa
fcf3ff11
ecf7e902
fa03eb0e
ec0cc5eb
ddcc020c
d715f6fa
be284814
00f519fc
04112b09
d7111212
e803f9e5
f3f8ddcf
04e308f7
df1608eb
f5aafdfb
27eaf7dc
f20080fc
0705d3fc
0400ed26
01aaf0fa
c6fdfc09
1dfee9f6
d9f004e8
fa11ebec
1302fdd5
f3fbee07
11f1fc61
2d05fa02
b4c70ae9
ebc402ea
ec390806
aaf7f6f8
a792fafc
dfe70108
f080f10c
f8fde61c
f9e6f3cf
00e9fae0
10f4e908
fc0017f6
f7ed160c
d66ae80a
0021d60a
fcf7c857
fef800e6
cc0604df
cddcdfcb
621e040c
ede00401
decec5e7
0206180d
dcfbfae7
00f6ef07
c5100d1c
d3ac0ddb
7f17dc00
b200bdf3
09e7fcf1
f8090025
f156e6e7
fdfff301
fcc0e5e9
e200f7c7
cde5e3c9
0b0210ca
ce03f0ef
a0cd4d0a
0603e1bc
0b42df21
17b6f804
580900e8
c6960bf0
6ac61201
0b2407ec
fdeff4ea
ecfb06f7
efe68fef
0700eb08
faa4b088
a2f5eefa
f80ca0f8
edfdccc5
0cfcf612
f4ec0eee
ec99ceed
b7f6d6f2
f0ccfa00
ccf7be05
03b3d008
0dd2f780
c4020605
000500fa
cd0ae414
c9e3b003
ebc7e9fc
f3ee5afe
ef2004ef
edf2dfa9
154c0702
e612e6da
c9ef03fd
6ce3e304
d9e8f4e9
0a0fe301
f0f707e5
01fdf9de
ff04fad8
e0009ed2
f3e3ff04
f2e8eaef
d0bd04f6
c60cf1b3
0c11efc3
ef17dfe7
02fc150f
0d0de8f7
15ec1bfa
f501d50a
27fafb1a
fd0c3217
0df300e8
bf02e8fe
ca0cd7d2
0401e90a
2edffafc
d0d6fefc
bbf111f1
f1e90d0a
19de1147
e213edfa
c8ec0a08
fceb2dde
eafbe6cd
13ca0018
f30ff4d8
08fdedf4
facaf6ef
d1fef6ff
0ddafee4
40d82fd0
000c16ff
1beaefd2
b00bfad7
eada0703
eff8f705
e412c2f3
1407f200
cf0511ff
05fa02ea
eef40b06
d3d1efb8
9dec0f02
fe1bd3e3
12cf13f9
0103f919
1ba90df1
fc11cb07
0cc8f1f3
ecf9fde3
7f08fbe6
ed1105e2
d40ffd8d
80534d07
0301d426
067bddc0
03ac05fe
53ed21ee
ebaef30e
cd28dfea
0005fd08
ee04faea
3a0df7e4
b8c4c30a
18f0f3e7
d2d9a2a9
bb03f2e8
020f140b
f8ffcfd9
fd020df1
b41302f4
10c4c503
c6f99efd
09effdf8
b4edb8e9
efc7d9fe
f7de0280
d3040f00
e00900da
def3d147
eefe80d7
e9ac07f0
12e5def6
faf6f9de
0300a8f7
e6def502
dcf8ff49
cfe701e8
b10adcf7
d0f7fde3
ea03edfa
ecf1fad6
05ebcd0f
f609006b
dc04b4cf
fcd2020e
f5f807fe
bd00b6f2
e3fd04e7
11ff1b9b
fa14fe0d
0008d0eb
fe250a02
eb0404d2
f0e82a0b
22eefa32
e008c3fd
f809fad7
f00de6f1
f4ee16fb
e3f2e2e9
ebf3fa17
bb13ebcc
dff1f5e9
d7d6fbdf
e5d7f70b
35e13004
1fcae80c
e8e1cbb3
06f0fff0
04eddaec
ea13071c
09fde4f4
e2bc0af8
52b2f8ee
1bddf3f6
a9e21abb
0b01f808
1debdaf8
c5f5e604
dffdff07
eaf200fd
d8eb0b04
f3fae5eb
20fb0bff
06ebeee7
dd0308fc
fbb9fdd2
f4e91df0
04f1c4f2
0ed6f8fe
c6f0f0ce
0011f9d8
fcfcb9f8
ebe1f1fb
bfd9e2fb
daeb07e1
030dfcee
d60001ba
b1fcb905
fcf7c4b2
0855cedf
f7c0f2fb
21dbf8f8
b5b9fef9
c76bddcb
f7ca0a01
f807c205
450fedef
4a80d7f1
070df30c
ee29b8ae
b812f22b
f30cb903
0c02e6e8
f1ecf901
b1ffeb00
06e8d6f5
b211c80d
f5d206f9
c600adfe
fe8bdafc
09efecdc
bceafffc
fc7ffafc
cf0db017
ab20f7b7
eae6ed04
f3f8fc04
0a1909f7
f508f99c
fabd08f4
ebedfd0d
cdeaeb12
d219f311
cb03f1fa
fb07c205
05f504f1
fdf3dfeb
d00901f5
b810c63e
0cd3ed10
eaf40418
c8d9fceb
ba0e04e3
07ff01fd
e907d2eb
07f8f805
fed90afd
b3f708e8
c10ce20c
f009f0ea
f4f7d21f
f5eedcb6
92f60ce9
0208d9f7
17f9ecf8
ce21f1e6
d8ecf8d2
e9070d0f
2ee1fdf9
ea1a051d
d7ecd8fb
eac2e7e9
f3faeec9
edd101c2
0fe8ecf0
f613f7eb
eef800e5
eae700e7
a72803fe
c0cd08f0
00d1d6ca
07e8fa07
d412ec14
2af4edee
cee9ebf6
e7edf907
01ec2a02
f505fbfd
e2f6e608
faf9fb04
d704f6fb
d047f5d0
d2fa17f7
071bf3f0
f9d104fc
d709ece2
0dbb00d4
02e20603
08e6ebfb
16f1e4c6
edfac7ea
0afaf3d3
d2f205f4
ab1bdd09
ef0a9ec8
fc4b35bc
08b60607
a922d1f6
8adc0b0d
55d8ddec
09f6ed10
070decf4
60ee0ad8
d0830fff
fbe8f80b
0fe8bda6
fa0f0aa2
11f9feeb
f71415e4
f7d9fffe
37120af0
fe0bf0fa
bdfee6f9
f64304e3
a1ea90ff
05dddd09
f9e1f5fc
9d07f90a
e5e7ffb6
edfce41c
800180fa
ebab0404
0502ae0a
fa9cf0d9
f3092984
dfc2fbfd
10eef700
ad260006
b7feecff
ddffe6ee
1307d6d9
0df6ef16
0bf4e5f1
cd0005c7
0e010f0b
02cc0ff6
e502edf7
fdc90c09
180712df
091877db
03d3dffa
030cf2ff
f3b0ffe7
a2040205
04f8e3f6
f4070d1b
f50bd8f8
e5fe2bbb
ad0a1f0f
e40ffbce
ed0300ef
a9bafdea
28e3f410
11defc02
37f4e8fd
f2eb0601
f50ade09
ccd91113
11f6cdce
f1090f07
0be71e01
0203fee6
01f90f0a
f8ef05ee
14f410ee
b8d6d8fc
e3fc9fd1
e6eaf0fa
e8101225
d1e008d8
d9f7fdef
0bf306f3
ee1d8000
000202eb
1ffd11f3
f01105fe
07ec0901
c531f30b
7f021508
10e110eb
fc09f9f1
b60f0b0a
0ca9efff
f102fa11
d3d80605
04f9e1de
cb0ad9d2
080df9e1
ccf0efb9
a4c40aed
0a0080bc
ee63131e
ffcf0404
10f6eff9
e3bbf90a
4f3db905
efc1f0eb
eb02edee
51eb0ecc
da97f30b
03e70a06
00eebaac
b7fde8dc
f20cf3ef
0d13f9d9
eef90901
e103e900
00c9ea12
c1f226eb
00ac05e4
ca0fb2eb
ef97cb05
00d704d6
8305f500
f6e0ffd0
0905dc19
7fe5a4c4
fef80c00
0d1189f2
fdb5f4ef
fff3dacf
16eb05fe
210c01ce
ade1f60e
8029f0f4
e60de5e7
0800e6cb
f006f02b
fb0a3ecf
dff30cae
10f8fa00
0faafefb
08f2f5c8
1d03eaf4
070cf6d4
f300eebd
07f77feb
0d0900ec
0318f0ef
0502f8ed
e5e143ee
ec11ebca
f9f7cdef
ff020afa
bcfbf000
1be624da
fa0212f3
be9201d8
f3a92404
20df00f6
f7100a09
4f350a02
d4fce110
c0e209f7
232d35c1
fdeb28da
11e11b14
fefaead1
ed0613e8
fad606f7
dfc4fcee
a5afeef9
150bb24d
10ebeafc
380df904
9cf20a0f
f2d7f212
00040cec
0ef9b7ee
170019f3
ebfef10a
fee60a0e
d1fd0609
0c800db5
e6f900e5
14f5cbe6
0cd7faf4
4d06090d
f3ebfde5
fe08bbef
2edcf216
d4d7ebf0
a6040be6
fe00e7d6
dcee02fb
bbbfbef8
f6f9cbc8
000ef6e9
0cc712f8
fb48eff2
cfc1fef8
b700f7fe
01ebeaf4
f705efe9
720e11fb
0496edf8
e1fff50f
f1e5c7a4
c700f4fc
0707eafc
00f0f8c4
ecf50ff3
b6000408
fccbe0fb
ca01f30f
fe0b0017
f3edc9fc
f0c6d10b
fa08efbe
d3fff9f4
08f2f0e7
f6f3dae6
f8ff9eed
07c600f7
f60fc7f1
ecdc09fb
eb080ec4
1622f70a
23fbe8df
bbee0e03
c4cbe60b
cee0f3cd
f3fc15cf
0906e100
030be6e1
d207f1cc
f7f8d549
e6e3eaf1
e1e90ee7
ee17d510
06e7fddf
ea04e1ca
080747eb
fd06f7fe
fce0e2f0
bff8010c
ed17f602
15fbe113
0708e5ff
fb06ded2
32fc3219
e6eefacc
11ec1800
0beaffdf
dfec040e
e4e4f606
f9d308e6
9bbff1ec
e2fbd1ea
d0060500
f2eefb76
fd060bc5
00f003f8
0cf9f7f8
0b01fdfd
eb5806d9
c7300c11
b822eaf9
fce603fa
ff020e1a
e4ee2706
e40700df
df02fd05
e7f00101
cef1efec
0bfff20c
bbede0eb
0b06f008
ffe9ed04
bc930fd0
c0f016eb
010ef0ce
0f02fbe6
32000629
00e5fef9
0500cddf
01cf1105
d7d3dec1
e9fee8d6
03f0e9d1
cefef8ba
b446b8ee
effb9ca7
0700cdce
ffb11210
4f340312
1ad5edf5
c724a9cd
efe0f113
05f02afc
5b1006e5
bcb4d80a
25f2090d
eff0c1be
bdfedfda
05f32104
0e0cd8c9
08e810ef
e0fef9ff
f4c4cde3
9eeecc09
11180ef9
cdf3ac10
ff22e7f6
0bd3eb91
ba00edf3
002fedb5
00eded0c
c2f29cae
e0b501ec
f604c00c
f1d0eb02
f9f3de21
06cf0d00
db041005
d71e0ee7
d6ea04f1
dae7eeef
fc0cd0f2
f606fde3
f1e5d7d8
e400f3d6
db0beeb4
fde1fdf0
e1fef3f9
dee6eb07
c2f80401
0bfa984b
11fdd2ef
ec05ef06
11d4f200
b0f7f4f6
f5046009
1dfde9c5
f608dd15
16f4f7f2
d612d2f9
030cde31
0c08dff5
dedbf5ee
e5f5ebd9
f80009ef
0fef00fb
b2eaece6
e4e6dfec
e3d50ef2
01fae2d4
0ee30313
00d1faef
f507f82b
1206f7fb
fc07f6fd
fbf2eded
f0e0fcdd
d1ecd9e8
e8f50905
e602e7e3
0fe5dae9
01ea09ed
f7f8f800
0107f5f3
f6fae4ff
f00dd902
e802f9ea
d2f0f6fd
bbcdf411
dd03e0e7
01eec7de
f93df2e6
e60207d9
ebd9fbc8
08f3dd0f
e3c6f9fd
4819f2d3
f704d4db
00fff4b7
e50c07cf
b3e5dc00
f30a97f5
04f3fbd8
01d6f7ff
ee6a181e
d6d51005
e5f9f809
f5130c04
0b15e400
35f015fd
e6afcc00
d80607fd
0de3d99d
14f4edb2
12ff0df4
07e90aeb
f6c8f203
d2faf9f0
edd9e104
bbfdb10c
0727fdf0
cbf5bc09
f8c9cbfd
0bb4f996
e9f3ee06
1cf900da
0dfa37d3
fcf7b3f2
ead608f8
06fdd6f4
04ea00ff
fe01c30f
f1540dfc
e610d8bd
d510fa01
ccd208ee
d90103f4
09facad4
fb0002e4
0bf0e9d2
f5f200d8
f20238d1
f8f4f1fc
d301cef3
bbc1daff
d50a04ea
f40fbdc8
050bd302
08eadf14
fee2ebf5
e20ff502
eefae804
0bf603d1
fb06b6e0
0501f0f2
d5f3e703
f7f731e6
05e6ed0b
f221e8cc
f4daf705
eef2f3f7
e3dcf3fc
acf6f407
e1eb08ec
0cd707fb
14f6c9ed
0fea20c4
1606e5f8
f0012c34
f21315e9
02e5ff00
c9bde80f
ec00e6f5
36f3eecf
fcede8f6
bef1ecc1
cc0ad4e7
0008eb10
0015050b
ba0dc90b
f8fdd2ee
ec0af0f8
fff10ff3
ff05fdfa
46bded54
9ff805fc
0d16faf9
10f8e800
04ef00d0
f00eef22
0200d1de
cadf00fb
c410d311
d7f5c9e4
f60bf1f1
fcef0ab4
e7b1bff8
f502d7cb
e919fcde
f8d0f4f9
e70e26e2
9af703f2
c8e0e7d6
eee70008
f6fea2e6
3d0cf1b5
c293cb10
0e00ebf6
f129af97
5bfcf7c0
f50831fb
f9ffdbe9
13260e0a
a80c0af3
ec9d010b
9f09d60c
1318f4da
fefdd30c
f196c205
fa4e06df
9cfa0209
dbd8f105
07feef0d
ccfdd0fa
f926f403
0e08c7ed
1d24f410
1604b0c3
021bf2f4
dbe1dbad
5dfd03e8
d7b5d911
34e303ef
120b08e1
fbf4ffd9
16f2dde6
bcfaf5c9
d800ce54
e5b2f7e6
6311ebff
b6b8f518
89dceee5
f9ea8020
052fdd18
0305d507
01f0ea01
34f705ee
d41cc1f1
0efbf9b9
f4f889e5
0eec1c3e
55f9ef01
c30cafc9
00071c01
cfdb0c1f
cddd03f7
e0ebfe11
151bf2e7
397f0bf9
da14d501
dbb3f4fe
13d8d985
f2adfb0f
08e9e421
f306d6f6
10f3f510
e9a7d5ea
f9eefae8
fb4f1df1
d700b9c7
fd040bf4
a7f7fb39
3ef810d9
290503fd
f1f00408
1d00e926
0b00e3f9
41fafbf3
dafceef8
e4f6f305
00dfffae
acfdd9f5
f007f83e
f6da1701
1ff101e0
0aadf5cf
e801d7fe
0ad2f006
201bfea1
cdfcbec8
f90402d9
c50706f9
a0a1f5fe
0906e84f
0d46f995
0ce8f502
d103e0e9
11cce8f9
80e8d4d1
0602f4f6
effaf314
ff16f1c3
0e85cdf9
010aebfc
f2d99e9d
fe00f9b0
f7f446e9
f20bfbce
00ed000c
b3fef40d
fcaa09e6
c916c6f9
00c906eb
1ce89df6
02c2c803
f9450580
fa0d03f6
3cbcf9f0
d1f13630
3cf6a305
eec9fb0f
12ffd8f0
12d5f3f4
fae8b1bc
f808eb0b
d4f3f70f
1efaeff6
5ed4f7f4
dd0d211e
f5fbf9e7
fcef0f03
f607d4ff
0407e79c
f0f9c380
f9d2100d
cbf925e4
d3e7def2
c813fdd8
f2e828a9
f1f84af0
0507b712
ec2adee7
deeb08e8
35fb8ef3
f0f9130f
f8f19108
f40613b3
c10b07f7
d007f6cf
ecfd19ed
9ea4e4f5
a4b2f5fa
e1b0f4f3
d9e0f8f8
68b10a08
192bbaf8
f5e60509
ebc5e64a
e0d0f202
02d0befa
f1ffd813
0c001a10
175af628
050401fb
c3a7f80e
bd0ce638
f2f4f929
01dafe72
d8da313e
b1d9eaff
ca1af209
ebde1015
fcede708
bdfeeb06
15150819
e3fdf1fd
b53f08a5
cf04df08
01090613
12e6f525
bff2f0fa
faf7fdf1
fef2e9f4
c75dfae9
00ea0593
030634b9
f2f6089b
dff1f5ca
f42c26fd
0d0336b6
0a32eea8
0aaeeeea
fc0ff600
aebff90c
08f9f9fc
00c0feea
ed02b60d
e8effcdc
65bbc800
03f40d00
df13cead
1bf2eaad
0eecaf0d
e912f4d2
04cdf0ee
d4fbf706
00b80a02
b305c90d
f60d02ea
d0f2a80e
0ccce70a
f2baeda4
a70ef3fb
c4f8ef9f
e6110f0a
b602ea20
ef00f3f7
fde6ae04
f745fd09
eceaf000
06c50b00
effc322d
ceef0916
dfd3f8f8
fe0debe8
060008fa
fdfcdbe9
fd0decf1
0ff9f694
d2eecfb9
f2f2030a
cd02d8f8
d00cb5ed
c5e7fadd
ebe5dbc2
07fefcf0
fbf7f909
07cbfc02
d1e7faf8
e3f9c90f
15fbf148
fff7e61d
00000ba3
d2eef8f6
eef0e2bd
ffeaf8e4
c3dcf1e6
dfa400e8
bc45f8e1
0ed7ed06
ee1401cf
f2edeb01
a6def800
e0eafdf9
03fa08d9
f103f3f6
f9f5e1e3
